<unk>	0
<|im_start|>	0
<|im_end|>	0
<pad>	0
<user>	0
<bot>	0
<system>	0
<think>	0
</think>	0
<brief_think>	0
</brief_think>	0
<|endoftext|>	0
<|object_ref_start|>	0
<|object_ref_end|>	0
<|box_start|>	0
<|box_end|>	0
<|quad_start|>	0
<|quad_end|>	0
<|vision_start|>	0
<|vision_end|>	0
<|vision_pad|>	0
<|image_pad|>	0
<|video_pad|>	0
<tool_call>	0
</tool_call>	0
<|fim_prefix|>	0
<|fim_middle|>	0
<|fim_suffix|>	0
<|fim_pad|>	0
<|repo_name|>	0
<|file_sep|>	0
<tool_response>	0
</tool_response>	0
<|audio_start|>	0
<|audio_end|>	0
<tts_pad>	0
<tts_text_bos>	0
<tts_text_eod>	0
<tts_text_bos_single>	0
<|audio_pad|>	0
😀	0
😃	0
😄	0
😅	0
😂	0
😗	0
😙	0
😚	0
😊	0
🙃	0
🙂	0
😑	0
😐	0
🫢	0
🤭	0
🥱	0
🤗	0
🫣	0
😱	0
🤨	0
🧐	0
😒	0
😧	0
😟	0
🙄	0
😥	0
😦	0
😮‍💨	0
😢	0
😮	0
😤	0
☹️	0
😯	0
😠	0
🙁	0
😲	0
😡	0
🫤	0
😳	0
🤬	0
😕	0
🤯	0
🥵	0
🤢	0
🤮	0
😖	0
😣	0
😰	0
😨	0
😞	0
😓	0
😋	0
✌️	0
🫲	0
🫱	0
💪	0
👏	0
👍	0
👎	0
🤜	0
🤛	0
✊	0
👊	0
🥰	0
😍	0
🤪	0
🤓	0
🤖	0
👾	0
👻	0
🙌	0
👋	0
✋	0
🤲	0
🤝	0
🙏	0
💢	0
💥	0
💯	0
❤️	0
🐶	0
🐱	0
🐭	0
🐹	0
🐰	0
🦊	0
🐻	0
🐼	0
🐨	0
🐯	0
🦁	0
🐮	0
🐷	0
🐽	0
🐸	0
🐵	0
🐔	0
🐧	0
🐦	0
🍎	0
🍌	0
🍉	0
🍓	0
🍒	0
🍇	0
🍊	0
🍋	0
🍈	0
🥭	0
🥥	0
🥝	0
🍍	0
🍠	0
🍆	0
🥕	0
🥦	0
💔	0
💌	0
💕	0
💞	0
💓	0
💗	0
💖	0
💘	0
💝	0
⚠️	0
✅	0
❌	0
❓	0
⭐	0
Tower	0
tower	0
GPT	0
Midway	0

	0
		0
<0x00>	0
<0x01>	0
<0x02>	0
<0x03>	0
<0x04>	0
<0x05>	0
<0x06>	0
<0x07>	0
<0x08>	0
<0x09>	0
<0x0A>	0
<0x0B>	0
<0x0C>	0
<0x0D>	0
<0x0E>	0
<0x0F>	0
<0x10>	0
<0x11>	0
<0x12>	0
<0x13>	0
<0x14>	0
<0x15>	0
<0x16>	0
<0x17>	0
<0x18>	0
<0x19>	0
<0x1A>	0
<0x1B>	0
<0x1C>	0
<0x1D>	0
<0x1E>	0
<0x1F>	0
<0x20>	0
<0x21>	0
<0x22>	0
<0x23>	0
<0x24>	0
<0x25>	0
<0x26>	0
<0x27>	0
<0x28>	0
<0x29>	0
<0x2A>	0
<0x2B>	0
<0x2C>	0
<0x2D>	0
<0x2E>	0
<0x2F>	0
<0x30>	0
<0x31>	0
<0x32>	0
<0x33>	0
<0x34>	0
<0x35>	0
<0x36>	0
<0x37>	0
<0x38>	0
<0x39>	0
<0x3A>	0
<0x3B>	0
<0x3C>	0
<0x3D>	0
<0x3E>	0
<0x3F>	0
<0x40>	0
<0x41>	0
<0x42>	0
<0x43>	0
<0x44>	0
<0x45>	0
<0x46>	0
<0x47>	0
<0x48>	0
<0x49>	0
<0x4A>	0
<0x4B>	0
<0x4C>	0
<0x4D>	0
<0x4E>	0
<0x4F>	0
<0x50>	0
<0x51>	0
<0x52>	0
<0x53>	0
<0x54>	0
<0x55>	0
<0x56>	0
<0x57>	0
<0x58>	0
<0x59>	0
<0x5A>	0
<0x5B>	0
<0x5C>	0
<0x5D>	0
<0x5E>	0
<0x5F>	0
<0x60>	0
<0x61>	0
<0x62>	0
<0x63>	0
<0x64>	0
<0x65>	0
<0x66>	0
<0x67>	0
<0x68>	0
<0x69>	0
<0x6A>	0
<0x6B>	0
<0x6C>	0
<0x6D>	0
<0x6E>	0
<0x6F>	0
<0x70>	0
<0x71>	0
<0x72>	0
<0x73>	0
<0x74>	0
<0x75>	0
<0x76>	0
<0x77>	0
<0x78>	0
<0x79>	0
<0x7A>	0
<0x7B>	0
<0x7C>	0
<0x7D>	0
<0x7E>	0
<0x7F>	0
<0x80>	0
<0x81>	0
<0x82>	0
<0x83>	0
<0x84>	0
<0x85>	0
<0x86>	0
<0x87>	0
<0x88>	0
<0x89>	0
<0x8A>	0
<0x8B>	0
<0x8C>	0
<0x8D>	0
<0x8E>	0
<0x8F>	0
<0x90>	0
<0x91>	0
<0x92>	0
<0x93>	0
<0x94>	0
<0x95>	0
<0x96>	0
<0x97>	0
<0x98>	0
<0x99>	0
<0x9A>	0
<0x9B>	0
<0x9C>	0
<0x9D>	0
<0x9E>	0
<0x9F>	0
<0xA0>	0
<0xA1>	0
<0xA2>	0
<0xA3>	0
<0xA4>	0
<0xA5>	0
<0xA6>	0
<0xA7>	0
<0xA8>	0
<0xA9>	0
<0xAA>	0
<0xAB>	0
<0xAC>	0
<0xAD>	0
<0xAE>	0
<0xAF>	0
<0xB0>	0
<0xB1>	0
<0xB2>	0
<0xB3>	0
<0xB4>	0
<0xB5>	0
<0xB6>	0
<0xB7>	0
<0xB8>	0
<0xB9>	0
<0xBA>	0
<0xBB>	0
<0xBC>	0
<0xBD>	0
<0xBE>	0
<0xBF>	0
<0xC0>	0
<0xC1>	0
<0xC2>	0
<0xC3>	0
<0xC4>	0
<0xC5>	0
<0xC6>	0
<0xC7>	0
<0xC8>	0
<0xC9>	0
<0xCA>	0
<0xCB>	0
<0xCC>	0
<0xCD>	0
<0xCE>	0
<0xCF>	0
<0xD0>	0
<0xD1>	0
<0xD2>	0
<0xD3>	0
<0xD4>	0
<0xD5>	0
<0xD6>	0
<0xD7>	0
<0xD8>	0
<0xD9>	0
<0xDA>	0
<0xDB>	0
<0xDC>	0
<0xDD>	0
<0xDE>	0
<0xDF>	0
<0xE0>	0
<0xE1>	0
<0xE2>	0
<0xE3>	0
<0xE4>	0
<0xE5>	0
<0xE6>	0
<0xE7>	0
<0xE8>	0
<0xE9>	0
<0xEA>	0
<0xEB>	0
<0xEC>	0
<0xED>	0
<0xEE>	0
<0xEF>	0
<0xF0>	0
<0xF1>	0
<0xF2>	0
<0xF3>	0
<0xF4>	0
<0xF5>	0
<0xF6>	0
<0xF7>	0
<0xF8>	0
<0xF9>	0
<0xFA>	0
<0xFB>	0
<0xFC>	0
<0xFD>	0
<0xFE>	0
<0xFF>	0
可以	-0
一个	-1
我们	-2
in	-3
需要	-4
er	-5
▁t	-6
智能	-7
问题	-8
on	-9
以下	-10
一些	-11
▁a	-12
好的	-13
提供	-14
re	-15
这个	-16
使用	-17
en	-18
文本	-19
人工	-20
进行	-21
文章	-22
▁=	-23
人工智能	-24
at	-25
是一	-26
生成	-27
or	-28
he	-29
技术	-30
学习	-31
an	-32
st	-33
如果	-34
什么	-35
帮助	-36
句子	-37
根据	-38
可能	-39
le	-40
中的	-41
数据	-42
这些	-43
非常	-44
ou	-45
自己	-46
信息	-47
通过	-48
关于	-49
▁s	-50
他们	-51
计算	-52
小明	-53
it	-54
发展	-55
因此	-56
▁c	-57
应用	-58
▁-	-59
包括	-60
电影	-61
ar	-62
例如	-63
is	-64
时间	-65
人类	-66
不同	-67
重要	-68
▁d	-69
▁p	-70
es	-71
喜欢	-72
影响	-73
它们	-74
给定	-75
▁f	-76
ing	-77
领域	-78
选择	-79
al	-80
自然	-81
▁b	-82
生活	-83
环境	-84
建议	-85
语言	-86
▁the	-87
是一个	-88
如何	-89
健康	-90
▁"	-91
未来	-92
el	-93
描述	-94
提高	-95
▁w	-96
公司	-97
翻译	-98
应该	-99
▁m	-100
机器	-101
其他	-102
能够	-103
方式	-104
给我	-105
更加	-106
工作	-107
因为	-108
人们	-109
没有	-110
自己的	-111
方法	-112
同时	-113
ro	-114
方面	-115
ic	-116
每个	-117
文化	-118
世界	-119
一篇	-120
ion	-121
as	-122
处理	-123
主题	-124
或者	-125
ed	-126
一下	-127
et	-128
两个	-129
故事	-130
以及	-131
分析	-132
那么	-133
你的	-134
朋友	-135
中国	-136
社会	-137
▁to	-138
到了	-139
▁l	-140
现在	-141
保护	-142
新的	-143
城市	-144
活动	-145
``	-146
是一种	-147
am	-148
▁o	-149
当然	-150
之一	-151
系统	-152
您的	-153
分类	-154
回答	-155
具体	-156
▁n	-157
om	-158
数字	-159
情感	-160
推荐	-161
音乐	-162
AI	-163
但是	-164
▁in	-165
解决	-166
ent	-167
关键	-168
▁根据	-169
更多	-170
人的	-171
主要	-172
苹果	-173
许多	-174
单词	-175
▁将	-176
科技	-177
告诉	-178
减少	-179
th	-180
已经	-181
答案	-182
医疗	-183
生成一个	-184
nd	-185
产品	-186
服务	-187
研究	-188
所有	-189
环保	-190
内容	-191
之间	-192
所以	-193
ac	-194
此外	-195
动物	-196
▁请	-197
其中	-198
保持	-199
▁|	-200
了解	-201
通常	-202
天气	-203
▁y	-204
任务	-205
大的	-206
糖果	-207
安全	-208
我们的	-209
我的	-210
提取	-211
一种	-212
的人	-213
实现	-214
开始	-215
多少	-216
我想	-217
以下是	-218
成为	-219
给定的	-220
运动	-221
▁h	-222
历史	-223
能力	-224
可以帮助	-225
um	-226
▁+	-227
给出	-228
不同的	-229
模型	-230
情况	-231
身体	-232
然后	-233
全球	-234
的文章	-235
用户	-236
认为	-237
是否	-238
得到	-239
设计	-240
很多	-241
适合	-242
▁(	-243
天的	-244
lo	-245
相关	-246
等等	-247
告诉我	-248
比如	-249
带来	-250
。”	-251
:“	-252
更好	-253
de	-254
具有	-255
希望	-256
注意	-257
变化	-258
表达	-259
了一	-260
您可以	-261
发现	-262
结果	-263
请问	-264
机器学习	-265
理解	-266
il	-267
不断	-268
▁I	-269
对于	-270
计算机	-271
各种	-272
我们可以	-273
im	-274
科学	-275
一起	-276
▁is	-277
他的	-278
输入	-279
更好地	-280
这种	-281
的是	-282
se	-283
用于	-284
..	-285
▁S	-286
ut	-287
旅游	-288
写一篇	-289
__	-290
可能会	-291
英文	-292
过程	-293
句话	-294
旅行	-295
为您	-296
作为	-297
一段	-298
▁you	-299
算法	-300
的问题	-301
ct	-302
识别	-303
尝试	-304
无法	-305
考虑	-306
管理	-307
翻译成	-308
你可以	-309
数学	-310
是什么	-311
▁C	-312
地球	-313
ve	-314
个人	-315
中文	-316
介绍	-317
程序	-318
代码	-319
▁e	-320
知道	-321
任何	-322
自动	-323
教育	-324
▁re	-325
上的	-326
导致	-327
▁在	-328
游戏	-329
if	-330
ver	-331
的影响	-332
确保	-333
表示	-334
小说	-335
▁of	-336
的发展	-337
要求	-338
如果您	-339
▁and	-340
支持	-341
美国	-342
首先	-343
几个	-344
行为	-345
还有	-346
下面	-347
段落	-348
解释	-349
广泛	-350
数量	-351
这样	-352
摘要	-353
质量	-354
太阳	-355
色的	-356
ur	-357
诗歌	-358
这篇	-359
找到	-360
ce	-361
关系	-362
计划	-363
一首	-364
最后	-365
帮我	-366
类型	-367
准确	-368
完成	-369
ol	-370
▁A	-371
利用	-372
目标	-373
网络	-374
重要的	-375
哪些	-376
包含	-377
ge	-378
需求	-379
市场	-380
产生	-381
ad	-382
并且	-383
ap	-384
都是	-385
更多的	-386
输出	-387
qu	-388
错误	-389
增加	-390
简单	-391
正确	-392
感到	-393
▁g	-394
▁\	-395
存在	-396
的地	-397
积极	-398
yth	-399
今天	-400
之间的	-401
学生	-402
▁th	-403
ay	-404
un	-405
挑战	-406
如果你	-407
”。	-408
最近	-409
价格	-410
列表	-411
它的	-412
制作	-413
ri	-414
不是	-415
有趣	-416
--	-417
题目	-418
正在	-419
ython	-420
ot	-421
▁给定	-422
。\	-423
▁T	-424
交通	-425
我可以	-426
也可以	-427
ul	-428
获得	-429
从而	-430
效率	-431
措施	-432
饮食	-433
小红	-434
食物	-435
有关	-436
避免	-437
。"	-438
”,	-439
```	-440
ch	-441
的应用	-442
功能	-443
为了	-444
定的	-445
美丽	-446
他们的	-447
体验	-448
部分	-449
新闻	-450
控制	-451
出现	-452
▁P	-453
id	-454
加入	-455
知识	-456
经济	-457
传统	-458
名称	-459
日期	-460
能源	-461
自然语言	-462
才能	-463
资源	-464
训练	-465
艺术	-466
感受	-467
社交	-468
三个	-469
探索	-470
气候	-471
这篇文章	-472
也是	-473
▁'	-474
成功	-475
关键词	-476
治疗	-477
us	-478
创造	-479
的一	-480
当然可以	-481
持续	-482
餐厅	-483
随着	-484
水果	-485
▁生成一个	-486
爱情	-487
这是	-488
咖啡	-489
的信息	-490
现代	-491
家庭	-492
不能	-493
采取	-494
预测	-495
生命	-496
ow	-497
名字	-498
ig	-499
性和	-500
编程	-501
end	-502
还是	-503
平均	-504
污染	-505
标题	-506
有效	-507
od	-508
比较	-509
享受	-510
想要	-511
拥有	-512
确定	-513
起来	-514
了一个	-515
性的	-516
作用	-517
ate	-518
te	-519
阳光	-520
人工智能技术	-521
购买	-522
客户	-523
美食	-524
▁$	-525
),	-526
表现	-527
你能	-528
最终	-529
ist	-530
",	-531
可以通过	-532
工具	-533
关注	-534
就是	-535
一份	-536
创意	-537
)\	-538
发生	-539
深度	-540
▁B	-541
生物	-542
品牌	-543
来说	-544
▁生成	-545
力和	-546
风险	-547
基于	-548
放松	-549
方案	-550
量的	-551
ation	-552
价值	-553
的重要	-554
我们需要	-555
开发	-556
作品	-557
ke	-558
ame	-559
著名	-560
英语	-561
自然语言处理	-562
改变	-563
医生	-564
:-	-565
电子	-566
分钟	-567
北京	-568
心理	-569
int	-570
▁为	-571
因素	-572
建立	-573
这段	-574
阅读	-575
我会	-576
投资	-577
企业	-578
不仅	-579
风格	-580
商品	-581
怎么	-582
▁M	-583
剩下	-584
设备	-585
充满	-586
比赛	-587
来越	-588
ran	-589
事件	-590
▁do	-591
颜色	-592
有什么	-593
越来越	-594
将其	-595
▁for	-596
由于	-597
当地	-598
疾病	-599
元素	-600
准备	-601
详细	-602
技能	-603
的方法	-604
寻找	-605
变得	-606
▁写一篇	-607
中提取	-608
材料	-609
结构	-610
ith	-611
的句子	-612
这句话	-613
还可以	-614
▁be	-615
ir	-616
组织	-617
机会	-618
以下句子	-619
让我	-620
▁de	-621
思考	-622
ab	-623
这里	-624
在这个	-625
专业	-626
▁{	-627
公园	-628
生产	-629
个苹果	-630
它们的	-631
行业	-632
按照	-633
▁st	-634
特征	-635
独特	-636
pt	-637
汽车	-638
Python	-639
有一	-640
函数	-641
季节	-642
植物	-643
代表	-644
创作	-645
ple	-646
的故事	-647
兴趣	-648
pe	-649
技巧	-650
生态	-651
▁W	-652
▁给出	-653
场景	-654
的电影	-655
形式	-656
总结	-657
垃圾	-658
创新	-659
铅笔	-660
政府	-661
歌曲	-662
字符	-663
复杂	-664
机器人	-665
都有	-666
语法	-667
ue	-668
意思	-669
让我们	-670
手机	-671
具体的	-672
字母	-673
建筑	-674
化的	-675
)。	-676
一步	-677
蔬菜	-678
舒适	-679
时候	-680
意义	-681
是指	-682
行动	-683
努力	-684
气候变化	-685
oo	-686
位置	-687
温度	-688
。-	-689
每天	-690
诊断	-691
语音	-692
地区	-693
一次	-694
以便	-695
有很多	-696
中心	-697
):	-698
ly	-699
压力	-700
丰富	-701
自由	-702
小明有	-703
创建	-704
ers	-705
夏天	-706
网站	-707
食品	-708
感觉	-709
."	-710
参加	-711
媒体	-712
ld	-713
将会	-714
em	-715
让人	-716
以下文本	-717
elf	-718
制定	-719
法律	-720
未来的	-721
金融	-722
人类的	-723
这是一个	-724
res	-725
高的	-726
第二	-727
讲述	-728
大利	-729
图像	-730
xt	-731
深度学习	-732
是在	-733
The	-734
▁D	-735
ra	-736
销售	-737
虽然	-738
看到	-739
欢迎	-740
吸引	-741
练习	-742
孩子	-743
有一个	-744
决策	-745
改善	-746
文案	-747
原因	-748
国家	-749
本书	-750
事情	-751
共同	-752
▁H	-753
▁O	-754
快速	-755
如下	-756
效果	-757
情绪	-758
神经	-759
常见	-760
步骤	-761
的文本	-762
作者	-763
编写	-764
另外	-765
▁F	-766
公司的	-767
趋势	-768
▁pro	-769
每个人	-770
不会	-771
共有	-772
歧视	-773
排序	-774
基本	-775
可持续	-776
以下是一些	-777
判断	-778
以下是一	-779
est	-780
▁x	-781
▁v	-782
▁你	-783
项目	-784
有趣的	-785
速度	-786
空气	-787
采用	-788
个糖果	-789
观点	-790
ort	-791
特点	-792
实际	-793
▁*	-794
属于	-795
角色	-796
评论	-797
短语	-798
这是一	-799
特别	-800
one	-801
等方面	-802
条件	-803
这个问题	-804
造成	-805
目前	-806
一组	-807
▁j	-808
联系	-809
背景	-810
经历	-811
促进	-812
//	-813
职业	-814
的建议	-815
交流	-816
助于	-817
决定	-818
▁根据给定的	-819
出了	-820
▁#	-821
基础	-822
上最	-823
::	-824
编辑	-825
▁我	-826
小时	-827
多个	-828
以上	-829
使其	-830
▁L	-831
请你	-832
正确的	-833
整个	-834
然而	-835
文学	-836
受到	-837
锻炼	-838
ht	-839
团队	-840
下来	-841
文字	-842
一只	-843
负面	-844
组成	-845
经验	-846
经典	-847
呼吸	-848
▁[	-849
转换	-850
our	-851
()	-852
选项	-853
您需要	-854
的主要	-855
物质	-856
谢谢	-857
可以在	-858
必须	-859
景点	-860
▁G	-861
义词	-862
觉得	-863
请告诉我	-864
不要	-865
软件	-866
请提供	-867
操作	-868
的小	-869
▁E	-870
哪个	-871
nt	-872
著名的	-873
平台	-874
age	-875
过程中	-876
列出	-877
物品	-878
多种	-879
增强	-880
合作	-881
ew	-882
人工智能在	-883
有助于	-884
使得	-885
长度	-886
意大利	-887
喜欢的	-888
部电影	-889
名词	-890
而且	-891
人工智能的	-892
添加	-893
购物	-894
▁R	-895
讨论	-896
为什么	-897
总之	-898
联网	-899
一位	-900
驾驶	-901
水平	-902
加强	-903
令人	-904
相关的	-905
海洋	-906
更好的	-907
搜索	-908
情节	-909
and	-910
▁with	-911
美丽的	-912
▁it	-913
简单的	-914
可以使用	-915
意识	-916
概念	-917
▁从	-918
不错	-919
瑜伽	-920
满足	-921
者的	-922
系列	-923
涉及	-924
想法	-925
ps	-926
橙子	-927
降低	-928
神秘	-929
一直	-930
范围	-931
年轻	-932
方向	-933
▁qu	-934
▁an	-935
例子	-936
、《	-937
即可	-938
邮件	-939
▁写一篇关于	-940
行星	-941
我将	-942
位于	-943
睡眠	-944
美好	-945
os	-946
分享	-947
状态	-948
表明	-949
夏季	-950
我需要	-951
健身	-952
日本	-953
夏天的	-954
平衡	-955
距离	-956
样的	-957
力量	-958
流行	-959
社交媒体	-960
自我	-961
形成	-962
模式	-963
海滩	-964
重新	-965
检查	-966
对话	-967
习惯	-968
健康的	-969
某些	-970
同时也	-971
参与	-972
rint	-973
继续	-974
ord	-975
宇宙	-976
值得	-977
ub	-978
现实	-979
容易	-980
做出	-981
ass	-982
av	-983
焦虑	-984
ess	-985
',	-986
有些	-987
▁as	-988
不可	-989
医学	-990
字符串	-991
什么是	-992
▁“	-993
面积	-994
▁N	-995
调整	-996
无论	-997
ure	-998
优化	-999
ence	-1000
道德	-1001
数学题	-1002
to	-1003
有着	-1004
》、《	-1005
巧克	-1006
游泳	-1007
美味	-1008
独特的	-1009
特定	-1010
适当	-1011
年的	-1012
日常	-1013
进步	-1014
的情感	-1015
▁con	-1016
员工	-1017
分别	-1018
很好	-1019
情况下	-1020
,“	-1021
快乐	-1022
执行	-1023
隐私	-1024
的主题	-1025
空间	-1026
话题	-1027
标准	-1028
等领域	-1029
分给	-1030
后的	-1031
测试	-1032
温暖	-1033
ile	-1034
▁he	-1035
只有	-1036
评估	-1037
技术的	-1038
说明	-1039
还剩下	-1040
▁la	-1041
方程	-1042
获取	-1043
巧克力	-1044
探讨	-1045
的地方	-1046
顺序	-1047
pl	-1048
帮助您	-1049
ase	-1050
用的	-1051
排放	-1052
个性	-1053
ter	-1054
小学	-1055
应对	-1056
ult	-1057
符合	-1058
▁that	-1059
提供了	-1060
简短	-1061
ag	-1062
评价	-1063
我们应该	-1064
用来	-1065
高效	-1066
合适	-1067
受欢迎	-1068
out	-1069
面临	-1070
第一	-1071
iz	-1072
营养	-1073
这一	-1074
是的	-1075
▁给我	-1076
会议	-1077
到的	-1078
政策	-1079
女性	-1080
中最	-1081
森林	-1082
提供一些	-1083
类别	-1084
尊重	-1085
进一步	-1086
▁对	-1087
ore	-1088
宠物	-1089
修改	-1090
ant	-1091
报道	-1092
气温	-1093
科幻	-1094
人员	-1095
▁on	-1096
过去	-1097
电视	-1098
数为	-1099
直接	-1100
写作	-1101
鸡蛋	-1102
感谢	-1103
("	-1104
深入	-1105
当前	-1106
出来	-1107
严重	-1108
美好的	-1109
家居	-1110
她的	-1111
com	-1112
视觉	-1113
▁wh	-1114
牛奶	-1115
强调	-1116
定义	-1117
适应	-1118
▁le	-1119
学校	-1120
我喜欢	-1121
动作	-1122
翻译成中文	-1123
数的	-1124
:"	-1125
有所	-1126
人物	-1127
▁题目	-1128
纽约	-1129
其中的	-1130
策略	-1131
ath	-1132
文本中	-1133
美元	-1134
力的	-1135
ere	-1136
▁J	-1137
口感	-1138
记录	-1139
▁or	-1140
应用程序	-1141
幸福	-1142
生活方式	-1143
在线	-1144
常见的	-1145
年龄	-1146
有哪些	-1147
户外	-1148
思维	-1149
是多少	-1150
row	-1151
的最	-1152
缓解	-1153
绿色	-1154
量子	-1155
的时间	-1156
平等	-1157
的方式	-1158
____	-1159
电脑	-1160
这部电影	-1161
▁are	-1162
报告	-1163
随机	-1164
天空	-1165
针对	-1166
商业	-1167
限制	-1168
搭配	-1169
人们的	-1170
国际	-1171
地方	-1172
逐渐	-1173
▁li	-1174
里的	-1175
上海	-1176
神经网络	-1177
困难	-1178
公式	-1179
口味	-1180
相似	-1181
人生	-1182
self	-1183
良好的	-1184
▁以下是一	-1185
地点	-1186
词汇	-1187
的天气	-1188
相同	-1189
oc	-1190
物理	-1191
性能	-1192
可以让	-1193
for	-1194
足够	-1195
一定	-1196
推动	-1197
ert	-1198
ment	-1199
反应	-1200
时尚	-1201
应用于	-1202
引起	-1203
up	-1204
机构	-1205
五个	-1206
这个句子	-1207
寻求	-1208
ain	-1209
是由	-1210
这首	-1211
性别	-1212
鼓励	-1213
超过	-1214
的大	-1215
urn	-1216
变暖	-1217
答案是	-1218
种族	-1219
ect	-1220
太空	-1221
形容	-1222
所有的	-1223
下列	-1224
提供的	-1225
面的	-1226
简洁	-1227
红色	-1228
沟通	-1229
▁can	-1230
之前	-1231
思想	-1232
经常	-1233
▁{\	-1234
科学家	-1235
ine	-1236
责任	-1237
词语	-1238
尽管	-1239
广告	-1240
消费	-1241
塑料	-1242
因为它	-1243
数据集	-1244
并在	-1245
道小学	-1246
咨询	-1247
为我	-1248
学习和	-1249
;\	-1250
ind	-1251
▁÷	-1252
仍然	-1253
大量的	-1254
以确保	-1255
互联网	-1256
▁以下是一道小学	-1257
ick	-1258
制造	-1259
合理	-1260
世界上最	-1261
▁```	-1262
▁以下是一道小学数学题	-1263
颗糖果	-1264
不过	-1265
▁的	-1266
需要注意	-1267
art	-1268
意味	-1269
巴黎	-1270
某个	-1271
能否	-1272
环境保护	-1273
平方	-1274
我很	-1275
类型的	-1276
问题的	-1277
和文化	-1278
增长	-1279
多样	-1280
减轻	-1281
子的	-1282
▁al	-1283
其次	-1284
▁me	-1285
改进	-1286
短文	-1287
带来了	-1288
等于	-1289
状况	-1290
晚上	-1291
成本	-1292
细节	-1293
解决方案	-1294
提升	-1295
蛋糕	-1296
药物	-1297
动词	-1298
虚拟	-1299
明天	-1300
和其他	-1301
营销	-1302
书籍	-1303
事实	-1304
模拟	-1305
ry	-1306
▁给定一个	-1307
▁×	-1308
摄入	-1309
人名	-1310
体的	-1311
ang	-1312
排列	-1313
展示	-1314
深刻	-1315
追求	-1316
取得	-1317
混合	-1318
蛋白	-1319
提出	-1320
able	-1321
查询	-1322
vi	-1323
在一起	-1324
请给我	-1325
put	-1326
应的	-1327
来自	-1328
,\	-1329
饮料	-1330
去了	-1331
散步	-1332
ring	-1333
每个朋友	-1334
rom	-1335
必要	-1336
面包	-1337
意味着	-1338
美的	-1339
大学	-1340
:\	-1341
连接	-1342
接下来	-1343
ite	-1344
▁ch	-1345
完全	-1346
?”	-1347
清晰	-1348
一般	-1349
世纪	-1350
port	-1351
▁com	-1352
ime	-1353
课程	-1354
自动化	-1355
法语	-1356
夏日	-1357
随时	-1358
化学	-1359
一名	-1360
方面的	-1361
all	-1362
前往	-1363
并不	-1364
你需要	-1365
}\	-1366
也会	-1367
大自然	-1368
op	-1369
工程	-1370
预报	-1371
你认为	-1372
ox	-1373
公共	-1374
ook	-1375
合适的	-1376
、“	-1377
▁将以下	-1378
类似	-1379
声音	-1380
精神	-1381
接受	-1382
里有	-1383
女孩	-1384
规则	-1385
ill	-1386
概括	-1387
总是	-1388
适当的	-1389
的好	-1390
而不是	-1391
明确	-1392
在一个	-1393
返回	-1394
真正	-1395
衣服	-1396
家人	-1397
▁ex	-1398
的数量	-1399
替换	-1400
冥想	-1401
贡献	-1402
沙滩	-1403
找出	-1404
一样	-1405
全球变暖	-1406
度和	-1407
文化和	-1408
度的	-1409
下文	-1410
保健	-1411
除以	-1412
成长	-1413
支铅笔	-1414
相互	-1415
昨天	-1416
现象	-1417
一共有	-1418
app	-1419
相对	-1420
ould	-1421
目的地	-1422
....	-1423
turn	-1424
结合	-1425
哪里	-1426
主义	-1427
的技术	-1428
孤独	-1429
灵感	-1430
视频	-1431
香蕉	-1432
这两个	-1433
发布	-1434
的总	-1435
提供一个	-1436
语音识别	-1437
轻松	-1438
稳定	-1439
买了	-1440
味道	-1441
助手	-1442
聊天	-1443
打开	-1444
积极的	-1445
含义	-1446
推广	-1447
称为	-1448
梦想	-1449
达到	-1450
在家	-1451
是中国	-1452
足球	-1453
创建一个	-1454
成为了	-1455
ive	-1456
”、“	-1457
支付	-1458
至少	-1459
生活中	-1460
ack	-1461
第一个	-1462
多的	-1463
得出	-1464
竞争	-1465
古代	-1466
星期	-1467
ions	-1468
一些关于	-1469
安排	-1470
冒险	-1471
拼写	-1472
直到	-1473
自行	-1474
感受到	-1475
con	-1476
推理	-1477
发挥	-1478
eb	-1479
可能是	-1480
▁not	-1481
▁dog	-1482
num	-1483
大量	-1484
蓝色	-1485
分为	-1486
医疗领域	-1487
定期	-1488
自动驾驶	-1489
除了	-1490
act	-1491
特定的	-1492
可以帮助您	-1493
生态系统	-1494
▁r	-1495
▁:	-1496
方便	-1497
法国	-1498
low	-1499
左右	-1500
读者	-1501
实践	-1502
▁k	-1503
最佳	-1504
ell	-1505
转换为	-1506
oh	-1507
开放	-1508
智能家居	-1509
公里	-1510
生日	-1511
能量	-1512
面对	-1513
可持续发展	-1514
一款	-1515
我认为	-1516
SS	-1517
我无法	-1518
新鲜	-1519
主人	-1520
建议您	-1521
ode	-1522
▁/	-1523
本文	-1524
ave	-1525
演员	-1526
时期	-1527
。“	-1528
高兴	-1529
各个	-1530
掌握	-1531
原始	-1532
显示	-1533
正面	-1534
欣赏	-1535
爱的	-1536
重复	-1537
生存	-1538
这段文本	-1539
数据的	-1540
早上	-1541
▁un	-1542
社区	-1543
智慧	-1544
分到	-1545
披萨	-1546
语句	-1547
分类为	-1548
注重	-1549
▁i	-1550
丰富的	-1551
爱好	-1552
实验	-1553
东西	-1554
规划	-1555
浪漫	-1556
星球	-1557
让你	-1558
它可以	-1559
的时候	-1560
逻辑	-1561
▁num	-1562
写一个	-1563
ity	-1564
ice	-1565
一天	-1566
print	-1567
上升	-1568
坚持	-1569
受欢迎的	-1570
相信	-1571
的工作	-1572
给你	-1573
▁se	-1574
》。	-1575
完整	-1576
iv	-1577
同义词	-1578
cri	-1579
分成	-1580
都会	-1581
分配	-1582
的一个	-1583
为你	-1584
那些	-1585
进入	-1586
解答	-1587
name	-1588
上下文	-1589
进行分类	-1590
▁描述	-1591
歌词	-1592
最大	-1593
医疗保健	-1594
博物	-1595
并提供	-1596
一个人	-1597
时光	-1598
文件	-1599
——	-1600
的数据	-1601
周围	-1602
形的	-1603
娱乐	-1604
为您提供	-1605
笑话	-1606
还需要	-1607
设置	-1608
理论	-1609
XX	-1610
▁over	-1611
风景	-1612
编程语言	-1613
清单	-1614
论文	-1615
番茄	-1616
放入	-1617
时间和	-1618
ire	-1619
:```	-1620
独立	-1621
的诗歌	-1622
组合	-1623
ak	-1624
))	-1625
蛋白质	-1626
巨大的	-1627
非常好	-1628
"。	-1629
破坏	-1630
只是	-1631
第三	-1632
应该是	-1633
▁用	-1634
are	-1635
魔法	-1636
----	-1637
程度	-1638
家的	-1639
▁en	-1640
礼物	-1641
色彩	-1642
时代	-1643
跑步	-1644
语言模型	-1645
周末	-1646
的历史	-1647
女生	-1648
ohn	-1649
区块	-1650
高度	-1651
想象	-1652
放在	-1653
保证	-1654
ie	-1655
预算	-1656
重写	-1657
身心	-1658
句子中	-1659
收入	-1660
作为一个	-1661
互动	-1662
.《	-1663
足够的	-1664
心情	-1665
患者	-1666
ial	-1667
休息	-1668
最好的	-1669
人数	-1670
的重要性	-1671
移动	-1672
它是	-1673
工业	-1674
黑洞	-1675
的段落	-1676
▁ne	-1677
效率和	-1678
太阳系	-1679
优秀	-1680
当地的	-1681
循环	-1682
指导	-1683
经过	-1684
及时	-1685
可以被	-1686
哺乳	-1687
食材	-1688
男生	-1689
维护	-1690
有效的	-1691
中提取出	-1692
一本	-1693
英国	-1694
cl	-1695
ust	-1696
将它们	-1697
有许多	-1698
假设	-1699
得到了	-1700
事物	-1701
交易	-1702
美景	-1703
所在	-1704
核心	-1705
ng	-1706
健康饮食	-1707
我在	-1708
氧化	-1709
文章中	-1710
符号	-1711
一家	-1712
人民	-1713
▁使用	-1714
每个人都	-1715
自行车	-1716
有的	-1717
访问	-1718
帮我想	-1719
def	-1720
的内容	-1721
股票	-1722
变得更加	-1723
og	-1724
zy	-1725
示例	-1726
整数	-1727
电话	-1728
▁生成一首	-1729
表格	-1730
观众	-1731
**	-1732
优势	-1733
ob	-1734
rown	-1735
小的	-1736
ip	-1737
下午	-1738
ck	-1739
博物馆	-1740
展现	-1741
所需	-1742
病毒	-1743
▁根据以下	-1744
的意思	-1745
长的	-1746
威胁	-1747
区块链	-1748
篮球	-1749
可能的	-1750
特殊	-1751
不知道	-1752
清洁	-1753
实体	-1754
最新的	-1755
三角	-1756
尽力	-1757
最大的	-1758
房间	-1759
Th	-1760
目的	-1761
预防	-1762
和社会	-1763
你好	-1764
▁like	-1765
可以帮助你	-1766
存储	-1767
在未来	-1768
格式	-1769
最喜欢的	-1770
加上	-1771
喜好	-1772
的价格	-1773
的音乐	-1774
变成	-1775
一句话	-1776
ud	-1777
收集	-1778
的关键	-1779
愉快	-1780
▁《	-1781
▁帮我	-1782
抱歉	-1783
厘米	-1784
如此	-1785
最高	-1786
真的	-1787
智能化	-1788
调查	-1789
▁pl	-1790
满意	-1791
西班	-1792
回答问题	-1793
西班牙	-1794
▁给出一个	-1795
更准确	-1796
的主	-1797
均匀	-1798
是一部	-1799
我为您	-1800
查看	-1801
种类	-1802
rans	-1803
tt	-1804
lp	-1805
"\	-1806
:《	-1807
ove	-1808
男孩	-1809
领域的	-1810
旨在	-1811
再生	-1812
脂肪	-1813
真实	-1814
他在	-1815
▁小明	-1816
就业	-1817
entence	-1818
▁by	-1819
这本书	-1820
的选择	-1821
突然	-1822
检测	-1823
运行	-1824
相加	-1825
分析和	-1826
哺乳动物	-1827
表演	-1828
ard	-1829
▁end	-1830
密码	-1831
战争	-1832
ello	-1833
那里	-1834
气体	-1835
▁jum	-1836
症状	-1837
城市的	-1838
平均值	-1839
名为	-1840
表面	-1841
更好地理解	-1842
▁quick	-1843
愉悦	-1844
总的	-1845
黄色	-1846
ib	-1847
介绍了	-1848
这家	-1849
ma	-1850
业务	-1851
差异	-1852
品尝	-1853
也有	-1854
甚至	-1855
特色	-1856
聪明	-1857
▁im	-1858
感兴趣	-1859
大约	-1860
推荐一些	-1861
宣传	-1862
上面	-1863
来源	-1864
氛围	-1865
表达了	-1866
开头	-1867
▁The	-1868
总统	-1869
出的	-1870
小狗	-1871
葡萄	-1872
疫情	-1873
陈述	-1874
规律	-1875
这样的	-1876
ight	-1877
是一位	-1878
之后	-1879
可靠	-1880
大家	-1881
狐狸	-1882
环境的	-1883
?"	-1884
灾害	-1885
的食物	-1886
什麼	-1887
ia	-1888
text	-1889
相应的	-1890
内的	-1891
取决	-1892
取决于	-1893
这款	-1894
飞行	-1895
期间	-1896
ext	-1897
复杂的	-1898
度假	-1899
文本中的	-1900
orld	-1901
到达	-1902
记忆	-1903
解释一下	-1904
十分	-1905
一句	-1906
了许多	-1907
夜晚	-1908
▁brown	-1909
ff	-1910
呈现	-1911
提到了	-1912
物体	-1913
体育	-1914
探险	-1915
ject	-1916
扮演	-1917
翻译成英文	-1918
生命的	-1919
ost	-1920
▁你好	-1921
▁fox	-1922
非常重要的	-1923
潜在	-1924
写一篇关于	-1925
前景	-1926
长期	-1927
总的来说	-1928
tif	-1929
品质	-1930
ish	-1931
▁sh	-1932
另一个	-1933
尤其	-1934
产品的	-1935
大地	-1936
cript	-1937
穿着	-1938
张三	-1939
ata	-1940
ork	-1941
草莓	-1942
秋天的	-1943
认识	-1944
形容词	-1945
约翰	-1946
学会	-1947
有没有	-1948
传播	-1949
的城市	-1950
▁lazy	-1951
花园	-1952
充满了	-1953
一条	-1954
新闻报道	-1955
▁my	-1956
微风	-1957
肌肉	-1958
成员	-1959
搅拌	-1960
我们将	-1961
看起来	-1962
指的是	-1963
今天的	-1964
▁Y	-1965
统计	-1966
▁Ch	-1967
数列	-1968
使用的	-1969
解决问题	-1970
的结果	-1971
ava	-1972
神秘的	-1973
危险	-1974
元钱	-1975
简短的	-1976
对方	-1977
休闲	-1978
欧洲	-1979
▁have	-1980
回收	-1981
一共	-1982
内心	-1983
ast	-1984
原理	-1985
银行	-1986
区域	-1987
基因	-1988
rou	-1989
一篇文章	-1990
指令	-1991
领导	-1992
ex	-1993
气息	-1994
ach	-1995
ount	-1996
大气	-1997
老师	-1998
个橙子	-1999
get	-2000
查找	-2001
》(	-2002
我想知道	-2003
结束	-2004
附近	-2005
希望这些	-2006
身体健康	-2007
便利	-2008
早餐	-2009
花费	-2010
观察	-2011
被认为	-2012
流畅	-2013
。《	-2014
▁we	-2015
并没有	-2016
提示	-2017
尽可能	-2018
监测	-2019
财务	-2020
ous	-2021
态度	-2022
生长	-2023
度过	-2024
).	-2025
提到	-2026
的季节	-2027
装饰	-2028
小华	-2029
实时	-2030
rue	-2031
的事情	-2032
反馈	-2033
和不	-2034
▁this	-2035
▁if	-2036
品种	-2037
永远	-2038
请问您	-2039
遇到	-2040
公正	-2041
或其他	-2042
难以	-2043
运算	-2044
电子邮件	-2045
强烈	-2046
生素	-2047
大小	-2048
无限	-2049
角度	-2050
个朋友	-2051
ome	-2052
易于	-2053
可以用	-2054
必要的	-2055
编写一个	-2056
未知	-2057
人口	-2058
可再生	-2059
热门	-2060
形象	-2061
充分	-2062
烹饪	-2063
浪费	-2064
遇到了	-2065
有任何	-2066
疫苗	-2067
lease	-2068
紧张	-2069
农业	-2070
ace	-2071
涉及到	-2072
)、	-2073
看电影	-2074
酒店	-2075
可以考虑	-2076
]\	-2077
▁<	-2078
▁res	-2079
比例	-2080
参考	-2081
ber	-2082
小猫	-2083
自主	-2084
的风险	-2085
发明	-2086
温室	-2087
秋天	-2088
沙拉	-2089
use	-2090
社会的	-2091
return	-2092
现在请你	-2093
和发展	-2094
给了	-2095
可以根据	-2096
的话	-2097
per	-2098
留下	-2099
▁因此	-2100
过度	-2101
let	-2102
形状	-2103
用户的	-2104
攻击	-2105
重量	-2106
轻轻	-2107
▁和	-2108
▁如果	-2109
的具体	-2110
指出	-2111
彼此	-2112
专注	-2113
年来	-2114
负面影响	-2115
规模	-2116
MO	-2117
St	-2118
转化	-2119
更新	-2120
交互	-2121
哲学	-2122
变量	-2123
成语	-2124
构建	-2125
哪种	-2126
ies	-2127
Hello	-2128
保护环境	-2129
主语	-2130
序列	-2131
一部	-2132
ction	-2133
.\	-2134
结论	-2135
出色	-2136
产生了	-2137
他人	-2138
菜单	-2139
》,	-2140
可以选择	-2141
食谱	-2142
提醒	-2143
关键信息	-2144
▁jumps	-2145
曾经	-2146
▁us	-2147
帮助你	-2148
减去	-2149
ll	-2150
参数	-2151
Name	-2152
仿佛	-2153
似乎	-2154
分布	-2155
太阳能	-2156
之外	-2157
标志	-2158
讲述了	-2159
及其	-2160
小鸟	-2161
优点	-2162
和挑战	-2163
我没有	-2164
流程	-2165
和应用	-2166
眼睛	-2167
的新	-2168
看看	-2169
具备	-2170
美味的	-2171
小明手	-2172
的环境	-2173
措施来	-2174
勇敢	-2175
了一些	-2176
▁U	-2177
有多少	-2178
成就	-2179
▁def	-2180
的单词	-2181
▁go	-2182
form	-2183
儿童	-2184
节日	-2185
一杯	-2186
主角	-2187
▁ap	-2188
参观	-2189
姓名	-2190
天气预报	-2191
规定	-2192
可以提高	-2193
适量	-2194
菜肴	-2195
人在	-2196
可以将	-2197
环保的	-2198
▁your	-2199
day	-2200
费用	-2201
第二个	-2202
ep	-2203
list	-2204
评分	-2205
最好	-2206
深远	-2207
内部	-2208
的名字	-2209
les	-2210
化和	-2211
的能力	-2212
商品文案	-2213
意大利面	-2214
政治	-2215
体重	-2216
宗教	-2217
▁from	-2218
如果你喜欢	-2219
▁help	-2220
有一些	-2221
回忆	-2222
计算机科学	-2223
海边	-2224
设施	-2225
ype	-2226
sh	-2227
数值	-2228
食用	-2229
传统的	-2230
翻译成法语	-2231
语法错误	-2232
和治疗	-2233
等待	-2234
兔子	-2235
生活的	-2236
pro	-2237
倒入	-2238
有效地	-2239
单位	-2240
鸡肉	-2241
价值观	-2242
▁self	-2243
一场	-2244
办公	-2245
▁`	-2246
▁生成一个关于	-2247
ana	-2248
在这里	-2249
val	-2250
对人类	-2251
...	-2252
古老	-2253
)-	-2254
那个	-2255
的行为	-2256
勇气	-2257
▁编辑	-2258
权利	-2259
和一个	-2260
可再生能源	-2261
物理学	-2262
环境污染	-2263
并输出	-2264
在于	-2265
一张	-2266
游客	-2267
▁ar	-2268
python	-2269
部门	-2270
In	-2271
普及	-2272
中国的	-2273
乐意	-2274
菜品	-2275
改写	-2276
▁ab	-2277
数据分析	-2278
可以用于	-2279
维生素	-2280
心灵	-2281
标签	-2282
我们的生活	-2283
▁将以下句子	-2284
vide	-2285
数是	-2286
在这	-2287
你觉得	-2288
▁was	-2289
被广泛	-2290
研发	-2291
卫生	-2292
自信	-2293
分子	-2294
看法	-2295
小朋友	-2296
含有	-2297
身份	-2298
询问	-2299
看到了	-2300
则是	-2301
成分	-2302
数据和	-2303
以下几个	-2304
建设	-2305
一段文本	-2306
玩具	-2307
辅助	-2308
培训	-2309
出生	-2310
怎么样	-2311
一年	-2312
▁V	-2313
狗狗	-2314
柠檬	-2315
介绍一下	-2316
更容易	-2317
的使用	-2318
简要	-2319
给定的文本	-2320
小明和	-2321
重点	-2322
车辆	-2323
MOSS	-2324
给我一些	-2325
离开	-2326
当你	-2327
进展	-2328
就可以	-2329
ER	-2330
NA	-2331
吃了	-2332
知名	-2333
防止	-2334
期待	-2335
调味	-2336
基金	-2337
地上	-2338
电影的	-2339
一片	-2340
对象	-2341
而是	-2342
男性	-2343
被称为	-2344
刺激	-2345
熊猫	-2346
ror	-2347
不断发展	-2348
子里	-2349
之处	-2350
节奏	-2351
还剩	-2352
科技的	-2353
生成一首	-2354
缺乏	-2355
来实现	-2356
等问题	-2357
可以是	-2358
技术和	-2359
综合	-2360
尽量	-2361
物种	-2362
消费者	-2363
来解决	-2364
图像识别	-2365
ary	-2366
伦敦	-2367
伦理	-2368
证明	-2369
▁ma	-2370
地球的	-2371
切成	-2372
ark	-2373
偏好	-2374
集中	-2375
AP	-2376
视为	-2377
归类	-2378
路上	-2379
列举	-2380
节约	-2381
一项	-2382
牛肉	-2383
年代	-2384
tp	-2385
时刻	-2386
一道	-2387
ning	-2388
除法	-2389
叫做	-2390
细胞	-2391
是我	-2392
景色	-2393
tend	-2394
实施	-2395
非常感谢	-2396
灵活	-2397
听起来	-2398
和安全	-2399
带来的	-2400
ear	-2401
棕色	-2402
详细的	-2403
也很	-2404
室内	-2405
▁提供	-2406
只能	-2407
玩耍	-2408
这将	-2409
剧情	-2410
ug	-2411
与其他	-2412
文明	-2413
淇淋	-2414
约为	-2415
电池	-2416
oy	-2417
rand	-2418
计算机视觉	-2419
明显	-2420
('	-2421
冰淇淋	-2422
John	-2423
人工智能的发展	-2424
举行	-2425
▁=>	-2426
信仰	-2427
充足	-2428
的研究	-2429
下的	-2430
ated	-2431
非常重要	-2432
安装	-2433
和谐	-2434
出行	-2435
春天	-2436
同学	-2437
平面	-2438
▁provide	-2439
强大的	-2440
验证	-2441
和支持	-2442
兴奋	-2443
印度	-2444
美妙	-2445
的感觉	-2446
获得了	-2447
的一部分	-2448
需要注意的是	-2449
常常	-2450
动力	-2451
中有	-2452
取代	-2453
ory	-2454
:'	-2455
dd	-2456
虚拟现实	-2457
古诗	-2458
友谊	-2459
并将	-2460
使用了	-2461
培养	-2462
正常	-2463
ec	-2464
时间的	-2465
一件	-2466
你会	-2467
来计算	-2468
aram	-2469
克服	-2470
已知	-2471
▁sentence	-2472
rite	-2473
销售额	-2474
他想	-2475
让人们	-2476
的小说	-2477
好看	-2478
写一首	-2479
ft	-2480
注意力	-2481
推出	-2482
▁cl	-2483
▁个	-2484
宁静	-2485
的基本	-2486
的一种	-2487
还有其他	-2488
不断地	-2489
保障	-2490
个性化	-2491
的糖果	-2492
替代	-2493
▁是	-2494
英文句子	-2495
再次	-2496
黑色	-2497
生成商品文案	-2498
能力和	-2499
监督	-2500
也需要	-2501
的原因	-2502
认知	-2503
▁@	-2504
如果您需要	-2505
ail	-2506
自身	-2507
地的	-2508
极端	-2509
上述	-2510
热情	-2511
深呼吸	-2512
印象	-2513
▁print	-2514
就像	-2515
意见	-2516
hone	-2517
自然灾害	-2518
慢慢	-2519
犯罪	-2520
文档	-2521
机器学习算法	-2522
的水	-2523
ser	-2524
信任	-2525
给您	-2526
哈利	-2527
▁K	-2528
主人公	-2529
大自然的	-2530
即使	-2531
黑暗	-2532
手段	-2533
明白	-2534
山峰	-2535
讲一个	-2536
描述了	-2537
ize	-2538
""	-2539
反义词	-2540
需求和	-2541
烤箱	-2542
系统的	-2543
乘以	-2544
▁这个	-2545
Ch	-2546
氏度	-2547
法规	-2548
炎热	-2549
将在	-2550
very	-2551
每人	-2552
广泛的应用	-2553
gle	-2554
Java	-2555
免疫	-2556
洋葱	-2557
消耗	-2558
str	-2559
▁at	-2560
翻译为	-2561
公平	-2562
柔软	-2563
你们	-2564
描绘	-2565
ance	-2566
确认	-2567
货币	-2568
迅速	-2569
四个	-2570
冬季	-2571
学生的	-2572
听说	-2573
怎样	-2574
cc	-2575
传达	-2576
ich	-2577
最新	-2578
西班牙语	-2579
两种	-2580
玩家	-2581
手工	-2582
一切	-2583
的基础	-2584
都可以	-2585
值得一	-2586
ong	-2587
更快	-2588
一系列	-2589
口号	-2590
超市	-2591
如何在	-2592
vel	-2593
根据自己的	-2594
log	-2595
▁St	-2596
从文章	-2597
▁Th	-2598
支持和	-2599
利益	-2600
年份	-2601
遵守	-2602
rain	-2603
风吹	-2604
当今	-2605
教学	-2606
使其更加	-2607
我想要	-2608
的值	-2609
可能需要	-2610
▁ass	-2611
正式	-2612
适量的	-2613
和平	-2614
一個	-2615
地址	-2616
无人	-2617
很好的	-2618
概率	-2619
接着	-2620
生成的	-2621
续写	-2622
人士	-2623
克的	-2624
疑问	-2625
路线	-2626
▁文本	-2627
人心	-2628
近年来	-2629
大脑	-2630
版本	-2631
于是	-2632
orm	-2633
单词的	-2634
▁,	-2635
被认为是	-2636
户外活动	-2637
重视	-2638
▁回答	-2639
最近的	-2640
来的	-2641
东京	-2642
旋律	-2643
之间的关系	-2644
庆祝	-2645
发展的	-2646
涵盖	-2647
atch	-2648
▁so	-2649
):\	-2650
回家	-2651
导演	-2652
压力和	-2653
垃圾分类	-2654
不需要	-2655
生成一篇	-2656
中的应用	-2657
可爱	-2658
并将其	-2659
给我一个	-2660
亮的	-2661
等方式	-2662
经典的	-2663
下降	-2664
成绩	-2665
捷的	-2666
猫咪	-2667
白色	-2668
餐馆	-2669
释放	-2670
聚会	-2671
开心	-2672
理解和	-2673
身体和	-2674
取出	-2675
可以帮助我们	-2676
▁对于	-2677
ress	-2678
象征	-2679
恐怖	-2680
删除	-2681
的活动	-2682
每个人的	-2683
每次	-2684
文章的	-2685
%。	-2686
死亡	-2687
居民	-2688
重要的是	-2689
可能会导致	-2690
子和	-2691
缺点	-2692
ransl	-2693
饼干	-2694
更好地了解	-2695
明媚	-2696
ne	-2697
ens	-2698
du	-2699
的过程	-2700
万物	-2701
指定	-2702
是谁	-2703
tself	-2704
试图	-2705
我才能	-2706
大型	-2707
并给出	-2708
心理健康	-2709
元的	-2710
也就是	-2711
和服务	-2712
请帮我	-2713
▁将下面	-2714
力学	-2715
妈妈	-2716
但我	-2717
一定的	-2718
的安全	-2719
场所	-2720
vers	-2721
野生	-2722
的海	-2723
优惠	-2724
考试	-2725
偏见	-2726
很大的	-2727
我想了解	-2728
可以得到	-2729
我推荐	-2730
找到了	-2731
职位	-2732
次数	-2733
是否有	-2734
依赖	-2735
ener	-2736
范围内	-2737
预订	-2738
放松身心	-2739
▁把	-2740
确实	-2741
帮您	-2742
片段	-2743
eth	-2744
消息	-2745
和情感	-2746
],	-2747
共享	-2748
商务	-2749
pon	-2750
影像	-2751
公园里	-2752
取得了	-2753
两个句子	-2754
这意味着	-2755
的语言	-2756
打印	-2757
so	-2758
优质	-2759
是最	-2760
清新	-2761
世界的	-2762
如果你想	-2763
构成	-2764
▁||	-2765
展开	-2766
您想要	-2767
景观	-2768
谷歌	-2769
的情况	-2770
是如何	-2771
▁AI	-2772
是一名	-2773
探讨了	-2774
▁am	-2775
因为它们	-2776
心态	-2777
专业的	-2778
纽约市	-2779
运用	-2780
可能导致	-2781
▁el	-2782
This	-2783
▁new	-2784
://	-2785
可以尝试	-2786
和水	-2787
晚餐	-2788
你有什么	-2789
请将	-2790
关键字	-2791
机器翻译	-2792
的世界	-2793
消极	-2794
Con	-2795
强调了	-2796
▁but	-2797
萝卜	-2798
▁==	-2799
演讲	-2800
作家	-2801
转化为	-2802
唯一	-2803
保险	-2804
无论是	-2805
新型	-2806
非常有	-2807
......	-2808
维持	-2809
oogle	-2810
狗的	-2811
ild	-2812
归类为	-2813
是不	-2814
之旅	-2815
")	-2816
而言	-2817
有所帮助	-2818
整体	-2819
野餐	-2820
优秀的	-2821
会对	-2822
数字的	-2823
今年	-2824
恢复	-2825
智能手机	-2826
下一个	-2827
树叶	-2828
普通	-2829
请注意	-2830
的颜色	-2831
尼克	-2832
年轻的	-2833
合同	-2834
的一些	-2835
优先	-2836
群体	-2837
健康和	-2838
准确性	-2839
真正的	-2840
领域中	-2841
机制	-2842
信号	-2843
更有	-2844
图片	-2845
Ap	-2846
通常会	-2847
温室气体	-2848
的设计	-2849
这项	-2850
简约	-2851
的生活	-2852
提取出	-2853
古典	-2854
都在	-2855
已经成为	-2856
医院	-2857
感情	-2858
引擎	-2859
风暴	-2860
比赛中	-2861
▁has	-2862
顾客	-2863
穿越	-2864
身高	-2865
这只	-2866
可以为	-2867
ci	-2868
流行的	-2869
旅游景点	-2870
图书	-2871
潜力	-2872
心中	-2873
科普	-2874
进行了	-2875
成立	-2876
等技术	-2877
服装	-2878
剩余	-2879
文化的	-2880
cm	-2881
,"	-2882
互相	-2883
感染	-2884
民族	-2885
ample	-2886
和分析	-2887
观看	-2888
波特	-2889
tf	-2890
舞蹈	-2891
▁小明有	-2892
大多	-2893
官方	-2894
定制	-2895
更为	-2896
买了一	-2897
iP	-2898
原则	-2899
就会	-2900
引力	-2901
商店	-2902
传递	-2903
心和	-2904
这道	-2905
飞机	-2906
性质	-2907
原文	-2908
蝴蝶	-2909
▁->	-2910
生成一段	-2911
ph	-2912
岁月	-2913
红色的	-2914
▁des	-2915
身体的	-2916
笔记	-2917
appy	-2918
标记	-2919
纤维	-2920
:[	-2921
河流	-2922
公众	-2923
相反	-2924
并为	-2925
多样性	-2926
至关	-2927
鸟儿	-2928
下雨	-2929
能不能	-2930
每一个	-2931
字母顺序	-2932
产业	-2933
普遍	-2934
口语	-2935
合物	-2936
!”	-2937
广泛的	-2938
影片	-2939
个人的	-2940
模型的	-2941
融合	-2942
工程师	-2943
并不是	-2944
创造一个	-2945
喜欢吃	-2946
鸟类	-2947
重大	-2948
和朋友	-2949
规范	-2950
中性	-2951
通常是	-2952
另一	-2953
英雄	-2954
赢得	-2955
▁&	-2956
的机会	-2957
加法	-2958
多少钱	-2959
谓语	-2960
知识和	-2961
上有	-2962
出发	-2963
是人类	-2964
冲突	-2965
皮肤	-2966
精准	-2967
▁计算	-2968
异常	-2969
▁将以下文本	-2970
安静	-2971
德国	-2972
性格	-2973
修正	-2974
餐厅的	-2975
ram	-2976
数据库	-2977
监管	-2978
rap	-2979
舒适的	-2980
字的	-2981
▁no	-2982
my	-2983
总共	-2984
发现了	-2985
覆盖	-2986
里面	-2987
可以提供	-2988
range	-2989
质量和	-2990
旅程	-2991
的答案	-2992
供应	-2993
是关于	-2994
认真	-2995
在中国	-2996
string	-2997
che	-2998
回归	-2999
最多	-3000
摄氏度	-3001
豆腐	-3002
证据	-3003
情境	-3004
偶数	-3005
其他的	-3006
ule	-3007
水和	-3008
科幻小说	-3009
new	-3010
对环境	-3011
小明的	-3012
伤害	-3013
我不	-3014
诗人	-3015
场合	-3016
可能性	-3017
no	-3018
标点	-3019
还能	-3020
挑战和	-3021
只要	-3022
步行	-3023
自然的	-3024
花朵	-3025
个性化的	-3026
温馨	-3027
实际上	-3028
技术的发展	-3029
区别	-3030
橄榄	-3031
阶段	-3032
圆的	-3033
好处	-3034
适合自己的	-3035
我最近	-3036
我会尽力	-3037
数学问题	-3038
二氧化	-3039
他们在	-3040
不足	-3041
十年	-3042
损失	-3043
可以从	-3044
富有	-3045
地位	-3046
什么样的	-3047
英文文本	-3048
加速	-3049
宣布	-3050
风光	-3051
LE	-3052
享用	-3053
地区的	-3054
胡椒	-3055
fer	-3056
apple	-3057
芝士	-3058
非常适合	-3059
负责	-3060
变革	-3061
明了	-3062
您可以在	-3063
改为	-3064
ix	-3065
的任务	-3066
ww	-3067
当时	-3068
海平面	-3069
和工作	-3070
有一天	-3071
▁小	-3072
我們	-3073
中选择	-3074
种植	-3075
家具	-3076
大象	-3077
▁翻译	-3078
周长	-3079
最小	-3080
请随时	-3081
有点	-3082
纠正	-3083
▁解释	-3084
语气	-3085
魅力	-3086
篇关于	-3087
最低	-3088
减法	-3089
走了	-3090
举办	-3091
客服	-3092
iel	-3093
出现的	-3094
事故	-3095
愿意	-3096
等因素	-3097
的话题	-3098
ID	-3099
棕色狐狸	-3100
多元	-3101
试试	-3102
pec	-3103
交通工具	-3104
遗产	-3105
往往	-3106
你想	-3107
您好	-3108
照片	-3109
ines	-3110
请求	-3111
好了	-3112
泰坦	-3113
'\	-3114
不再	-3115
▁根据给定的文本	-3116
学科	-3117
火车	-3118
成功的	-3119
▁给定一组	-3120
ptions	-3121
用品	-3122
屏幕	-3123
或是	-3124
从小	-3125
ther	-3126
遵循	-3127
漫步	-3128
透明	-3129
引发	-3130
山脉	-3131
金额	-3132
保留	-3133
放弃	-3134
key	-3135
蓝色的	-3136
发送	-3137
und	-3138
人工智能在医疗领域	-3139
成果	-3140
蘑菇	-3141
anana	-3142
你能告诉我	-3143
now	-3144
加密	-3145
ign	-3146
今天天气	-3147
意识到	-3148
行的	-3149
化合物	-3150
tlet	-3151
神奇	-3152
扩展	-3153
其中包括	-3154
高级	-3155
▁他	-3156
道路	-3157
调节	-3158
晴朗	-3159
ree	-3160
有所不同	-3161
全面	-3162
肯定	-3163
使其更	-3164
数据进行	-3165
包容	-3166
素食	-3167
tim	-3168
专家	-3169
的含义	-3170
ange	-3171
修复	-3172
初学	-3173
利润	-3174
很有	-3175
拼写错误	-3176
泰坦尼克	-3177
环保的文章	-3178
一点	-3179
剩下的	-3180
设计一个	-3181
的名称	-3182
。(	-3183
这些问题	-3184
难忘	-3185
手表	-3186
显著	-3187
广泛应用	-3188
的日	-3189
频率	-3190
和时间	-3191
许多人	-3192
的目标	-3193
日常生活	-3194
泰坦尼克号	-3195
感和	-3196
阳光明媚	-3197
提出了	-3198
平均分给	-3199
终于	-3200
中文翻译	-3201
安全和	-3202
目的是	-3203
奶酪	-3204
喜剧	-3205
土豆	-3206
都能	-3207
的情况下	-3208
":	-3209
情感分析	-3210
感知	-3211
罗马	-3212
的歌曲	-3213
允许	-3214
合法	-3215
海浪	-3216
技能和	-3217
二氧化碳	-3218
亚洲	-3219
某种	-3220
非法	-3221
预计	-3222
卫星	-3223
问答	-3224
激发	-3225
ood	-3226
做一个	-3227
深远的影响	-3228
乐趣	-3229
障碍	-3230
同样	-3231
光线	-3232
tdef	-3233
事项	-3234
信息和	-3235
会导致	-3236
外套	-3237
活力	-3238
胜利	-3239
金属	-3240
水的	-3241
不错的选择	-3242
诗句	-3243
主题是	-3244
先进	-3245
常用的	-3246
跳过	-3247
出现了	-3248
树木	-3249
QL	-3250
old	-3251
高质量	-3252
申请	-3253
行驶	-3254
长时间	-3255
忠诚	-3256
它在	-3257
家园	-3258
患者的	-3259
我建议	-3260
非洲	-3261
紧急	-3262
出一个	-3263
我很乐意	-3264
回复	-3265
来提高	-3266
要注意	-3267
fig	-3268
协作	-3269
的位置	-3270
人体	-3271
胡萝卜	-3272
以提高	-3273
狮子	-3274
是我们	-3275
斯坦	-3276
伙伴	-3277
地图	-3278
男子	-3279
的特点	-3280
▁基于	-3281
体现	-3282
心脏	-3283
热量	-3284
最重要的	-3285
精确	-3286
年轻人	-3287
==	-3288
指南	-3289
辣椒	-3290
甜点	-3291
喜爱	-3292
分支	-3293
和行为	-3294
IT	-3295
我是	-3296
资料	-3297
太空探索	-3298
ink	-3299
边的	-3300
fr	-3301
燃料	-3302
%,	-3303
分别是	-3304
心理学	-3305
指标	-3306
消除	-3307
火星	-3308
反映	-3309
联合	-3310
就能	-3311
测量	-3312
水中	-3313
在家里	-3314
寿命	-3315
描写	-3316
纠错	-3317
创新的	-3318
输入的	-3319
老鼠	-3320
说话	-3321
▁man	-3322
革命	-3323
:(	-3324
以来	-3325
你能帮我	-3326
骑自行车	-3327
的天	-3328
冠军	-3329
▁love	-3330
我要	-3331
月份	-3332
大数据	-3333
▁mod	-3334
我可以为您	-3335
对其	-3336
保护我们的	-3337
也不	-3338
下面是	-3339
▁need	-3340
面料	-3341
回到	-3342
小红有	-3343
的社会	-3344
物联网	-3345
思念	-3346
起源	-3347
Re	-3348
景象	-3349
发出	-3350
提前	-3351
失去	-3352
孩子们	-3353
alse	-3354
听到	-3355
的动物	-3356
支笔	-3357
的关系	-3358
的过程中	-3359
我不能	-3360
同事	-3361
这组	-3362
了很多	-3363
小明和小红	-3364
讲述了一个	-3365
▁给	-3366
精彩	-3367
比喻	-3368
和管理	-3369
原子	-3370
做好	-3371
半径	-3372
收益	-3373
制成	-3374
球员	-3375
▁how	-3376
你对	-3377
电动	-3378
协议	-3379
尼亚	-3380
配料	-3381
做法	-3382
求解	-3383
我们可以使用	-3384
实用	-3385
的描述	-3386
讨论了	-3387
研究表明	-3388
以下是一个	-3389
也在	-3390
从这篇文章	-3391
恒星	-3392
三种	-3393
set	-3394
珍惜	-3395
富含	-3396
案例	-3397
不超过	-3398
通信	-3399
人类智能	-3400
突出	-3401
今天是	-3402
▁In	-3403
每年	-3404
月球	-3405
方程式	-3406
除此	-3407
科普文章	-3408
▁这	-3409
▁如何	-3410
并进行	-3411
▁分类	-3412
创造力	-3413
▁}	-3414
小明家	-3415
ide	-3416
匹配	-3417
尤其是	-3418
标点符号	-3419
帮你	-3420
ise	-3421
艺术家	-3422
▁more	-3423
命令	-3424
这首诗	-3425
在哪里	-3426
的首	-3427
该文本	-3428
失败	-3429
大多数	-3430
您提供	-3431
相等	-3432
敏捷的	-3433
红楼	-3434
除此之外	-3435
Sure	-3436
画面	-3437
组成的	-3438
根据您的	-3439
ollow	-3440
▁name	-3441
不仅仅	-3442
物的	-3443
.”	-3444
更高的	-3445
▁text	-3446
中央	-3447
感到非常	-3448
故事情节	-3449
外的	-3450
对手	-3451
春天的	-3452
读书	-3453
出色的	-3454
如果您喜欢	-3455
散文	-3456
▁est	-3457
▁cont	-3458
不太	-3459
带有	-3460
ical	-3461
事业	-3462
市中心	-3463
概述	-3464
是一项	-3465
是通过	-3466
向量	-3467
外观	-3468
接种	-3469
在某些	-3470
模仿	-3471
和人类	-3472
名叫	-3473
以其	-3474
几种	-3475
运输	-3476
锅中	-3477
bers	-3478
古老的	-3479
父母	-3480
落叶	-3481
word	-3482
所需的	-3483
位数	-3484
在过去	-3485
我希望	-3486
未来发展	-3487
采取行动	-3488
创业	-3489
lish	-3490
是美国	-3491
有氧	-3492
适用于	-3493
巨大	-3494
等式	-3495
稍等	-3496
组成部分	-3497
▁一	-3498
均衡	-3499
手术	-3500
等多个	-3501
的变化	-3502
\\	-3503
▁world	-3504
医疗行业	-3505
▁assist	-3506
疲劳	-3507
句子的	-3508
清凉	-3509
期望	-3510
定位	-3511
航空	-3512
▁import	-3513
教师	-3514
来看	-3515
准确地	-3516
中的所有	-3517
氧气	-3518
推断	-3519
以下问题	-3520
救赎	-3521
▁will	-3522
▁all	-3523
从而提高	-3524
各个领域	-3525
人工智能技术的	-3526
人际	-3527
日常生活中	-3528
生动	-3529
和数据	-3530
表达式	-3531
如何制作	-3532
大写	-3533
所述	-3534
气象	-3535
面粉	-3536
节能	-3537
▁out	-3538
绘画	-3539
激励	-3540
贸易	-3541
有些人	-3542
环保意识	-3543
图案	-3544
接触	-3545
创作一首	-3546
主题的	-3547
我们可以用	-3548
成一个	-3549
红楼梦	-3550
外星	-3551
海平面上升	-3552
国内	-3553
file	-3554
▁Wh	-3555
ask	-3556
突破	-3557
号码	-3558
和高	-3559
肖申	-3560
免费	-3561
明白了	-3562
和技术	-3563
便捷	-3564
力于	-3565
本身	-3566
▁?	-3567
浓郁	-3568
有一只	-3569
▁follow	-3570
':	-3571
观的	-3572
▁about	-3573
无尽	-3574
情感和	-3575
更准确地	-3576
量子力学	-3577
对您	-3578
框架	-3579
的产品	-3580
学习编程	-3581
可以用来	-3582
诊断和治疗	-3583
合并	-3584
土壤	-3585
当我们	-3586
▁元	-3587
▁today	-3588
ound	-3589
友好	-3590
Ex	-3591
和建议	-3592
io	-3593
厨房	-3594
有时	-3595
代入	-3596
是哪	-3597
送给	-3598
有机	-3599
橄榄油	-3600
材质	-3601
安全性	-3602
陪伴	-3603
电视剧	-3604
的阳光	-3605
以下段落	-3606
']	-3607
数组	-3608
为主	-3609
图书馆	-3610
更改	-3611
宾语	-3612
输出结果	-3613
律师	-3614
erm	-3615
很高兴	-3616
头脑	-3617
引人	-3618
学术	-3619
资金	-3620
iPhone	-3621
random	-3622
但不	-3623
原来	-3624
个月	-3625
面上	-3626
enc	-3627
历程	-3628
悬疑	-3629
计算出	-3630
path	-3631
▁int	-3632
有限	-3633
幽默	-3634
ition	-3635
这是因为	-3636
班级	-3637
制品	-3638
名言	-3639
特性	-3640
钢琴	-3641
和小	-3642
完美	-3643
ca	-3644
ield	-3645
▁---	-3646
AR	-3647
亚马	-3648
你想要	-3649
的需求	-3650
网上	-3651
这些信息	-3652
节目	-3653
野生动物	-3654
的帮助	-3655
让人感到	-3656
▁up	-3657
会在	-3658
be	-3659
你在	-3660
闻名	-3661
Path	-3662
也将	-3663
完善	-3664
reat	-3665
秋风	-3666
扩大	-3667
每一	-3668
双方	-3669
招聘	-3670
ool	-3671
敏捷的棕色狐狸	-3672
关于夏天的	-3673
家族	-3674
亚马逊	-3675
提供更	-3676
ss	-3677
广阔	-3678
▁请将	-3679
建议吗	-3680
我正在	-3681
明天的	-3682
易懂	-3683
每周	-3684
这座	-3685
▁大	-3686
玫瑰	-3687
严格	-3688
多彩	-3689
打造	-3690
担心	-3691
语法和	-3692
▁写	-3693
玛丽	-3694
angu	-3695
这些都是	-3696
下面的	-3697
最喜欢	-3698
名词短语	-3699
▁Pro	-3700
整除	-3701
工作效率	-3702
出门	-3703
邀请	-3704
ource	-3705
洛杉	-3706
这次	-3707
ian	-3708
不起	-3709
玻璃	-3710
谢谢你	-3711
远程	-3712
正方	-3713
饮食习惯	-3714
少年	-3715
汤姆	-3716
人工智能和	-3717
感激	-3718
▁我们	-3719
长度为	-3720
题材	-3721
列表中	-3722
和理解	-3723
处于	-3724
对待	-3725
我已经	-3726
▁中	-3727
投入	-3728
洛杉矶	-3729
pect	-3730
得分	-3731
的摘要	-3732
ik	-3733
汉语	-3734
欢乐	-3735
阿甘	-3736
吸收	-3737
现代社会	-3738
有益	-3739
机场	-3740
);\	-3741
秘密	-3742
。'	-3743
天然	-3744
忘记	-3745
Google	-3746
的数字	-3747
长城	-3748
我来	-3749
海鲜	-3750
如同	-3751
款式	-3752
Pro	-3753
之中	-3754
提到的	-3755
出去	-3756
小球	-3757
管理和	-3758
种族歧视	-3759
区块链技术	-3760
ful	-3761
世界各	-3762
比如说	-3763
接近	-3764
播放	-3765
珠穆	-3766
相比	-3767
三角形	-3768
时的	-3769
生机	-3770
专注于	-3771
分数	-3772
珠穆朗	-3773
用途	-3774
您可以尝试	-3775
星星	-3776
一起去	-3777
你可以尝试	-3778
有人	-3779
沙发	-3780
搜索引擎	-3781
被视为	-3782
珠穆朗玛	-3783
旅行的	-3784
进行摘要	-3785
新产品	-3786
他人的	-3787
体系	-3788
▁return	-3789
red	-3790
學習	-3791
语境	-3792
致力于	-3793
倾向	-3794
au	-3795
但他	-3796
带着	-3797
肉类	-3798
是一家	-3799
账户	-3800
ake	-3801
Script	-3802
电器	-3803
工作和	-3804
相关信息	-3805
西瓜	-3806
▁par	-3807
样本	-3808
蜜蜂	-3809
记得	-3810
总数	-3811
环境问题	-3812
悲伤	-3813
我还	-3814
有害	-3815
历史上	-3816
珠穆朗玛峰	-3817
南极	-3818
▁sp	-3819
包含了	-3820
面临着	-3821
微笑	-3822
真是	-3823
的摄入	-3824
层次	-3825
的概念	-3826
▁Python	-3827
ax	-3828
新鲜的	-3829
不确定	-3830
上映	-3831
地震	-3832
的书	-3833
机遇	-3834
请稍等	-3835
这样我才能	-3836
光芒	-3837
准确的	-3838
听音乐	-3839
深刻的	-3840
北极	-3841
多少个	-3842
违反	-3843
特别是	-3844
▁val	-3845
日益	-3846
资产	-3847
桌子	-3848
表现出	-3849
奥运	-3850
自动驾驶汽车	-3851
一个问题	-3852
上了	-3853
每个人都应该	-3854
术语	-3855
这段文字	-3856
克的救赎	-3857
入手	-3858
寒冷	-3859
我觉得	-3860
奇数	-3861
yst	-3862
分解	-3863
的风格	-3864
定律	-3865
徒步	-3866
▁sum	-3867
ash	-3868
▁su	-3869
替换为	-3870
的形式	-3871
设定	-3872
严重的	-3873
不用	-3874
笔记本	-3875
土地	-3876
的声音	-3877
地理	-3878
我对	-3879
肖申克的救赎	-3880
▁人工智能	-3881
希腊	-3882
数据中	-3883
出版	-3884
协调	-3885
开展	-3886
▁创建一个	-3887
幫助	-3888
相同的	-3889
一篇关于	-3890
自然语言处理技术	-3891
橘子	-3892
He	-3893
理念	-3894
良好	-3895
合理的	-3896
华盛	-3897
很抱歉	-3898
坐在	-3899
也非常	-3900
相当	-3901
两人	-3902
云计算	-3903
最适合	-3904
za	-3905
在医疗领域	-3906
会有	-3907
通知	-3908
几个苹果	-3909
CT	-3910
关闭	-3911
派对	-3912
///	-3913
▁首先	-3914
燃烧	-3915
华盛顿	-3916
潮流	-3917
很棒	-3918
温柔	-3919
需要考虑	-3920
可以去	-3921
▁为什么	-3922
世界上	-3923
大规模	-3924
超级	-3925
信用	-3926
精力	-3927
详细信息	-3928
▁word	-3929
始终	-3930
歌手	-3931
文章中的	-3932
谢谢你的	-3933
程序员	-3934
大战	-3935
线性	-3936
传统文化	-3937
描述一下	-3938
秋季	-3939
来进行	-3940
ption	-3941
警察	-3942
一直在	-3943
错误的	-3944
综上	-3945
Er	-3946
星际	-3947
是非常	-3948
ific	-3949
众多	-3950
立即	-3951
胜地	-3952
cess	-3953
有氧运动	-3954
ual	-3955
挖掘	-3956
您可以考虑	-3957
球队	-3958
根铅笔	-3959
类似于	-3960
高效的	-3961
深处	-3962
不良	-3963
的主要观点	-3964
你是	-3965
制度	-3966
水果和	-3967
宝宝	-3968
排名	-3969
需要进行	-3970
人工智能可以	-3971
▁following	-3972
mod	-3973
花香	-3974
苹果公司	-3975
运动员	-3976
旅游目的地	-3977
:$	-3978
input	-3979
essage	-3980
战斗	-3981
aut	-3982
小明现在	-3983
悠久	-3984
这样可以	-3985
但它	-3986
代替	-3987
加热	-3988
的力量	-3989
一个新的	-3990
生活中的	-3991
坚果	-3992
简化	-3993
该公司	-3994
备受	-3995
ml	-3996
这位	-3997
的功能	-3998
result	-3999
五言	-4000
颗糖	-4001
人工智能的应用	-4002
是因为	-4003
尽快	-4004
沉浸	-4005
疾病的	-4006
)```	-4007
优雅	-4008
宝藏	-4009
小型	-4010
协助	-4011
简介	-4012
等多种	-4013
ee	-4014
Tom	-4015
存在的	-4016
人类活动	-4017
上面的问题	-4018
越来越多的	-4019
能够在	-4020
帝国	-4021
强化	-4022
癌症	-4023
盐和	-4024
需要我	-4025
文学作品	-4026
自然环境	-4027
問題	-4028
更大的	-4029
北京市	-4030
这个故事	-4031
早晨	-4032
基本的	-4033
ok	-4034
ght	-4035
最著名的	-4036
AB	-4037
强的	-4038
身边	-4039
陌生	-4040
成功地	-4041
nglish	-4042
▁range	-4043
指示	-4044
而不	-4045
数字化	-4046
和经济	-4047
▁test	-4048
睡觉	-4049
▁one	-4050
搅拌均匀	-4051
▁tr	-4052
治疗方案	-4053
▁Q	-4054
办公室	-4055
即将	-4056
语义	-4057
过的	-4058
assert	-4059
逗号	-4060
也能	-4061
牛仔	-4062
别人	-4063
tr	-4064
并使用	-4065
indow	-4066
進行	-4067
恐龙	-4068
科技发展	-4069
周期	-4070
您可以使用	-4071
强大	-4072
水分	-4073
问题或	-4074
婚礼	-4075
空中	-4076
面试	-4077
然后将	-4078
▁How	-4079
热爱	-4080
财富	-4081
瞬间	-4082
奶油	-4083
李明	-4084
SQL	-4085
但在	-4086
reate	-4087
跟踪	-4088
强度	-4089
乘法	-4090
相遇	-4091
联盟	-4092
鞋子	-4093
后果	-4094
给予	-4095
成熟	-4096
的高	-4097
番茄酱	-4098
▁请根据	-4099
给我提供一些	-4100
颜色的	-4101
伟大的	-4102
物流	-4103
的狗	-4104
兴趣爱好	-4105
春节	-4106
演奏	-4107
和目标	-4108
先生	-4109
有意义	-4110
命运	-4111
尺寸	-4112
own	-4113
▁It	-4114
非常喜欢	-4115
英尺	-4116
ull	-4117
原句	-4118
而异	-4119
香港	-4120
ient	-4121
监控	-4122
ings	-4123
痛苦	-4124
你能否	-4125
在那里	-4126
以帮助	-4127
动画	-4128
受伤	-4129
▁ro	-4130
ST	-4131
▁.	-4132
该怎么	-4133
▁time	-4134
的天气预报	-4135
ystem	-4136
son	-4137
给人	-4138
几年	-4139
尊敬	-4140
焦虑和	-4141
我们可以通过	-4142
房屋	-4143
高的山峰	-4144
▁list	-4145
过于	-4146
做起	-4147
誉为	-4148
领域的应用	-4149
让我来	-4150
▁te	-4151
平静	-4152
克斯	-4153
地名	-4154
来到	-4155
问题和	-4156
明月	-4157
姿势	-4158
导致了	-4159
是一款	-4160
▁day	-4161
的文化	-4162
作业	-4163
拍摄	-4164
!"	-4165
▁z	-4166
启发	-4167
led	-4168
仔细	-4169
姆斯	-4170
比亚	-4171
ict	-4172
出处	-4173
理想	-4174
▁es	-4175
技術	-4176
多云	-4177
乘坐	-4178
服务员	-4179
附近的	-4180
▁get	-4181
保暖	-4182
建造	-4183
母亲	-4184
文章内容	-4185
);	-4186
明治	-4187
建立一个	-4188
以下几个方面	-4189
改变了	-4190
提供帮助	-4191
担任	-4192
途径	-4193
很快	-4194
并解释	-4195
具体来说	-4196
在这个句子中	-4197
了什么	-4198
它们之间的	-4199
自然风光	-4200
这是一种	-4201
特别的	-4202
补充	-4203
▁生成一段	-4204
深深	-4205
月亮	-4206
沙漠	-4207
做什么	-4208
旅途	-4209
也可能	-4210
▁want	-4211
▁Please	-4212
第一次	-4213
{\	-4214
pan	-4215
”,“	-4216
受到了	-4217
句子中的	-4218
ponse	-4219
中华	-4220
很难	-4221
那么他	-4222
['	-4223
和我	-4224
引导	-4225
的代表	-4226
Wh	-4227
提供的文本	-4228
变得越来越	-4229
大熊猫	-4230
需要在	-4231
升高	-4232
面条	-4233
它们在	-4234
毫升	-4235
爱情的	-4236
▁。	-4237
test	-4238
带来更多的	-4239
是非常重要的	-4240
他們	-4241
废弃	-4242
较为	-4243
综上所述	-4244
化石	-4245
本质	-4246
eng	-4247
▁cat	-4248
教育和	-4249
是世界上最	-4250
居住	-4251
▁You	-4252
和对	-4253
订单	-4254
小明还剩下	-4255
传输	-4256
全部	-4257
打算	-4258
▁transl	-4259
It	-4260
co	-4261
▁一个	-4262
世界杯	-4263
造成了	-4264
远处	-4265
这份	-4266
总体	-4267
请为我	-4268
▁what	-4269
arg	-4270
vent	-4271
ML	-4272
争议	-4273
文艺	-4274
的睡眠	-4275
熟悉	-4276
燕麦	-4277
▁>	-4278
很大	-4279
sum	-4280
主演	-4281
小镇	-4282
中找到	-4283
的例子	-4284
quest	-4285
如果您有	-4286
刚刚	-4287
奇怪	-4288
iss	-4289
ates	-4290
优美	-4291
▁打开	-4292
Ar	-4293
面团	-4294
初学者	-4295
▁%	-4296
浏览	-4297
聊聊	-4298
也是一个	-4299
原始文本	-4300
动态	-4301
▁为给定的	-4302
($	-4303
不应该	-4304
让计算机	-4305
这是一部	-4306
三明治	-4307
写的	-4308
消失	-4309
米饭	-4310
案件	-4311
草原	-4312
来帮助	-4313
湖泊	-4314
和使用	-4315
▁以	-4316
折扣	-4317
汉堡	-4318
经理	-4319
这个词	-4320
可以帮助医生	-4321
▁根据以下文本	-4322
今天的天气	-4323
防晒	-4324
表示为	-4325
命名	-4326
请问您需要	-4327
如果您想	-4328
旅游的	-4329
表述	-4330
露营	-4331
add	-4332
ock	-4333
碳排放	-4334
呈现出	-4335
和学习	-4336
上午	-4337
王星	-4338
资源的	-4339
清晨	-4340
这首歌	-4341
待遇	-4342
惊喜	-4343
渠道	-4344
马拉	-4345
read	-4346
传说	-4347
柔和	-4348
转换成	-4349
▁any	-4350
treturn	-4351
难题	-4352
很不错	-4353
的健康	-4354
人和	-4355
显得	-4356
被誉为	-4357
父亲	-4358
香气	-4359
奥运会	-4360
这段话	-4361
乐器	-4362
形态	-4363
花了	-4364
人们可以	-4365
不得	-4366
需要帮助	-4367
危害	-4368
ans	-4369
李白	-4370
全新的	-4371
▁将给定的	-4372
形式的	-4373
你也可以	-4374
选择一个	-4375
航班	-4376
为人类	-4377
的最佳	-4378
做的	-4379
这场	-4380
追逐	-4381
体积	-4382
血压	-4383
完成任务	-4384
照顾	-4385
纪念	-4386
三角形的	-4387
大于	-4388
贵的	-4389
祝福	-4390
▁pe	-4391
的速度	-4392
结构和	-4393
短故事	-4394
NN	-4395
以上是	-4396
果汁	-4397
或缺	-4398
石头	-4399
调料	-4400
越来越多	-4401
西红	-4402
圆形	-4403
工作的	-4404
意外	-4405
指数	-4406
▁加入	-4407
西红柿	-4408
采取措施	-4409
llo	-4410
去年	-4411
),\	-4412
李四	-4413
需要我们	-4414
全国	-4415
善良	-4416
一致	-4417
属性	-4418
旋转	-4419
来了	-4420
宇宙的	-4421
未来的发展	-4422
在这种	-4423
比萨	-4424
ern	-4425
人工智能将	-4426
拓展	-4427
▁add	-4428
科技创新	-4429
和健康	-4430
的所有	-4431
Al	-4432
ose	-4433
让他们	-4434
比特	-4435
激烈	-4436
温室气体排放	-4437
敏捷的棕色狐狸跳过	-4438
我们必须	-4439
▁X	-4440
的人物	-4441
推进	-4442
通过对	-4443
干净	-4444
简历	-4445
细腻	-4446
菲尔	-4447
准备好	-4448
让您	-4449
DNA	-4450
投资者	-4451
以下是我为您	-4452
lock	-4453
快速发展	-4454
▁主题	-4455
需要将	-4456
机票	-4457
限于	-4458
沙滩上	-4459
衬衫	-4460
标注	-4461
追溯	-4462
我将为您	-4463
让它	-4464
▁play	-4465
并返回	-4466
col	-4467
重要的作用	-4468
anguage	-4469
RO	-4470
白云	-4471
的钱	-4472
密度	-4473
恐惧	-4474
数百	-4475
(:	-4476
夏威	-4477
枫叶	-4478
夏威夷	-4479
思考和	-4480
拯救	-4481
病人	-4482
受众	-4483
矛盾	-4484
翻炒	-4485
成语出处	-4486
frac	-4487
干扰	-4488
铁塔	-4489
害怕	-4490
另一种	-4491
▁_	-4492
蔬菜和	-4493
间的	-4494
头脑风暴	-4495
传感	-4496
如果我们	-4497
(&	-4498
艺术品	-4499
你知道	-4500
填写	-4501
▁问题	-4502
相似度	-4503
storm	-4504
近期	-4505
SE	-4506
ts	-4507
独自	-4508
非常好的	-4509
当我	-4510
人们在	-4511
ah	-4512
way	-4513
房子	-4514
银河	-4515
人们对	-4516
人工智能的文章	-4517
有用	-4518
最受欢迎的	-4519
[:	-4520
品牌的	-4521
黄瓜	-4522
▁}\	-4523
和他的	-4524
记住	-4525
通常在	-4526
放置	-4527
这两	-4528
tem	-4529
机器学习和	-4530
帮忙	-4531
您想	-4532
栖息	-4533
鱼类	-4534
的代码	-4535
▁从以下	-4536
从文章中提取	-4537
的前	-4538
中国古代	-4539
探测	-4540
ven	-4541
意思是	-4542
不可或缺	-4543
监督学习	-4544
not	-4545
其中一个	-4546
可以分到	-4547
为主题	-4548
翻译成西班牙语	-4549
失业	-4550
进行排序	-4551
清洗	-4552
用水	-4553
简洁明了	-4554
让我们一起	-4555
选择合适的	-4556
小块	-4557
奇幻	-4558
一些人	-4559
城堡	-4560
渐渐	-4561
的主要内容	-4562
jour	-4563
美国总统	-4564
激情	-4565
减轻压力	-4566
eter	-4567
lect	-4568
木星	-4569
清楚	-4570
少数	-4571
出现在	-4572
but	-4573
▁some	-4574
丽的	-4575
发表	-4576
已成为	-4577
CO	-4578
大大	-4579
已经在	-4580
他把	-4581
奖励	-4582
遗传	-4583
Error	-4584
超越	-4585
吃的	-4586
times	-4587
太棒	-4588
蜂蜜	-4589
性问题	-4590
和人	-4591
思路	-4592
user	-4593
这些技术	-4594
较低	-4595
压力和焦虑	-4596
不少	-4597
过滤	-4598
的同时	-4599
inese	-4600
合成	-4601
itt	-4602
有多	-4603
rainstorm	-4604
酸奶	-4605
引起的	-4606
数量为	-4607
葡萄酒	-4608
情感分类	-4609
太棒了	-4610
unction	-4611
家里	-4612
ems	-4613
素质	-4614
▁最后	-4615
▁在给定的	-4616
对您有所帮助	-4617
绽放	-4618
和创新	-4619
}{	-4620
保持良好的	-4621
现场	-4622
较高	-4623
▁根据提供的	-4624
博客	-4625
各自	-4626
鲸鱼	-4627
▁quest	-4628
▁work	-4629
最重要的是	-4630
ru	-4631
工艺	-4632
以获取	-4633
中使用	-4634
减少对	-4635
能够帮助	-4636
抽象	-4637
地铁	-4638
人际关系	-4639
西兰	-4640
之情	-4641
线上	-4642
APP	-4643
bject	-4644
af	-4645
军事	-4646
经验和	-4647
一座	-4648
阿里	-4649
你喜欢	-4650
它将	-4651
传感器	-4652
的领域	-4653
共同努力	-4654
在我	-4655
根据题目	-4656
▁please	-4657
购物清单	-4658
加剧	-4659
这句	-4660
为我们	-4661
您希望	-4662
人工智能是一种	-4663
整理	-4664
绿色的	-4665
的作用	-4666
提供更好的	-4667
▁English	-4668
创造出	-4669
四季	-4670
▁红	-4671
的步骤	-4672
同时也可以	-4673
逐步	-4674
NL	-4675
筛选	-4676
配置	-4677
电子商务	-4678
如今	-4679
塑料袋	-4680
暗示	-4681
提问	-4682
新闻文章	-4683
AN	-4684
AT	-4685
。""	-4686
好朋友	-4687
行程	-4688
▁class	-4689
早期	-4690
用了	-4691
ank	-4692
回答这个问题	-4693
方的	-4694
推荐一本	-4695
跳跃	-4696
透气	-4697
ations	-4698
求出	-4699
女子	-4700
泄露	-4701
游览	-4702
等信息	-4703
以避免	-4704
的特征	-4705
一段文字	-4706
可能会对	-4707
可以帮助人们	-4708
這個	-4709
没有任何	-4710
”(	-4711
一次性	-4712
健身房	-4713
的主旨	-4714
科技的发展	-4715
gh	-4716
图形	-4717
星空	-4718
美洲	-4719
绝对	-4720
新闻标题	-4721
?\	-4722
IN	-4723
平方米	-4724
而闻名	-4725
me	-4726
罗斯	-4727
更高	-4728
和道德	-4729
有时候	-4730
我们可以将	-4731
▁true	-4732
这个人	-4733
▁into	-4734
我今天	-4735
和需求	-4736
请输入	-4737
硬币	-4738
硬件	-4739
血管	-4740
▁阅读	-4741
进制	-4742
的氛围	-4743
在公园里	-4744
科学家们	-4745
提供更多的	-4746
凉爽	-4747
指定的	-4748
data	-4749
我想了解一下	-4750
减缓	-4751
▁would	-4752
可视	-4753
连续	-4754
ify	-4755
▁code	-4756
更正	-4757
》:	-4758
冬天	-4759
和资源	-4760
直径	-4761
文本内容	-4762
不到	-4763
展现了	-4764
▁book	-4765
天体	-4766
减少使用	-4767
老虎	-4768
而成	-4769
饮品	-4770
不同类型的	-4771
减压	-4772
产生的	-4773
我是一个	-4774
升级	-4775
撒上	-4776
精致	-4777
澳大利	-4778
演唱	-4779
营造	-4780
新款	-4781
海岸	-4782
街道	-4783
文本进行	-4784
相互作用	-4785
寂静	-4786
运营	-4787
▁know	-4788
不够	-4789
客户的	-4790
的大小	-4791
加工	-4792
大海	-4793
奥斯	-4794
星系	-4795
职场	-4796
有不同的	-4797
这篇文章中	-4798
正传	-4799
陈述句	-4800
并确保	-4801
的场景	-4802
BA	-4803
Web	-4804
支出	-4805
性别歧视	-4806
mer	-4807
涵盖了	-4808
减肥	-4809
您的问题	-4810
▁编写一个	-4811
备用	-4812
广场	-4813
页面	-4814
ense	-4815
片刻	-4816
男士	-4817
▁让	-4818
ault	-4819
劳动	-4820
机械	-4821
▁mo	-4822
建筑物	-4823
考虑到	-4824
个体	-4825
名的	-4826
的味道	-4827
的答案是	-4828
科技公司	-4829
在此	-4830
uild	-4831
澳大利亚	-4832
▁烤	-4833
mand	-4834
极端天气	-4835
quire	-4836
解决这个问题	-4837
有了	-4838
的平方	-4839
煮熟	-4840
节省	-4841
给我们	-4842
▁here	-4843
Com	-4844
优先级	-4845
去公园	-4846
提供更加	-4847
完整的	-4848
操作系统	-4849
创始	-4850
英里	-4851
▁提供一个	-4852
电影名称	-4853
至关重要	-4854
从中	-4855
摇滚	-4856
烧烤	-4857
边长	-4858
锻炼身体	-4859
承受	-4860
ren	-4861
太阳的	-4862
erson	-4863
看着	-4864
xx	-4865
阐述	-4866
前的	-4867
一共有多少	-4868
▁et	-4869
在全球	-4870
喜悦	-4871
节点	-4872
英寸	-4873
和个人	-4874
成为一个	-4875
人们的生活	-4876
但也	-4877
否则	-4878
承担	-4879
特殊的	-4880
巴厘	-4881
拂面	-4882
向我	-4883
撰写	-4884
花开	-4885
ertain	-4886
sw	-4887
草地上	-4888
。”“	-4889
易于理解	-4890
ife	-4891
无尽的	-4892
难忘的	-4893
".	-4894
人都	-4895
橙色	-4896
的吗	-4897
▁文章	-4898
▁通过	-4899
从小到	-4900
编码	-4901
之一是	-4902
是个	-4903
最大值	-4904
的效果	-4905
对话内容	-4906
冰川	-4907
ebook	-4908
这家餐厅	-4909
您可以选择	-4910
请用	-4911
尊敬的	-4912
零食	-4913
▁pre	-4914
生态环境	-4915
有两个	-4916
识别出	-4917
人群	-4918
是一年	-4919
清澈	-4920
福利	-4921
需要的	-4922
表达方式	-4923
ethod	-4924
金黄	-4925
技术来	-4926
▁per	-4927
海拔	-4928
你能给我	-4929
如果您有任何	-4930
好奇	-4931
花儿	-4932
后的句子	-4933
需要更多的	-4934
erv	-4935
保持健康的	-4936
对应的	-4937
波动	-4938
做一些	-4939
value	-4940
你可以考虑	-4941
每份	-4942
集合	-4943
和处理	-4944
更深入	-4945
到来	-4946
min	-4947
小组	-4948
幅画	-4949
几个糖果	-4950
失望	-4951
拥堵	-4952
收获	-4953
新冠	-4954
对社会	-4955
现状	-4956
这么	-4957
难度	-4958
马尔	-4959
准确性和	-4960
如何使用	-4961
的核心	-4962
答案为	-4963
izza	-4964
▁John	-4965
住宿	-4966
自然界	-4967
▁det	-4968
接收	-4969
英文单词	-4970
好友	-4971
亿美元	-4972
pr	-4973
多次	-4974
主要观点	-4975
宽松	-4976
要点	-4977
增添	-4978
繁荣	-4979
date	-4980
阿甘正传	-4981
朋友们	-4982
▁This	-4983
ux	-4984
盖茨	-4985
闪烁	-4986
小说的	-4987
一个关于	-4988
')	-4989
irect	-4990
ON	-4991
一周	-4992
分散	-4993
吃掉	-4994
提高了	-4995
山区	-4996
人生的	-4997
帮我想一些	-4998
医学影像	-4999
ier	-5000
学习新	-5001
wo	-5002
揭示	-5003
理由	-5004
roup	-5005
外部	-5006
点击	-5007
糖尿	-5008
青春	-5009
保持健康	-5010
提高自己的	-5011
回报	-5012
总和	-5013
玉米	-5014
按字母顺序	-5015
响应	-5016
隐藏	-5017
关注和	-5018
▁Can	-5019
▁eat	-5020
其实	-5021
高速	-5022
和环境	-5023
引起了	-5024
是为了	-5025
定理	-5026
▁pr	-5027
巴厘岛	-5028
Cl	-5029
轨道	-5030
拒绝	-5031
糖尿病	-5032
夕阳	-5033
▁happy	-5034
乔治	-5035
或不	-5036
发生在	-5037
强烈的	-5038
科幻电影	-5039
适宜	-5040
一个人的	-5041
起了	-5042
我听说	-5043
后来	-5044
碳水	-5045
by	-5046
制造业	-5047
▁Chinese	-5048
友情	-5049
跟我	-5050
队伍	-5051
来表达	-5052
的游戏	-5053
保存	-5054
▁与	-5055
懒狗	-5056
并根据	-5057
▁else	-5058
那只	-5059
进程	-5060
营销策略	-5061
碳水化合物	-5062
高温	-5063
信息的	-5064
▁read	-5065
黄油	-5066
没有提供	-5067
這些	-5068
和放松	-5069
下去	-5070
影響	-5071
午餐	-5072
型的	-5073
小李	-5074
可以使	-5075
不变	-5076
等方面的	-5077
还有一些	-5078
发生的	-5079
we	-5080
yp	-5081
也应该	-5082
美食和	-5083
敏感	-5084
CE	-5085
惊叹	-5086
ms	-5087
▁她	-5088
抑郁	-5089
耐心	-5090
发电	-5091
黑胡椒	-5092
的运动	-5093
就业机会	-5094
its	-5095
ased	-5096
不断进步	-5097
之和	-5098
qual	-5099
的意思是	-5100
志愿	-5101
融入	-5102
error	-5103
随着技术的	-5104
ble	-5105
灯光	-5106
tps	-5107
空气中	-5108
毕业	-5109
技术在	-5110
tpub	-5111
摄影	-5112
相对论	-5113
riend	-5114
总共有	-5115
方法来	-5116
算法和	-5117
的长度	-5118
还有很多	-5119
以便我	-5120
可乐	-5121
或服务	-5122
--------	-5123
My	-5124
点子	-5125
黄金	-5126
的定义	-5127
危机	-5128
▁输出	-5129
叶子	-5130
战略	-5131
抽取	-5132
或者是	-5133
▁不	-5134
我也	-5135
建議	-5136
和组织	-5137
是正确的	-5138
窗户	-5139
pen	-5140
XXX	-5141
最初	-5142
道德和	-5143
https	-5144
公斤	-5145
头发	-5146
教程	-5147
绿树	-5148
我现在	-5149
寿司	-5150
技巧和	-5151
百年	-5152
下周	-5153
分别为	-5154
irst	-5155
提高生产	-5156
加拿	-5157
诗吧	-5158
计算机程序	-5159
其他人	-5160
可读	-5161
您在	-5162
的好处	-5163
草地	-5164
生物学	-5165
户外运动	-5166
美国的	-5167
能分到	-5168
岗位	-5169
---	-5170
空气污染	-5171
山水	-5172
权益	-5173
()\	-5174
▁重写	-5175
▁生成一个关于夏天的	-5176
可口	-5177
携带	-5178
代谢	-5179
认可	-5180
疑问句	-5181
中间	-5182
公元	-5183
还要	-5184
ari	-5185
将这些	-5186
▁World	-5187
穿过	-5188
徒步旅行	-5189
机器人的	-5190
几何	-5191
研究人员	-5192
▁为以下	-5193
思绪	-5194
千克	-5195
围绕	-5196
▁fe	-5197
喜欢在	-5198
谨慎	-5199
来解决这个问题	-5200
小王	-5201
汉字	-5202
渴望	-5203
line	-5204
气氛	-5205
这也	-5206
昆虫	-5207
春风	-5208
智能化的	-5209
▁给定两个	-5210
失落	-5211
改革	-5212
生活在	-5213
的未来	-5214
rent	-5215
几点	-5216
故宫	-5217
▁输入	-5218
企鹅	-5219
完美的	-5220
作为一名	-5221
被广泛应用于	-5222
每组	-5223
改正	-5224
泰国	-5225
清爽	-5226
type	-5227
She	-5228
安全的	-5229
尊重和	-5230
金黄色	-5231
此时	-5232
▁利用	-5233
▁句子	-5234
环境中	-5235
不好	-5236
密的	-5237
que	-5238
▁result	-5239
更换	-5240
音频	-5241
▁\(	-5242
减少污染	-5243
一般来说	-5244
▁spec	-5245
照耀	-5246
率和	-5247
你可以在	-5248
都非常	-5249
给定文本	-5250
而在	-5251
分到的	-5252
是一个非常	-5253
鲜花	-5254
赢得了	-5255
停止	-5256
和决策	-5257
》-	-5258
界面	-5259
需要根据	-5260
前进	-5261
武器	-5262
启示	-5263
唱歌	-5264
谈论	-5265
矿物质	-5266
IM	-5267
与人类	-5268
明显的	-5269
请给出	-5270
Le	-5271
ger	-5272
您对	-5273
▁which	-5274
ude	-5275
给我想	-5276
Je	-5277
以免	-5278
优美的	-5279
▁请帮我	-5280
说法	-5281
url	-5282
展示了	-5283
▁lear	-5284
下载	-5285
的想法	-5286
您也可以	-5287
流浪	-5288
周围的	-5289
爱情故事	-5290
暴力	-5291
辐射	-5292
的衣服	-5293
您还可以	-5294
感恩	-5295
时间管理	-5296
登山	-5297
烤箱中	-5298
都有着	-5299
详细回答	-5300
视野	-5301
▁set	-5302
重要作用	-5303
在这种情况下	-5304
人工智能可以通过	-5305
翅膀	-5306
引人入	-5307
文本分类	-5308
链接	-5309
▁Re	-5310
聊天机器人	-5311
可爱的	-5312
地球上	-5313
从而实现	-5314
▁apple	-5315
之作	-5316
型号	-5317
新兴	-5318
存在一些	-5319
的苹果	-5320
来确定	-5321
的服务	-5322
还会	-5323
人性	-5324
菲尔铁塔	-5325
!(	-5326
主动	-5327
</	-5328
音乐会	-5329
需要使用	-5330
向前	-5331
都很	-5332
我有一个	-5333
对你	-5334
加入一些	-5335
发现自己	-5336
▁从以下文本	-5337
月的	-5338
用餐	-5339
br	-5340
▁very	-5341
温暖的	-5342
更具	-5343
pos	-5344
杰克	-5345
但它们	-5346
尽情	-5347
昨晚	-5348
走进	-5349
了一场	-5350
数据隐私	-5351
灵魂	-5352
试着	-5353
我们要	-5354
▁file	-5355
墨西	-5356
李华	-5357
热带	-5358
兴趣和	-5359
▁dis	-5360
几乎	-5361
▁智能	-5362
墨西哥	-5363
ner	-5364
引人入胜	-5365
把这句话	-5366
顺序排列	-5367
哈哈	-5368
并通过	-5369
卷积	-5370
我喜欢在	-5371
去看	-5372
风雨	-5373
元素的	-5374
极大的	-5375
▁根据输入	-5376
保持身体健康	-5377
首次	-5378
和家人	-5379
你能不能	-5380
动机	-5381
预期	-5382
海滩上	-5383
算法的	-5384
▁use	-5385
小数	-5386
模拟人类智能	-5387
冷静	-5388
公司名称	-5389
湿度	-5390
PS	-5391
南京	-5392
懒惰	-5393
穿上	-5394
ina	-5395
ont	-5396
埃及	-5397
远离	-5398
机器学习是一种	-5399
促销	-5400
啤酒	-5401
开车	-5402
爸爸	-5403
时间内	-5404
研究和	-5405
公交	-5406
当代	-5407
角落	-5408
事件的	-5409
推荐的	-5410
现在请	-5411
生活质量	-5412
驱动	-5413
自然景观	-5414
结尾	-5415
量和	-5416
pre	-5417
本地	-5418
ribut	-5419
题意	-5420
日的	-5421
融化	-5422
▁col	-5423
专门	-5424
同一	-5425
咖啡馆	-5426
稳定性	-5427
中的一个	-5428
生成摘要	-5429
org	-5430
追溯到	-5431
欢快	-5432
可靠性	-5433
卓越	-5434
集成	-5435
▁个苹果	-5436
以后	-5437
right	-5438
和一	-5439
mut	-5440
并提高	-5441
客厅	-5442
写出	-5443
tre	-5444
可以减少	-5445
依然	-5446
▁写一篇介绍	-5447
关心	-5448
##	-5449
内存	-5450
展览	-5451
ike	-5452
Sh	-5453
清理	-5454
达成	-5455
mat	-5456
创始人	-5457
使计算机	-5458
以此	-5459
西亚	-5460
分隔	-5461
奔跑	-5462
好像	-5463
水上	-5464
HT	-5465
▁总	-5466
植物的	-5467
人间	-5468
家乡	-5469
清新的	-5470
座位	-5471
菜谱	-5472
歌曲的	-5473
文案生成	-5474
的重要组成部分	-5475
羽毛	-5476
老人	-5477
顺利	-5478
工作中	-5479
了一系列	-5480
包装	-5481
婴儿	-5482
感动	-5483
预热	-5484
各种各	-5485
是什么意思	-5486
世界中	-5487
alk	-5488
希望您	-5489
ET	-5490
GB	-5491
坚定	-5492
饮用	-5493
的距离	-5494
客人	-5495
故障	-5496
永恒	-5497
落在	-5498
设计和	-5499
fore	-5500
plic	-5501
明亮	-5502
老板	-5503
▁au	-5504
些什么	-5505
家和	-5506
免疫力	-5507
广泛应用于	-5508
流动	-5509
如果有	-5510
填空	-5511
我们会	-5512
gram	-5513
可能包括	-5514
智商	-5515
漂亮的	-5516
唐代	-5517
财产	-5518
香草	-5519
人工智能技术的发展	-5520
支撑	-5521
非常广泛	-5522
wh	-5523
小心	-5524
并对	-5525
ely	-5526
身上	-5527
本小说	-5528
To	-5529
网站上	-5530
识别和	-5531
电话号码	-5532
创新和	-5533
你可以使用	-5534
心理咨询	-5535
更多信息	-5536
环境和	-5537
ents	-5538
▁pos	-5539
从文章中提取出	-5540
火锅	-5541
线条	-5542
ars	-5543
File	-5544
网页	-5545
ال	-5546
奇妙	-5547
个单词	-5548
的表现	-5549
团队合作	-5550
:",	-5551
count	-5552
NLP	-5553
采用了	-5554
icro	-5555
如果你想要	-5556
物体的	-5557
儿子	-5558
担忧	-5559
警方	-5560
▁Sh	-5561
专业人士	-5562
手法	-5563
可用于	-5564
政府和	-5565
发音	-5566
无需	-5567
这三个	-5568
高质量的	-5569
挫折	-5570
漂亮	-5571
▁there	-5572
从事	-5573
杯子	-5574
病情	-5575
ator	-5576
duct	-5577
iven	-5578
Options	-5579
情人	-5580
感冒	-5581
故事的	-5582
我们在	-5583
▁将下列	-5584
通常用于	-5585
烤盘	-5586
百分	-5587
观念	-5588
您可以通过	-5589
sort	-5590
流水	-5591
一个小	-5592
孩子的	-5593
神经元	-5594
以下步骤	-5595
应用场景	-5596
冰箱	-5597
婚姻	-5598
想到	-5599
時間	-5600
蓝天	-5601
配合	-5602
不必要的	-5603
后的文本	-5604
▁stud	-5605
▁狗	-5606
修身	-5607
逃脱	-5608
客户服务	-5609
Res	-5610
导致的	-5611
新技术	-5612
发射	-5613
导航	-5614
口罩	-5615
并用	-5616
对未来	-5617
关联	-5618
只需要	-5619
▁Be	-5620
怎么说	-5621
应该如何	-5622
tassert	-5623
ray	-5624
▁let	-5625
一些有趣的	-5626
ertainly	-5627
办法	-5628
清风	-5629
灭绝	-5630
的最大	-5631
ames	-5632
分给他的	-5633
第四	-5634
请确保	-5635
呼吁	-5636
工资	-5637
救援	-5638
花卉	-5639
错别	-5640
是否会	-5641
ream	-5642
我建议您	-5643
="	-5644
rt	-5645
鸡胸	-5646
是一个充满	-5647
aw	-5648
修饰	-5649
经营	-5650
频繁	-5651
春季	-5652
经济发展	-5653
▁inter	-5654
BM	-5655
粒子	-5656
走向	-5657
增加了	-5658
慢慢地	-5659
两只	-5660
复仇	-5661
ied	-5662
▁He	-5663
最小值	-5664
indows	-5665
▁天	-5666
els	-5667
服务器	-5668
文献	-5669
质数	-5670
在使用	-5671
沮丧	-5672
oint	-5673
走在	-5674
男人	-5675
的学生	-5676
________	-5677
打破	-5678
▁und	-5679
讲述了一	-5680
笔记本电脑	-5681
▁请为我	-5682
如果您的	-5683
灾难	-5684
没问题	-5685
cont	-5686
▁根据所	-5687
urrent	-5688
可视化	-5689
充电	-5690
是基于	-5691
的不同	-5692
全麦	-5693
全球气候变化	-5694
二十	-5695
情景	-5696
遭受	-5697
▁string	-5698
总部	-5699
贝尔	-5700
的笑话	-5701
复古	-5702
爆发	-5703
跳舞	-5704
▁编写	-5705
或短语	-5706
年人	-5707
化石燃料	-5708
多吃	-5709
从前	-5710
假期	-5711
轻便	-5712
为用户	-5713
收到	-5714
▁does	-5715
交换	-5716
任意	-5717
语态	-5718
目标和	-5719
给出的	-5720
▁his	-5721
个字	-5722
探究	-5723
森林里	-5724
发生了	-5725
更喜欢	-5726
这就是	-5727
错别字	-5728
下面的问题	-5729
复制	-5730
order	-5731
教授	-5732
▁所以	-5733
否定	-5734
火山	-5735
ible	-5736
牛排	-5737
可以让你	-5738
反思	-5739
弥漫	-5740
描述一个	-5741
千米	-5742
人数为	-5743
work	-5744
依据	-5745
以及如何	-5746
并与	-5747
方法是	-5748
▁写一个	-5749
这部	-5750
飞翔	-5751
文本错误	-5752
愉快的	-5753
目标是	-5754
真好	-5755
爱好者	-5756
)=	-5757
kg	-5758
和海	-5759
的元素	-5760
法律法规	-5761
气球	-5762
爱你	-5763
矩阵	-5764
黑客	-5765
每个人都有	-5766
选项中选择	-5767
交往	-5768
节约能源	-5769
插入	-5770
發展	-5771
站在	-5772
以下文章	-5773
反对	-5774
公共交通	-5775
更多关于	-5776
药物研发	-5777
是否为	-5778
想象力	-5779
最高的	-5780
企业的	-5781
可以告诉我	-5782
▁列出	-5783
下面的句子	-5784
才华	-5785
电影院	-5786
量子计算	-5787
Certainly	-5788
行政	-5789
每个小朋友	-5790
fl	-5791
无穷	-5792
错过	-5793
变成了	-5794
plo	-5795
如果是	-5796
鸡胸肉	-5797
语言的	-5798
▁生成一句	-5799
下面的文本	-5800
擅长	-5801
时空	-5802
缓解压力	-5803
活力和	-5804
负担	-5805
它是一种	-5806
原本	-5807
损害	-5808
文本的	-5809
ov	-5810
ics	-5811
内心的	-5812
篇文章	-5813
什么类型的	-5814
信念	-5815
日落	-5816
ages	-5817
告诉我们	-5818
好看的电影	-5819
▁制定	-5820
这表明	-5821
无数	-5822
韩国	-5823
▁don	-5824
面向	-5825
ek	-5826
共和	-5827
无限的	-5828
分得	-5829
执导	-5830
个人信息	-5831
部的	-5832
传承	-5833
ails	-5834
慢跑	-5835
夏日的	-5836
面临的	-5837
许多领域	-5838
倾听	-5839
ally	-5840
语音助手	-5841
固定	-5842
空格	-5843
装备	-5844
▁生成一篇	-5845
空调	-5846
完成了	-5847
我最喜欢的	-5848
++	-5849
干燥	-5850
明星	-5851
尾巴	-5852
手工艺	-5853
睡眠质量	-5854
乘积	-5855
应当	-5856
oin	-5857
创作的	-5858
▁bet	-5859
糖分	-5860
动物的	-5861
▁找到	-5862
DI	-5863
长方	-5864
可以实现	-5865
Apple	-5866
干旱	-5867
风味	-5868
的人名	-5869
沿着	-5870
爆炸	-5871
请您	-5872
ily	-5873
吸引了	-5874
它们是	-5875
▁按照	-5876
JavaScript	-5877
可持续性	-5878
我去	-5879
相应	-5880
闪耀	-5881
市场的	-5882
竞争力	-5883
禁止	-5884
可以追溯到	-5885
俄罗斯	-5886
帮助人们	-5887
分割	-5888
气质	-5889
马克	-5890
att	-5891
有趣的故事	-5892
风格和	-5893
寻求帮助	-5894
更好地管理	-5895
不停	-5896
各国	-5897
装修	-5898
重力	-5899
生理	-5900
进化	-5901
以获得	-5902
生物多样性	-5903
您可以根据自己的	-5904
尤其是在	-5905
电子产品	-5906
rit	-5907
文化遗产	-5908
这件	-5909
重要性	-5910
ai	-5911
含量	-5912
灿烂	-5913
餐具	-5914
▁针对	-5915
流行音乐	-5916
一颗	-5917
生的	-5918
火灾	-5919
香味	-5920
怎样的	-5921
让自己	-5922
世界上最高的山峰	-5923
在这个季节	-5924
华为	-5925
www	-5926
一段话	-5927
ater	-5928
也没有	-5929
rainstorming	-5930
困境	-5931
▁中国	-5932
告诉你	-5933
平等和	-5934
阿尔	-5935
满意度	-5936
猫的	-5937
hello	-5938
注册	-5939
洪水	-5940
点的	-5941
浪漫的	-5942
RE	-5943
不懈	-5944
大部分	-5945
有几个	-5946
平均数	-5947
垃圾邮件	-5948
容量	-5949
那我	-5950
yn	-5951
感叹	-5952
起床	-5953
走过	-5954
牛仔裤	-5955
▁New	-5956
生成一份	-5957
村庄	-5958
该电影	-5959
都应该	-5960
其中一些	-5961
▁它	-5962
也要	-5963
吃饭	-5964
地面	-5965
▁选择	-5966
国家的	-5967
的经典	-5968
量子计算机	-5969
是一只	-5970
们的	-5971
客气	-5972
什么是人工智能	-5973
oud	-5974
交流和	-5975
行业的	-5976
上文	-5977
式的	-5978
教练	-5979
紫色	-5980
mon	-5981
心脏病	-5982
教堂	-5983
感受到了	-5984
智能手表	-5985
umn	-5986
第三个	-5987
闰年	-5988
了一种	-5989
放松和	-5990
生成器	-5991
ature	-5992
acebook	-5993
女神	-5994
手中	-5995
更是	-5996
我昨天	-5997
网络安全	-5998
贫困	-5999
比赛的	-6000
花园里	-6001
咖啡因	-6002
这些方法	-6003
ellig	-6004
他是	-6005
前行	-6006
短暂	-6007
造成的	-6008
round	-6009
人民币	-6010
努力和	-6011
保护地球	-6012
tit	-6013
请提取	-6014
代码片段	-6015
繁殖	-6016
公寓	-6017
的物品	-6018
让我想	-6019
两个数字	-6020
切成小块	-6021
巴西	-6022
我和	-6023
红酒	-6024
两个人	-6025
一封	-6026
吸烟	-6027
月光	-6028
稳定的	-6029
滑雪	-6030
白色的	-6031
拥抱	-6032
用户体验	-6033
浮宫	-6034
市场上	-6035
栖息地	-6036
成为一名	-6037
毛发	-6038
观测	-6039
▁准备	-6040
主要是	-6041
产生影响	-6042
立方	-6043
并且在	-6044
这使得	-6045
实现了	-6046
翻译成英语	-6047
炎炎	-6048
神话	-6049
这里的	-6050
进行修改	-6051
无线	-6052
沐浴	-6053
选举	-6054
您的需求	-6055
视觉效果	-6056
学院	-6057
椅子	-6058
然后再	-6059
按钮	-6060
鲜艳	-6061
方式和	-6062
哪个城市	-6063
帮助医生	-6064
▁banana	-6065
人工智能在医疗领域的应用	-6066
结局	-6067
其中最	-6068
那请问	-6069
饮食和	-6070
▁str	-6071
条款	-6072
以上的	-6073
卢浮宫	-6074
做了	-6075
她在	-6076
对比	-6077
路径	-6078
里斯	-6079
▁che	-6080
请稍等片刻	-6081
对方的	-6082
ople	-6083
是一种非常	-6084
从未	-6085
它会	-6086
烤鸭	-6087
爵士	-6088
以实现	-6089
还没有	-6090
▁make	-6091
色调	-6092
衣裙	-6093
家庭成员	-6094
竞争对手	-6095
封闭	-6096
物和	-6097
▁dif	-6098
电子设备	-6099
日程	-6100
经历了	-6101
soft	-6102
芒果	-6103
很多人	-6104
希望这些建议	-6105
numbers	-6106
何时	-6107
奖项	-6108
一部分	-6109
的状态	-6110
陷入	-6111
▁提取	-6112
轻松地	-6113
疗法	-6114
路程	-6115
orre	-6116
计算它们的	-6117
可得	-6118
医疗服务	-6119
付出	-6120
地产	-6121
积分	-6122
lic	-6123
日本的	-6124
选择适合自己的	-6125
享受着	-6126
大气层	-6127
还有许多	-6128
param	-6129
酱油	-6130
推荐吗	-6131
vid	-6132
聚类	-6133
风能	-6134
其中包含	-6135
ys	-6136
停车	-6137
很有趣	-6138
调味料	-6139
将其中的	-6140
智力	-6141
该文章	-6142
我们可以从	-6143
IP	-6144
无聊	-6145
贷款	-6146
version	-6147
顾问	-6148
但不限于	-6149
人工智能技术在	-6150
都需要	-6151
class	-6152
膳食	-6153
人工智能领域	-6154
the	-6155
▁可以	-6156
▁data	-6157
▁language	-6158
上班	-6159
果实	-6160
算出	-6161
ins	-6162
历史上最	-6163
隐私保护	-6164
靠近	-6165
标准差	-6166
SA	-6167
其它	-6168
让他	-6169
心血管	-6170
联合国	-6171
推荐一部	-6172
更加注重	-6173
化妆	-6174
认识到	-6175
这句话的	-6176
身材	-6177
奥斯卡	-6178
序排列	-6179
▁year	-6180
宝石	-6181
中位数	-6182
有可能	-6183
不适	-6184
让你的	-6185
造型	-6186
牛顿	-6187
无比	-6188
有用的	-6189
连衣裙	-6190
今天早上	-6191
我可以帮您	-6192
启动	-6193
请随时告诉我	-6194
州的	-6195
▁who	-6196
在不同的	-6197
运动和	-6198
load	-6199
另一方面	-6200
提供的信息	-6201
▁every	-6202
设计的	-6203
应该怎么	-6204
你最喜欢的	-6205
也许	-6206
厚的	-6207
无法确定	-6208
▁写一篇关于环保的文章	-6209
和历史	-6210
不仅可以	-6211
丰富多彩	-6212
各种各样的	-6213
工厂	-6214
數據	-6215
埃菲尔铁塔	-6216
不在	-6217
德语	-6218
一定要	-6219
您觉得	-6220
因为他们	-6221
和优化	-6222
loat	-6223
有很多种	-6224
环保问题	-6225
能夠	-6226
好玩	-6227
斯拉	-6228
更准确的	-6229
来描述	-6230
去除	-6231
選擇	-6232
▁数据	-6233
在美国	-6234
更具体的	-6235
画家	-6236
调用	-6237
所以他	-6238
else	-6239
inst	-6240
ef	-6241
遥远	-6242
降雨	-6243
▁($	-6244
决策树	-6245
特朗	-6246
相机	-6247
个数	-6248
问我	-6249
较高的	-6250
临床	-6251
的解	-6252
的餐厅	-6253
尽可能地	-6254
ather	-6255
重要的角色	-6256
ower	-6257
治理	-6258
深受	-6259
零售	-6260
aime	-6261
古典音乐	-6262
自转	-6263
一定会	-6264
升起	-6265
猴子	-6266
因斯坦	-6267
能够更好地	-6268
API	-6269
那么请你	-6270
SC	-6271
一辆	-6272
猫和	-6273
权利和	-6274
至今	-6275
疼痛	-6276
会影响	-6277
和教育	-6278
开始了	-6279
▁seems	-6280
反转	-6281
流量	-6282
私人	-6283
药品	-6284
青年	-6285
列举一些	-6286
人脸	-6287
容器	-6288
强化学习	-6289
少的	-6290
戏剧	-6291
这有助于	-6292
机器学习技术	-6293
▁生成一个有关	-6294
电商	-6295
吸引力	-6296
ural	-6297
取消	-6298
密切	-6299
")\	-6300
ody	-6301
星球大战	-6302
太多	-6303
请再	-6304
违法	-6305
两位	-6306
▁ad	-6307
以下是我	-6308
▁when	-6309
改变我们的	-6310
效应	-6311
移民	-6312
共鸣	-6313
黑色的	-6314
igh	-6315
那请你	-6316
盛开	-6317
先进的	-6318
的角色	-6319
我不知道	-6320
让我感到	-6321
ui	-6322
白天	-6323
迎接	-6324
连贯	-6325
能源消耗	-6326
ush	-6327
和信息	-6328
主菜	-6329
利于	-6330
紧密	-6331
正面的	-6332
以下是几个	-6333
岁的	-6334
","	-6335
面积为	-6336
季度	-6337
的东西	-6338
积累	-6339
来完成	-6340
健康问题	-6341
积极参与	-6342
民主	-6343
代表着	-6344
的质量	-6345
▁tra	-6346
趣味	-6347
你有	-6348
细菌	-6349
生态平衡	-6350
sq	-6351
珊瑚	-6352
做出贡献	-6353
sp	-6354
上学	-6355
▁pizza	-6356
客观	-6357
伴侣	-6358
天文学	-6359
治疗方法	-6360
中的关键词	-6361
慈善	-6362
烦恼	-6363
处理器	-6364
把这些	-6365
团队成员	-6366
低碳	-6367
绝句	-6368
鸭子	-6369
Val	-6370
女性在	-6371
icrosoft	-6372
的技巧	-6373
特别是在	-6374
生菜	-6375
的和	-6376
乐队	-6377
人与	-6378
的最新	-6379
大陆	-6380
ache	-6381
水果和蔬菜	-6382
他要	-6383
青椒	-6384
我相信	-6385
请根据	-6386
可以得出	-6387
给了小红	-6388
)/	-6389
表情	-6390
▁+=	-6391
风格的	-6392
该句子	-6393
在未来的	-6394
飞舞	-6395
个水果	-6396
混合物	-6397
网站或	-6398
化简	-6399
的气息	-6400
这是一篇	-6401
甜蜜	-6402
相关的问题	-6403
照亮	-6404
系統	-6405
肌肤	-6406
配方	-6407
▁保持	-6408
和活动	-6409
字体	-6410
年级	-6411
___	-6412
ond	-6413
加起来	-6414
可以看	-6415
给我讲一个	-6416
▁random	-6417
一幅	-6418
忽视	-6419
是否正确	-6420
OR	-6421
追踪	-6422
做出了	-6423
eq	-6424
一旦	-6425
开启	-6426
arch	-6427
火腿	-6428
run	-6429
clude	-6430
至于	-6431
可用	-6432
小于	-6433
真相	-6434
把它们	-6435
个小朋友	-6436
▁good	-6437
冲浪	-6438
前来	-6439
▁这是	-6440
如果我	-6441
电影评论	-6442
信心	-6443
同意	-6444
护理	-6445
最佳的	-6446
詹姆斯	-6447
请对	-6448
无人驾驶	-6449
三体	-6450
公开	-6451
通過	-6452
产生了深远的影响	-6453
天地	-6454
领袖	-6455
到了一个	-6456
▁bl	-6457
▁避免	-6458
更快地	-6459
包括但不限于	-6460
缩写	-6461
进而	-6462
dex	-6463
已经被	-6464
价为	-6465
以减少	-6466
功能和	-6467
您是否	-6468
reak	-6469
广州	-6470
缓慢	-6471
▁\\	-6472
有望	-6473
引入	-6474
故乡	-6475
领先	-6476
对我们的	-6477
爱因斯坦	-6478
男生人数	-6479
▁part	-6480
下一	-6481
以前	-6482
都要	-6483
代码的	-6484
时期的	-6485
市场营销	-6486
banana	-6487
平等的	-6488
清洁能源	-6489
生涯	-6490
大写字母	-6491
以便更好地	-6492
采取措施来	-6493
ces	-6494
加拿大	-6495
圣母	-6496
金星	-6497
来获取	-6498
的部分	-6499
介绍一些	-6500
战胜	-6501
极其	-6502
灰色	-6503
试验	-6504
内涵	-6505
可可	-6506
欺诈	-6507
为一个	-6508
和影响	-6509
的美丽	-6510
篇小说	-6511
从此	-6512
惩罚	-6513
科学研究	-6514
代词	-6515
自己和	-6516
哈利波特	-6517
潜在的	-6518
演化	-6519
谜语	-6520
饮酒	-6521
了一只	-6522
资源和	-6523
实际情况	-6524
男女	-6525
香料	-6526
')\	-6527
可以再	-6528
的计算	-6529
值得一看	-6530
副词	-6531
加快	-6532
小吃	-6533
失去了	-6534
是一本	-6535
▁sub	-6536
电动汽车	-6537
万元	-6538
正文	-6539
向上	-6540
斯特	-6541
任务中	-6542
每小时	-6543
▁del	-6544
自己的梦想	-6545
▁Could	-6546
▁给定一篇文章	-6547
一生	-6548
已经开始	-6549
未来科技	-6550
树枝	-6551
优质的	-6552
入门	-6553
画作	-6554
这条	-6555
发现了一个	-6556
机器学习的	-6557
人工智能应用	-6558
版型	-6559
▁Un	-6560
员工的	-6561
将成为	-6562
所以小明	-6563
债券	-6564
边缘	-6565
算法来	-6566
这个名字	-6567
非常有趣	-6568
法院	-6569
消化	-6570
选手	-6571
joy	-6572
提交	-6573
现有	-6574
而又	-6575
String	-6576
这个文本	-6577
verse	-6578
AM	-6579
和你	-6580
游泳池	-6581
街头	-6582
沟通和	-6583
今晚	-6584
Param	-6585
▁总结	-6586
价格为	-6587
▁Z	-6588
▁表示	-6589
阳光下	-6590
模块	-6591
和智能	-6592
明确的	-6593
塑料污染	-6594
了多少	-6595
分给小红	-6596
烘焙	-6597
▁fn	-6598
全面的	-6599
地球上的	-6600
是否存在	-6601
推移	-6602
需要支付	-6603
摇曳	-6604
缺失	-6605
以满足	-6606
行走	-6607
餐饮	-6608
cre	-6609
达到了	-6610
我喜欢吃	-6611
man	-6612
形成了	-6613
静静	-6614
挑选	-6615
ors	-6616
的重量	-6617
出现次数	-6618
▁question	-6619
(\	-6620
家中	-6621
演出	-6622
酒吧	-6623
奋斗	-6624
的食品	-6625
蓝莓	-6626
配备	-6627
影响了	-6628
气体的	-6629
with	-6630
几天	-6631
加强对	-6632
勇气和	-6633
不仅仅是	-6634
▁number	-6635
▁多	-6636
将于	-6637
▁给出以下	-6638
卧室	-6639
品味	-6640
我的心	-6641
制定一个	-6642
空气质量	-6643
提高工作效率	-6644
▁苹果	-6645
例子中	-6646
题目中	-6647
古风	-6648
抓住	-6649
括号	-6650
提及	-6651
▁ph	-6652
是一個	-6653
更加高效	-6654
随着时间的	-6655
▁should	-6656
的作品	-6657
疲惫	-6658
iful	-6659
▁value	-6660
困惑	-6661
的中心	-6662
▁two	-6663
实际应用	-6664
表现出色	-6665
好听	-6666
授权	-6667
▁建立	-6668
的词语	-6669
这也是	-6670
承诺	-6671
维修	-6672
▁friend	-6673
透过	-6674
十二	-6675
花瓣	-6676
解析	-6677
寻求专业	-6678
南极洲	-6679
满了	-6680
复仇者	-6681
icial	-6682
宇航	-6683
▁美国	-6684
一群	-6685
乘客	-6686
变为	-6687
沉浸在	-6688
光合	-6689
农民	-6690
太平	-6691
ures	-6692
这种情况	-6693
对应	-6694
布斯	-6695
线索	-6696
它能够	-6697
如果您想要	-6698
OS	-6699
瀑布	-6700
▁Al	-6701
彼此的	-6702
设计师	-6703
atus	-6704
formation	-6705
批评	-6706
草木	-6707
分类器	-6708
▁What	-6709
感人	-6710
有价值	-6711
提取出来	-6712
打击	-6713
潺潺	-6714
ais	-6715
任务的	-6716
开放式	-6717
更加智能化	-6718
不见	-6719
百搭	-6720
▁下面	-6721
如果你有	-6722
引用	-6723
ues	-6724
享受到	-6725
黄色的	-6726
True	-6727
点缀	-6728
鲨鱼	-6729
一开始	-6730
您所在	-6731
扮演着	-6732
宗教信仰	-6733
▁been	-6734
環境	-6735
和预测	-6736
盖茨比	-6737
大厦	-6738
可以利用	-6739
elligence	-6740
拉斯	-6741
主题和	-6742
▁Write	-6743
体型	-6744
勇敢的	-6745
中文文本	-6746
观赏	-6747
公主	-6748
探索和	-6749
被用于	-6750
ative	-6751
py	-6752
利亚	-6753
可供	-6754
巴巴	-6755
的人口	-6756
进行翻译	-6757
▁或	-6758
把它	-6759
粘贴	-6760
▁分析	-6761
▁制作	-6762
是哪个	-6763
▁这是一个	-6764
压缩	-6765
成了	-6766
蚂蚁	-6767
集团	-6768
疫苗接种	-6769
▁有	-6770
切碎	-6771
每种	-6772
音乐和	-6773
▁our	-6774
越来越广泛	-6775
一门	-6776
十个	-6777
名单	-6778
喝水	-6779
盒子	-6780
"、	-6781
万里	-6782
对抗	-6783
处理和	-6784
我非常	-6785
复仇者联盟	-6786
自己喜欢的	-6787
▁u	-6788
活動	-6789
的夜晚	-6790
▁减少	-6791
的日期	-6792
营养素	-6793
审查	-6794
病例	-6795
在不同	-6796
更具体	-6797
正方形	-6798
我需要知道	-6799
cription	-6800
Un	-6801
交叉	-6802
宇宙中	-6803
我去了	-6804
▁art	-6805
抽取出	-6806
▁que	-6807
进行的	-6808
下了	-6809
烤肉	-6810
存在着	-6811
失踪	-6812
岛屿	-6813
翩翩	-6814
与他人	-6815
fo	-6816
海滨	-6817
红烧	-6818
时间表	-6819
科动物	-6820
====	-6821
家用	-6822
分词	-6823
糟糕	-6824
▁猫	-6825
现金	-6826
Type	-6827
$,	-6828
音乐的	-6829
参与者	-6830
查一下	-6831
那么现在	-6832
"]	-6833
精度	-6834
像是	-6835
到你	-6836
社會	-6837
复兴	-6838
因为他	-6839
平台上	-6840
想知道	-6841
ccess	-6842
人工智能将会	-6843
▁给定一段文本	-6844
松鼠	-6845
autiful	-6846
乐观	-6847
仅仅	-6848
的不	-6849
反映了	-6850
的体验	-6851
的英文	-6852
推荐一个	-6853
数目	-6854
花生	-6855
par	-6856
▁ال	-6857
外貌	-6858
水星	-6859
通常由	-6860
豪华	-6861
未知的	-6862
懒惰的狗	-6863
的同义词	-6864
还有什么	-6865
年度	-6866
找到一个	-6867
().	-6868
名称和	-6869
宝玉	-6870
是将	-6871
柠檬汁	-6872
帮我想一个	-6873
多项	-6874
烤制	-6875
更高效	-6876
字数	-6877
爬行	-6878
韩版	-6879
黛玉	-6880
猜测	-6881
▁its	-6882
字段	-6883
▁请为	-6884
是全球	-6885
健康状况	-6886
方法可以	-6887
个球	-6888
之美	-6889
最为	-6890
枝头	-6891
缺少	-6892
忙碌	-6893
并列出	-6894
房地产	-6895
耳朵	-6896
在家中	-6897
具体情况	-6898
蝉鸣	-6899
人工智能发展	-6900
便宜	-6901
约会	-6902
莎士	-6903
公共交通工具	-6904
繁华	-6905
统一	-6906
的列表	-6907
raph	-6908
▁their	-6909
ny	-6910
心的	-6911
的口感	-6912
它是一个	-6913
?“	-6914
带上	-6915
微软	-6916
air	-6917
Sp	-6918
卡路	-6919
伴随着	-6920
▁给我一个	-6921
香肠	-6922
可靠的	-6923
无人机	-6924
海洋生物	-6925
▁find	-6926
人工智能是	-6927
古迹	-6928
塑造	-6929
来表示	-6930
直角	-6931
ABC	-6932
▁学习	-6933
展现出	-6934
令人惊叹	-6935
为了帮助您	-6936
是一年中最	-6937
电力	-6938
例如在	-6939
的比例	-6940
▁they	-6941
树林	-6942
地了解	-6943
青少年	-6944
莎士比亚	-6945
主意	-6946
之路	-6947
要去	-6948
▁input	-6949
五种	-6950
西方	-6951
ait	-6952
形成的	-6953
历史上的	-6954
能告诉我	-6955
天数	-6956
▁--	-6957
万美元	-6958
是一座	-6959
的存在	-6960
▁生成一个描述	-6961
单元	-6962
扫描	-6963
拿铁	-6964
生产力	-6965
知名的	-6966
付款	-6967
团结	-6968
可回收	-6969
成立于	-6970
能力的	-6971
和感受	-6972
的知识	-6973
通过使用	-6974
?(	-6975
布局	-6976
被动	-6977
动物园	-6978
更适合	-6979
给我讲	-6980
需要用	-6981
pert	-6982
最高温度	-6983
业绩	-6984
▁**	-6985
▁!	-6986
反射	-6987
份额	-6988
纪录	-6989
不知	-6990
吉他	-6991
ane	-6992
慢性	-6993
一遍	-6994
极性	-6995
一样的	-6996
你有没有	-6997
和一些	-6998
巧克力蛋糕	-6999
NBA	-7000
化学反应	-7001
猪肉	-7002
词性	-7003
政策和	-7004
让读者	-7005
充足的睡眠	-7006
公民	-7007
天空中	-7008
▁None	-7009
尼斯	-7010
捕捉	-7011
活动的	-7012
让用户	-7013
卷积神经网络	-7014
对环境的影响	-7015
很高的	-7016
第一位	-7017
坐标	-7018
纸张	-7019
游戏的	-7020
已经成为了	-7021
珂珂	-7022
种子	-7023
▁请用	-7024
一种新的	-7025
海报	-7026
虚构	-7027
钥匙	-7028
和尊重	-7029
效益	-7030
跨越	-7031
便利和	-7032
在金融	-7033
的旅行	-7034
td	-7035
正义	-7036
rid	-7037
咖啡店	-7038
erry	-7039
树上	-7040
▁If	-7041
计算机系统	-7042
最喜欢的电影	-7043
流淌	-7044
▁找出	-7045
社会中	-7046
\)	-7047
和大	-7048
在该	-7049
事实上	-7050
情感的	-7051
DP	-7052
近日	-7053
请回答	-7054
如果一个	-7055
历史和文化	-7056
抒情	-7057
推断出	-7058
比小红	-7059
Cont	-7060
估计	-7061
值为	-7062
离子	-7063
耳机	-7064
女性的	-7065
高品质	-7066
拟合	-7067
个字符	-7068
我知道	-7069
列表中的	-7070
$$	-7071
.'	-7072
不如	-7073
我有	-7074
转移	-7075
ery	-7076
土星	-7077
摄像	-7078
疯狂	-7079
衣物	-7080
都被	-7081
严格的	-7082
优缺点	-7083
去中心	-7084
很容易	-7085
您认为	-7086
类型和	-7087
行为和	-7088
nect	-7089
进行分析	-7090
归纳	-7091
交通拥堵	-7092
你还可以	-7093
向您	-7094
随意	-7095
▁Ap	-7096
太好了	-7097
旅途中	-7098
这个城市	-7099
ech	-7100
共和国	-7101
▁¥	-7102
通讯	-7103
先将	-7104
▁answ	-7105
tfn	-7106
press	-7107
哪一个	-7108
或者在	-7109
中等	-7110
▁确定	-7111
的平均	-7112
给我一些关于	-7113
App	-7114
材料和	-7115
给人们	-7116
古诗续写	-7117
lement	-7118
实例	-7119
职责	-7120
雨林	-7121
作者对	-7122
是星期	-7123
排序后的	-7124
歌唱	-7125
与家人	-7126
并要求	-7127
mail	-7128
他们一起	-7129
ien	-7130
学习的	-7131
随着时间的推移	-7132
兄弟	-7133
内置	-7134
利率	-7135
加利	-7136
彩虹	-7137
Get	-7138
和提高	-7139
多样化	-7140
但这	-7141
航天	-7142
▁北京	-7143
icle	-7144
发光	-7145
可行	-7146
商场	-7147
▁从给定的	-7148
学生的学习	-7149
na	-7150
马拉雅	-7151
周五	-7152
我所	-7153
钓鱼	-7154
rad	-7155
。”\	-7156
在这些	-7157
几只	-7158
脚本	-7159
解题	-7160
部位	-7161
阿里巴巴	-7162
主观	-7163
拼音	-7164
糖和	-7165
纷纷	-7166
的美食	-7167
额外的	-7168
作出	-7169
cat	-7170
off	-7171
▁因为	-7172
我可以帮你	-7173
▁生成一首关于	-7174
格兰	-7175
▁关键词	-7176
帮助我们	-7177
的主题和	-7178
也就是说	-7179
如画	-7180
它还	-7181
直线	-7182
黄昏	-7183
该如何	-7184
社交媒体上	-7185
公交车	-7186
在医疗	-7187
给小红	-7188
lear	-7189
▁run	-7190
过来	-7191
阿凡	-7192
▁her	-7193
以下是一篇关于	-7194
不想	-7195
美观	-7196
价值和	-7197
圣母院	-7198
年前	-7199
静谧	-7200
喜马拉雅	-7201
养成	-7202
长颈	-7203
将继续	-7204
学家	-7205
田野	-7206
不喜欢	-7207
志愿者	-7208
如果需要	-7209
余数	-7210
▁id	-7211
▁重新	-7212
让我们来	-7213
乡村	-7214
然后在	-7215
的标题	-7216
首字母	-7217
,《	-7218
Ad	-7219
四川	-7220
最早	-7221
注释	-7222
短信	-7223
帮助我	-7224
日历	-7225
日至	-7226
爱和	-7227
▁判断	-7228
的天气情况	-7229
人才	-7230
oot	-7231
▁bu	-7232
信用卡	-7233
可以说	-7234
温暖和	-7235
mith	-7236
这种行为	-7237
情侣	-7238
门口	-7239
▁sk	-7240
与朋友	-7241
我们对	-7242
ouse	-7243
erver	-7244
温和	-7245
像人类	-7246
中最大的	-7247
特斯拉	-7248
的人数	-7249
废物	-7250
自由和	-7251
阿凡达	-7252
这些数据	-7253
请提供您想要	-7254
储存	-7255
将是	-7256
常用	-7257
舒缓	-7258
血液	-7259
金色	-7260
的有效	-7261
▁act	-7262
帮助用户	-7263
▁char	-7264
Object	-7265
▁以下	-7266
都有其	-7267
再来	-7268
應用	-7269
杂志	-7270
和维护	-7271
它通过	-7272
冰块	-7273
拍打	-7274
文化中	-7275
▁请回答	-7276
上涨	-7277
舒服	-7278
键盘	-7279
lst	-7280
真的很	-7281
▁under	-7282
ym	-7283
爬山	-7284
过敏	-7285
我会推荐	-7286
example	-7287
根本	-7288
转型	-7289
降临	-7290
并保持	-7291
▁Com	-7292
即可享用	-7293
▁context	-7294
CP	-7295
心理医生	-7296
数字列表	-7297
ength	-7298
',\	-7299
的效率和	-7300
唐诗	-7301
是一门	-7302
水资源	-7303
橡皮	-7304
深情	-7305
",\	-7306
****	-7307
▁cal	-7308
如何提高	-7309
▁只	-7310
百度	-7311
迷路	-7312
通顺	-7313
光合作用	-7314
数字是	-7315
的公司	-7316
更有效地	-7317
通常需要	-7318
非常感谢你的	-7319
寂寞	-7320
▁请问	-7321
同样的	-7322
并将它们	-7323
候选	-7324
拂过	-7325
洗衣	-7326
邪恶	-7327
max	-7328
国家和	-7329
▁many	-7330
海水	-7331
潜水	-7332
的概率	-7333
近义词	-7334
类型的电影	-7335
▁爱	-7336
一边	-7337
场地	-7338
彻底	-7339
看待	-7340
了一家	-7341
取代人类	-7342
请问他	-7343
?-	-7344
出租	-7345
▁som	-7346
▁本	-7347
初始	-7348
复合	-7349
日出	-7350
ift	-7351
这个过程	-7352
走到	-7353
几十年	-7354
的作者	-7355
▁给定一段	-7356
ます	-7357
裤子	-7358
惊人的	-7359
现在的	-7360
背景和	-7361
从数据中	-7362
必备	-7363
浓缩	-7364
游戏中	-7365
迷人的	-7366
外出	-7367
两句话	-7368
加入适量的	-7369
丽莎	-7370
看见	-7371
快乐和	-7372
的发生	-7373
的价格是	-7374
冷却	-7375
的美好	-7376
▁根据标题	-7377
orrect	-7378
你要	-7379
个小时	-7380
音乐家	-7381
减少浪费	-7382
军队	-7383
恶意	-7384
▁ent	-7385
给出一个	-7386
第五	-7387
繁忙	-7388
以及对	-7389
可以自动	-7390
改编	-7391
Mod	-7392
情人节	-7393
活动和	-7394
历史事件	-7395
产品和服务	-7396
产品或服务	-7397
是不是	-7398
它也	-7399
麻辣	-7400
▁Ex	-7401
宇航员	-7402
这是一段	-7403
如果你需要	-7404
与之	-7405
晴天	-7406
了这个	-7407
以保持	-7408
一些新的	-7409
哪些方面	-7410
维生素和	-7411
▁words	-7412
只需	-7413
解读	-7414
重的	-7415
青山	-7416
这首歌曲	-7417
一层	-7418
圣诞	-7419
料理	-7420
運動	-7421
tificial	-7422
可读性	-7423
的创意	-7424
回答您的问题	-7425
▁function	-7426
或中性	-7427
地理位置	-7428
▁other	-7429
做到	-7430
善于	-7431
还可以通过	-7432
台灣	-7433
分布式	-7434
长颈鹿	-7435
ular	-7436
在过去的	-7437
的糖果数	-7438
训练模型	-7439
避免过度	-7440
歧视和	-7441
▁人	-7442
简单易	-7443
旅游胜地	-7444
在城市	-7445
ta	-7446
恰当	-7447
日子	-7448
眼前	-7449
碗中	-7450
获胜	-7451
向量机	-7452
这些措施	-7453
里程	-7454
麻烦	-7455
▁Is	-7456
当前的	-7457
▁Con	-7458
对其进行	-7459
热水	-7460
ware	-7461
星际穿越	-7462
文化和历史	-7463
伯特	-7464
加利福	-7465
的投资	-7466
▁让我们	-7467
你可以选择	-7468
分离	-7469
可以进行	-7470
推荐系统	-7471
自然保护	-7472
失眠	-7473
岩石	-7474
心肺	-7475
豆类	-7476
智能客服	-7477
我无法提供	-7478
的故事情节	-7479
▁people	-7480
意图	-7481
艺术作品	-7482
▁count	-7483
回答上面的问题	-7484
是对	-7485
性能和	-7486
过多的	-7487
其他问题	-7488
AC	-7489
冲击	-7490
门票	-7491
如果我想	-7492
这家餐厅的	-7493
Facebook	-7494
模板	-7495
用法	-7496
▁请从	-7497
了一份	-7498
法律和	-7499
艺术形式	-7500
生成商品文案输入	-7501
▁帮我生成商品文案输入	-7502
复苏	-7503
宜人	-7504
金色的	-7505
中国传统	-7506
天气情况	-7507
onjour	-7508
后面	-7509
很高	-7510
误解	-7511
▁att	-7512
神怡	-7513
我不会	-7514
颜色和	-7515
主要包括	-7516
的发展和	-7517
▁回答问题	-7518
微观	-7519
▁em	-7520
气候变化的	-7521
女士	-7522
激动	-7523
选用	-7524
不断的	-7525
得到的	-7526
加利福尼亚	-7527
生态系统的	-7528
侵犯	-7529
误差	-7530
亲爱的	-7531
应用领域	-7532
))\	-7533
我就能	-7534
令人兴奋	-7535
小明买了	-7536
最高气温	-7537
建议你	-7538
▁off	-7539
生成文案	-7540
tc	-7541
夜空	-7542
议题	-7543
Log	-7544
raw	-7545
微信	-7546
进了	-7547
品牌和	-7548
回应	-7549
每天早上	-7550
从这篇文章中提取	-7551
准则	-7552
投資	-7553
永不	-7554
生产和	-7555
解决问题的	-7556
分钟的	-7557
的书籍	-7558
▁learning	-7559
IS	-7560
尊严	-7561
len	-7562
结果为	-7563
▁Int	-7564
▁pass	-7565
声明	-7566
飘落	-7567
时间是	-7568
留下了	-7569
的情节	-7570
Write	-7571
深圳	-7572
產品	-7573
个鸡蛋	-7574
公元前	-7575
在进行	-7576
如果要	-7577
▁bel	-7578
赞美	-7579
所有人	-7580
olut	-7581
他对	-7582
投票	-7583
治愈	-7584
皇帝	-7585
越来越多的人	-7586
密斯	-7587
照明	-7588
▁she	-7589
我们需要将	-7590
叙述	-7591
特朗普	-7592
一则	-7593
陶醉	-7594
"、"	-7595
不可或缺的一部分	-7596
为其	-7597
佛教	-7598
cel	-7599
旷神怡	-7600
的日子	-7601
▁对于给定的	-7602
头痛	-7603
聚集	-7604
乔布斯	-7605
咖啡豆	-7606
被用来	-7607
可能会影响	-7608
与你	-7609
占据	-7610
点和	-7611
相处	-7612
看了	-7613
者和	-7614
高峰	-7615
两个数	-7616
▁She	-7617
手工艺品	-7618
uc	-7619
等地	-7620
去海边	-7621
随机数	-7622
▁个糖果	-7623
数字货币	-7624
混合在一起	-7625
▁using	-7626
az	-7627
简明	-7628
动作片	-7629
在我的	-7630
▁gener	-7631
vo	-7632
代数	-7633
家长	-7634
開始	-7635
来选择	-7636
不受	-7637
器官	-7638
的那	-7639
项目的	-7640
tex	-7641
自然语言处理和	-7642
工具和	-7643
的生物	-7644
▁htt	-7645
生成一个关于	-7646
衡量	-7647
智慧和	-7648
cept	-7649
我很高兴	-7650
确切	-7651
远方	-7652
▁ag	-7653
实用的	-7654
ital	-7655
可以增加	-7656
可以应用于	-7657
主旨	-7658
个人隐私	-7659
虚拟现实技术	-7660
轻盈	-7661
骑士	-7662
实验室	-7663
文本中的关键词	-7664
东方	-7665
有更多的	-7666
中文翻译是	-7667
习俗	-7668
并以	-7669
拜登	-7670
牙齿	-7671
▁我的	-7672
主题为	-7673
字典	-7674
是指在	-7675
您有什么	-7676
空白	-7677
play	-7678
块巧克力	-7679
职业发展	-7680
复杂的问题	-7681
委员	-7682
艾米	-7683
fter	-7684
plit	-7685
▁告诉我	-7686
散发	-7687
心旷神怡	-7688
▁than	-7689
所示	-7690
有何	-7691
行各	-7692
为人们	-7693
角色的	-7694
ey	-7695
两边	-7696
她们	-7697
Set	-7698
优点和	-7699
极大地	-7700
的自然	-7701
的应用程序	-7702
夜幕	-7703
宽度	-7704
我能	-7705
因此可以	-7706
世界各地的	-7707
得以	-7708
供应链	-7709
的智能	-7710
生日礼物	-7711
表达自己的	-7712
自在	-7713
适合的	-7714
世界各地	-7715
生成任务	-7716
守护	-7717
这种技术	-7718
ences	-7719
讲解	-7720
一本书	-7721
是地球	-7722
过去的	-7723
should	-7724
▁start	-7725
一半	-7726
虚假	-7727
运动鞋	-7728
首先需要	-7729
忽略	-7730
去哪里	-7731
一个句子	-7732
我很喜欢	-7733
图表	-7734
实惠	-7735
级别	-7736
遭遇	-7737
金钱	-7738
骑行	-7739
病人的	-7740
▁car	-7741
可持续的	-7742
最好的朋友	-7743
并非	-7744
的高度	-7745
但同时也	-7746
化学物质	-7747
▁该	-7748
▁随着	-7749
激烈的	-7750
音乐节	-7751
文艺复兴	-7752
是很	-7753
不同种类	-7754
▁从以下句子	-7755
人工智能可以帮助	-7756
乐园	-7757
海豚	-7758
漫画	-7759
票房	-7760
跟着	-7761
可以对	-7762
行各业	-7763
支持向量机	-7764
持久	-7765
活力的	-7766
这本小说	-7767
口碑	-7768
必需	-7769
▁对以下	-7770
因此无法	-7771
这段代码	-7772
写下	-7773
斐波	-7774
浓郁的	-7775
:"))	-7776
夏季旅游	-7777
▁great	-7778
小熊	-7779
的意义	-7780
两个朋友	-7781
人类社会	-7782
最低温度	-7783
ating	-7784
这两个句子	-7785
config	-7786
基础设施	-7787
温室气体的	-7788
入侵	-7789
大概	-7790
样式	-7791
和保护	-7792
的态度	-7793
可以看到	-7794
各行各业	-7795
▁新	-7796
装置	-7797
要素	-7798
来预测	-7799
能提供	-7800
环保措施	-7801
万人	-7802
声誉	-7803
文言	-7804
王五	-7805
童话	-7806
那契	-7807
金山	-7808
类似的	-7809
▁used	-7810
两次	-7811
建模	-7812
了一段	-7813
你应该	-7814
在一些	-7815
特点和	-7816
表达对	-7817
道德的	-7818
医疗诊断	-7819
斐波那契	-7820
区分	-7821
惊讶	-7822
惊险	-7823
cal	-7824
阳光和	-7825
斯林	-7826
流感	-7827
ton	-7828
设备的	-7829
orrow	-7830
有助于提高	-7831
PI	-7832
li	-7833
中立	-7834
质感	-7835
并输出结果	-7836
在这个例子中	-7837
▁details	-7838
不安	-7839
日语	-7840
小兔子	-7841
和更	-7842
石油	-7843
喝咖啡	-7844
方面的应用	-7845
我很乐意帮助您	-7846
当他	-7847
联邦	-7848
▁时间	-7849
不错的	-7850
出来的	-7851
史密斯	-7852
是积极的	-7853
诊断疾病	-7854
▁创作一首	-7855
引领	-7856
意式	-7857
流派	-7858
火箭	-7859
较大	-7860
.""	-7861
制作的	-7862
柔软的	-7863
五言绝句	-7864
还有哪些	-7865
▁水	-7866
检索	-7867
模糊	-7868
轻轻地	-7869
利的	-7870
视角	-7871
震撼	-7872
▁Get	-7873
我建议你	-7874
tm	-7875
▁那	-7876
隔离	-7877
的朋友	-7878
塑料制品	-7879
现代科技	-7880
DE	-7881
构造	-7882
别人的	-7883
可行的	-7884
教育领域	-7885
发行	-7886
起伏	-7887
想了解	-7888
要计算	-7889
更多的人	-7890
▁float	-7891
▁response	-7892
YY	-7893
指代	-7894
荡漾	-7895
小男孩	-7896
表达出	-7897
▁请给我	-7898
▁生成一份	-7899
女儿	-7900
女生人数	-7901
然后使用	-7902
社交网络	-7903
易读	-7904
酱汁	-7905
折叠	-7906
▁电影	-7907
气候变化对	-7908
]。	-7909
拍照	-7910
还在	-7911
以确定	-7912
和控制	-7913
字左右	-7914
中文句子	-7915
坚持不懈	-7916
从这篇文章中提取出	-7917
倡导	-7918
认证	-7919
了不起	-7920
和交通	-7921
▁had	-7922
以下几点	-7923
这个世界	-7924
Windows	-7925
俱乐	-7926
南方	-7927
原料	-7928
▁摘要	-7929
明亮的	-7930
等功能	-7931
LECT	-7932
爱情的诗歌	-7933
生成一些	-7934
百年孤独	-7935
你可以通过	-7936
与我	-7937
意志	-7938
曲线	-7939
包括了	-7940
数的和	-7941
外国	-7942
常规	-7943
耐用	-7944
准确率	-7945
小故事	-7946
文言文	-7947
設計	-7948
为基础	-7949
二进制	-7950
模式和	-7951
等活动	-7952
();\	-7953
缓解焦虑	-7954
En	-7955
Me	-7956
结交	-7957
生活习惯	-7958
边界	-7959
关注的	-7960
炎热的	-7961
▁什么是	-7962
社交媒体平台	-7963
出口	-7964
或许	-7965
历史和	-7966
happy	-7967
小芳	-7968
根據	-7969
sub	-7970
运算符	-7971
time	-7972
推荐一款	-7973
会上	-7974
家电	-7975
缩短	-7976
股市	-7977
比特币	-7978
当您	-7979
诸多	-7980
()`	-7981
amb	-7982
口味和	-7983
▁年	-7984
无声	-7985
绿叶	-7986
系统中	-7987
中最重要的	-7988
减排	-7989
口味的	-7990
在这个季节里	-7991
卡片	-7992
和有	-7993
Net	-7994
到一个	-7995
的学习	-7996
能帮我	-7997
炒饭	-7998
拖延	-7999
结婚	-8000
最多的	-8001
金字	-8002
鸡翅	-8003
▁爱情	-8004
等任务	-8005
研究发现	-8006
英语口语	-8007
arget	-8008
为您提供帮助	-8009
校园	-8010
自然资源	-8011
ument	-8012
从而更好地	-8013
商家	-8014
相伴	-8015
太平洋	-8016
废弃物	-8017
打篮球	-8018
不管	-8019
下面是一	-8020
软件开发	-8021
▁à	-8022
噪音	-8023
困扰	-8024
的首都	-8025
这幅画	-8026
的一个重要	-8027
净化	-8028
金字塔	-8029
进行计算	-8030
南部	-8031
来临	-8032
▁定期	-8033
美妙的	-8034
也带来了	-8035
深入了解	-8036
辅助医生	-8037
我可以帮助您	-8038
与此	-8039
架构	-8040
壮观的	-8041
晒太阳	-8042
医学图像	-8043
思维方式	-8044
知识和技能	-8045
都市	-8046
在全球范围内	-8047
收藏	-8048
你希望	-8049
是由于	-8050
▁information	-8051
夜间	-8052
活跃	-8053
args	-8054
环保行动	-8055
分组	-8056
创立	-8057
力度	-8058
瑞士	-8059
行为的	-8060
记者	-8061
发动机	-8062
方法和	-8063
ited	-8064
科技新闻	-8065
蔬菜和水果	-8066
并按照	-8067
size	-8068
内在	-8069
农村	-8070
手臂	-8071
梦境	-8072
可能对	-8073
提高效率	-8074
未来城市	-8075
UT	-8076
高中	-8077
语言和	-8078
太阳系中	-8079
消费者的	-8080
焦虑和压力	-8081
给我推荐一些	-8082
我国	-8083
克里斯	-8084
avor	-8085
根据题意	-8086
▁also	-8087
非常感谢您的	-8088
▁program	-8089
找回	-8090
▁ve	-8091
公正的	-8092
变得更	-8093
作为一种	-8094
该公司的	-8095
非常出色	-8096
每日	-8097
江南	-8098
过多	-8099
程度上	-8100
Test	-8101
小写	-8102
进口	-8103
读者的	-8104
▁only	-8105
='	-8106
极地	-8107
红球	-8108
薯片	-8109
Col	-8110
和脂肪	-8111
▁sun	-8112
可能存在	-8113
我们的产品	-8114
美丽的海滩	-8115
四大	-8116
时节	-8117
问候	-8118
▁min	-8119
▁module	-8120
描绘了	-8121
摄像头	-8122
贾宝玉	-8123
这里有	-8124
▁mat	-8125
▁rec	-8126
感谢您的	-8127
的摄入量	-8128
还是其他	-8129
▁week	-8130
区的	-8131
ape	-8132
动植物	-8133
可爱的小	-8134
器材	-8135
對於	-8136
游记	-8137
You	-8138
和研究	-8139
幸福感	-8140
心中的	-8141
总结一下	-8142
续写古诗	-8143
自制	-8144
茶叶	-8145
雨水	-8146
快速的	-8147
▁写一首	-8148
结果表明	-8149
送给小红	-8150
发掘	-8151
电源	-8152
紧凑	-8153
出一些	-8154
成荫	-8155
法式	-8156
飞船	-8157
行业中	-8158
▁sup	-8159
义务	-8160
手指	-8161
高端	-8162
决赛	-8163
极限	-8164
谁是	-8165
医生的	-8166
力量训练	-8167
能够帮助您	-8168
大幅	-8169
女人	-8170
煸炒	-8171
表中	-8172
它不仅	-8173
>\	-8174
三文	-8175
荷兰	-8176
lib	-8177
很重要	-8178
的情绪	-8179
不同的人	-8180
热门话题	-8181
pi	-8182
惊悚	-8183
艰难	-8184
▁你的	-8185
减少碳排放	-8186
La	-8187
加大	-8188
文中	-8189
采集	-8190
sible	-8191
活泼	-8192
立体	-8193
全麦面包	-8194
翻译为中文	-8195
唐朝	-8196
洗手	-8197
脚步	-8198
制造商	-8199
穆斯林	-8200
现代社会中	-8201
英文句子翻译成中文	-8202
他送	-8203
去的	-8204
而非	-8205
可以增强	-8206
有一定的	-8207
好好	-8208
寺庙	-8209
狗和	-8210
▁di	-8211
▁sm	-8212
的一项	-8213
吹拂	-8214
等级	-8215
般的	-8216
:\[	-8217
▁fl	-8218
卡路里	-8219
可能有	-8220
坚韧	-8221
损坏	-8222
配上	-8223
友好的	-8224
历史悠久	-8225
市民	-8226
绘制	-8227
每个朋友可以分到	-8228
黑洞的	-8229
▁state	-8230
云南	-8231
益处	-8232
鲜美	-8233
arr	-8234
orry	-8235
ception	-8236
巴塞	-8237
音樂	-8238
▁检查	-8239
设备和	-8240
流行歌曲	-8241
经济增长	-8242
Bonjour	-8243
嬉戏	-8244
健身计划	-8245
平均分配	-8246
自由女神	-8247
II	-8248
随后	-8249
也是一种	-8250
▁inst	-8251
毛衣	-8252
登录	-8253
企业家	-8254
这种方法	-8255
▁写一篇有关	-8256
我们应该尊重	-8257
多年	-8258
进行比较	-8259
各种不同的	-8260
▁完成	-8261
您应该	-8262
並且	-8263
印刷	-8264
手里	-8265
料酒	-8266
用词	-8267
算式	-8268
走路	-8269
服务和	-8270
林黛玉	-8271
了吗	-8272
主要内容	-8273
我们也需要	-8274
好评	-8275
朵花	-8276
警惕	-8277
它使用	-8278
比其他	-8279
形成一个	-8280
问他	-8281
方式来	-8282
身心健康	-8283
最终的答案是	-8284
▁answer	-8285
人力	-8286
保护和	-8287
副作用	-8288
▁从以下文本中提取	-8289
一支	-8290
是从	-8291
怎么办	-8292
人脸识别	-8293
足球比赛	-8294
▁look	-8295
▁给定以下	-8296
平等的机会	-8297
力量和	-8298
新能源	-8299
几颗糖果	-8300
心理咨询师	-8301
亲密	-8302
搞笑	-8303
我感到	-8304
HTML	-8305
日记	-8306
明智	-8307
▁技术	-8308
喜好和	-8309
违反了	-8310
ped	-8311
将这个	-8312
推动了	-8313
▁order	-8314
As	-8315
事务	-8316
俯卧	-8317
如何影响	-8318
购物中心	-8319
可是	-8320
和无	-8321
所未	-8322
梦中	-8323
环节	-8324
▁<<	-8325
是一道	-8326
在这篇文章中	-8327
掌控	-8328
雕塑	-8329
net	-8330
了不起的	-8331
推理过程	-8332
依次	-8333
单独	-8334
wit	-8335
希望能	-8336
要保持	-8337
可以分为	-8338
▁feel	-8339
LO	-8340
千里	-8341
菠萝	-8342
迭代	-8343
可以采取	-8344
身体状况	-8345
其在	-8346
平板	-8347
欢笑	-8348
一下吗	-8349
三文鱼	-8350
应该被	-8351
聪明的	-8352
伦理问题	-8353
可以被分类为	-8354
为止	-8355
热点	-8356
草坪	-8357
lex	-8358
▁Cl	-8359
主要的	-8360
的开头	-8361
的铅笔	-8362
航空公司	-8363
这部电影的	-8364
▁orange	-8365
售价	-8366
深刻地	-8367
▁message	-8368
ROM	-8369
ird	-8370
主题或	-8371
精美的	-8372
▁way	-8373
根据你的	-8374
请问有什么	-8375
每个朋友可以得到	-8376
可信	-8377
理财	-8378
家庭的	-8379
日期是	-8380
进行调整	-8381
国王	-8382
浓度	-8383
谈谈	-8384
阻止	-8385
来自于	-8386
usic	-8387
index	-8388
import	-8389
算术	-8390
▁然后	-8391
在夏天	-8392
该问题	-8393
▁going	-8394
▁引	-8395
诺贝尔	-8396
puter	-8397
可以更好地	-8398
俯卧撑	-8399
和自我	-8400
单词列表	-8401
正方形的	-8402
#{	-8403
中式	-8404
了一次	-8405
▁une	-8406
通过分析	-8407
一个简单的	-8408
$。	-8409
愤怒	-8410
的方向	-8411
第三方	-8412
当地美食	-8413
南瓜	-8414
市场份额	-8415
用户输入	-8416
充实	-8417
过了	-8418
俱乐部	-8419
公正和	-8420
▁生成一首诗歌	-8421
oe	-8422
件人	-8423
少量	-8424
以下句子进行	-8425
原价	-8426
开源	-8427
礼貌	-8428
中添加	-8429
有多少个	-8430
太阳能电池	-8431
何处	-8432
所给	-8433
排球	-8434
游玩	-8435
的山	-8436
的长	-8437
黄山	-8438
再加上	-8439
那里的	-8440
那么这个	-8441
传奇	-8442
▁给你	-8443
人名和	-8444
但我可以	-8445
最低气温	-8446
范围内的	-8447
与其	-8448
厨师	-8449
用作	-8450
骨头	-8451
of	-8452
sc	-8453
备份	-8454
演示	-8455
。”"	-8456
即可得到	-8457
喜马拉雅山脉	-8458
])	-8459
回来	-8460
摆脱	-8461
系数	-8462
缺陷	-8463
体现了	-8464
和未来	-8465
一些问题	-8466
增强现实	-8467
毅力	-8468
适用	-8469
▁公司	-8470
外星人	-8471
的商品	-8472
gest	-8473
尽量避免	-8474
浓缩咖啡	-8475
Id	-8476
▁秋	-8477
权力	-8478
不公平	-8479
这是我	-8480
▁first	-8481
极具	-8482
小猫咪	-8483
创造力和	-8484
Microsoft	-8485
勇士	-8486
在学校	-8487
ices	-8488
true	-8489
▁key	-8490
可以降低	-8491
他还	-8492
平底	-8493
王国	-8494
醒来	-8495
opy	-8496
建筑和	-8497
比小明	-8498
陌生人	-8499
▁tem	-8500
特的	-8501
膨胀	-8502
被告	-8503
酒精	-8504
可以采用	-8505
祝您	-8506
赞扬	-8507
的精神	-8508
inal	-8509
▁beautiful	-8510
天堂	-8511
押韵	-8512
言论	-8513
进度	-8514
▁An	-8515
欣赏到	-8516
遇到的	-8517
▁...	-8518
它们可以	-8519
每个单词	-8520
了一项	-8521
影响力	-8522
代入公式	-8523
遍历	-8524
HER	-8525
方便地	-8526
相结合	-8527
这里是	-8528
▁user	-8529
愿望	-8530
遗迹	-8531
CEO	-8532
计划和	-8533
▁fil	-8534
的主题是	-8535
简短的摘要	-8536
病历	-8537
ote	-8538
去旅行	-8539
斐波那契数列	-8540
肿瘤	-8541
随风	-8542
pet	-8543
孤独的	-8544
塑料垃圾	-8545
以下是一篇	-8546
供您	-8547
条件下	-8548
▁reg	-8549
▁sur	-8550
这些活动	-8551
击败	-8552
旁边	-8553
起舞	-8554
珍贵的	-8555
西兰花	-8556
sqrt	-8557
小明今天	-8558
table	-8559
请在	-8560
不得不	-8561
的词汇	-8562
▁Smith	-8563
作者的	-8564
和改进	-8565
首先要	-8566
format	-8567
>>	-8568
丰收	-8569
前面	-8570
壮观	-8571
action	-8572
族裔	-8573
泊尔	-8574
原因是	-8575
投资组合	-8576
社交活动	-8577
像人类一样	-8578
中秋	-8579
你所	-8580
好书	-8581
火焰	-8582
和探索	-8583
应用的	-8584
积极的情感	-8585
绳子	-8586
还将	-8587
maz	-8588
共同的	-8589
其中有	-8590
北京的	-8591
耐心和	-8592
平均分给他的	-8593
原创	-8594
液体	-8595
芯片	-8596
在他的	-8597
自身的	-8598
帮助他们	-8599
▁tell	-8600
上去	-8601
他决定	-8602
促进了	-8603
苹果和	-8604
英文短语	-8605
AD	-8606
书店	-8607
买到	-8608
嫌疑	-8609
帽子	-8610
珠宝	-8611
▁__	-8612
弥漫着	-8613
▁max	-8614
)^	-8615
赋予	-8616
回家的	-8617
快速地	-8618
旧金山	-8619
▁当	-8620
听众	-8621
税收	-8622
统治	-8623
探险家	-8624
最多可以	-8625
英语句子	-8626
这段文本中	-8627
他们的对话内容	-8628
充分的	-8629
故事中	-8630
ference	-8631
涂上	-8632
和主题	-8633
是否是	-8634
翻译的	-8635
人工智能系统	-8636
分辨	-8637
咳嗽	-8638
样子	-8639
进球	-8640
不客气	-8641
化妆品	-8642
因为我	-8643
大量数据	-8644
ething	-8645
IMD	-8646
在许多	-8647
ball	-8648
▁try	-8649
以上是一些	-8650
▁给定一个句子	-8651
手动	-8652
模拟人类	-8653
._	-8654
特效	-8655
And	-8656
起源于	-8657
表达了对	-8658
住在	-8659
赛事	-8660
倾向于	-8661
平均值为	-8662
是否需要	-8663
▁高	-8664
上市	-8665
十足	-8666
无关	-8667
▁上海	-8668
人性的	-8669
独立的	-8670
各个方面	-8671
的时间和	-8672
我们需要采取	-8673
使命	-8674
妻子	-8675
局限	-8676
帅气	-8677
日期信息	-8678
被动语态	-8679
我将帮助您	-8680
([	-8681
la	-8682
免受	-8683
唯一的	-8684
的冒险	-8685
▁did	-8686
爬行动物	-8687
元音	-8688
yes	-8689
添加到	-8690
叶斯	-8691
杯中	-8692
跑了	-8693
阿拉	-8694
比分	-8695
竹子	-8696
那就	-8697
高达	-8698
非常棒	-8699
绿树成荫	-8700
▁fact	-8701
之下	-8702
依旧	-8703
唯有	-8704
标语	-8705
舞台	-8706
akes	-8707
▁fam	-8708
少数民族	-8709
请给我一些	-8710
点点	-8711
確保	-8712
玩游戏	-8713
生成一个包含	-8714
▁假	-8715
一对	-8716
肥胖	-8717
把这个	-8718
最具	-8719
▁je	-8720
问一下	-8721
ming	-8722
▁mon	-8723
外表	-8724
差距	-8725
滋润	-8726
發現	-8727
并尝试	-8728
的人生	-8729
银河系	-8730
iron	-8731
你的问题	-8732
他开始	-8733
join	-8734
▁山	-8735
影响到	-8736
抗氧化	-8737
描述的	-8738
▁log	-8739
交响	-8740
伸展	-8741
哑铃	-8742
cul	-8743
函数的	-8744
这些因素	-8745
会被	-8746
安慰	-8747
清晰的	-8748
less	-8749
安全性和	-8750
以内	-8751
去世	-8752
加速度	-8753
填入	-8754
带领	-8755
星光	-8756
贝叶斯	-8757
会儿	-8758
变形	-8759
外面	-8760
湛蓝	-8761
监狱	-8762
还原	-8763
预定	-8764
Int	-8765
回到了	-8766
巴塞罗	-8767
职业生涯	-8768
该怎么办	-8769
产生负面影响	-8770
健康的生活方式	-8771
享有	-8772
地说	-8773
洗净	-8774
而来	-8775
递归	-8776
不断学习和	-8777
▁provid	-8778
▁根据提供的文本	-8779
从高	-8780
截止	-8781
每只	-8782
诉讼	-8783
这对	-8784
我将尽力	-8785
相思	-8786
被困	-8787
▁du	-8788
人类和	-8789
的一切	-8790
给我几个	-8791
▁Java	-8792
▁type	-8793
机器学习是	-8794
以下句子中的	-8795
因其	-8796
秋冬	-8797
▁加强	-8798
热门的	-8799
的年龄	-8800
希望能够	-8801
We	-8802
全谷	-8803
想起	-8804
散射	-8805
类的	-8806
ats	-8807
选项中	-8808
都具有	-8809
▁mor	-8810
巴塞罗那	-8811
通常包括	-8812
他又	-8813
将来	-8814
并提出	-8815
预测和	-8816
▁对给定的	-8817
从小到大的	-8818
top	-8819
的地区	-8820
我的朋友	-8821
自由女神像	-8822
弯曲	-8823
得很	-8824
农历	-8825
一部电影	-8826
▁请告诉我	-8827
的关键信息	-8828
意为	-8829
野外	-8830
▁//	-8831
▁今天	-8832
星期五	-8833
的普及	-8834
mo	-8835
糖果数	-8836
上下文信息	-8837
我可以为你	-8838
人称	-8839
光滑	-8840
决心	-8841
天下	-8842
竞技	-8843
并不能	-8844
許多	-8845
跳绳	-8846
需要进一步	-8847
是一种常见的	-8848
人们会	-8849
在处理	-8850
尼泊尔	-8851
这可能	-8852
tfor	-8853
你可以去	-8854
撰写一篇	-8855
机器学习模型	-8856
生气	-8857
行李	-8858
将文本	-8859
红烧肉	-8860
器的	-8861
相乘	-8862
调试	-8863
运作	-8864
和美食	-8865
数学书	-8866
ique	-8867
新冠病毒	-8868
更多的信息	-8869
等多个领域	-8870
到您	-8871
协同	-8872
钱包	-8873
将所有	-8874
比萨饼	-8875
个小	-8876
常数	-8877
漏洞	-8878
腌制	-8879
▁sent	-8880
得知	-8881
包裹	-8882
已有	-8883
畅销	-8884
听到了	-8885
从小到大	-8886
rough	-8887
了不起的盖茨比	-8888
维生素和矿物质	-8889
次方	-8890
适中	-8891
der	-8892
以达到	-8893
可以促进	-8894
等于多少	-8895
▁false	-8896
▁expect	-8897
因人	-8898
打败	-8899
电磁	-8900
今年的	-8901
有关的	-8902
如下所示	-8903
作物	-8904
切片	-8905
稍微	-8906
正在寻找	-8907
也可以通过	-8908
任何形式的	-8909
排除	-8910
见解	-8911
起点	-8912
了他的	-8913
ways	-8914
这是一款	-8915
随着人工智能技术的	-8916
深邃	-8917
时间为	-8918
能源的	-8919
发现了一	-8920
进行选择	-8921
Value	-8922
我非常喜欢	-8923
SV	-8924
一块	-8925
产权	-8926
男生和	-8927
关于如何	-8928
当今社会	-8929
我会为您	-8930
velop	-8931
好看的小说	-8932
更好地理解和	-8933
索引	-8934
见面	-8935
诚实	-8936
诸如	-8937
轻柔	-8938
部署	-8939
将更加	-8940
的温度	-8941
的第一	-8942
demy	-8943
当下	-8944
敌人	-8945
种种	-8946
Ver	-8947
灵活性	-8948
的美景	-8949
胡椒粉	-8950
可以包括	-8951
智能交通	-8952
分裂	-8953
▁介绍	-8954
进行训练	-8955
滥用	-8956
▁我想	-8957
真实的	-8958
alth	-8959
iter	-8960
科技进步	-8961
随着科技的	-8962
五年	-8963
很久	-8964
服務	-8965
源于	-8966
吸引更多的	-8967
人工智能在医疗行业	-8968
发酵	-8969
家有	-8970
恋爱	-8971
狩猎	-8972
都不	-8973
ons	-8974
在选择	-8975
并采取	-8976
快乐的	-8977
让观众	-8978
▁enjoy	-8979
一台	-8980
奇迹	-8981
您所	-8982
her	-8983
可重复	-8984
系统和	-8985
总部位于	-8986
▁where	-8987
长达	-8988
anc	-8989
ung	-8990
Inst	-8991
▁rel	-8992
的糖果数量	-8993
减少温室气体排放	-8994
EN	-8995
两组	-8996
反向	-8997
或使用	-8998
▁movi	-8999
resent	-9000
加油	-9001
后代	-9002
▁sc	-9003
和歧视	-9004
建立了	-9005
旅行中	-9006
重新排列	-9007
得了	-9008
拿着	-9009
鸡丁	-9010
黑人	-9011
▁单词	-9012
rate	-9013
▁为一个	-9014
自己的情绪	-9015
集中注意力	-9016
叫声	-9017
这张	-9018
前所未	-9019
ments	-9020
icense	-9021
▁在给定的文本中	-9022
加厚	-9023
注入	-9024
营业	-9025
街上	-9026
高于	-9027
对不起	-9028
的措施	-9029
的基础上	-9030
深度学习技术	-9031
司机	-9032
地下	-9033
更大	-9034
落日	-9035
预警	-9036
不平等	-9037
历史的	-9038
相似的	-9039
reen	-9040
鼓励人们	-9041
这是一篇关于	-9042
,`	-9043
哥伦	-9044
终点	-9045
饺子	-9046
▁De	-9047
手里有	-9048
根据这个	-9049
联系方式	-9050
那么请问	-9051
achine	-9052
得到广泛应用	-9053
焦点	-9054
蒸汽	-9055
BMI	-9056
als	-9057
但是在	-9058
的动作	-9059
的短文	-9060
写的文章	-9061
仪式	-9062
奶泡	-9063
队的	-9064
lob	-9065
安全问题	-9066
▁could	-9067
以下是一些可能	-9068
电影中	-9069
相当于	-9070
等都是	-9071
实体识别	-9072
缤纷	-9073
VID	-9074
世界里	-9075
使我们	-9076
标志性	-9077
的出现	-9078
创作一个	-9079
电视节目	-9080
的主要观点是	-9081
。[	-9082
遇见	-9083
雇主	-9084
骑车	-9085
▁概括	-9086
出生于	-9087
改写成	-9088
的面积	-9089
交通方式	-9090
全球气温	-9091
负面情绪	-9092
ublic	-9093
对你有所帮助	-9094
解释一下什么是	-9095
].	-9096
大众	-9097
的心	-9098
线路	-9099
▁答案	-9100
听力	-9101
每月	-9102
粉丝	-9103
ref	-9104
明天的天气	-9105
;-	-9106
▁)	-9107
两者	-9108
作曲	-9109
好吧	-9110
怀疑	-9111
樱花	-9112
的花	-9113
的制作	-9114
的趋势	-9115
不断提高	-9116
三分	-9117
依靠	-9118
公路	-9119
友善	-9120
汤匙	-9121
是一件	-9122
象征着	-9123
▁And	-9124
相似之处	-9125
▁person	-9126
专辑	-9127
field	-9128
ha	-9129
的分类	-9130
速度和	-9131
rase	-9132
▁loc	-9133
▁ver	-9134
尝试新的	-9135
降低成本	-9136
ervice	-9137
世界上最大的	-9138
斗争	-9139
要有	-9140
健康生活	-9141
如果没有	-9142
今天天气真好	-9143
为一	-9144
对我	-9145
黄河	-9146
但我们	-9147
应该在	-9148
中的重要	-9149
计算一下	-9150
ential	-9151
的影响的文章	-9152
某人	-9153
看来	-9154
很乐意	-9155
交通运输	-9156
▁walk	-9157
秋天的诗歌	-9158
▁request	-9159
意境	-9160
构思	-9161
颗粒	-9162
人数的	-9163
心理治疗	-9164
节约用水	-9165
ession	-9166
▁请生成一个	-9167
可以被归类为	-9168
▁回答以下问题	-9169
保护我们的地球	-9170
。。	-9171
口袋	-9172
型男	-9173
威尔	-9174
精细	-9175
统计学	-9176
这个任务	-9177
需要采取	-9178
ourse	-9179
因素的影响	-9180
▁table	-9181
待办	-9182
砍伐	-9183
纳米	-9184
鸟语	-9185
▁Ar	-9186
打电话	-9187
。```	-9188
因人而异	-9189
人民共和国	-9190
][	-9191
咖喱	-9192
绿茶	-9193
起到	-9194
以适应	-9195
建议和	-9196
感受和	-9197
code	-9198
全球经济	-9199
是珠穆朗玛峰	-9200
bl	-9201
機器	-9202
逃离	-9203
但最终	-9204
▁cap	-9205
小明手里有	-9206
▁config	-9207
▁product	-9208
打折	-9209
选出	-9210
的天空	-9211
的总数	-9212
基因编辑	-9213
是多	-9214
env	-9215
不属于	-9216
他想要	-9217
valid	-9218
▁rest	-9219
人工智能已经	-9220
今日	-9221
深的	-9222
质地	-9223
防水	-9224
首都	-9225
▁ext	-9226
tWrite	-9227
感官	-9228
眼神	-9229
防护	-9230
总结出	-9231
防晒霜	-9232
▁never	-9233
人机	-9234
加坡	-9235
短缺	-9236
新西兰	-9237
以及其他	-9238
ns	-9239
说的	-9240
闪闪	-9241
鳄鱼	-9242
▁牛奶	-9243
或多个	-9244
是一首	-9245
的经历	-9246
可以帮我	-9247
关于夏天的诗歌	-9248
拿出	-9249
深夜	-9250
dir	-9251
和测试	-9252
才能够	-9253
的现象	-9254
的可能性	-9255
plication	-9256
花费了	-9257
静静地	-9258
Text	-9259
听起来不错	-9260
这篇文章的	-9261
▁before	-9262
列车	-9263
省份	-9264
黑白	-9265
CNN	-9266
个数字	-9267
有机会	-9268
Item	-9269
from	-9270
这是一本	-9271
的应用场景	-9272
起始	-9273
青蛙	-9274
为主要	-9275
公司在	-9276
▁ser	-9277
▁sort	-9278
帮我想一下	-9279
美好的未来	-9280
借助	-9281
做饭	-9282
五言诗	-9283
有利于	-9284
解方程	-9285
听听	-9286
蜘蛛	-9287
你最近	-9288
▁len	-9289
工作压力	-9290
周边	-9291
短期	-9292
可能在	-9293
委员会	-9294
短篇小说	-9295
这些单词	-9296
大蒜	-9297
沉默	-9298
铁路	-9299
根据个人	-9300
之间的距离	-9301
大量的数据	-9302
我可以为您提供	-9303
AL	-9304
珍贵	-9305
▁sa	-9306
找一个	-9307
深度学习算法	-9308
立场	-9309
aur	-9310
三个人	-9311
匆匆	-9312
印花	-9313
将被	-9314
广东	-9315
店铺	-9316
谜题	-9317
ets	-9318
▁现在	-9319
是一種	-9320
的总和	-9321
在我们的	-9322
构建一个	-9323
▁春	-9324
光明	-9325
迷人	-9326
等各种	-9327
营养成分	-9328
▁favor	-9329
去过	-9330
名人	-9331
羊肉	-9332
他喜欢	-9333
第二次	-9334
问题需要	-9335
ision	-9336
但她	-9337
各地	-9338
接口	-9339
给他	-9340
更多地	-9341
ains	-9342
gener	-9343
提供个性化的	-9344
可见	-9345
设立	-9346
面前	-9347
风情	-9348
amp	-9349
和音乐	-9350
什么时候	-9351
以下公式	-9352
的价格为	-9353
这取决于	-9354
按照字母顺序	-9355
填充	-9356
女主角	-9357
我们来	-9358
▁rem	-9359
Is	-9360
一把	-9361
倍数	-9362
姑娘	-9363
犹豫	-9364
璀璨	-9365
笑容	-9366
音箱	-9367
峡谷	-9368
杏仁	-9369
队员	-9370
ius	-9371
会议上	-9372
特色的	-9373
现有的	-9374
的要求	-9375
英文文章	-9376
▁example	-9377
商标	-9378
干预	-9379
rem	-9380
自由的	-9381
传统节日	-9382
出自	-9383
彼得	-9384
深厚	-9385
添加一些	-9386
输出结果为	-9387
传来	-9388
快递	-9389
藝術	-9390
New	-9391
免费的	-9392
init	-9393
UR	-9394
桃花	-9395
用电	-9396
豆瓣	-9397
不仅是	-9398
个小球	-9399
和风险	-9400
都能够	-9401
▁Par	-9402
也为	-9403
大楼	-9404
▁mu	-9405
浏览器	-9406
我们知道	-9407
时间和精力	-9408
翻译成现代	-9409
秒钟	-9410
糖醋	-9411
GDP	-9412
让我们的	-9413
到低	-9414
存款	-9415
整洁	-9416
有很大的	-9417
治疗效果	-9418
注意事项	-9419
▁best	-9420
De	-9421
TI	-9422
一股	-9423
眼镜	-9424
简述	-9425
这片	-9426
▁寻找	-9427
历史文化	-9428
巴黎圣母院	-9429
余晖	-9430
毁灭	-9431
疾病诊断	-9432
这个季节	-9433
另一种语言	-9434
星座	-9435
王子	-9436
和自然	-9437
和饮料	-9438
幸福的	-9439
魔法师	-9440
atic	-9441
▁article	-9442
床上	-9443
恶劣	-9444
晚宴	-9445
车型	-9446
威尼斯	-9447
必不可	-9448
这道菜	-9449
之間	-9450
出租车	-9451
有一种	-9452
ious	-9453
▁将一段	-9454
在某些情况下	-9455
保護	-9456
杭州	-9457
创意的	-9458
▁mult	-9459
将其分类为	-9460
公约	-9461
因果	-9462
个学生	-9463
制成的	-9464
基因组	-9465
组织和	-9466
ized	-9467
他的作品	-9468
深度学习和	-9469
append	-9470
▁better	-9471
士尼	-9472
素材	-9473
是哪里	-9474
特征和	-9475
现代化	-9476
目前的	-9477
迪士尼	-9478
需要对	-9479
logy	-9480
▁在一个	-9481
给我列出	-9482
可以帮助我	-9483
的重要因素	-9484
不论	-9485
到底	-9486
听着	-9487
最有	-9488
个橘子	-9489
研究的	-9490
ango	-9491
An	-9492
储蓄	-9493
快捷	-9494
清明	-9495
▁鸡蛋	-9496
更详细	-9497
相似性	-9498
以下几种	-9499
学位	-9500
实木	-9501
援助	-9502
韵律	-9503
人类对	-9504
来减少	-9505
HERE	-9506
cond	-9507
按字母顺序排序	-9508
防御	-9509
和问题	-9510
為什麼	-9511
纤维素	-9512
需要多	-9513
一个有趣的	-9514
人工智能助手	-9515
▁morning	-9516
▁海	-9517
》;	-9518
联赛	-9519
陶瓷	-9520
雨伞	-9521
会不会	-9522
的人们	-9523
自适应	-9524
tuse	-9525
代表性的	-9526
do	-9527
出售	-9528
反复	-9529
学的	-9530
延长	-9531
是我的	-9532
的饮食	-9533
重大的	-9534
一组数字	-9535
最后一个	-9536
金融服务	-9537
▁cult	-9538
▁dist	-9539
每个朋友能分到	-9540
加州	-9541
去处	-9542
想去	-9543
正则	-9544
油画	-9545
漂流	-9546
防范	-9547
不能被	-9548
应该得到	-9549
▁something	-9550
不久	-9551
所属	-9552
▁学会	-9553
揭示了	-9554
使用一些	-9555
▁创造一个	-9556
▁重写以下句子	-9557
看过	-9558
因此在	-9559
每年的	-9560
▁error	-9561
认同	-9562
来判断	-9563
注意到	-9564
这个短语	-9565
▁根据输入的	-9566
把握	-9567
期限	-9568
罗琳	-9569
预处理	-9570
view	-9571
它由	-9572
著作	-9573
stru	-9574
交通事故	-9575
商品描述	-9576
市场趋势	-9577
▁just	-9578
这篇文章主要	-9579
工人	-9580
气味	-9581
清水	-9582
这时	-9583
神奇的	-9584
一种新型	-9585
的代表作	-9586
的信息和	-9587
人工智能在医学	-9588
仰卧	-9589
命题	-9590
map	-9591
总体来说	-9592
自动化和	-9593
问题的答案	-9594
作息	-9595
夫妻	-9596
权重	-9597
梦幻	-9598
DIY	-9599
而有所不同	-9600
说说	-9601
的背景	-9602
营造出	-9603
▁ask	-9604
我们才能	-9605
弟弟	-9606
途中	-9607
骨骼	-9608
也无法	-9609
学生们	-9610
了自己的	-9611
提供各种	-9612
非常受欢迎的	-9613
发达	-9614
悠悠	-9615
杀手	-9616
珍珠	-9617
部和	-9618
龙虾	-9619
▁水果	-9620
朋友的	-9621
的食谱	-9622
装饰品	-9623
▁correct	-9624
▁Sentence	-9625
db	-9626
加以	-9627
杜甫	-9628
下一步	-9629
物质的	-9630
nder	-9631
正确答案	-9632
▁field	-9633
▁given	-9634
手上	-9635
额外	-9636
Host	-9637
ocol	-9638
圆的面积	-9639
你是否	-9640
图像和	-9641
集中在	-9642
▁went	-9643
Em	-9644
使它	-9645
柔韧	-9646
餐桌	-9647
的挑战	-9648
请计算	-9649
▁acc	-9650
▁FROM	-9651
我们可以得出	-9652
健康饮食的文章	-9653
举个	-9654
勃勃	-9655
如果您对	-9656
▁无	-9657
持有	-9658
笑语	-9659
问句	-9660
发展和	-9661
本文介绍了	-9662
orange	-9663
协商	-9664
指的	-9665
电流	-9666
礼仪	-9667
数量的	-9668
comm	-9669
是一种基于	-9670
是中国古代	-9671
通常指的是	-9672
El	-9673
是以	-9674
组织的	-9675
这样做	-9676
▁根据以下输入	-9677
暴露	-9678
古希腊	-9679
智能机器人	-9680
在日常生活中	-9681
▁热	-9682
存在于	-9683
小女孩	-9684
运动的	-9685
您的要求	-9686
弹性	-9687
爪子	-9688
><	-9689
以为	-9690
排骨	-9691
湿润	-9692
落下	-9693
div	-9694
head	-9695
▁York	-9696
▁去	-9697
心里	-9698
配菜	-9699
品尝到	-9700
html	-9701
zure	-9702
我想知道如何	-9703
的历史和文化	-9704
灯泡	-9705
率为	-9706
那样	-9707
执行任务	-9708
▁翻译成中文	-9709
温室气体的排放	-9710
文具	-9711
日在	-9712
极为	-9713
秩序	-9714
时间段	-9715
相对较	-9716
是否符合	-9717
有趣的事情	-9718
这样我就能	-9719
▁numbers	-9720
两条	-9721
▁张三	-9722
实现的	-9723
▁trad	-9724
环境保护的文章	-9725
ón	-9726
据说	-9727
红叶	-9728
▁指令	-9729
世纪初	-9730
人物的	-9731
和方法	-9732
股票价格	-9733
这座城市	-9734
中华人民共和国	-9735
投诉	-9736
酱料	-9737
饲养	-9738
riv	-9739
yle	-9740
中包含	-9741
政府的	-9742
▁mut	-9743
软件工程师	-9744
佩戴	-9745
天赋	-9746
碰撞	-9747
它具有	-9748
只有一个	-9749
就业市场	-9750
避免使用	-9751
一个字符串	-9752
翻译成现代文	-9753
书法	-9754
公布	-9755
菠菜	-9756
多样性和	-9757
洗发	-9758
烈日	-9759
語言	-9760
表面的	-9761
可能会有	-9762
金融机构	-9763
需要多少	-9764
生成一篇关于	-9765
不已	-9766
从大	-9767
德里	-9768
截至	-9769
▁see	-9770
尝试一些	-9771
盐和黑胡椒	-9772
修辞	-9773
套装	-9774
辆车	-9775
离开了	-9776
是什么时候	-9777
场上	-9778
热的	-9779
都将	-9780
房间里	-9781
第二天	-9782
需要通过	-9783
全力	-9784
发育	-9785
寓意	-9786
建于	-9787
晚饭	-9788
短句	-9789
飓风	-9790
▁他们	-9791
▁进行	-9792
会发生	-9793
多样化的	-9794
度假胜地	-9795
telse	-9796
北京的天气	-9797
整合	-9798
泡沫	-9799
若干	-9800
▁sim	-9801
回答一个	-9802
上述文本进行	-9803
二次	-9804
领导者	-9805
高血压	-9806
可以找到	-9807
流浪地球	-9808
前所未有的	-9809
与您	-9810
几次	-9811
雪花	-9812
▁We	-9813
探测器	-9814
的旅程	-9815
的目的	-9816
让您的	-9817
可以带来	-9818
可以看出	-9819
response	-9820
名和	-9821
中获得	-9822
的一部	-9823
的细节	-9824
的表演	-9825
vert	-9826
产品名称	-9827
提取一下	-9828
学习新技能	-9829
水源	-9830
渗透	-9831
的歌	-9832
肤色	-9833
赔偿	-9834
为客户	-9835
好吃的	-9836
的结构	-9837
start	-9838
写一篇文章	-9839
翻译成文言文	-9840
bu	-9841
报表	-9842
背包	-9843
同一个	-9844
的时刻	-9845
经典之作	-9846
训练数据	-9847
上述文本进行纠错	-9848
夜色	-9849
手环	-9850
美术	-9851
远足	-9852
Mac	-9853
▁增加	-9854
一方面	-9855
心情愉悦	-9856
中午	-9857
厉害	-9858
实力	-9859
岛上	-9860
马斯	-9861
应用到	-9862
http	-9863
正确的答案	-9864
SP	-9865
回文	-9866
强壮	-9867
朴素	-9868
各种任务	-9869
▁last	-9870
深度学习模型	-9871
士兵	-9872
暴雨	-9873
透露	-9874
度过了	-9875
▁yes	-9876
能够通过	-9877
▁them	-9878
放松身体和	-9879
殖民	-9880
真诚	-9881
背后	-9882
钻石	-9883
orn	-9884
我们已经	-9885
目标语言	-9886
▁specific	-9887
da	-9888
在了	-9889
未來	-9890
签署	-9891
花落	-9892
鹦鹉	-9893
鼻子	-9894
发布的	-9895
取得成功	-9896
机器学习在	-9897
上海市	-9898
说话者	-9899
文化背景	-9900
正面情感	-9901
财务状况	-9902
这篇论文	-9903
ustom	-9904
TA	-9905
幸运	-9906
微波	-9907
竞赛	-9908
米的	-9909
中秋节	-9910
发挥着	-9911
的景点	-9912
下列句子	-9913
功效	-9914
我只	-9915
时分	-9916
面部	-9917
但是它	-9918
开发的	-9919
负面的	-9920
原始句子	-9921
模拟人类的	-9922
崩溃	-9923
新颖	-9924
欺骗	-9925
比賽	-9926
水量	-9927
行人	-9928
优惠券	-9929
的材料	-9930
中国传统文化	-9931
上衣	-9932
代夫	-9933
花草	-9934
陆地	-9935
旅行者	-9936
的水果	-9937
通常被	-9938
从而减少	-9939
美好的季节	-9940
至关重要的	-9941
gs	-9942
受益	-9943
相爱	-9944
通用	-9945
在学习	-9946
森林中	-9947
还剩下多少	-9948
心率	-9949
是有	-9950
梨子	-9951
穿戴	-9952
马上	-9953
我想去	-9954
显著的	-9955
▁create	-9956
敏捷的棕色狐狸跳过了	-9957
与该	-9958
住了	-9959
拉丁	-9960
水晶	-9961
特区	-9962
界的	-9963
缓缓	-9964
美感	-9965
轻拂	-9966
简单地	-9967
ward	-9968
▁Res	-9969
数据科学	-9970
步骤如下	-9971
马尔代夫	-9972
▁process	-9973
交织	-9974
同時	-9975
坚强	-9976
通常使用	-9977
乐曲	-9978
占总	-9979
木材	-9980
连词	-9981
和舒适	-9982
标志着	-9983
环境下	-9984
的事实	-9985
翻译是	-9986
pany	-9987
做的事情	-9988
待办事项	-9989
我们公司	-9990
▁请将以下	-9991
向你	-9992
川菜	-9993
平时	-9994
道的	-9995
黄叶	-9996
▁注意	-9997
原来有	-9998
口感和	-9999
感觉到	-10000
推出了	-10001
Data	-10002
▁may	-10003
添加一个	-10004
这句话中	-10005
人工智能对	-10006
▁sorry	-10007
市場	-10008
抵抗	-10009
飘荡	-10010
bug	-10011
字母表	-10012
开发者	-10013
的科学	-10014
▁spe	-10015
四溢	-10016
充分利用	-10017
▁请回答下面的问题	-10018
?《	-10019
古城	-10020
对称	-10021
课堂	-10022
随之	-10023
▁Le	-10024
▁Sp	-10025
我们还	-10026
ness	-10027
▁translation	-10028
;(	-10029
熟透	-10030
越南	-10031
邻居	-10032
下个月	-10033
他发现	-10034
固定的	-10035
社会和	-10036
人类语言	-10037
从高到低	-10038
过程中的	-10039
ility	-10040
System	-10041
ersion	-10042
好奇心	-10043
在给定的	-10044
生成一句	-10045
▁文本纠错	-10046
合并成一个	-10047
No	-10048
映照	-10049
说出	-10050
时代的	-10051
技能和知识	-10052
最优	-10053
ken	-10054
带来一些	-10055
这些地方	-10056
低于	-10057
入睡	-10058
实行	-10059
尔斯	-10060
沉醉	-10061
金牌	-10062
ann	-10063
Open	-10064
pass	-10065
不确定性	-10066
我们一起	-10067
现在我想	-10068
等方式来	-10069
美好的回忆	-10070
Parameter	-10071
小雨	-10072
淡的	-10073
血糖	-10074
很喜欢	-10075
深深地	-10076
可以幫助	-10077
或者其他	-10078
目标受众	-10079
和可持续发展	-10080
提供一些关于	-10081
进行情感分类	-10082
人工智能在医疗	-10083
因為	-10084
洞穴	-10085
和技巧	-10086
ling	-10087
▁red	-10088
遇到了一个	-10089
▁п	-10090
推销	-10091
oad	-10092
关键点	-10093
控制和	-10094
List	-10095
所带来的	-10096
我需要您提供	-10097
一人	-10098
午后	-10099
台湾	-10100
放到	-10101
时态	-10102
煮沸	-10103
的第	-10104
西安	-10105
论坛	-10106
但是我	-10107
和娱乐	-10108
小明还剩	-10109
的历史和	-10110
使用可再生能源	-10111
潮湿	-10112
中加入	-10113
精准的	-10114
cribe	-10115
数据分析和	-10116
▁after	-10117
|\	-10118
在一	-10119
掉了	-10120
收纳	-10121
照射	-10122
解決	-10123
据报道	-10124
roll	-10125
这个句子的	-10126
▁param	-10127
▁对文本错误	-10128
你有什么建议吗	-10129
你将	-10130
可选	-10131
在你	-10132
寻常	-10133
段子	-10134
资本	-10135
轻易	-10136
再给我	-10137
原来的	-10138
新朋友	-10139
数据挖掘	-10140
蛋白质和	-10141
建立良好的	-10142
我有一个问题	-10143
ization	-10144
相连	-10145
几分钟	-10146
创造性	-10147
和焦虑	-10148
天王星	-10149
然后用	-10150
经济学	-10151
cause	-10152
在这个过程中	-10153
BC	-10154
Qu	-10155
人为	-10156
多层	-10157
的诗	-10158
警告	-10159
的地理	-10160
他们可以	-10161
官方网站	-10162
自己的话	-10163
平凡	-10164
脸上	-10165
荣誉	-10166
的人群	-10167
高科技	-10168
back	-10169
wrap	-10170
接下来的	-10171
线性回归	-10172
▁task	-10173
我就	-10174
损伤	-10175
林匹	-10176
电路	-10177
数百万	-10178
观众的	-10179
全球气候	-10180
药物治疗	-10181
你可以帮我	-10182
使其更加流畅	-10183
)(	-10184
▁夏天	-10185
我们也	-10186
服务的	-10187
免疫系统	-10188
尝试一下	-10189
提高医疗	-10190
更加便捷	-10191
输入文本	-10192
需要具备	-10193
phant	-10194
▁store	-10195
新年	-10196
象棋	-10197
描述为	-10198
中的错误	-10199
放松心情	-10200
最合适的	-10201
perty	-10202
中餐	-10203
向往	-10204
更长	-10205
涌现	-10206
风中	-10207
以保护	-10208
等方法	-10209
thor	-10210
也有一些	-10211
!!	-10212
常识	-10213
开了	-10214
樱桃	-10215
橙汁	-10216
画卷	-10217
续航	-10218
薯条	-10219
证实	-10220
Bob	-10221
ron	-10222
情况和	-10223
是不可	-10224
机会和	-10225
计算器	-10226
▁描述一个	-10227
丢失	-10228
双手	-10229
年至	-10230
How	-10231
史上的	-10232
文明的	-10233
正确地	-10234
品牌形象	-10235
iness	-10236
▁第	-10237
卫衣	-10238
只鸟	-10239
底部	-10240
您能	-10241
心灵的	-10242
改写为	-10243
希望这些信息	-10244
uration	-10245
京都	-10246
周六	-10247
以下的	-10248
我爱你	-10249
适合您的	-10250
arent	-10251
▁food	-10252
团体	-10253
园林	-10254
性价	-10255
薄荷	-10256
轮胎	-10257
hui	-10258
他们会	-10259
会议室	-10260
每天都	-10261
能量和	-10262
较大的	-10263
写作技巧	-10264
数千	-10265
Can	-10266
和语法	-10267
我们所	-10268
一些有关	-10269
学习如何	-10270
思考一下	-10271
更详细的	-10272
brainstorming	-10273
变换	-10274
拉克	-10275
网球	-10276
鸡腿	-10277
hes	-10278
的顺序	-10279
▁这句话	-10280
不断变化	-10281
的情感和	-10282
心血管疾病	-10283
苹果公司的	-10284
》《	-10285
小花	-10286
程度的	-10287
度过一个	-10288
挑战性的	-10289
去公园散步	-10290
ij	-10291
口红	-10292
夫妇	-10293
权限	-10294
▁ac	-10295
▁ke	-10296
希望和	-10297
每一次	-10298
▁differ	-10299
。)	-10300
条纹	-10301
粉色	-10302
dog	-10303
多元化	-10304
新加坡	-10305
还能够	-10306
item	-10307
▁请提供	-10308
你喜欢的	-10309
地球表面	-10310
环保的重要性	-10311
▁米	-10312
的光	-10313
了一位	-10314
以便在	-10315
小明买	-10316
观点和	-10317
NASA	-10318
vice	-10319
因此需要	-10320
新产品的	-10321
aking	-10322
mazon	-10323
给我一些创意	-10324
勤奋	-10325
厦门	-10326
受害	-10327
多芬	-10328
家务	-10329
沒有	-10330
著称	-10331
▁请对	-10332
去探索	-10333
表明了	-10334
▁were	-10335
▁将以下句子翻译成法语	-10336
有个	-10337
Ste	-10338
内容和	-10339
come	-10340
初学者的	-10341
学习新的	-10342
▁back	-10343
▁你能帮我	-10344
▁此外	-10345
▁练习	-10346
内部的	-10347
吸引着	-10348
水平的	-10349
的家庭	-10350
长期的	-10351
▁proble	-10352
不佳	-10353
吸引人的	-10354
有限公司	-10355
▁high	-10356
美好的时光	-10357
关于人工智能的	-10358
不禁	-10359
体内	-10360
池塘	-10361
生抽	-10362
篡改	-10363
以增加	-10364
进行总结	-10365
使人	-10366
海上	-10367
温泉	-10368
)]\	-10369
再利用	-10370
▁prom	-10371
的主要原因	-10372
招牌	-10373
等多	-10374
长江	-10375
充满着	-10376
北极熊	-10377
名字是	-10378
百分比	-10379
split	-10380
▁meet	-10381
隐私和安全	-10382
lephant	-10383
产生深远的影响	-10384
▁because	-10385
`,	-10386
です	-10387
宫保	-10388
尚未	-10389
肺炎	-10390
芬芳	-10391
希望你	-10392
有帮助	-10393
来获得	-10394
适合在	-10395
可以改善	-10396
您提供的	-10397
等多个方面	-10398
北欧	-10399
资格	-10400
ara	-10401
去海滩	-10402
和法律	-10403
学会了	-10404
您喜欢	-10405
的地点	-10406
食物的	-10407
的数量为	-10408
我无法直接	-10409
与人	-10410
从你	-10411
归为	-10412
文物	-10413
复杂性	-10414
land	-10415
block	-10416
jourd	-10417
▁对以下文本	-10418
▁travel	-10419
▁through	-10420
城镇	-10421
承认	-10422
涂抹	-10423
星球上	-10424
ever	-10425
▁vous	-10426
▁check	-10427
trequire	-10428
已被	-10429
按时	-10430
也能够	-10431
并最终	-10432
一杯咖啡	-10433
营养物质	-10434
Fi	-10435
一双	-10436
海底	-10437
熟练	-10438
處理	-10439
fil	-10440
巴黎的	-10441
来保护	-10442
来处理	-10443
在线教育	-10444
猫科动物	-10445
完成的任务	-10446
积极的心态	-10447
商人	-10448
葱姜	-10449
薪资	-10450
重述	-10451
风筝	-10452
功能的	-10453
它位于	-10454
牛奶和	-10455
我可以帮助你	-10456
此次	-10457
的色彩	-10458
做出决策	-10459
出行方式	-10460
irectory	-10461
▁生成一个关于夏天的诗歌	-10462
▁в	-10463
版权	-10464
纠缠	-10465
reg	-10466
▁但是	-10467
数据点	-10468
演讲稿	-10469
的因素	-10470
开放性问题	-10471
停留	-10472
有几	-10473
美式	-10474
切碎的	-10475
的效率	-10476
能得到	-10477
贝多芬	-10478
自然风景	-10479
著名景点	-10480
雇佣	-10481
Word	-10482
在线课程	-10483
无法提供	-10484
全球范围内	-10485
ftware	-10486
加深	-10487
小刚	-10488
携手	-10489
精心	-10490
长袖	-10491
和价值	-10492
在你的	-10493
还包括	-10494
可以按照	-10495
出现的次数	-10496
▁content	-10497
▁possible	-10498
ze	-10499
一套	-10500
夹克	-10501
置身	-10502
候选人	-10503
和实践	-10504
夏季的	-10505
意义的	-10506
运动会	-10507
小明家有	-10508
布鲁	-10509
拼接	-10510
绚烂	-10511
每天的	-10512
lean	-10513
举个例子	-10514
进行一些	-10515
可能会出现	-10516
书写	-10517
前提	-10518
可知	-10519
如水	-10520
密集	-10521
汇总	-10522
混乱	-10523
狗是	-10524
要将	-10525
和冥想	-10526
极高的	-10527
应该采取	-10528
请问您有什么	-10529
"(	-10530
斯科	-10531
降解	-10532
依赖于	-10533
全世界	-10534
舒适和	-10535
Code	-10536
▁typ	-10537
正面评价	-10538
夏天的诗歌	-10539
之地	-10540
从句	-10541
妹妹	-10542
时尚的	-10543
来到了	-10544
计划在	-10545
中央公园	-10546
在阳光下	-10547
效率和质量	-10548
谈到	-10549
飞速	-10550
不符合	-10551
以了解	-10552
学习计划	-10553
知识产权	-10554
给我五个	-10555
不满	-10556
初步	-10557
cho	-10558
▁bo	-10559
网站的	-10560
群体的	-10561
老年人	-10562
rape	-10563
一段时间	-10564
它们都是	-10565
市场需求	-10566
放松技巧	-10567
超级英雄	-10568
小孩	-10569
式子	-10570
特质	-10571
谈判	-10572
谋杀	-10573
起坐	-10574
通风	-10575
在一次	-10576
并开始	-10577
态度和	-10578
杰出的	-10579
elle	-10580
相信自己	-10581
▁long	-10582
发挥重要作用	-10583
连接到	-10584
▁是一个	-10585
提供了一个	-10586
人工智能正在	-10587
TP	-10588
奥秘	-10589
崛起	-10590
柏林	-10591
标识	-10592
ica	-10593
mar	-10594
▁数字	-10595
参加一些	-10596
针对性的	-10597
ified	-10598
▁将以下段落	-10599
未来发展趋势	-10600
VR	-10601
全身	-10602
爱意	-10603
代表了	-10604
公式为	-10605
建议在	-10606
是什麼	-10607
材料的	-10608
可以让您	-10609
的问题或	-10610
▁park	-10611
条腿	-10612
美容	-10613
肺癌	-10614
的文字	-10615
的旋律	-10616
这包括	-10617
以下代码	-10618
平均分成	-10619
是太阳系	-10620
用来描述	-10621
▁等	-10622
墙壁	-10623
桥梁	-10624
目標	-10625
▁面包	-10626
的决策	-10627
nums	-10628
和朋友们	-10629
可以让人们	-10630
变色	-10631
消防	-10632
离别	-10633
精选	-10634
微生物	-10635
污染物	-10636
法国的	-10637
相对于	-10638
不同之处	-10639
与此同时	-10640
合约	-10641
攀登	-10642
也不会	-10643
从大到	-10644
吸引人	-10645
污染和	-10646
给自己	-10647
能否告诉我	-10648
verage	-10649
▁current	-10650
FI	-10651
明年	-10652
硬盘	-10653
hed	-10654
从英语	-10655
如果你的	-10656
让我想想	-10657
这些电影	-10658
相关的信息	-10659
▁doing	-10660
写成	-10661
漫长	-10662
税务	-10663
继承	-10664
dis	-10665
的景象	-10666
商业模式	-10667
人权	-10668
淀粉	-10669
解得	-10670
摄入量	-10671
问题是	-10672
升序排列	-10673
智能医疗	-10674
极端天气事件	-10675
两侧	-10676
冰激	-10677
单一	-10678
纹理	-10679
后的结果	-10680
这个段落	-10681
神经网络的	-10682
例句	-10683
新生	-10684
燃油	-10685
(),	-10686
充足的	-10687
我们有	-10688
的角度	-10689
宫保鸡丁	-10690
object	-10691
减少对环境的	-10692
减少使用一次性	-10693
fe	-10694
一代	-10695
修理	-10696
手套	-10697
"""\	-10698
性的问题	-10699
应对气候变化	-10700
Pl	-10701
五入	-10702
基地	-10703
看书	-10704
组件	-10705
ves	-10706
迷路了	-10707
▁将下面句子	-10708
自然语言处理等	-10709
其余	-10710
剧本	-10711
哈姆	-10712
自助	-10713
燕麦片	-10714
的行动	-10715
代表作品	-10716
我被	-10717
tes	-10718
来增加	-10719
的饮料	-10720
需要有	-10721
提取其中的	-10722
请提供具体的	-10723
||	-10724
公转	-10725
由此	-10726
的开	-10727
盈利	-10728
▁为了	-10729
▁或者	-10730
举一个	-10731
任何其他	-10732
将其转换为	-10733
Be	-10734
四舍	-10735
声和	-10736
夜景	-10737
民间	-10738
甜味	-10739
租赁	-10740
企业和	-10741
基础上	-10742
洗衣机	-10743
▁请描述	-10744
这将有助于	-10745
不易	-10746
乌龟	-10747
棵树	-10748
ler	-10749
对我们	-10750
的生命	-10751
以更好地	-10752
可供选择	-10753
四舍五入	-10754
正确的单词	-10755
自然语言生成	-10756
忘了	-10757
摘录	-10758
改成	-10759
▁请你	-10760
典型的	-10761
自信心	-10762
小明一共	-10763
和语法错误	-10764
描述了一个	-10765
底蕴	-10766
高山	-10767
Out	-10768
▁gu	-10769
▁寻求	-10770
但由于	-10771
无数的	-10772
我们不能	-10773
每个同学	-10774
第一句话	-10775
背景信息	-10776
这个项目	-10777
根据给定的	-10778
▁while	-10779
:<	-10780
为此	-10781
国外	-10782
減少	-10783
那里有	-10784
▁hav	-10785
tfrom	-10786
▁form	-10787
让人感受到	-10788
▁method	-10789
炸鸡	-10790
裙子	-10791
读取	-10792
可以满足	-10793
重大影响	-10794
可以有效地	-10795
的准确性和	-10796
▁上	-10797
偏差	-10798
杰伦	-10799
鲜明	-10800
Add	-10801
中的一种	-10802
ester	-10803
以下是一些建议	-10804
可怕	-10805
和蔬菜	-10806
如果他	-10807
它们都	-10808
的简短	-10809
思考过程	-10810
的环境中	-10811
大数据分析	-10812
加利福尼亚州	-10813
精灵	-10814
追寻	-10815
uss	-10816
综合考虑	-10817
史蒂	-10818
官员	-10819
暂时	-10820
礼品	-10821
危险的	-10822
要求的	-10823
None	-10824
带来了许多	-10825
ES	-10826
快餐	-10827
成為	-10828
音响	-10829
不可能	-10830
段文本	-10831
电视机	-10832
pend	-10833
发生变化	-10834
节能减排	-10835
▁well	-10836
贝壳	-10837
▁QA	-10838
感到很	-10839
训练集	-10840
数据处理	-10841
的准确性	-10842
eters	-10843
生成一首诗歌	-10844
技术的不断发展	-10845
也被	-10846
住宅	-10847
场面	-10848
宫殿	-10849
在中文	-10850
在我们	-10851
小王子	-10852
What	-10853
仰卧起坐	-10854
图像处理	-10855
我明白了	-10856
负面情感	-10857
你可以根据自己的	-10858
三国	-10859
便携	-10860
光的	-10861
晨曦	-10862
gin	-10863
供应商	-10864
和调整	-10865
学校的	-10866
林匹克	-10867
的看法	-10868
研究中	-10869
让机器	-10870
超过了	-10871
使用环保	-10872
如何处理	-10873
▁found	-10874
感的	-10875
拌匀	-10876
音符	-10877
剩余的	-10878
影响着	-10879
训练一个	-10880
并不意味着	-10881
▁break	-10882
▁options	-10883
后续	-10884
安迪	-10885
层的	-10886
悲剧	-10887
犹如	-10888
芳香	-10889
让她	-10890
篮子里	-10891
颗行星	-10892
制作一个	-10893
价钱	-10894
在水	-10895
帖子	-10896
彰显	-10897
您将	-10898
成年	-10899
既有	-10900
盎然	-10901
繁星	-10902
其主要	-10903
周杰伦	-10904
和压力	-10905
收件人	-10906
销售量	-10907
哥伦比亚	-10908
这首诗歌	-10909
sorted	-10910
斑斓	-10911
最爱	-10912
简称	-10913
▁在此	-10914
▁编辑下面	-10915
器和	-10916
绝佳	-10917
一切都	-10918
使其更具	-10919
关怀	-10920
声声	-10921
多余	-10922
平分	-10923
淘宝	-10924
跟随	-10925
部件	-10926
▁这些	-10927
冬天的	-10928
的时光	-10929
这需要	-10930
和价值观	-10931
▁most	-10932
▁摘要生成	-10933
ackage	-10934
外语	-10935
感悟	-10936
阵阵	-10937
冰激凌	-10938
认为是	-10939
评论者	-10940
不断增加	-10941
讲述一个	-10942
可能是因为	-10943
unwrap	-10944
策划	-10945
茫茫	-10946
ale	-10947
▁为我	-10948
地进行	-10949
有一位	-10950
热情和	-10951
的科技	-10952
能够满足	-10953
▁comple	-10954
和弦	-10955
應該	-10956
sin	-10957
合法的	-10958
在现代	-10959
工具来	-10960
班里有	-10961
建筑之一	-10962
这个数字	-10963
ities	-10964
少女	-10965
▁运动	-10966
桌子上	-10967
将会更加	-10968
都有其独特的	-10969
ironment	-10970
不容	-10971
关爱	-10972
彩色	-10973
致命	-10974
赞誉	-10975
迎来	-10976
在工作	-10977
比小明多	-10978
注意力和	-10979
生命的意义	-10980
十五	-10981
很好地	-10982
一同	-10983
了他	-10984
春秋	-10985
请从	-10986
边境	-10987
afe	-10988
▁假设	-10989
标题和	-10990
host	-10991
ough	-10992
还有一个	-10993
,,	-10994
康复	-10995
望远	-10996
关系的	-10997
是一次	-10998
的优势	-10999
知识的	-11000
Life	-11001
社会问题	-11002
当地的美食	-11003
请给我一个	-11004
______	-11005
使之	-11006
口腔	-11007
容纳	-11008
里奥	-11009
▁提高	-11010
▁香蕉	-11011
宠物狗	-11012
幸福和	-11013
确定的	-11014
语言学	-11015
Chat	-11016
出生日期	-11017
句号	-11018
妇女	-11019
晋升	-11020
猎物	-11021
了解到	-11022
和交流	-11023
和思考	-11024
在其中	-11025
ists	-11026
是怎样的	-11027
的关键词	-11028
能够提供	-11029
rench	-11030
▁always	-11031
励志	-11032
放学	-11033
映射	-11034
矩形	-11035
配送	-11036
黑夜	-11037
也称为	-11038
的种类	-11039
之间存在	-11040
的目的是	-11041
ything	-11042
▁王	-11043
带入	-11044
库存	-11045
房价	-11046
考验	-11047
论点	-11048
每分钟	-11049
的主语	-11050
自信和	-11051
▁vis	-11052
atural	-11053
海洋生态系统	-11054
三只	-11055
感慨	-11056
动作的	-11057
和高效	-11058
哈姆雷	-11059
城市之一	-11060
并且可以	-11061
▁weather	-11062
协会	-11063
形势	-11064
普吉	-11065
有力	-11066
约束	-11067
评级	-11068
lab	-11069
中找出	-11070
人类在	-11071
技术将	-11072
的旅游	-11073
圆的周长	-11074
place	-11075
每个单词的	-11076
再将	-11077
转向	-11078
▁iP	-11079
他们对	-11080
Time	-11081
截止日期	-11082
东南	-11083
住房	-11084
喉咙	-11085
大致	-11086
放下	-11087
相關	-11088
着你	-11089
的数学	-11090
▁根据提供	-11091
有着广泛的应用	-11092
机器学习和深度学习	-11093
▁é	-11094
兰克	-11095
听取	-11096
数和	-11097
沉迷	-11098
深蹲	-11099
队在	-11100
ute	-11101
每个月	-11102
的优点	-11103
风吹过	-11104
同时也是	-11105
▁白	-11106
进攻	-11107
ube	-11108
的一天	-11109
中文翻译为	-11110
健康的饮食	-11111
default	-11112
告知	-11113
Rec	-11114
和各种	-11115
想法和	-11116
更多人	-11117
▁now	-11118
▁在以下	-11119
工作经验	-11120
inter	-11121
stand	-11122
▁sing	-11123
方面的问题	-11124
▁years	-11125
从那	-11126
博士	-11127
忠实	-11128
▁{}	-11129
▁角色	-11130
不用谢	-11131
会产生	-11132
几个月	-11133
微风拂面	-11134
通常情况下	-11135
”?	-11136
他说	-11137
好笑	-11138
想问	-11139
账号	-11140
rop	-11141
▁Pl	-11142
▁ra	-11143
可可粉	-11144
感谢您	-11145
是人们	-11146
并将结果	-11147
非常美味	-11148
处的	-11149
奶茶	-11150
残疾	-11151
大小的	-11152
ager	-11153
做些什么	-11154
圆的半径	-11155
平方厘米	-11156
和工作方式	-11157
我们还可以	-11158
我可以给你	-11159
▁Google	-11160
三次	-11161
幻想	-11162
深海	-11163
赛季	-11164
oun	-11165
传达了	-11166
体验到	-11167
城市化	-11168
适应性	-11169
马拉松	-11170
高脂肪	-11171
蓝天白云	-11172
需要准备	-11173
▁life	-11174
云彩	-11175
展望	-11176
教父	-11177
曲子	-11178
洒在	-11179
經濟	-11180
脊椎	-11181
西装	-11182
api	-11183
column	-11184
▁向	-11185
不当	-11186
则有	-11187
喧嚣	-11188
并向	-11189
未经	-11190
毫米	-11191
用心	-11192
了一款	-11193
小华有	-11194
精致的	-11195
ason	-11196
互联网上	-11197
绿色能源	-11198
▁must	-11199
优点和缺点	-11200
我们也可以	-11201
▁请写一篇关于	-11202
▁指	-11203
傍晚	-11204
拓宽	-11205
精美	-11206
以保证	-11207
但他们	-11208
矩形的	-11209
这一点	-11210
您没有提供	-11211
歌曲的歌词	-11212
给出具体的	-11213
头部	-11214
辅导	-11215
ric	-11216
▁参加	-11217
之前的	-11218
的身体	-11219
atab	-11220
ffect	-11221
UN	-11222
世间	-11223
主流	-11224
加哥	-11225
拿了	-11226
繁琐	-11227
进去	-11228
勇敢地	-11229
的爱情	-11230
ieve	-11231
膳食纤维	-11232
ensor	-11233
所有的人名	-11234
利息	-11235
动人	-11236
巫师	-11237
星辰	-11238
植树	-11239
羽绒	-11240
默默	-11241
▁控制	-11242
男主角	-11243
,$	-11244
上下	-11245
体温	-11246
小白	-11247
欣喜	-11248
环绕	-11249
细致	-11250
▁函数	-11251
洗发水	-11252
芝加哥	-11253
ateg	-11254
imes	-11255
现代艺术	-11256
这是一首	-11257
三星	-11258
凸显	-11259
患有	-11260
摧毁	-11261
磁场	-11262
货物	-11263
任何人	-11264
大约在	-11265
逗号分隔	-11266
的科普文章	-11267
RI	-11268
中所	-11269
的风	-11270
袋子	-11271
erc	-11272
ott	-11273
位置和	-11274
商品的	-11275
城市中	-11276
的天体	-11277
长长的	-11278
咨询医生	-11279
无论是在	-11280
是错误的	-11281
▁study	-11282
可以根据自己的	-11283
很少	-11284
"""	-11285
购买的	-11286
各种领域	-11287
将有助于	-11288
应用的文章	-11289
售后	-11290
未能	-11291
info	-11292
例如使用	-11293
和反义词	-11294
夏天是一年中最	-11295
将其翻译成中文	-11296
▁without	-11297
代理	-11298
强制	-11299
快的	-11300
所得	-11301
月色	-11302
去超市	-11303
度假村	-11304
性价比	-11305
科幻片	-11306
这个主题	-11307
ivers	-11308
”:	-11309
护肤	-11310
调研	-11311
便捷的	-11312
来评估	-11313
是什么呢	-11314
自我意识	-11315
js	-11316
十一	-11317
取向	-11318
地毯	-11319
小张	-11320
桃子	-11321
配件	-11322
分析了	-11323
期待着	-11324
可以随时	-11325
困难和挑战	-11326
包括机器学习	-11327
▁gl	-11328
减少了	-11329
在任何	-11330
大学生	-11331
它是由	-11332
请使用	-11333
oday	-11334
探索新的	-11335
▁each	-11336
才能更好地	-11337
不同的文化和	-11338
解决这些问题	-11339
人工智能还可以	-11340
保养	-11341
审美	-11342
CSS	-11343
成年人	-11344
为您生成	-11345
环保事业	-11346
需要了解	-11347
技术的应用	-11348
解释什么是	-11349
中位	-11350
扩张	-11351
身體	-11352
将两个	-11353
珊瑚礁	-11354
的两个	-11355
的形状	-11356
我可以推荐	-11357
减轻压力和焦虑	-11358
rc	-11359
主张	-11360
直至	-11361
垃圾桶	-11362
深入的	-11363
▁在这个	-11364
代码实现	-11365
希望这个	-11366
解决的问题	-11367
▁friends	-11368
不幸	-11369
传染	-11370
侦探	-11371
格外	-11372
看似	-11373
预约	-11374
▁价格	-11375
▁创建	-11376
以及在	-11377
喜爱的	-11378
手中的	-11379
收到了	-11380
漫长的	-11381
的正确	-11382
红色和	-11383
问题吗	-11384
风吹拂	-11385
编写一篇	-11386
子句	-11387
目光	-11388
驾车	-11389
▁尝试	-11390
有关于	-11391
的算法	-11392
更加美好	-11393
风险承受	-11394
有没有什么	-11395
▁different	-11396
If	-11397
共度	-11398
理性	-11399
篮子	-11400
走出	-11401
长为	-11402
事做起	-11403
休闲裤	-11404
和指导	-11405
完成后	-11406
是使用	-11407
燕麦粥	-11408
现在他	-11409
那如果	-11410
leep	-11411
选择一些	-11412
为人	-11413
大雨	-11414
用语	-11415
▁po	-11416
南美洲	-11417
复杂度	-11418
所在的	-11419
这些都	-11420
文化交流	-11421
文章标题	-11422
method	-11423
▁write	-11424
参赛	-11425
天际	-11426
學生	-11427
欢声	-11428
盎司	-11429
和算法	-11430
这些数字	-11431
write	-11432
▁fran	-11433
您需要提供	-11434
▁对以下句子进行	-11435
典型	-11436
实习	-11437
小米	-11438
排版	-11439
los	-11440
一段对话	-11441
可以获得	-11442
计算两个	-11443
▁做	-11444
天涯	-11445
排斥	-11446
最少	-11447
盗梦	-11448
谚语	-11449
▁['	-11450
序排序	-11451
一个好的	-11452
层面	-11453
每晚	-11454
渐进	-11455
瑞典	-11456
目录	-11457
糖浆	-11458
▁SE	-11459
小写字母	-11460
这个地方	-11461
offee	-11462
环保的科普文章	-11463
▁但	-11464
以使	-11465
▁My	-11466
小说中	-11467
很好吃	-11468
base	-11469
城市规划	-11470
天气状况	-11471
文本数据	-11472
▁≈	-11473
固醇	-11474
过量	-11475
ola	-11476
这道题	-11477
Flow	-11478
农业生产	-11479
独立战争	-11480
▁take	-11481
政府和企业	-11482
以下文本中的	-11483
严峻	-11484
并未	-11485
演变	-11486
老年	-11487
现在有	-11488
简洁的	-11489
能够自动	-11490
伤亡	-11491
分开	-11492
司法	-11493
忘怀	-11494
食肉	-11495
For	-11496
个同学	-11497
但是他	-11498
数学家	-11499
本文将	-11500
通常有	-11501
down	-11502
▁意大利	-11503
以下单词	-11504
简单易懂	-11505
▁version	-11506
▁其	-11507
▁Ad	-11508
体验和	-11509
知名度	-11510
热的季节	-11511
您提供的信息	-11512
伟大	-11513
国籍	-11514
指引	-11515
秋日	-11516
赞赏	-11517
你今天	-11518
已经有	-11519
的象征	-11520
内心深处	-11521
words	-11522
▁License	-11523
Of	-11524
SU	-11525
["	-11526
一口	-11527
亚历	-11528
农场	-11529
外线	-11530
多人	-11531
检验	-11532
精湛	-11533
莉莉	-11534
▁Me	-11535
一个月	-11536
发布了	-11537
json	-11538
个苹果和	-11539
更广泛的	-11540
科技领域	-11541
升水	-11542
声响	-11543
成的	-11544
要在	-11545
比小红多	-11546
▁comment	-11547
器械	-11548
地域	-11549
家庭和	-11550
成长和	-11551
的建筑	-11552
reet	-11553
ting	-11554
可以有效	-11555
心肺功能	-11556
所有人都	-11557
quare	-11558
▁down	-11559
写一首关于	-11560
吞噬	-11561
惬意	-11562
任总统	-11563
着一个	-11564
促销活动	-11565
这个产品	-11566
使其更加简洁明了	-11567
欲望	-11568
表現	-11569
音效	-11570
不稳定	-11571
准确和	-11572
则可以	-11573
旅游业	-11574
的评论	-11575
也越来越	-11576
减少垃圾	-11577
去看电影	-11578
尽情享受	-11579
我们可以看到	-11580
电子邮件地址	-11581
二战	-11582
公益	-11583
凯特	-11584
斯蒂	-11585
穿梭	-11586
資料	-11587
▁研究	-11588
在海边	-11589
块糖果	-11590
多功能	-11591
整数的	-11592
可以给我	-11593
翻炒均匀	-11594
chool	-11595
▁next	-11596
▁China	-11597
.)	-11598
中國	-11599
您有	-11600
电能	-11601
阶乘	-11602
SON	-11603
car	-11604
pty	-11605
中没有	-11606
在水中	-11607
的植物	-11608
▁如果你	-11609
基础知识	-11610
▁True	-11611
Config	-11612
刻板	-11613
卡布	-11614
河边	-11615
的钱数	-11616
▁aut	-11617
发挥作用	-11618
可重复使用的	-11619
▁Transl	-11620
▁require	-11621
从来	-11622
判决	-11623
梯度	-11624
此刻	-11625
她喜欢	-11626
怎么做	-11627
推出的	-11628
主要用于	-11629
Message	-11630
不住	-11631
写诗	-11632
毫无	-11633
肉食	-11634
感人的	-11635
ause	-11636
title	-11637
第二个句子	-11638
cademy	-11639
(-	-11640
偶然	-11641
大方	-11642
它对	-11643
客戶	-11644
已經	-11645
抑制	-11646
笼罩	-11647
轻薄	-11648
邮箱	-11649
LED	-11650
参加了	-11651
场比赛	-11652
年龄段	-11653
最多能	-11654
有力的	-11655
检查和	-11656
在文本中	-11657
模拟人类智能的技术	-11658
北部	-11659
国的	-11660
山东	-11661
战术	-11662
批判	-11663
比尔	-11664
写一段	-11665
散发着	-11666
的增加	-11667
夏日炎炎	-11668
支持和帮助	-11669
▁https	-11670
▁night	-11671
我们可以用除法	-11672
会员	-11673
在他	-11674
并列	-11675
牺牲	-11676
風險	-11677
了整个	-11678
存储在	-11679
clud	-11680
part	-11681
▁API	-11682
生命中的	-11683
witter	-11684
生成一个摘要	-11685
go	-11686
大师	-11687
彗星	-11688
蓝球	-11689
被迫	-11690
创造了	-11691
在文章中	-11692
COVID	-11693
params	-11694
▁provided	-11695
HE	-11696
icy	-11697
的价值	-11698
的工具	-11699
▁bus	-11700
开发人员	-11701
现代化的	-11702
隐私问题	-11703
的意思是什么	-11704
威廉	-11705
对此	-11706
悉尼	-11707
游乐	-11708
▁As	-11709
代码中	-11710
劳动力	-11711
更注重	-11712
的歌词	-11713
我的回答	-11714
迅速发展	-11715
▁head	-11716
各类	-11717
封建	-11718
某一	-11719
划分为	-11720
和艺术	-11721
纪录片	-11722
代码如下	-11723
▁hand	-11724
▁pour	-11725
带来的影响	-11726
▁const	-11727
▁请根据以下	-11728
上传	-11729
花和	-11730
蝙蝠	-11731
重建	-11732
的乐趣	-11733
加工食品	-11734
这个成语	-11735
▁vari	-11736
智能家居系统	-11737
续写他们的对话内容	-11738
MM	-11739
po	-11740
垂直	-11741
曲目	-11742
编号	-11743
霍格	-11744
场景中	-11745
年上映	-11746
引发了	-11747
是法国	-11748
给出了	-11749
而言之	-11750
▁say	-11751
进一步的	-11752
create	-11753
仙人	-11754
假日	-11755
公告	-11756
同性	-11757
奇诺	-11758
我爱	-11759
无边	-11760
正是	-11761
财政	-11762
制作出	-11763
名词和	-11764
圆形的	-11765
在空中	-11766
我应该	-11767
元音字母	-11768
得出答案	-11769
为用户提供	-11770
日期和时间	-11771
这家餐厅的食物	-11772
Or	-11773
酥脆	-11774
GAN	-11775
在某个	-11776
清晰地	-11777
结果是	-11778
问题中	-11779
▁接下来	-11780
印象深刻	-11781
number	-11782
随着技术的不断发展	-11783
▁马	-11784
介词	-11785
凝聚	-11786
山川	-11787
睡前	-11788
脆弱	-11789
小明需要	-11790
On	-11791
一无	-11792
划分	-11793
针织	-11794
高档	-11795
麻婆	-11796
bit	-11797
城市和	-11798
方方面	-11799
阿拉伯	-11800
▁dec	-11801
盗梦空间	-11802
这个函数	-11803
Alice	-11804
我们公司的	-11805
机遇和挑战	-11806
请续写他们的对话内容	-11807
长久	-11808
里程碑	-11809
高热量	-11810
学习一门	-11811
的首都是	-11812
给我三个	-11813
这个单词	-11814
国家和地区	-11815
在医疗领域的应用	-11816
为食	-11817
您要	-11818
步伐	-11819
小小的	-11820
接受的	-11821
peri	-11822
语法和拼写错误	-11823
▁每	-11824
乒乓	-11825
交谈	-11826
人們	-11827
旅客	-11828
流逝	-11829
牧羊	-11830
▁"$	-11831
的程序	-11832
看起来很	-11833
麻婆豆腐	-11834
ty	-11835
求职	-11836
湖人	-11837
了我的	-11838
第一段	-11839
瑜伽练习	-11840
电影类型	-11841
提供了一些	-11842
身体和心理	-11843
体检	-11844
沙子	-11845
嫌疑人	-11846
能量的	-11847
庆祝活动	-11848
疫情期间	-11849
了解自己的	-11850
和易于理解	-11851
这是一个非常	-11852
▁object	-11853
史上	-11854
才是	-11855
深沉	-11856
清除	-11857
湖水	-11858
蝉声	-11859
Num	-11860
可以先	-11861
开发和	-11862
汽车的	-11863
▁les	-11864
万物复苏	-11865
▁then	-11866
на	-11867
复习	-11868
新奇	-11869
请把	-11870
不停地	-11871
拥有的	-11872
相关性	-11873
选择和	-11874
问题时	-11875
IMDb	-11876
▁Tom	-11877
▁area	-11878
▁free	-11879
▁回答上面的问题	-11880
▁q	-11881
权威	-11882
请教	-11883
des	-11884
lor	-11885
中性的	-11886
选择的	-11887
Book	-11888
以下三个	-11889
哈姆雷特	-11890
感激之情	-11891
的建议吗	-11892
计算机技术	-11893
钢铁	-11894
ams	-11895
引人注	-11896
生活和	-11897
▁impl	-11898
改变我们的生活	-11899
▁李	-11900
▁金	-11901
宪法	-11902
路由	-11903
为他们	-11904
使人们	-11905
实际的	-11906
局限性	-11907
的一半	-11908
拿铁咖啡	-11909
的发展趋势	-11910
进行情感分析	-11911
▁questions	-11912
攀岩	-11913
的词	-11914
证券	-11915
转折	-11916
▁商品	-11917
▁要求	-11918
美丽和	-11919
rist	-11920
合作伙伴	-11921
它们之间	-11922
可以让我们	-11923
完整的句子	-11924
负面或中性	-11925
length	-11926
这个问题的答案	-11927
wn	-11928
之战	-11929
鉴别	-11930
▁建议	-11931
为学生	-11932
分解成	-11933
思想和	-11934
的传统	-11935
的成功	-11936
一些创意	-11937
回收利用	-11938
▁Hello	-11939
我们可以采取	-11940
推荐一些适合	-11941
人工智能和机器学习	-11942
尾酒	-11943
明朝	-11944
茄子	-11945
采购	-11946
osh	-11947
会根据	-11948
余数为	-11949
笑话吧	-11950
该产品	-11951
备受关注	-11952
▁tech	-11953
使其更加简洁	-11954
context	-11955
人工智能对未来	-11956
''	-11957
壮丽	-11958
意愿	-11959
荷花	-11960
抑郁症	-11961
特征提取	-11962
马尔克斯	-11963
在自然语言处理	-11964
未来的发展方向	-11965
卡通	-11966
外交	-11967
有序	-11968
着重	-11969
送到	-11970
选取	-11971
])\	-11972
▁教育	-11973
有三个	-11974
这只是	-11975
---|	-11976
▁fin	-11977
▁sol	-11978
产品质量	-11979
可以作为	-11980
永远不会	-11981
带来了很多	-11982
Server	-11983
▁system	-11984
外卖	-11985
数十	-11986
Not	-11987
▁Do	-11988
交响曲	-11989
的光芒	-11990
适度的	-11991
▁支铅笔	-11992
世界大战	-11993
温暖的阳光	-11994
atabase	-11995
esterday	-11996
宽敞	-11997
情況	-11998
拥挤	-11999
贺卡	-12000
躺在	-12001
配饰	-12002
麦田	-12003
仿佛在	-12004
的传播	-12005
背后的	-12006
ween	-12007
帮助学生	-12008
这是一道	-12009
通常具有	-12010
闪闪发光	-12011
▁给定一篇	-12012
对人类社会	-12013
巨大的影响	-12014
名胜	-12015
孤单	-12016
帶來	-12017
指控	-12018
龙头	-12019
告诉他	-12020
方程组	-12021
融合了	-12022
这对于	-12023
具有重要	-12024
几个橙子	-12025
最常见的	-12026
积极情感	-12027
olution	-12028
▁帮我生成一个	-12029
不尽	-12030
剧院	-12031
拉面	-12032
无疑	-12033
領域	-12034
▁ed	-12035
▁设计	-12036
是如此	-12037
的天数	-12038
ract	-12039
side	-12040
各种问题	-12041
方方面面	-12042
经济和社会	-12043
许多不同的	-12044
aurant	-12045
姐姐	-12046
热闹	-12047
饭店	-12048
为您的	-12049
共同点	-12050
其含义	-12051
华氏度	-12052
的区别	-12053
生存环境	-12054
▁给出两个	-12055
让我们开始	-12056
▁model	-12057
▁将给定的文本	-12058
ст	-12059
华丽	-12060
汇率	-12061
除数	-12062
雨天	-12063
来学习	-12064
那么在	-12065
休息时间	-12066
卡布奇诺	-12067
用户可以	-12068
进行一次	-12069
工作和生活	-12070
不及	-12071
摩擦	-12072
湖南	-12073
花坛	-12074
配以	-12075
从一个	-12076
在网上	-12077
并获得	-12078
广告语	-12079
根据我的	-12080
意大利面条	-12081
生活和工作	-12082
Wi	-12083
bo	-12084
mm	-12085
一路	-12086
定时	-12087
短裤	-12088
细雨	-12089
非凡	-12090
预防措施	-12091
根据最新的	-12092
请问你需要	-12093
推荐一本好看的小说	-12094
CD	-12095
前途	-12096
大力	-12097
耐力	-12098
薄片	-12099
更快的	-12100
的女孩	-12101
的观点	-12102
霍格沃	-12103
wift	-12104
提供信息	-12105
政府应该	-12106
人工智能技术的应用	-12107
悠扬	-12108
慷慨	-12109
Key	-12110
中进行	-12111
奇怪的	-12112
并生成	-12113
水污染	-12114
漫步在	-12115
为一句话	-12116
保持积极	-12117
是指通过	-12118
特色美食	-12119
提升自己的	-12120
#[	-12121
又有	-12122
导师	-12123
百万	-12124
翱翔	-12125
urs	-12126
主义者	-12127
和价格	-12128
多喝水	-12129
夜晚的	-12130
大约是	-12131
并减少	-12132
爵士乐	-12133
生命中	-12134
国际象棋	-12135
数据结构	-12136
查询一下	-12137
撰写一篇关于	-12138
request	-12139
▁favorite	-12140
一瓶	-12141
势力	-12142
舞动	-12143
芬奇	-12144
迷失	-12145
▁ob	-12146
圣诞节	-12147
是怎么	-12148
ving	-12149
也被称为	-12150
我是一名	-12151
昨天晚上	-12152
我需要看到	-12153
不时	-12154
热浪	-12155
自豪	-12156
▁适量	-12157
吃掉了	-12158
鸡尾酒	-12159
的人来说	-12160
▁trans	-12161
Py	-12162
▁–	-12163
余弦	-12164
夜思	-12165
布拉	-12166
跑得	-12167
辉煌	-12168
阴影	-12169
不道德	-12170
和口感	-12171
是英国	-12172
替换成	-12173
这一天	-12174
保持身体	-12175
output	-12176
ME	-12177
▁→	-12178
▁某	-12179
书名	-12180
亮点	-12181
十六	-12182
doc	-12183
▁co	-12184
负责任	-12185
飞行员	-12186
长方形的	-12187
_____	-12188
人工智能会	-12189
]$	-12190
一词	-12191
将军	-12192
当天	-12193
怀抱	-12194
是要	-12195
植被	-12196
肥料	-12197
花椒	-12198
踏上	-12199
卓越的	-12200
史上最	-12201
对身体	-12202
经济的	-12203
苹果数	-12204
jango	-12205
未来的世界	-12206
朴素贝叶斯	-12207
进行分析和	-12208
仍在	-12209
遗址	-12210
鼓舞	-12211
ony	-12212
实践中	-12213
现在是	-12214
规律的	-12215
Mary	-12216
User	-12217
一些简单的	-12218
光照	-12219
典礼	-12220
在本	-12221
意面	-12222
拼图	-12223
无处	-12224
时机	-12225
的三	-12226
立刻	-12227
转变	-12228
普吉岛	-12229
的安全性	-12230
大桥	-12231
小丽	-12232
微博	-12233
挑戰	-12234
清华	-12235
锈钢	-12236
arm	-12237
以防止	-12238
并制定	-12239
我经常	-12240
长方形	-12241
null	-12242
大规模的	-12243
下面是一个	-12244
可能是一个	-12245
气候变化的影响	-12246
争取	-12247
台上	-12248
同步	-12249
和最	-12250
地板	-12251
室外	-12252
惊奇	-12253
求和	-12254
绿草	-12255
麦克	-12256
Man	-12257
▁(-	-12258
小学生	-12259
要求吗	-12260
server	-12261
回答以下问题	-12262
噪声	-12263
恶化	-12264
悄悄	-12265
慈欣	-12266
毛巾	-12267
短袖	-12268
莫扎	-12269
账单	-12270
总人数	-12271
推荐几	-12272
改变着	-12273
udio	-12274
他是一个	-12275
强烈推荐	-12276
负面评价	-12277
uring	-12278
▁comm	-12279
▁编辑以下句子	-12280
词语是什么意思	-12281
Artificial	-12282
佛罗	-12283
女友	-12284
實現	-12285
放心	-12286
活着	-12287
计数	-12288
▁av	-12289
▁模仿	-12290
和解决	-12291
有一次	-12292
等措施	-12293
学习方法	-12294
感兴趣的	-12295
这个表格	-12296
▁interest	-12297
▁张	-12298
▁阿	-12299
主持	-12300
加绒	-12301
房产	-12302
极度	-12303
洞察	-12304
粮食	-12305
对健康	-12306
没有人	-12307
也很重要	-12308
可能会被	-12309
呼吸练习	-12310
英语单词	-12311
▁blue	-12312
▁home	-12313
修剪	-12314
天上	-12315
点到	-12316
电荷	-12317
遗憾	-12318
乒乓球	-12319
华丽的	-12320
规则和	-12321
采取了	-12322
医疗机构	-12323
我们无法	-12324
的平均值	-12325
▁line	-12326
▁描述一下	-12327
告诉我一些	-12328
按字母顺序排列	-12329
尺码	-12330
往事	-12331
拉伸	-12332
根廷	-12333
祈使	-12334
窗外	-12335
篇幅	-12336
舒畅	-12337
irl	-12338
编写代码	-12339
Command	-12340
)+	-12341
云朵	-12342
入口	-12343
吃完	-12344
祝你	-12345
落地	-12346
言语	-12347
镜头	-12348
鸽子	-12349
▁La	-12350
微积分	-12351
智能的	-12352
更健康	-12353
选择了	-12354
一步一步	-12355
是否可以	-12356
给人一种	-12357
这个电影	-12358
还可以帮助	-12359
tS	-12360
保湿	-12361
各有	-12362
浙江	-12363
购买了	-12364
娱乐活动	-12365
切割	-12366
刚才	-12367
套餐	-12368
爷爷	-12369
风力	-12370
饥饿	-12371
饮水	-12372
不一定	-12373
消极的	-12374
小明手里	-12375
建立联系	-12376
文本摘要	-12377
简要介绍	-12378
风险管理	-12379
可能会受到	-12380
所以答案是	-12381
英文翻译成中文	-12382
ua	-12383
在心	-12384
河水	-12385
."?	-12386
▁假装	-12387
个性和	-12388
刘慈欣	-12389
的日子里	-12390
的结果是	-12391
这种做法	-12392
▁city	-12393
查阅	-12394
bin	-12395
会增加	-12396
这可以	-12397
保持冷静	-12398
全球性的	-12399
如何应对	-12400
建议使用	-12401
ittle	-12402
定了	-12403
正宗	-12404
沿海	-12405
皇家	-12406
碎片	-12407
等人	-12408
一天的	-12409
常用于	-12410
经验的	-12411
ping	-12412
大气污染	-12413
阳光灿烂	-12414
在那	-12415
它能	-12416
机密	-12417
气和	-12418
海风	-12419
烘烤	-12420
甲烷	-12421
行為	-12422
较小	-12423
远的	-12424
在夏季	-12425
大学的	-12426
风险和	-12427
▁too	-12428
值得一读	-12429
HO	-12430
HP	-12431
周一	-12432
将它	-12433
日葵	-12434
青菜	-12435
uby	-12436
为患者	-12437
仍然是	-12438
你所在	-12439
和评估	-12440
的计划	-12441
进行编辑	-12442
False	-12443
每个朋友分到	-12444
▁develop	-12445
三年	-12446
结识	-12447
感受着	-12448
或主题	-12449
真是太	-12450
基于以上	-12451
那么如果	-12452
太阳能电池板	-12453
延迟	-12454
iew	-12455
和短语	-12456
宝贵的	-12457
思维和	-12458
特点是	-12459
这项技术	-12460
▁Some	-12461
越来越重要的作用	-12462
uk	-12463
开支	-12464
蓝牙	-12465
一首诗	-12466
失业率	-12467
将一个	-12468
葱姜蒜	-12469
该函数	-12470
char	-12471
未来世界	-12472
至金黄色	-12473
销售数据	-12474
ember	-12475
环境保护的	-12476
数字的平均值	-12477
▁intelligence	-12478
不被	-12479
处罚	-12480
期的	-12481
诞生	-12482
这封	-12483
阻碍	-12484
一只猫	-12485
Azure	-12486
▁franç	-12487
▁日	-12488
画画	-12489
窗口	-12490
讲讲	-12491
许可	-12492
诗意	-12493
原材料	-12494
来改善	-12495
海岸线	-12496
iled	-12497
夜幕降临	-12498
市中心的	-12499
拥有许多	-12500
某个特定	-12501
深远影响	-12502
▁path	-12503
一位年轻的	-12504
哪种类型的	-12505
机器人技术	-12506
▁course	-12507
保密	-12508
回顾	-12509
团队的	-12510
正式的	-12511
精确的	-12512
需要从	-12513
寻找新的	-12514
音乐作品	-12515
▁mean	-12516
▁م	-12517
人造	-12518
摄取	-12519
油脂	-12520
."\	-12521
met	-12522
ris	-12523
▁小红	-12524
条件的	-12525
表现为	-12526
重复性	-12527
非常高	-12528
▁长	-12529
专利	-12530
但却	-12531
养生	-12532
大街	-12533
纸巾	-12534
而出	-12535
迈克	-12536
rix	-12537
看电视	-12538
▁top	-12539
世界上最高的山峰是珠穆朗玛峰	-12540
乳腺	-12541
在山	-12542
对该	-12543
江苏	-12544
而定	-12545
茶匙	-12546
▁红色	-12547
会出现	-12548
你们的	-12549
决定的	-12550
食物和	-12551
鸡蛋和	-12552
ases	-12553
值得注意	-12554
我需要你	-12555
每个句子	-12556
▁sign	-12557
改变我们的生活方式	-12558
`。	-12559
不了	-12560
向下	-12561
尽管他	-12562
应该有	-12563
是目前	-12564
标准的	-12565
仍然存在	-12566
例如通过	-12567
明天早上	-12568
认真思考	-12569
uture	-12570
▁even	-12571
识别出文本中的关键词	-12572
},	-12573
丛中	-12574
充滿	-12575
前沿	-12576
发言	-12577
成都	-12578
语料	-12579
这类	-12580
高楼	-12581
多年的	-12582
英格兰	-12583
这两种	-12584
▁nil	-12585
不要忘记	-12586
希望以上	-12587
潜在客户	-12588
霍格沃茨	-12589
▁build	-12590
▁cannot	-12591
▁playing	-12592
▁क	-12593
催化	-12594
悠闲	-12595
曝光	-12596
了一部	-12597
科学的	-12598
证明了	-12599
现在请将	-12600
build	-12601
更好地应对	-12602
自己的目标	-12603
▁您	-12604
四处	-12605
应急	-12606
该句	-12607
box	-12608
ino	-12609
人类与	-12610
使它们	-12611
地思考	-12612
罗伯特	-12613
写作能力	-12614
或者使用	-12615
是一部由	-12616
他们一共有	-12617
给我一个创意	-12618
自动驾驶技术	-12619
▁给定一组数字	-12620
以下是一些常见的	-12621
唤醒	-12622
教材	-12623
是用	-12624
浴室	-12625
离不	-12626
退休	-12627
逛街	-12628
▁开始	-12629
告诉您	-12630
在线学习	-12631
开发一个	-12632
正在进行	-12633
每人分到	-12634
▁在以下文本	-12635
ра	-12636
变异	-12637
破解	-12638
置信	-12639
评定	-12640
irc	-12641
喜剧片	-12642
在北京	-12643
水平和	-12644
细节和	-12645
保持联系	-12646
影响力的	-12647
物理学家	-12648
▁根据下列	-12649
人工智能可以帮助医生	-12650
凉意	-12651
如梦	-12652
流失	-12653
生病	-12654
rag	-12655
▁模型	-12656
的名言	-12657
研究了	-12658
聊聊天	-12659
胆固醇	-12660
dele	-12661
翩翩起舞	-12662
富含维生素	-12663
的重要性和	-12664
▁music	-12665
智能家居设备	-12666
计算它们之间的	-12667
不利	-12668
习性	-12669
天文	-12670
战役	-12671
手感	-12672
煮至	-12673
▁日本	-12674
和颜色	-12675
完成的	-12676
来控制	-12677
来源于	-12678
避免在	-12679
idth	-12680
可以表示为	-12681
▁False	-12682
Version	-12683
下文中的关键词	-12684
▁pa	-12685
一直是	-12686
以应对	-12687
尼西亚	-12688
数量是	-12689
无论您	-12690
烤面包	-12691
的用户	-12692
roid	-12693
品牌名称	-12694
更高效的	-12695
组织机构	-12696
Excel	-12697
DO	-12698
了几	-12699
仿真	-12700
储物	-12701
刑事	-12702
腾讯	-12703
萧瑟	-12704
tal	-12705
拿走了	-12706
蓝色和	-12707
高度的	-12708
Jack	-12709
cent	-12710
ches	-12711
健康管理	-12712
美好时光	-12713
能够理解	-12714
进行评估	-12715
Group	-12716
▁写一篇关于人工智能的文章	-12717
)]	-12718
cp	-12719
不胜	-12720
书包	-12721
它們	-12722
激光	-12723
祖先	-12724
联想	-12725
那你	-12726
▁然而	-12727
故事吧	-12728
生命和	-12729
▁颗糖果	-12730
代码示例	-12731
逐渐增加	-12732
Transl	-12733
▁在此任务中	-12734
亿元	-12735
勾股	-12736
学历	-12737
并按	-12738
登陆	-12739
贵族	-12740
在公园	-12741
广阔的	-12742
用英语	-12743
所提供的	-12744
这个数列	-12745
也对	-12746
国会	-12747
林间	-12748
并说明	-12749
电影名	-12750
身份证	-12751
对环境的	-12752
带来更多	-12753
整个世界	-12754
欢声笑语	-12755
需要花费	-12756
ename	-12757
module	-12758
制备	-12759
各種	-12760
增多	-12761
学和	-12762
所谓	-12763
的呢	-12764
道歉	-12765
我为你	-12766
sole	-12767
应对措施	-12768
营养价值	-12769
▁hist	-12770
▁doesn	-12771
凋零	-12772
动漫	-12773
各大	-12774
心跳	-12775
ope	-12776
▁产品	-12777
新闻稿	-12778
看到的	-12779
黑暗中	-12780
奥林匹克	-12781
更加生动	-12782
我将很乐意	-12783
▁WHERE	-12784
从数据中学习	-12785
可持续发展的	-12786
书架	-12787
敏捷	-12788
水流	-12789
的标准	-12790
提供有关	-12791
▁给出一组	-12792
多少个糖果	-12793
给定的句子	-12794
一朵	-12795
京东	-12796
去掉	-12797
只脚	-12798
民众	-12799
洗澡	-12800
當然	-12801
任务是	-12802
调味品	-12803
进行预测	-12804
atter	-12805
etime	-12806
小明手中有	-12807
etwork	-12808
ED	-12809
亲朋	-12810
塞纳	-12811
春日	-12812
曼哈	-12813
松弛	-12814
自治	-12815
uck	-12816
▁城市	-12817
感觉很	-12818
的艺术	-12819
arah	-12820
医学领域	-12821
数学公式	-12822
这个周末	-12823
进行概括	-12824
false	-12825
▁really	-12826
了我	-12827
北方	-12828
哈佛	-12829
好吃	-12830
寡妇	-12831
报纸	-12832
提琴	-12833
流传	-12834
短诗	-12835
笑声	-12836
跟鞋	-12837
ved	-12838
▁Bl	-12839
和市场	-12840
和海洋	-12841
西游记	-12842
选择适合	-12843
agram	-12844
▁我有一个	-12845
人工智能也	-12846
工作效率和	-12847
成为了一个	-12848
如果你有任何	-12849
这句话的意思是	-12850
Do	-12851
千年	-12852
棋子	-12853
▁喜欢	-12854
哪一种	-12855
提出的	-12856
望远镜	-12857
Node	-12858
量子比特	-12859
在现代社会中	-12860
如果您还有其他	-12861
呵护	-12862
姿态	-12863
抵达	-12864
教训	-12865
莱坞	-12866
订阅	-12867
重构	-12868
▁["	-12869
了解了	-12870
可以与	-12871
▁我喜欢	-12872
因果关系	-12873
相关问题	-12874
面向对象	-12875
音乐风格	-12876
一声	-12877
像素	-12878
反抗	-12879
奥会	-12880
西部	-12881
钢笔	-12882
?""	-12883
和家庭	-12884
最大化	-12885
火车站	-12886
哪方面的	-12887
帮我生成	-12888
有些人认为	-12889
”\	-12890
不妨	-12891
它有	-12892
小火	-12893
摘取	-12894
▁瑜伽	-12895
种族或	-12896
道路上	-12897
难以忘怀	-12898
翻译成另一种语言	-12899
人脑	-12900
▁op	-12901
和特点	-12902
壮丽的	-12903
拍打着	-12904
自定义	-12905
body	-12906
find	-12907
▁以下是	-12908
根据标题	-12909
自主学习	-12910
ually	-12911
需要大量的	-12912
▁between	-12913
传记	-12914
划艇	-12915
嗅觉	-12916
母语	-12917
相差	-12918
童年	-12919
西湖	-12920
計劃	-12921
bar	-12922
在周末	-12923
寒冷的	-12924
的一次	-12925
的金额	-12926
组织名	-12927
重写为	-12928
颜色是	-12929
▁将一个	-12930
在工作中	-12931
沙滩排球	-12932
该怎么做	-12933
▁到	-12934
冰雪	-12935
哥哥	-12936
苏联	-12937
集体	-12938
是一场	-12939
简单而	-12940
▁lik	-12941
刻板印象	-12942
工作岗位	-12943
进行纠正	-12944
itive	-12945
▁main	-12946
它可以通过	-12947
语音识别和	-12948
采取行动来	-12949
叠加	-12950
广播	-12951
战士	-12952
扩散	-12953
教室	-12954
最长	-12955
有毒	-12956
▁So	-12957
从而使	-12958
曼哈顿	-12959
置身于	-12960
多样性的	-12961
▁math	-12962
的详细信息	-12963
ational	-12964
========	-12965
随着人工智能技术的不断发展	-12966
实在	-12967
法案	-12968
类比	-12969
tra	-12970
▁::	-12971
▁AN	-12972
▁用户	-12973
全球的	-12974
坚定的	-12975
找不到	-12976
遥远的	-12977
搜索结果	-12978
的好方法	-12979
的方式来	-12980
进行改写	-12981
Equal	-12982
有用的信息	-12983
积极的影响	-12984
第一个句子	-12985
推文	-12986
放进	-12987
正向	-12988
球的	-12989
随地	-12990
▁营销	-12991
印度的	-12992
和污染	-12993
那就是	-12994
[::-	-12995
短时间内	-12996
那么小明	-12997
应该怎么做	-12998
时间和空间	-12999
的主题是什么	-13000
▁project	-13001
卡尔	-13002
开拓	-13003
折射	-13004
最後	-13005
身影	-13006
颜料	-13007
▁日期	-13008
单词是	-13009
更具有	-13010
规定的	-13011
发展趋势	-13012
这个句子中	-13013
▁based	-13014
在社交媒体上	-13015
每个人的责任	-13016
cs	-13017
▁月	-13018
万千	-13019
嵌入	-13020
显然	-13021
每位	-13022
河畔	-13023
源自	-13024
耐磨	-13025
配乐	-13026
问卷	-13027
鸟鸣	-13028
也开始	-13029
指出了	-13030
来生成	-13031
严重影响	-13032
加法运算	-13033
让我为您	-13034
▁Paris	-13035
▁output	-13036
佳肴	-13037
傲慢	-13038
梅花	-13039
绿化	-13040
金毛	-13041
钞票	-13042
风速	-13043
围绕着	-13044
它们的和	-13045
是否能够	-13046
预测未来	-13047
search	-13048
更具体的信息	-13049
我们应该尊重每个人的	-13050
执法	-13051
故意	-13052
真挚	-13053
袋鼠	-13054
饰品	-13055
une	-13056
多样的	-13057
新技能	-13058
活动中	-13059
▁pol	-13060
多元化的	-13061
更加清晰	-13062
一些常见的	-13063
的方法包括	-13064
自己独特的	-13065
▁above	-13066
谢谢你的回答	-13067
▁iPhone	-13068
Se	-13069
别墅	-13070
十四	-13071
景区	-13072
绩效	-13073
這樣	-13074
cer	-13075
ney	-13076
▁Se	-13077
你是我	-13078
名学生	-13079
和数字	-13080
最长的	-13081
的不断	-13082
购物袋	-13083
ploy	-13084
买了一些	-13085
克服困难	-13086
▁描述一种	-13087
不同的文化	-13088
造成负面影响	-13089
人文	-13090
人類	-13091
关节	-13092
姓氏	-13093
提倡	-13094
漫游	-13095
的数	-13096
相邻	-13097
考慮	-13098
▁好的	-13099
个句子	-13100
生产线	-13101
的支持	-13102
自由地	-13103
sera	-13104
统计数据	-13105
长时间的	-13106
NO	-13107
光速	-13108
尔夫	-13109
并被	-13110
总价	-13111
沉淀	-13112
纠纷	-13113
纯净	-13114
纷飞	-13115
通俗	-13116
采访	-13117
分辨率	-13118
性取向	-13119
的理解	-13120
首先将	-13121
avid	-13122
▁深呼吸	-13123
一个人在	-13124
天气信息	-13125
年轻人的	-13126
教育背景	-13127
含有丰富的	-13128
ribute	-13129
status	-13130
てい	-13131
书中	-13132
们在	-13133
刻画	-13134
售货	-13135
屋顶	-13136
带给	-13137
捐赠	-13138
推测	-13139
永久	-13140
语调	-13141
Des	-13142
上面的	-13143
判断其	-13144
可以向	-13145
和能力	-13146
游泳和	-13147
释放出	-13148
▁pop	-13149
未来发展方向	-13150
按照从小到大的	-13151
▁include	-13152
保持健康的生活方式	-13153
ée	-13154
布置	-13155
显瘦	-13156
饰演	-13157
该段落	-13158
较小的	-13159
去中心化	-13160
天空湛蓝	-13161
的问题吗	-13162
他会	-13163
共识	-13164
杰出	-13165
的两	-13166
羊毛	-13167
决策和	-13168
它包括	-13169
或者去	-13170
柔和的	-13171
肯定的	-13172
book	-13173
你的朋友	-13174
数据中的	-13175
印度尼西亚	-13176
content	-13177
做得	-13178
蛋黄	-13179
见证	-13180
证书	-13181
道理	-13182
▁地点	-13183
增长率	-13184
标记为	-13185
清洁剂	-13186
的格式	-13187
等元素	-13188
无人驾驶汽车	-13189
oursera	-13190
ba	-13191
下跌	-13192
交付	-13193
和园	-13194
外界	-13195
守望	-13196
征服	-13197
略有	-13198
素养	-13199
公司和	-13200
和运动	-13201
咖啡机	-13202
ruct	-13203
从而导致	-13204
团队协作	-13205
多个方面	-13206
▁está	-13207
▁French	-13208
mp	-13209
一刻	-13210
增进	-13211
就在	-13212
开会	-13213
跨国	-13214
将其中	-13215
等待着	-13216
都没有	-13217
▁sal	-13218
只有这样	-13219
▁根据给定	-13220
提取文章中	-13221
AS	-13222
斑马	-13223
机关	-13224
欧盟	-13225
满地	-13226
的中	-13227
uff	-13228
每一天	-13229
配备了	-13230
通过这些	-13231
健康的早餐	-13232
单词或短语	-13233
给我想一个	-13234
能够帮助你	-13235
一阵	-13236
发热	-13237
周日	-13238
延伸	-13239
海淀	-13240
语文	-13241
]::	-13242
▁作者	-13243
变量的	-13244
庞大的	-13245
所在地	-13246
为主题的	-13247
为您服务	-13248
开发一款	-13249
智慧城市	-13250
用来形容	-13251
▁expl	-13252
▁show	-13253
▁打开一个	-13254
三角形的面积	-13255
▁default	-13256
。*	-13257
和盐	-13258
四周	-13259
缩小	-13260
解放	-13261
▁人类	-13262
不同于	-13263
为社会	-13264
同时还	-13265
家庭中	-13266
更符合	-13267
结束后	-13268
边长为	-13269
以下两个	-13270
▁such	-13271
▁sorted	-13272
vironment	-13273
▁谁	-13274
为何	-13275
低头	-13276
信誉	-13277
安宁	-13278
毫不	-13279
▁引述	-13280
▁约翰	-13281
可扩展	-13282
▁For	-13283
任何一个	-13284
总体而言	-13285
有意义的	-13286
能够提高	-13287
自然现象	-13288
表达能力	-13289
equal	-13290
也非常重要	-13291
分享自己的	-13292
疾病的风险	-13293
制的	-13294
手提	-13295
盗窃	-13296
绿的	-13297
伦敦塔	-13298
哲学家	-13299
来决定	-13300
英翻译	-13301
▁pub	-13302
修辞手法	-13303
单击	-13304
宝贵	-13305
荣幸	-13306
问你	-13307
鱼肉	-13308
iff	-13309
▁产生	-13310
▁坚持	-13311
不小心	-13312
和沟通	-13313
爱情和	-13314
瑜伽等	-13315
的整数	-13316
舒适度	-13317
阐述了	-13318
ider	-13319
和独特的	-13320
开关	-13321
混淆	-13322
聚焦	-13323
行诗	-13324
▁没有	-13325
可解释	-13326
它可能	-13327
美国人	-13328
记忆力	-13329
亲朋好友	-13330
的苹果数	-13331
身体素质	-13332
生成一个标题	-13333
▁around	-13334
▁此	-13335
助理	-13336
大火	-13337
天后	-13338
归来	-13339
抹茶	-13340
搭建	-13341
罚款	-13342
▁\]	-13343
▁由于	-13344
净利润	-13345
来支持	-13346
正整数	-13347
演唱会	-13348
鸟儿在	-13349
了解一下	-13350
人们开始	-13351
每个数字	-13352
口令	-13353
并从	-13354
歷史	-13355
瓶子	-13356
豐富	-13357
走势	-13358
和体验	-13359
和功能	-13360
当地人	-13361
散发出	-13362
有多种	-13363
如何通过	-13364
如果你对	-13365
跟我聊聊	-13366
▁gust	-13367
▁商品文案	-13368
我可以给您	-13369
▁商品文案生成	-13370
保护我们的环境	-13371
▁香	-13372
两年	-13373
凭借	-13374
差为	-13375
杂货	-13376
烤鸡	-13377
窗帘	-13378
迹象	-13379
选购	-13380
酵母	-13381
▁np	-13382
代表作	-13383
的其他	-13384
说明了	-13385
▁Mar	-13386
加入适量	-13387
客户需求	-13388
我们能够	-13389
▁plan	-13390
这篇文章中的	-13391
LI	-13392
排在	-13393
过得	-13394
也比较	-13395
会受到	-13396
无论你	-13397
的人才	-13398
祈使句	-13399
给我出	-13400
街道上	-13401
是什么吗	-13402
plate	-13403
这可能会导致	-13404
保温	-13405
基督	-13406
领略	-13407
星期六	-13408
起到了	-13409
领导力	-13410
root	-13411
修改后的	-13412
需要一些	-13413
oding	-13414
首字母大写	-13415
▁从以下选项中选择	-13416
四种	-13417
攻略	-13418
漫威	-13419
主要由	-13420
听说过	-13421
的花朵	-13422
森林砍伐	-13423
那你能不能	-13424
▁Gener	-13425
空气中弥漫着	-13426
保护我们的星球	-13427
云层	-13428
岸边	-13429
点燃	-13430
網絡	-13431
适度	-13432
上海的	-13433
去学校	-13434
ille	-13435
我也可以	-13436
欢迎来到	-13437
每天需要	-13438
请用中文	-13439
这个游戏	-13440
这种观点	-13441
下面这句话	-13442
爱人	-13443
真理	-13444
菊花	-13445
訓練	-13446
和生活	-13447
提供商	-13448
ency	-13449
原因如下	-13450
现实主义	-13451
预防疾病	-13452
飞速发展	-13453
ought	-13454
丈夫	-13455
分泌	-13456
张家	-13457
打粉	-13458
束缚	-13459
水杯	-13460
值得我们	-13461
是蓝色的	-13462
糖果数量	-13463
它可以帮助	-13464
粘贴在这里	-13465
请告诉我您的	-13466
忧伤	-13467
穿搭	-13468
蜡烛	-13469
首席	-13470
太空中	-13471
都属于	-13472
这种现象	-13473
ident	-13474
▁date	-13475
▁机器学习	-13476
▁group	-13477
二氧化碳排放	-13478
▁Intelligence	-13479
伯格	-13480
和他	-13481
范畴	-13482
開發	-13483
并避免	-13484
结构的	-13485
aces	-13486
能不能再	-13487
蔬菜沙拉	-13488
解决方法	-13489
这可能会	-13490
积极的态度	-13491
循环神经网络	-13492
丧失	-13493
冰镇	-13494
在其	-13495
摄氏	-13496
摆放	-13497
望着	-13498
瘦肉	-13499
翻转	-13500
谷物	-13501
不少于	-13502
可能因	-13503
并指出	-13504
影响的	-13505
新事物	-13506
理解为	-13507
的性能	-13508
学习英语	-13509
顺序排序	-13510
▁learn	-13511
你可以告诉我	-13512
人工智能在医疗保健	-13513
國家	-13514
就医	-13515
起飞	-13516
▁例如	-13517
增长了	-13518
的主角	-13519
的生日	-13520
第一天	-13521
平均气温	-13522
我和我的	-13523
给我列举一些	-13524
▁自然语言处理	-13525
▁translate	-13526
任務	-13527
挪威	-13528
梵高	-13529
欧元	-13530
治療	-13531
越大	-13532
感叹句	-13533
或建议	-13534
的网站	-13535
联系我	-13536
让学生	-13537
阿根廷	-13538
颐和园	-13539
题目是	-13540
vous	-13541
吸引力的	-13542
推动社会	-13543
同义词和反义词	-13544
得到了广泛应用	-13545
以下是一些可能的	-13546
\]	-13547
亲近	-13548
你呢	-13549
国旗	-13550
浸泡	-13551
lose	-13552
建议选择	-13553
▁----	-13554
华盛顿特区	-13555
看到了一只	-13556
▁these	-13557
:「	-13558
值的	-13559
南非	-13560
尔摩	-13561
摩托	-13562
浇水	-13563
防控	-13564
不存在	-13565
和谐共	-13566
淡淡的	-13567
第一步	-13568
imal	-13569
风险评估	-13570
▁根据关键词	-13571
▁翻译成英文	-13572
▁aujourd	-13573
Bl	-13574
所著	-13575
普拉	-13576
更能	-13577
科學	-13578
轻微	-13579
gan	-13580
数字和	-13581
暗示了	-13582
该单词	-13583
通过将	-13584
可以让我	-13585
和海王星	-13586
歌词生成	-13587
生机勃勃	-13588
语法结构	-13589
▁翻译以下	-13590
去中心化的	-13591
我们需要知道	-13592
PD	-13593
する	-13594
举措	-13595
之上	-13596
小溪	-13597
悬挂	-13598
清香	-13599
蚊子	-13600
!("	-13601
▁不要	-13602
当一个	-13603
想一个	-13604
的模型	-13605
行动来	-13606
过拟合	-13607
阿姆斯	-13608
同时也能	-13609
在旅途中	-13610
在比赛中	-13611
是中国的	-13612
词性标注	-13613
深刻的印象	-13614
nology	-13615
▁water	-13616
谢谢你的建议	-13617
▁根据标题生成商品文案	-13618
务必	-13619
Dis	-13620
以至于	-13621
分钟内	-13622
发现的	-13623
最近我	-13624
规律和	-13625
bose	-13626
也可以是	-13627
位于中国	-13628
尝试使用	-13629
我并没有	-13630
这个场景	-13631
我们需要在	-13632
生成文案吗	-13633
▁problem	-13634
▁你能帮我生成文案吗	-13635
劣势	-13636
就要	-13637
投放	-13638
请为	-13639
参与到	-13640
家里的	-13641
▁ref	-13642
公共场所	-13643
小明手上	-13644
应该包括	-13645
提供更多	-13646
是否应该	-13647
asket	-13648
lobal	-13649
older	-13650
tprint	-13651
人工智能算法	-13652
▁生成一个包含	-13653
PU	-13654
丝绸	-13655
本科	-13656
甜品	-13657
和社交	-13658
并选择	-13659
的感受	-13660
表格中	-13661
家庭教育	-13662
的质量和	-13663
▁rece	-13664
▁文案生成	-13665
之间的差异	-13666
他把其中的	-13667
ically	-13668
寻求专业帮助	-13669
也是非常重要的	-13670
两类	-13671
桌面	-13672
是世界	-13673
的努力	-13674
这不仅	-13675
也有助于	-13676
搜索一下	-13677
▁Fran	-13678
▁Here	-13679
▁made	-13680
▁movie	-13681
▁生成一个有趣的	-13682
CR	-13683
Ph	-13684
▁這	-13685
去买	-13686
更低	-13687
波涛	-13688
皇后	-13689
讽刺	-13690
▁阳光	-13691
和工具	-13692
夏天是	-13693
太多的	-13694
有益于	-13695
的三个	-13696
静夜思	-13697
人们应该	-13698
亲人	-13699
将对	-13700
股东	-13701
作曲家	-13702
有什麼	-13703
照耀着	-13704
等特点	-13705
获得的	-13706
▁sci	-13707
喜剧电影	-13708
天气晴朗	-13709
小明手中	-13710
▁suis	-13711
你可以试试	-13712
我们的生活方式	-13713
Im	-13714
aa	-13715
聚餐	-13716
那种	-13717
采摘	-13718
ero	-13719
与同事	-13720
向日葵	-13721
和风格	-13722
是日本	-13723
过去式	-13724
当地居民	-13725
有足够的	-13726
实现可持续发展	-13727
单价	-13728
它以	-13729
新手	-13730
仙人掌	-13731
忠诚度	-13732
欢快地	-13733
放在一起	-13734
的是什么	-13735
根据上下文	-13736
产量	-13737
亲情	-13738
开朗	-13739
我叫	-13740
教我	-13741
时装	-13742
朝阳	-13743
渐浓	-13744
結果	-13745
罪犯	-13746
而被	-13747
起着	-13748
这就	-13749
vec	-13750
他需要	-13751
停车场	-13752
并确定	-13753
开发出	-13754
评价和	-13755
人们需要	-13756
季节之一	-13757
电影中的	-13758
iment	-13759
的基本概念	-13760
遇到了一只	-13761
Amazon	-13762
▁watch	-13763
九寨	-13764
外形	-13765
履行	-13766
漂浮	-13767
聆听	-13768
虾仁	-13769
这三	-13770
高糖	-13771
工业化	-13772
情绪和	-13773
星期三	-13774
枚硬币	-13775
足球赛	-13776
大多数人	-13777
社会责任	-13778
第二句话	-13779
语法规则	-13780
不同种类的	-13781
人工智能与	-13782
债务	-13783
施工	-13784
青岛	-13785
了一下	-13786
小行星	-13787
我决定	-13788
orus	-13789
及时发现	-13790
可能会面临	-13791
夏天是一个	-13792
科技创新的	-13793
适合初学者	-13794
此类	-13795
肩膀	-13796
这会	-13797
▁To	-13798
九寨沟	-13799
准确度	-13800
列举出	-13801
▁term	-13802
剪裁	-13803
听觉	-13804
等的	-13805
见到	-13806
说服	-13807
颠覆	-13808
叫什么	-13809
和不安	-13810
将会在	-13811
行业和	-13812
的主题或	-13813
让你感到	-13814
日常生活中的	-13815
辅助医生进行	-13816
ensorFlow	-13817
敏捷的棕色狐狸跳过懒狗	-13818
)*	-13819
不斷	-13820
入了	-13821
市区	-13822
约定	-13823
不锈钢	-13824
小时内	-13825
投资于	-13826
售后服务	-13827
的反义词	-13828
集中精力	-13829
ailed	-13830
▁根据所给	-13831
发挥自己的	-13832
山顶	-13833
曾在	-13834
家里有	-13835
日期和	-13836
的品牌	-13837
自主地	-13838
open	-13839
▁sin	-13840
生产效率	-13841
行动起来	-13842
以下是五个	-13843
创造更多的	-13844
的具体内容	-13845
atetime	-13846
天王星和海王星	-13847
”;	-13848
▁с	-13849
兴起	-13850
刹车	-13851
始于	-13852
專業	-13853
梳理	-13854
电压	-13855
违约	-13856
關係	-13857
dom	-13858
最小的	-13859
来增强	-13860
黑寡妇	-13861
this	-13862
和自动化	-13863
它们是否	-13864
游客前来	-13865
▁français	-13866
EM	-13867
东部	-13868
丽江	-13869
杀死	-13870
随便	-13871
enn	-13872
▁培养	-13873
上进行	-13874
半径为	-13875
在日本	-13876
昨天的	-13877
透明度	-13878
inue	-13879
它们通常	-13880
很感兴趣	-13881
确保您的	-13882
ender	-13883
各种类型的	-13884
板块	-13885
肉质	-13886
船只	-13887
订购	-13888
資源	-13889
足迹	-13890
轮廓	-13891
▁修改	-13892
创作出	-13893
并找到	-13894
每天喝	-13895
的事件	-13896
的空间	-13897
给了他	-13898
ours	-13899
▁你认为	-13900
以下信息	-13901
出现频率	-13902
学习资源	-13903
很多领域	-13904
控制系统	-13905
文本中提取	-13906
▁train	-13907
适合初学者的	-13908
CH	-13909
md	-13910
pa	-13911
如有	-13912
安防	-13913
德拉	-13914
甜美	-13915
价格和	-13916
小动物	-13917
我们就	-13918
深深的	-13919
的分析	-13920
▁una	-13921
我们使用	-13922
推荐一首	-13923
文化活动	-13924
英文翻译	-13925
以下是关于	-13926
Module	-13927
文本中的所有	-13928
reverse	-13929
帮我生成商品描述	-13930
小区	-13931
度量	-13932
辣味	-13933
专注力	-13934
是当今	-13935
替代品	-13936
让它们	-13937
为了保护	-13938
定期进行	-13939
很长时间	-13940
您可以将	-13941
减压的方法	-13942
成功的关键	-13943
经历了许多	-13944
法和	-13945
科研	-13946
绵绵	-13947
vis	-13948
来分析	-13949
温度和	-13950
的一款	-13951
的发明	-13952
工作机会	-13953
他想把这些	-13954
写一个标题	-13955
分类为正面	-13956
发生了什么	-13957
在金融领域	-13958
ground	-13959
struct	-13960
ae	-13961
”)	-13962
制裁	-13963
号线	-13964
汽水	-13965
草药	-13966
以吸引	-13967
同性恋	-13968
不是一个	-13969
想象力和	-13970
每一个人	-13971
音乐创作	-13972
挑战和困难	-13973
PO	-13974
宏伟	-13975
审核	-13976
广大	-13977
得多	-13978
根源	-13979
菜系	-13980
rip	-13981
个饼干	-13982
全球化	-13983
已知的	-13984
微波炉	-13985
更快速	-13986
构成了	-13987
物质和	-13988
的外观	-13989
中国文化	-13990
计算结果	-13991
▁jumped	-13992
▁从以下句子中提取	-13993
随着技术的不断进步	-13994
▁根据关键词生成商品文案	-13995
gr	-13996
sl	-13997
区间	-13998
受损	-13999
地形	-14000
海南	-14001
荣耀	-14002
论述	-14003
革新	-14004
All	-14005
并不会	-14006
的表面	-14007
质量的	-14008
供您参考	-14009
接种疫苗	-14010
放入预热	-14011
之间的联系	-14012
小明手上有	-14013
人工智能在未来	-14014
▁sentences	-14015
▁根据输入生成商品文案	-14016
tu	-14017
偶尔	-14018
储备	-14019
內容	-14020
只球	-14021
蕴含	-14022
陷阱	-14023
中寻找	-14024
中心的	-14025
积极地	-14026
▁Out	-14027
您喜欢的	-14028
日程安排	-14029
每天都会	-14030
这篇文章介绍了	-14031
password	-14032
FF	-14033
巴马	-14034
扼要	-14035
提炼	-14036
新开	-14037
只有在	-14038
和减少	-14039
小明在	-14040
我打算	-14041
的原则	-14042
的小狗	-14043
的水分	-14044
勾股定理	-14045
古风诗歌	-14046
现实世界	-14047
CB	-14048
他被	-14049
大会	-14050
女王	-14051
清朝	-14052
登高	-14053
的全	-14054
蒂姆	-14055
诈骗	-14056
资讯	-14057
风俗	-14058
▁古诗	-14059
对这些	-14060
给我听	-14061
随机的	-14062
page	-14063
发现新的	-14064
垃圾处理	-14065
属于哪个	-14066
今天天气很好	-14067
交替	-14068
帐篷	-14069
指挥	-14070
机智	-14071
白雪	-14072
ump	-14073
▁ge	-14074
个人和	-14075
乐观的	-14076
的详细	-14077
Alex	-14078
▁请给出	-14079
医疗数据	-14080
示例代码	-14081
给我提供	-14082
得到了广泛的应用	-14083
出席	-14084
即为	-14085
日光	-14086
用戶	-14087
简史	-14088
箱子	-14089
蒙娜	-14090
Git	-14091
似乎在	-14092
和技能	-14093
在数学	-14094
的训练	-14095
▁old	-14096
您可以去	-14097
▁根据用户	-14098
传统计算机	-14099
可能是由于	-14100
计算机网络	-14101
人们的生活方式	-14102
,[	-14103
▁đ	-14104
负数	-14105
RNN	-14106
iet	-14107
一年级	-14108
个女生	-14109
合作和	-14110
在当今	-14111
时间来	-14112
海淀区	-14113
node	-14114
▁我们的	-14115
加密货币	-14116
能源效率	-14117
的代表作之一	-14118
iw	-14119
▁π	-14120
侵权	-14121
信任和	-14122
指南针	-14123
清明节	-14124
你的名字	-14125
做好准备	-14126
健康食品	-14127
在医疗保健	-14128
摄入足够的	-14129
都有自己的	-14130
client	-14131
▁point	-14132
如果您有其他	-14133
ga	-14134
下次	-14135
两份	-14136
便于	-14137
批准	-14138
租金	-14139
雅典	-14140
雪芹	-14141
霸王	-14142
顶级	-14143
一无二	-14144
分配给	-14145
将以下	-14146
最接近	-14147
最美的	-14148
享受美食	-14149
工作时间	-14150
平等对待	-14151
思维能力	-14152
逻辑回归	-14153
客户满意度	-14154
我们也应该	-14155
翻译成德语	-14156
他们一共有多少	-14157
为例	-14158
极大	-14159
能被	-14160
面糊	-14161
idd	-14162
与我们	-14163
工作者	-14164
帮到你	-14165
并不断	-14166
的秘密	-14167
皮划艇	-14168
粒子的	-14169
▁fun	-14170
人机交互	-14171
你能为我	-14172
分钟左右	-14173
独一无二	-14174
这组数字	-14175
▁中英翻译	-14176
以下是我的	-14177
va	-14178
分心	-14179
同情	-14180
海中	-14181
激活	-14182
电梯	-14183
福祉	-14184
▁wr	-14185
▁夏日	-14186
和中国	-14187
渐渐地	-14188
的语气	-14189
表现得	-14190
Char	-14191
iPad	-14192
iver	-14193
工作经历	-14194
放松身体	-14195
法律规定	-14196
预测结果	-14197
请用中文回答	-14198
学者	-14199
开创	-14200
消毒	-14201
荒野	-14202
蒙古	-14203
img	-14204
▁定义	-14205
为背景	-14206
他已经	-14207
情节和	-14208
曹雪芹	-14209
爱情片	-14210
购物车	-14211
创造性的	-14212
请提取出	-14213
▁生成一篇关于	-14214
三维	-14215
别的	-14216
哈希	-14217
市的	-14218
怀念	-14219
患病	-14220
爱与	-14221
秋意	-14222
冬奥会	-14223
大教堂	-14224
当谈到	-14225
我理解	-14226
▁Are	-14227
▁might	-14228
message	-14229
捕食	-14230
二年级	-14231
开始有	-14232
来缓解	-14233
杯咖啡	-14234
煮熟的	-14235
的地位	-14236
具体问题	-14237
该电影的	-14238
▁Apple	-14239
{}	-14240
és	-14241
巧妙	-14242
挣扎	-14243
流连	-14244
能在	-14245
過程	-14246
魔幻	-14247
bre	-14248
ley	-14249
▁绿色	-14250
不舒服	-14251
中所有	-14252
古埃及	-14253
微风中	-14254
朋友或	-14255
满足感	-14256
的咖啡	-14257
相等的	-14258
闪烁着	-14259
ster	-14260
今天是个	-14261
平方公里	-14262
建议您在	-14263
解题过程	-14264
都是非常	-14265
文本中的错误	-14266
▁command	-14267
举例	-14268
亮度	-14269
变幻	-14270
適合	-14271
和视频	-14272
很快就	-14273
权力的	-14274
的国家	-14275
itle	-14276
带来新的	-14277
角度来看	-14278
▁open	-14279
提高生产效率	-14280
出現	-14281
歧义	-14282
议程	-14283
闹钟	-14284
▁总之	-14285
信息或	-14286
相关联	-14287
▁请列出	-14288
以下措施	-14289
智能音箱	-14290
最流行的	-14291
这项研究	-14292
需要提供	-14293
一看	-14294
养护	-14295
多久	-14296
愿景	-14297
盛宴	-14298
紧迫	-14299
纯棉	-14300
轿车	-14301
降水	-14302
ada	-14303
▁创造	-14304
以促进	-14305
和句子	-14306
我能够	-14307
该模型	-14308
ules	-14309
为你提供	-14310
值得注意的是	-14311
命名实体识别	-14312
▁SELECT	-14313
自然语言处理等领域	-14314
US	-14315
ql	-14316
zh	-14317
▁先	-14318
人对	-14319
时会	-14320
自尊	-14321
身处	-14322
锦标	-14323
一只狗	-14324
以增强	-14325
哪一年	-14326
在古代	-14327
战胜了	-14328
迈克尔	-14329
锻炼和	-14330
他的朋友	-14331
周围环境	-14332
工作方式	-14333
工作环境	-14334
进行处理	-14335
▁bird	-14336
df	-14337
低脂	-14338
加班	-14339
匿名	-14340
同义	-14341
局部	-14342
弱点	-14343
溶解	-14344
瓶颈	-14345
质疑	-14346
和自由	-14347
我都会	-14348
是一份	-14349
plot	-14350
▁ind	-14351
买了一本	-14352
减轻焦虑	-14353
对于那些	-14354
的好去处	-14355
睡眠习惯	-14356
这种方式	-14357
人工智能可以通过分析	-14358
企業	-14359
小鱼	-14360
时长	-14361
观光	-14362
風格	-14363
你能够	-14364
到学校	-14365
很强的	-14366
▁为一篇	-14367
自然美景	-14368
小明家里有	-14369
哪一	-14370
波罗	-14371
珍视	-14372
芝麻	-14373
和执行	-14374
的成本	-14375
edia	-14376
如何利用	-14377
根据以上	-14378
▁right	-14379
更深入地了解	-14380
ни	-14381
▁¿	-14382
。」	-14383
台词	-14384
天生	-14385
应为	-14386
心动	-14387
打字	-14388
抵御	-14389
牙刷	-14390
小时候	-14391
是一片	-14392
橙色的	-14393
牧羊犬	-14394
节奏和	-14395
▁tom	-14396
蒙娜丽莎	-14397
实际应用中	-14398
旅行目的地	-14399
有效的方法	-14400
深度学习是一种	-14401
学好	-14402
我都	-14403
推导	-14404
最短	-14405
水面	-14406
病变	-14407
的猫	-14408
莱昂	-14409
角的	-14410
aly	-14411
内容的	-14412
各自的	-14413
开放的	-14414
的人员	-14415
高度为	-14416
rais	-14417
专业知识	-14418
国家公园	-14419
应该使用	-14420
艺术家的	-14421
男生和女生	-14422
美丽的风景	-14423
▁statement	-14424
台风	-14425
地质	-14426
畅游	-14427
远山	-14428
▁er	-14429
▁其中	-14430
优势和	-14431
好看的	-14432
第二段	-14433
练习和	-14434
####	-14435
他是一位	-14436
如果您在	-14437
对人类的	-14438
找到一些	-14439
爱情诗歌	-14440
简明扼要	-14441
Result	-14442
▁restaurant	-14443
代价	-14444
前菜	-14445
只会	-14446
身旁	-14447
还款	-14448
▁最近	-14449
平衡和	-14450
手机的	-14451
一共买了	-14452
包含一个	-14453
如果想要	-14454
少数族裔	-14455
▁dans	-14456
中文怎么说	-14457
是哺乳动物	-14458
randint	-14459
▁花	-14460
自从	-14461
茶道	-14462
警觉	-14463
迷宫	-14464
防火	-14465
ado	-14466
▁了解	-14467
大气中	-14468
找一些	-14469
的气候	-14470
编辑器	-14471
豆瓣酱	-14472
arry	-14473
inux	-14474
也可以在	-14475
trans	-14476
时间和地点	-14477
SELECT	-14478
▁think	-14479
▁three	-14480
生成一首关于	-14481
白人	-14482
这本	-14483
▁环保	-14484
数量和	-14485
的症状	-14486
紫外线	-14487
可以缓解	-14488
等式两边	-14489
哪些方面的	-14490
我可以提供	-14491
语音识别技术	-14492
人工智能可以用于	-14493
▁important	-14494
不息	-14495
当她	-14496
总额	-14497
日式	-14498
蒜末	-14499
iam	-14500
他们将	-14501
可以做	-14502
而其他	-14503
锦标赛	-14504
▁ear	-14505
在草地上	-14506
学习效率	-14507
犯罪行为	-14508
生日派对	-14509
ister	-14510
根据不同的	-14511
正确的句子	-14512
每个朋友分到的	-14513
伦比	-14514
但仍	-14515
涟漪	-14516
该书	-14517
下一次	-14518
可能与	-14519
很好看	-14520
潜力和	-14521
程序的	-14522
背景下	-14523
通常与	-14524
▁app	-14525
可以直接	-14526
宇宙中的	-14527
other	-14528
希望您喜欢	-14529
是机器学习	-14530
▁change	-14531
▁营销文案生成	-14532
也是不错的选择	-14533
可能会有所不同	-14534
身体和心理健康	-14535
这篇文章讨论了	-14536
多么	-14537
徘徊	-14538
每個	-14539
班里	-14540
花的	-14541
这幅	-14542
魔术	-14543
的贡献	-14544
饮食中	-14545
平板电脑	-14546
欢迎随时	-14547
意大利餐厅	-14548
这可以通过	-14549
▁translated	-14550
Fl	-14551
五大	-14552
少吃	-14553
开阔	-14554
捞出	-14555
體驗	-14556
ión	-14557
其次是	-14558
再加入	-14559
吃什么	-14560
的相关	-14561
该地区	-14562
需要先	-14563
项目中	-14564
可以快速	-14565
智能合约	-14566
班级里有	-14567
正确的拼写	-14568
算法和模型	-14569
现在请告诉我	-14570
是世界上最大的	-14571
你就	-14572
沉睡	-14573
灯具	-14574
相符	-14575
如何做	-14576
是一篇	-14577
来制作	-14578
一系列的	-14579
我很抱歉	-14580
更加流畅	-14581
空气中的	-14582
自动化的	-14583
▁oper	-14584
他想把它们	-14585
何种	-14586
的美	-14587
直播	-14588
端午	-14589
补全	-14590
人死亡	-14591
是现代	-14592
检测和	-14593
的形成	-14594
的起源	-14595
ables	-14596
▁call	-14597
不同颜色的	-14598
属于自己的	-14599
是一种用于	-14600
减少塑料污染	-14601
东北	-14602
人情	-14603
出台	-14604
ese	-14605
以内的	-14606
一组数据	-14607
中国政府	-14608
在沙滩上	-14609
我推荐你	-14610
▁给定一段文字	-14611
YZ	-14612
亲子	-14613
姐妹	-14614
服饰	-14615
赞叹	-14616
lot	-14617
。"\	-14618
和推广	-14619
在哪个	-14620
如果不	-14621
数相加	-14622
的宠物	-14623
身份验证	-14624
同时还可以	-14625
的情感倾向	-14626
著名的景点	-14627
▁match	-14628
▁为以下句子	-14629
我们应该努力	-14630
▁将下面的句子	-14631
generation	-14632
奶奶	-14633
项链	-14634
oms	-14635
与伦比	-14636
分解为	-14637
原本有	-14638
构成的	-14639
的函数	-14640
计划的	-14641
▁SQL	-14642
一些挑战	-14643
温度升高	-14644
这场比赛	-14645
▁角色介绍	-14646
的基础知识	-14647
source	-14648
把这句话翻译成英文	-14649
一盒	-14650
聊一	-14651
通道	-14652
rol	-14653
作者是	-14654
文章还	-14655
海滩和	-14656
美好和	-14657
在空气中	-14658
感谢你的	-14659
灵活性和	-14660
积极影响	-14661
state	-14662
tings	-14663
简短的故事	-14664
▁includ	-14665
在不	-14666
纳多	-14667
绝望	-14668
食欲	-14669
irt	-14670
人民的	-14671
尽我所	-14672
的值为	-14673
专业人员	-14674
可以让人	-14675
合理安排	-14676
怎样才能	-14677
财务报表	-14678
非常广阔	-14679
▁cons	-14680
▁mark	-14681
roller	-14682
风险承受能力	-14683
▁sample	-14684
tl	-14685
买的	-14686
发型	-14687
右侧	-14688
快走	-14689
敬畏	-14690
曲折	-14691
热烈	-14692
疲倦	-14693
白糖	-14694
ade	-14695
好主意	-14696
有名的	-14697
的增长	-14698
的灵感	-14699
魅力和	-14700
oman	-14701
不良影响	-14702
在森林里	-14703
文本生成	-14704
pm	-14705
仓库	-14706
厚度	-14707
拿到	-14708
阵容	-14709
ene	-14710
主人的	-14711
你正在	-14712
是可以	-14713
的指导	-14714
的限制	-14715
表现了	-14716
任何问题	-14717
小明昨天	-14718
MySQL	-14719
acter	-14720
▁child	-14721
是一个重要的	-14722
▁要	-14723
体力	-14724
和非	-14725
影评	-14726
意象	-14727
方位	-14728
浩瀚	-14729
濒危	-14730
等差	-14731
迪拜	-14732
重庆	-14733
▁sn	-14734
▁分钟	-14735
▁每天	-14736
为每个	-14737
他总是	-14738
动力和	-14739
发挥了	-14740
可能會	-14741
是研究	-14742
治疗师	-14743
的回答	-14744
约翰逊	-14745
而成的	-14746
语料库	-14747
这一切	-14748
iply	-14749
▁Add	-14750
▁lar	-14751
一个包含	-14752
享受阳光	-14753
使其成为	-14754
很重要的	-14755
意大利的	-14756
电商平台	-14757
这些变化	-14758
ently	-14759
使计算机能够	-14760
▁calcul	-14761
Au	-14762
云淡	-14763
你说	-14764
毒品	-14765
波长	-14766
熬夜	-14767
维度	-14768
防滑	-14769
弗兰克	-14770
海洋中	-14771
系统等	-14772
还具有	-14773
▁equ	-14774
它提供了	-14775
最近上映	-14776
这样才能	-14777
▁give	-14778
以下是一段	-14779
我不能提供	-14780
这些关键词	-14781
instance	-14782
嘴巴	-14783
宛如	-14784
射线	-14785
幼崽	-14786
无情	-14787
登上	-14788
突发	-14789
▁HT	-14790
对地球	-14791
总是在	-14792
的能量	-14793
那么它	-14794
非法的	-14795
一个数字	-14796
一开始有	-14797
生命中最	-14798
种族主义	-14799
要求具有	-14800
这是一家	-14801
小明一共有	-14802
讲述了一位	-14803
我们可以考虑	-14804
timport	-14805
▁perform	-14806
详细回答上面的问题	-14807
▁description	-14808
=?	-14809
”“	-14810
天高	-14811
振动	-14812
敏锐	-14813
朝着	-14814
洛克	-14815
肺部	-14816
量为	-14817
和语言	-14818
困难和	-14819
小数点	-14820
想一些	-14821
生机和	-14822
真的吗	-14823
为什么不	-14824
几支铅笔	-14825
只是一个	-14826
抗氧化剂	-14827
电池寿命	-14828
anger	-14829
▁much	-14830
这个问题的答案是	-14831
单车	-14832
放上	-14833
难过	-14834
ags	-14835
aps	-14836
时需要	-14837
请记住	-14838
otal	-14839
但实际上	-14840
学习方式	-14841
使用不同的	-14842
必不可少的	-14843
▁生成一首关于爱情的诗歌	-14844
护士	-14845
服用	-14846
活性	-14847
海外	-14848
溶液	-14849
秋色	-14850
释义	-14851
關於	-14852
顶部	-14853
','	-14854
Acc	-14855
gor	-14856
一些小	-14857
为自己	-14858
会得到	-14859
低脂肪	-14860
将数据	-14861
的原理	-14862
的散文	-14863
fast	-14864
util	-14865
为什么要	-14866
在海滩上	-14867
提高公众	-14868
没有提到	-14869
的问题和	-14870
种不同的	-14871
和生态系统	-14872
语法和拼写	-14873
听起来很不错	-14874
▁chocol	-14875
▁翻译以下句子	-14876
以下是一些关于	-14877
Ed	-14878
与众	-14879
大道	-14880
扭曲	-14881
按下	-14882
香菜	-14883
手上有	-14884
普通的	-14885
的随机	-14886
羽绒服	-14887
英语中	-14888
flix	-14889
▁eng	-14890
▁个性化	-14891
开始学习	-14892
最大公约	-14893
相对较低	-14894
科学技术	-14895
运动方式	-14896
这些工具	-14897
enter	-14898
ished	-14899
一个年轻的	-14900
自然环境的	-14901
ía	-14902
无助	-14903
獲得	-14904
负债	-14905
迁移	-14906
隐喻	-14907
客户端	-14908
并利用	-14909
来吸引	-14910
▁met	-14911
可以列出	-14912
能够实现	-14913
脊椎动物	-14914
同时也需要	-14915
复杂的任务	-14916
所有的日期	-14917
▁color	-14918
▁解释什么是	-14919
▁盐	-14920
不失	-14921
倾斜	-14922
周三	-14923
培根	-14924
懂得	-14925
百花	-14926
绿意	-14927
耀眼	-14928
肠道	-14929
运转	-14930
了解和	-14931
即使在	-14932
更倾向于	-14933
agraph	-14934
动听	-14935
名著	-14936
喜歡	-14937
大选	-14938
布尔	-14939
影视	-14940
戴着	-14941
闭上	-14942
Loc	-14943
休息和	-14944
地面上	-14945
的产生	-14946
类动物	-14947
▁exc	-14948
使用的是	-14949
服务质量	-14950
aylor	-14951
world	-14952
度过了一个	-14953
回答你的问题	-14954
我喜欢在周末	-14955
儒家	-14956
变迁	-14957
夏夜	-14958
巩固	-14959
想出	-14960
狗粮	-14961
看作	-14962
花瓶	-14963
鼠标	-14964
最终的	-14965
服务于	-14966
正常的	-14967
神秘和	-14968
科技和	-14969
多少颗糖果	-14970
请给出你的	-14971
双重	-14972
深思	-14973
热能	-14974
男装	-14975
▁Er	-14976
▁年龄	-14977
但仍然	-14978
停下来	-14979
热量的	-14980
的来源	-14981
他们需要	-14982
你可以从	-14983
是正面的	-14984
令人惊叹的	-14985
回答该问题	-14986
找出其中的	-14987
请介绍一下	-14988
▁valid	-14989
全球范围内的	-14990
▁describe	-14991
发起	-14992
呼气	-14993
月初	-14994
灵敏	-14995
ael	-14996
钢琴曲	-14997
▁抽取出	-14998
一首诗歌	-14999
如果您能	-15000
工作人员	-15001
探索未知	-15002
阅读书籍	-15003
我们的公司	-15004
panish	-15005
今天天气晴朗	-15006
earning	-15007
texpect	-15008
tx	-15009
上课	-15010
时区	-15011
是你	-15012
波浪	-15013
润色	-15014
附加	-15015
loc	-15016
▁需要	-15017
和进步	-15018
生长和	-15019
选择题	-15020
▁enc	-15021
科技行业	-15022
经验丰富的	-15023
自己的生活	-15024
深度神经网络	-15025
Twitter	-15026
uz	-15027
一想	-15028
以外	-15029
和其	-15030
晚会	-15031
計算	-15032
超出	-15033
轨迹	-15034
长裤	-15035
中存在	-15036
是两个	-15037
的最高	-15038
的美国	-15039
的翻译	-15040
羽毛球	-15041
There	-15042
给出的文本	-15043
你能给我一些	-15044
生成一个新的	-15045
▁experi	-15046
我很乐意帮助你	-15047
扶持	-15048
迷茫	-15049
霍金	-15050
▁Qu	-15051
个关于	-15052
供参考	-15053
帮到您	-15054
是当前	-15055
的做法	-15056
美术馆	-15057
而受到	-15058
速度与	-15059
call	-15060
site	-15061
唐代诗人	-15062
情感极性	-15063
等差数列	-15064
计算方法	-15065
食品安全	-15066
等各个领域	-15067
ources	-15068
英文文本翻译成中文	-15069
余额	-15070
兼容	-15071
南北	-15072
必然	-15073
恋人	-15074
气压	-15075
犹太	-15076
知識	-15077
移项	-15078
绿水	-15079
退货	-15080
逆转	-15081
人与人	-15082
和幸福	-15083
的地址	-15084
而这些	-15085
请问你	-15086
分享一些	-15087
制作方法	-15088
▁looking	-15089
利用人工智能技术	-15090
:¥	-15091
作文	-15092
悟空	-15093
成人	-15094
流星	-15095
現代	-15096
vol	-15097
▁取出	-15098
也不是	-15099
女朋友	-15100
成就感	-15101
结合了	-15102
而无需	-15103
问题等	-15104
个人喜好	-15105
機器學習	-15106
一丝	-15107
洋溢	-15108
焦糖	-15109
物业	-15110
田园	-15111
给它	-15112
防守	-15113
中扮演	-15114
的比赛	-15115
阅读和	-15116
flow	-15117
大数据和	-15118
水果沙拉	-15119
黑客攻击	-15120
进一步发展	-15121
可以通过分析	-15122
▁format	-15123
UI	-15124
不止	-15125
丽丝	-15126
克林	-15127
媒體	-15128
尼尔	-15129
油炸	-15130
罗宾	-15131
▁推荐	-15132
了一名	-15133
力量的	-15134
植物和	-15135
软件和	-15136
resh	-15137
不同文化	-15138
人际交往	-15139
让人感觉	-15140
输入数据	-15141
andas	-15142
▁给定一个问题	-15143
resource	-15144
![	-15145
》、	-15146
同行	-15147
和新	-15148
坚实	-15149
波光	-15150
道具	-15151
▁BY	-15152
人一样	-15153
体现在	-15154
平分给	-15155
并计算	-15156
的各种	-15157
的时代	-15158
三角函数	-15159
制定计划	-15160
数字序列	-15161
时间旅行	-15162
更容易地	-15163
有害物质	-15164
的创始人	-15165
谢谢您的	-15166
清新的空气	-15167
▁根据以下信息	-15168
Sentence	-15169
▁weekend	-15170
偏向	-15171
是他	-15172
分布在	-15173
加入了	-15174
微风吹	-15175
的报告	-15176
的一系列	-15177
的字符串	-15178
都有广泛的应用	-15179
到处	-15180
墙上	-15181
梅隆	-15182
独具	-15183
编织	-15184
葱花	-15185
连帽	-15186
速率	-15187
ged	-15188
ral	-15189
也很好	-15190
冥想和	-15191
加西亚	-15192
国内外	-15193
并能够	-15194
我一直	-15195
的理论	-15196
的礼物	-15197
的组合	-15198
ired	-15199
地球上最	-15200
简要概括	-15201
的发展方向	-15202
请问您希望	-15203
Resource	-15204
把这句话翻译成中文	-15205
抢劫	-15206
梦里	-15207
泛化	-15208
產生	-15209
竟然	-15210
者在	-15211
脚下	-15212
触摸	-15213
雨中	-15214
ten	-15215
但同时	-15216
大约为	-15217
更深入的	-15218
精神状态	-15219
结合起来	-15220
您可能需要	-15221
▁heart	-15222
xy	-15223
▁и	-15224
▁清	-15225
具體	-15226
单数	-15227
大卫	-15228
小巧	-15229
演绎	-15230
走着	-15231
造纸	-15232
酸甜	-15233
对话中	-15234
小明要	-15235
来识别	-15236
也可能会	-15237
字的文章	-15238
新鲜空气	-15239
狗是人类	-15240
▁writ	-15241
全球最大的	-15242
对数据进行	-15243
无监督学习	-15244
▁根据所提供的	-15245
▁时	-15246
下方	-15247
八大	-15248
越高	-15249
ido	-15250
使他们	-15251
文件夹	-15252
一些建议	-15253
不一样的	-15254
数学题目	-15255
自动生成	-15256
email	-15257
是地球上最	-15258
都有不同的	-15259
Output	-15260
根据您的要求	-15261
可以帮助您更好地	-15262
}$	-15263
凉拌	-15264
從而	-15265
防治	-15266
面膜	-15267
鲜嫩	-15268
ald	-15269
▁#{	-15270
他非常	-15271
可以吃	-15272
对这个	-15273
放置在	-15274
更简洁	-15275
盒子里	-15276
经济和	-15277
社交距离	-15278
被归类为	-15279
边的长度	-15280
这些动物	-15281
▁event	-15282
▁给定两个句子	-15283
会计	-15284
和中	-15285
和糖	-15286
回头	-15287
因数	-15288
方差	-15289
章节	-15290
规格	-15291
招牌菜	-15292
泡打粉	-15293
空白处	-15294
茂密的	-15295
里面的	-15296
▁做一个	-15297
社会主义	-15298
您可以根据	-15299
▁coffee	-15300
▁生成一首诗吧	-15301
健康饮食的建议	-15302
NS	-15303
_.	-15304
▁三	-15305
剪刀	-15306
将为	-15307
推行	-15308
欧式	-15309
正念	-15310
脸庞	-15311
蜗牛	-15312
除非	-15313
▁未来	-15314
我发现	-15315
根香蕉	-15316
让模型	-15317
三分之一	-15318
解答问题	-15319
group	-15320
command	-15321
asketball	-15322
借鉴	-15323
和多	-15324
投影	-15325
应用在	-15326
暴风雨	-15327
的介绍	-15328
的倍数	-15329
角色和	-15330
他和他的	-15331
可以试试	-15332
技术可以	-15333
的平方根	-15334
神经系统	-15335
管理系统	-15336
人类社会的	-15337
科技的进步	-15338
ission	-15339
▁again	-15340
丛林	-15341
尾气	-15342
拿起	-15343
杯水	-15344
正好	-15345
遊戲	-15346
Sub	-15347
并描述	-15348
树枝上	-15349
都不同	-15350
▁men	-15351
克里斯托	-15352
反向传播	-15353
回家的路	-15354
市场上的	-15355
方程的解	-15356
饱和脂肪	-15357
AG	-15358
上身	-15359
光谱	-15360
则会	-15361
器等	-15362
片和	-15363
社论	-15364
秋叶	-15365
▁医疗	-15366
和快乐	-15367
季度的	-15368
cope	-15369
你的需求	-15370
无与伦比	-15371
每个元素	-15372
point	-15373
▁古诗续写	-15374
的基本原理	-15375
中最大的行星	-15376
他也	-15377
复数	-15378
天边	-15379
头鹰	-15380
它与	-15381
指向	-15382
狂欢	-15383
着的	-15384
赛车	-15385
会喜欢	-15386
瑜伽或	-15387
记录和	-15388
非线性	-15389
分析一下	-15390
在今天的	-15391
我的建议	-15392
Trans	-15393
▁给出一段	-15394
小明和小红一共有	-15395
▁√	-15396
包围	-15397
泳池	-15398
点数	-15399
什么样	-15400
大脑的	-15401
姓名和	-15402
有效性	-15403
义相对论	-15404
位于美国	-15405
微风吹拂	-15406
更加深入	-15407
认知行为	-15408
这些挑战	-15409
的情感极性	-15410
▁equal	-15411
光泽	-15412
同比	-15413
尘埃	-15414
滑板	-15415
▁!=	-15416
人性化	-15417
全谷类	-15418
在一家	-15419
当他们	-15420
能够为	-15421
训练和	-15422
进入了	-15423
努力工作	-15424
多种语言	-15425
稳定性和	-15426
足够的水	-15427
具有重要的	-15428
给我介绍一下	-15429
解决问题的方法	-15430
▁company	-15431
redential	-15432
▁understand	-15433
亲自	-15434
小脚	-15435
拿走	-15436
收费	-15437
诗词	-15438
鲁迅	-15439
众多的	-15440
只剩下	-15441
在寻找	-15442
玫瑰花	-15443
管理员	-15444
花生酱	-15445
高跟鞋	-15446
over	-15447
价值观和	-15448
多种因素	-15449
大大提高	-15450
最佳影片	-15451
过度使用	-15452
这家公司	-15453
您可以告诉我	-15454
我们应该采取	-15455
▁为给定的文本	-15456
:|	-15457
单个	-15458
图标	-15459
太极	-15460
奢华	-15461
桂林	-15462
網站	-15463
单元格	-15464
和设计	-15465
电子书	-15466
的大气	-15467
的独特	-15468
spec	-15469
体育锻炼	-15470
心理状态	-15471
文章摘要	-15472
这些应用	-15473
array	-15474
可以归类为	-15475
▁给我讲一个	-15476
lection	-15477
project	-15478
▁phrase	-15479
你最喜欢的电影	-15480
如果您需要更多的	-15481
▁打	-15482
▁来	-15483
仙境	-15484
冠状	-15485
小黄	-15486
的手	-15487
糕点	-15488
编译	-15489
闪电	-15490
三句话	-15491
于是他	-15492
件事情	-15493
场景和	-15494
段文字	-15495
的威胁	-15496
端午节	-15497
两个日期	-15498
只有通过	-15499
提供支持	-15500
热带雨林	-15501
发现自己的	-15502
的解决方案	-15503
区块链技术的	-15504
▁struct	-15505
可以帮助你更好地	-15506
宝贝	-15507
布丁	-15508
擁有	-15509
火药	-15510
状语	-15511
石子	-15512
医生和	-15513
和一只	-15514
尔摩斯	-15515
法律的	-15516
的员工	-15517
该方法	-15518
首先是	-15519
oney	-15520
▁hot	-15521
中的作用	-15522
他们之间的	-15523
▁needs	-15524
▁place	-15525
EX	-15526
可达	-15527
块钱	-15528
大衣	-15529
想想	-15530
日志	-15531
树下	-15532
瑟瑟	-15533
一会儿	-15534
事物的	-15535
它已经	-15536
每本书	-15537
烤盘上	-15538
的大型	-15539
看上去	-15540
错过的	-15541
的世界里	-15542
福尔摩斯	-15543
给出你的	-15544
安静的地方	-15545
FT	-15546
KE	-15547
](	-15548
伊朗	-15549
出游	-15550
夸张	-15551
奇异	-15552
无垠	-15553
清醒	-15554
膝盖	-15555
进食	-15556
can	-15557
▁En	-15558
交通和	-15559
必需品	-15560
比较好	-15561
永恒的	-15562
科学和	-15563
北京时间	-15564
支付方式	-15565
atory	-15566
现在请你将	-15567
如何制作一杯	-15568
我们每个人都	-15569
介质	-15570
团聚	-15571
废气	-15572
江湖	-15573
無法	-15574
着手	-15575
远远	-15576
造林	-15577
冥想或	-15578
因为她	-15579
等内容	-15580
ging	-15581
广泛关注	-15582
如果一个人	-15583
是不道德的	-15584
不敢	-15585
历经	-15586
布朗	-15587
抱怨	-15588
换成	-15589
椰子	-15590
Air	-15591
▁的值	-15592
平方根	-15593
当然有	-15594
算一下	-15595
细腻的	-15596
谓语是	-15597
责任和	-15598
▁rad	-15599
也有很多	-15600
创造新的	-15601
动词短语	-15602
和最小值	-15603
睡眠时间	-15604
计算资源	-15605
金融领域	-15606
需要一个	-15607
为客户提供	-15608
ialize	-15609
▁being	-15610
nection	-15611
越来越多的人开始	-15612
aj	-15613
▁林	-15614
安妮	-15615
市值	-15616
开设	-15617
影子	-15618
生死	-15619
绕着	-15620
unk	-15621
小镇上	-15622
手中有	-15623
地球自转	-15624
蔬菜水果	-15625
需要不断	-15626
非常丰富	-15627
▁Test	-15628
拥有丰富的	-15629
▁根据以下句子	-15630
▁However	-15631
伊斯	-15632
就有	-15633
表達	-15634
讲个	-15635
农作物	-15636
只有一	-15637
小伙伴	-15638
市场和	-15639
星期四	-15640
的小镇	-15641
的森林	-15642
聊一聊	-15643
aper	-15644
保险公司	-15645
充满活力	-15646
应该包含	-15647
中提取关键信息	-15648
解决问题的能力	-15649
▁computer	-15650
▁ب	-15651
尤为	-15652
法庭	-15653
滋味	-15654
txt	-15655
▁推广	-15656
在教育	-15657
必须在	-15658
百分之	-15659
的物质	-15660
里面有	-15661
dict	-15662
hand	-15663
整个句子	-15664
极端气候	-15665
清华大学	-15666
这是由于	-15667
itten	-15668
一定程度上	-15669
也可以使用	-15670
计算它们的平均值	-15671
▁Translate	-15672
一艘	-15673
产物	-15674
京剧	-15675
亲友	-15676
种群	-15677
解出	-15678
Aut	-15679
▁OR	-15680
一年的	-15681
中输入	-15682
了新的	-15683
并成为	-15684
很简单	-15685
▁age	-15686
▁个橙子	-15687
▁请编辑	-15688
生产力和	-15689
inner	-15690
▁ever	-15691
▁total	-15692
"-	-15693
Ok	-15694
TO	-15695
不堪	-15696
右边	-15697
后再	-15698
树的	-15699
爱护	-15700
谈话	-15701
骄傲	-15702
▁eq	-15703
主语是	-15704
几年中	-15705
咖啡厅	-15706
或组织	-15707
的剧情	-15708
]```	-15709
▁std	-15710
▁将以下短文	-15711
▁capital	-15712
越来越重要的角色	-15713
DD	-15714
之城	-15715
凉风	-15716
史诗	-15717
性地	-15718
星夜	-15719
确诊	-15720
ION	-15721
▁ce	-15722
以下几	-15723
则是指	-15724
最后的	-15725
柠檬水	-15726
都无法	-15727
伦敦塔桥	-15728
带给我们	-15729
感到焦虑	-15730
处理和分析	-15731
作为人工智能	-15732
如果您能提供	-15733
▁things	-15734
ès	-15735
▁心	-15736
三条	-15737
傳統	-15738
卡普	-15739
导盲	-15740
彩笔	-15741
扑鼻	-15742
整天	-15743
立法	-15744
色素	-15745
▁说明	-15746
找到并	-15747
抗生素	-15748
收益率	-15749
每天吃	-15750
的类型	-15751
超能力	-15752
▁///	-15753
以确保其	-15754
本文主要	-15755
进行交流	-15756
违法行为	-15757
阳光透过	-15758
▁happ	-15759
如果我想要	-15760
我们可以在	-15761
可以选择一些	-15762
current	-15763
我们每个人都应该	-15764
LD	-15765
研讨	-15766
钱数	-15767
any	-15768
iri	-15769
▁Je	-15770
句话说	-15771
或地区	-15772
测试集	-15773
甚至是	-15774
在天空中	-15775
营养均衡	-15776
写一篇有关	-15777
更容易理解	-15778
ichael	-15779
加载	-15780
去做	-15781
叙事	-15782
圆周	-15783
将有	-15784
幼儿	-15785
疑虑	-15786
痕迹	-15787
阵雨	-15788
▁指出	-15789
也会对	-15790
你怎么	-15791
分类和	-15792
印刷术	-15793
实用性	-15794
收入和	-15795
有其他	-15796
格式化	-15797
相比之下	-15798
这个概念	-15799
歧视和偏见	-15800
这样可以让	-15801
▁生成一个有趣的故事	-15802
我心	-15803
海盗	-15804
源头	-15805
签证	-15806
见的	-15807
也不能	-15808
但没有	-15809
回答说	-15810
基础的	-15811
屏幕上	-15812
游戏和	-15813
请不要	-15814
不可避免	-15815
人们对于	-15816
可以达到	-15817
带来许多	-15818
爱情电影	-15819
选择哪种	-15820
造成伤害	-15821
▁live	-15822
人们可以通过	-15823
FA	-15824
но	-15825
▁好	-15826
不便	-15827
他很	-15828
优越	-15829
低落	-15830
收购	-15831
朝代	-15832
染色	-15833
評估	-15834
▁巴黎	-15835
不相同	-15836
与偏见	-15837
售货员	-15838
来了解	-15839
rink	-15840
品尝美食	-15841
您可以从	-15842
Count	-15843
准确的答案	-15844
▁基于给定的	-15845
我可以告诉你	-15846
进行头脑风暴	-15847
((	-15848
sk	-15849
两天	-15850
加拉	-15851
华氏	-15852
或在	-15853
深色	-15854
然後	-15855
▁No	-15856
▁一种	-15857
不到的	-15858
发明了	-15859
可以把	-15860
小时的	-15861
并及时	-15862
建立起	-15863
总结成	-15864
的职业	-15865
看一部	-15866
短暂的	-15867
阿里云	-15868
▁cre	-15869
可以确定	-15870
因为它的	-15871
技术发展	-15872
科幻故事	-15873
这部小说	-15874
parse	-15875
很好的选择	-15876
的安全性和	-15877
从小到大排序	-15878
都是不错的选择	-15879
中医	-15880
真心	-15881
砂糖	-15882
获奖	-15883
评测	-15884
飘零	-15885
▁gr	-15886
了起来	-15887
件衣服	-15888
你已经	-15889
呼吸道	-15890
均匀地	-15891
并帮助	-15892
教育的	-15893
时尚感	-15894
深厚的	-15895
的身高	-15896
▁Max	-15897
体育运动	-15898
其他人的	-15899
始终保持	-15900
水上运动	-15901
紧张情绪	-15902
我感到非常	-15903
▁books	-15904
生成一篇文章	-15905
那你能告诉我	-15906
▁对下面的文本	-15907
)?	-15908
不必	-15909
二元	-15910
創造	-15911
千万	-15912
地區	-15913
审视	-15914
晚霞	-15915
的球	-15916
直观	-15917
省略	-15918
词组	-15919
加入到	-15920
卡梅隆	-15921
在公司	-15922
快节奏	-15923
恐怖片	-15924
打印出	-15925
日期为	-15926
短视频	-15927
阳光的	-15928
acci	-15929
准备好了	-15930
在句子中	-15931
深入探讨	-15932
这个人的	-15933
也可以考虑	-15934
傲慢与偏见	-15935
这是一个关于	-15936
健康的饮食习惯	-15937
严谨	-15938
十字	-15939
命中	-15940
哲理	-15941
喂养	-15942
巅峰	-15943
才会	-15944
新药	-15945
沙沙	-15946
腹部	-15947
近似	-15948
长大	-15949
大城市	-15950
明月光	-15951
是根据	-15952
需求的	-15953
iece	-15954
▁mem	-15955
博客文章	-15956
随机森林	-15957
▁fore	-15958
▁impro	-15959
回答一个问题	-15960
我可以提供一些	-15961
他将	-15962
应聘	-15963
忘返	-15964
称呼	-15965
缓存	-15966
航行	-15967
较长	-15968
▁On	-15969
▁采用	-15970
分析等	-15971
和经验	-15972
星期一	-15973
清晨的	-15974
狗狗的	-15975
自然和	-15976
被发现	-15977
个人口味	-15978
尽我所能	-15979
才能真正	-15980
orial	-15981
▁rain	-15982
▁设计一个	-15983
▁Sheer	-15984
▁为以下文本	-15985
以下是一些例子	-15986
▁可	-15987
床前	-15988
庭院	-15989
推迟	-15990
水煮	-15991
自動	-15992
URL	-15993
uit	-15994
一个是	-15995
封闭式	-15996
愉悦的	-15997
比如在	-15998
生命体	-15999
的费用	-16000
陷入了	-16001
uest	-16002
▁him	-16003
市场竞争	-16004
所需材料	-16005
详细描述	-16006
这个句子中的	-16007
itional	-16008
加减	-16009
各位	-16010
末尾	-16011
炒蛋	-16012
生意	-16013
西洋	-16014
cos	-16015
一起玩	-16016
不适合	-16017
公平的	-16018
对中国	-16019
是一段	-16020
沁人心	-16021
▁box	-16022
医学诊断	-16023
烤箱中烤	-16024
童话故事	-16025
通俗易懂	-16026
image	-16027
▁page	-16028
法律和道德	-16029
越来越受到	-16030
健康生活方式	-16031
是一个充满活力和	-16032
▁鱼	-16033
将进	-16034
導致	-16035
惊人	-16036
有關	-16037
通货	-16038
露珠	-16039
世纪末	-16040
向上的	-16041
在人类	-16042
地使用	-16043
它们会	-16044
并促进	-16045
电影和	-16046
ctor	-16047
以下短文	-16048
提供一份	-16049
需要用到	-16050
你认为未来	-16051
克里斯托弗	-16052
小明和他的	-16053
▁Given	-16054
▁short	-16055
▁small	-16056
对我们的生活	-16057
:`	-16058
巴克	-16059
很长	-16060
斯顿	-16061
有四	-16062
激素	-16063
稳健	-16064
长款	-16065
鲈鱼	-16066
lez	-16067
变化的	-16068
和身体	-16069
定义为	-16070
有益的	-16071
某些人	-16072
深层次	-16073
该技术	-16074
iles	-16075
rame	-16076
▁web	-16077
工业革命	-16078
我需要查看	-16079
技术的进步	-16080
为您生成一个	-16081
ributes	-16082
请给我提供一些	-16083
assertEqual	-16084
來說	-16085
切换	-16086
助力	-16087
勇于	-16088
告訴	-16089
情诗	-16090
放射	-16091
普照	-16092
湖边	-16093
甜食	-16094
知的	-16095
出版社	-16096
意识和	-16097
生物的	-16098
等症状	-16099
请列出	-16100
rive	-16101
传说中的	-16102
辅助诊断	-16103
▁flow	-16104
充满活力的	-16105
气候变化和	-16106
HI	-16107
。|	-16108
乙方	-16109
优异	-16110
悬崖	-16111
bot	-16112
ole	-16113
▁sw	-16114
▁他的	-16115
▁蓝色	-16116
一首歌	-16117
动人的	-16118
和意义	-16119
学习了	-16120
摇滚乐	-16121
旅行时	-16122
来求解	-16123
驾驶员	-16124
人类已经	-16125
太阳能和	-16126
我们正在	-16127
浪漫主义	-16128
混合均匀	-16129
用于描述	-16130
疾病预测	-16131
股票市场	-16132
ctive	-16133
人们越来越	-16134
是一种通过	-16135
人工智能是指	-16136
满足您的需求	-16137
这是一个简单的	-16138
农夫	-16139
办理	-16140
朝鲜	-16141
爱心	-16142
程式	-16143
要想	-16144
视力	-16145
逃避	-16146
重重	-16147
ips	-16148
▁虽然	-16149
与客户	-16150
价值的	-16151
任务和	-16152
数学和	-16153
渐进性	-16154
两个文本	-16155
完成一个	-16156
联系起来	-16157
我需要一个	-16158
认真地思考	-16159
\_	-16160
固体	-16161
奶昔	-16162
满园	-16163
跃过	-16164
飘舞	-16165
One	-16166
Tok	-16167
cur	-16168
吃了一	-16169
在其他	-16170
掌握了	-16171
气温在	-16172
沙拉酱	-16173
沙滩和	-16174
post	-16175
数据类型	-16176
非常抱歉	-16177
▁come	-16178
▁keep	-16179
美好的一天	-16180
人工智能的一个	-16181
▁express	-16182
只鸡	-16183
失控	-16184
平行	-16185
庞大	-16186
美学	-16187
自闭	-16188
資訊	-16189
贫穷	-16190
sup	-16191
和改善	-16192
小鸟在	-16193
是正面	-16194
表达的	-16195
食材和	-16196
▁buy	-16197
加强环保	-16198
情感色彩	-16199
我们现在	-16200
现代诗歌	-16201
生成一组	-16202
财务报告	-16203
输出摘要	-16204
他分给小红	-16205
企业和个人	-16206
你认为人工智能	-16207
▁根据给定的输入	-16208
中来	-16209
主导	-16210
分的	-16211
原有	-16212
地带	-16213
如火	-16214
快来	-16215
洗涤	-16216
艾伦	-16217
酸辣	-16218
高耸	-16219
与您的	-16220
之后的	-16221
伊丽莎	-16222
总数为	-16223
描述性	-16224
方式是	-16225
pond	-16226
▁Web	-16227
▁arr	-16228
为我们的	-16229
准备一些	-16230
放松自己	-16231
更有效的	-16232
翻译一下	-16233
ambda	-16234
ellow	-16235
▁这部电影	-16236
可以被视为	-16237
学习和改进	-16238
正则表达式	-16239
▁Swift	-16240
保护自然环境	-16241
缓解压力和焦虑	-16242
▁tomorrow	-16243
,(	-16244
те	-16245
全新	-16246
干酪	-16247
改造	-16248
无所	-16249
病史	-16250
股价	-16251
让其	-16252
个香蕉	-16253
来形容	-16254
段落中	-16255
让人心	-16256
这个新	-16257
降低了	-16258
为了实现	-16259
伊丽莎白	-16260
换句话说	-16261
然后加入	-16262
等领域的	-16263
准确的信息	-16264
环境问题的	-16265
这里有一个	-16266
并给出详细的	-16267
一顿	-16268
主体	-16269
承载	-16270
核桃	-16271
群众	-16272
▁希望	-16273
名字和	-16274
已有的	-16275
数据来	-16276
灰色的	-16277
袋糖果	-16278
ibon	-16279
个性化和	-16280
并且能够	-16281
情感倾向	-16282
狗是一种	-16283
Build	-16284
轻便的衣服	-16285
=$	-16286
分歧	-16287
单品	-16288
叶绿	-16289
地中	-16290
小猪	-16291
样例	-16292
皮毛	-16293
过渡	-16294
rel	-16295
▁Ne	-16296
和反馈	-16297
得非常	-16298
艺术和	-16299
两个数的	-16300
智能设备	-16301
▁hard	-16302
和增强现实	-16303
和文化背景	-16304
ighted	-16305
▁software	-16306
世代	-16307
回味	-16308
因子	-16309
柿子	-16310
水质	-16311
玩法	-16312
纯色	-16313
各地的	-16314
复合句	-16315
完整性	-16316
的处理	-16317
的真实	-16318
确保其	-16319
魔法石	-16320
each	-16321
help	-16322
▁Ste	-16323
具体信息	-16324
进行纠错	-16325
Field	-16326
▁编写一段	-16327
和应用场景	-16328
获得更多的	-16329
static	-16330
他想分给他的	-16331
options	-16332
以下几个方面入手	-16333
ко	-16334
三人	-16335
三十	-16336
上帝	-16337
前方	-16338
完了	-16339
开采	-16340
弗里	-16341
相依	-16342
精简	-16343
芳草	-16344
阴谋	-16345
ium	-16346
rin	-16347
不公正	-16348
不正确	-16349
后加入	-16350
在训练	-16351
挫折和	-16352
洋葱和	-16353
充满活力和	-16354
生成一首诗	-16355
感受大自然的	-16356
可以帮助我们更好地	-16357
口头	-16358
微微	-16359
春雨	-16360
泄漏	-16361
纬度	-16362
财经	-16363
退款	-16364
降温	-16365
静止	-16366
ERT	-16367
til	-16368
但如果	-16369
在巴黎	-16370
很美味	-16371
或提供	-16372
的孩子	-16373
的排放	-16374
的简单	-16375
被人们	-16376
让整个	-16377
ants	-16378
他们开始	-16379
制作一份	-16380
吃了一个	-16381
均衡饮食	-16382
海洋污染	-16383
我们还需要	-16384
计算机编程	-16385
▁natural	-16386
给我提供一些创意	-16387
初中	-16388
地标	-16389
族群	-16390
棉花	-16391
牛油	-16392
礼服	-16393
见过	-16394
▁确保	-16395
▁蔬菜	-16396
不满意	-16397
可用的	-16398
将进酒	-16399
建筑师	-16400
fact	-16401
不仅能够	-16402
如何解决	-16403
生物技术	-16404
这个话题	-16405
▁para	-16406
▁dream	-16407
▁health	-16408
ibonacci	-16409
不含	-16410
他与	-16411
宝钗	-16412
寒风	-16413
液态	-16414
皮鞋	-16415
自驾	-16416
辩论	-16417
闭合	-16418
▁[]	-16419
▁代码	-16420
分子的	-16421
在没有	-16422
如何让	-16423
治疗和	-16424
的总结	-16425
通常比	-16426
食物链	-16427
rome	-16428
健身器材	-16429
字符串中	-16430
应用广泛	-16431
自由意志	-16432
表现出了	-16433
▁same	-16434
小明现在有	-16435
模型的性能	-16436
Action	-16437
一根	-16438
召开	-16439
导体	-16440
导入	-16441
微弱	-16442
月饼	-16443
每当	-16444
画出	-16445
糯米	-16446
维多	-16447
而另	-16448
饱满	-16449
ato	-16450
他們的	-16451
包容性	-16452
更加有	-16453
由于其	-16454
的女性	-16455
艺术的	-16456
▁rep	-16457
去了公园	-16458
基本概念	-16459
尽量减少	-16460
进行交互	-16461
非常聪明	-16462
▁分类以下	-16463
具体的信息	-16464
具体的问题	-16465
gorith	-16466
▁以下是一个	-16467
▁school	-16468
全球变暖的影响	-16469
pythondef	-16470
??	-16471
PM	-16472
再见	-16473
味蕾	-16474
水生	-16475
雪山	-16476
马里	-16477
abc	-16478
por	-16479
▁音乐	-16480
击败了	-16481
家人的	-16482
沙发上	-16483
的海洋	-16484
监管和	-16485
纽约的	-16486
三个朋友	-16487
作为输入	-16488
关键句子	-16489
同时也要	-16490
没有明显的	-16491
渐进性肌肉	-16492
在公园里散步	-16493
属于哺乳动物	-16494
▁Spanish	-16495
▁reading	-16496
归属	-16497
考察	-16498
蓝鲸	-16499
豆浆	-16500
车站	-16501
▁Ed	-16502
不是很	-16503
主语和	-16504
则需要	-16505
动物和	-16506
学到了	-16507
的几个	-16508
的平衡	-16509
的能源	-16510
pear	-16511
ries	-16512
可以分析	-16513
年世界杯	-16514
语法正确	-16515
check	-16516
的中心思想	-16517
艺术博物馆	-16518
这两个日期	-16519
▁Sheeran	-16520
一日	-16521
主食	-16522
务员	-16523
吐司	-16524
煎蛋	-16525
草本	-16526
队长	-16527
世纪的	-16528
为了让	-16529
和结构	-16530
在面对	-16531
太阳镜	-16532
它利用	-16533
将得到	-16534
搅拌机	-16535
水龙头	-16536
生存和	-16537
的练习	-16538
趋势和	-16539
可以搭配	-16540
更加智能	-16541
Color	-16542
eturn	-16543
思维和行为	-16544
带来了巨大的	-16545
技术可以帮助	-16546
價值	-16547
剥夺	-16548
各项	-16549
带回	-16550
方块	-16551
本次	-16552
樣的	-16553
河南	-16554
线程	-16555
鲑鱼	-16556
Hub	-16557
张家界	-16558
来得到	-16559
湖人队	-16560
说明书	-16561
因为它是	-16562
无论如何	-16563
科技文章	-16564
空气清新	-16565
简单来说	-16566
给我讲讲	-16567
product	-16568
}}	-16569
ро	-16570
左侧	-16571
搭乘	-16572
操纵	-16573
歌声	-16574
發生	-16575
管道	-16576
葱茏	-16577
限度	-16578
风和	-16579
亚历山	-16580
去寻找	-16581
您能否	-16582
或问题	-16583
本文中	-16584
电动车	-16585
设备上	-16586
通常以	-16587
Good	-16588
他们发现	-16589
通过学习	-16590
first	-16591
model	-16592
token	-16593
的应用领域	-16594
遇到的问题	-16595
▁block	-16596
▁根据给定的句子	-16597
五彩	-16598
亲肤	-16599
合金	-16600
头望	-16601
孤儿	-16602
微凉	-16603
改變	-16604
病理	-16605
迅猛	-16606
obs	-16607
个篮球	-16608
的技能	-16609
的操作	-16610
last	-16611
一首歌曲	-16612
上下文中	-16613
分类算法	-16614
研究成果	-16615
逻辑推理	-16616
Person	-16617
英文短语翻译成中文	-16618
OK	-16619
PC	-16620
加重	-16621
护照	-16622
牵手	-16623
观影	-16624
高铁	-16625
▁其他	-16626
▁购买	-16627
使句子	-16628
化学品	-16629
挑战性	-16630
有时会	-16631
电影或	-16632
的决定	-16633
过滤器	-16634
mark	-16635
oose	-16636
▁请提取	-16637
人力资源	-16638
从文章中	-16639
以及它们	-16640
分享你的	-16641
增加一些	-16642
温度上升	-16643
空气净化	-16644
中提取所有	-16645
▁refer	-16646
▁success	-16647
----------------	-16648
三亚	-16649
录音	-16650
海豹	-16651
他把其中	-16652
冠状病毒	-16653
同义词或	-16654
进行操作	-16655
旅游的文章	-16656
监督学习和	-16657
▁array	-16658
五十	-16659
在花	-16660
年内	-16661
店员	-16662
热身	-16663
▁改正	-16664
分给了	-16665
切好的	-16666
博物院	-16667
打开了	-16668
最好是	-16669
现代的	-16670
设置为	-16671
信息科学	-16672
性格特点	-16673
让我知道	-16674
下面这段话	-16675
以下是三个	-16676
获得更好的	-16677
机器学习方法	-16678
编写一个程序	-16679
'.	-16680
体会	-16681
再到	-16682
切实	-16683
并发	-16684
时而	-16685
求得	-16686
燕子	-16687
终端	-16688
计时	-16689
错了	-16690
个创意	-16691
公平和	-16692
大家都	-16693
烤盘中	-16694
的一组	-16695
非常的	-16696
和组织名	-16697
多个领域	-16698
实现目标	-16699
工作流程	-16700
狗的品种	-16701
这句话是	-16702
ights	-16703
我想要一个	-16704
需要我帮忙	-16705
atform	-16706
北京市海淀区	-16707
的方法有很多	-16708
人工智能领域的	-16709
一方	-16710
他于	-16711
光学	-16712
在哪	-16713
孔子	-16714
官网	-16715
汹涌	-16716
真谛	-16717
诉说	-16718
起诉	-16719
Luc	-16720
之間的	-16721
了什麼	-16722
以及其	-16723
和她的	-16724
和完善	-16725
或状态	-16726
的特性	-16727
达芬奇	-16728
heck	-16729
imit	-16730
▁soc	-16731
中的信息	-16732
无法完全	-16733
多少个苹果	-16734
来解决问题	-16735
人工神经网络	-16736
更广泛的应用	-16737
TensorFlow	-16738
TF	-16739
共计	-16740
卡拉	-16741
吸气	-16742
它所	-16743
安娜	-16744
扑克	-16745
红茶	-16746
▁('	-16747
▁Im	-16748
坐下来	-16749
打印机	-16750
煸炒至	-16751
环保和	-16752
草原上	-16753
next	-16754
以及一些	-16755
和丰富的	-16756
是红色的	-16757
智能制造	-16758
电影推荐	-16759
目标客户	-16760
世界著名的	-16761
自然保护区	-16762
速度与激情	-16763
▁gusta	-16764
一篇新闻报道	-16765
是至关重要的	-16766
还剩下多少钱	-16767
commend	-16768
▁从给定的文本	-16769
▁如	-16770
但其	-16771
写着	-16772
国务	-16773
尔顿	-16774
持續	-16775
换算	-16776
本土	-16777
注射	-16778
猎犬	-16779
蒜蓉	-16780
话语	-16781
▁其次	-16782
▁创作	-16783
个体的	-16784
为你的	-16785
主要以	-16786
他现在	-16787
宽松的	-16788
拥有着	-16789
暗示着	-16790
的保护	-16791
ales	-16792
attr	-16793
在花园里	-16794
易于阅读	-16795
金黄色的	-16796
饮食计划	-16797
寻求专业的	-16798
提取文章中的	-16799
计算机视觉和	-16800
每个人都有自己的	-16801
这篇文章的主要观点	-16802
MP	-16803
tb	-16804
三天	-16805
天使	-16806
昂贵	-16807
更显	-16808
杰作	-16809
汽油	-16810
点亮	-16811
甲方	-16812
银翼	-16813
阶层	-16814
雷达	-16815
传递给	-16816
您可能	-16817
愉悦和	-16818
睡眠和	-16819
表现力	-16820
▁请解释	-16821
微风拂过	-16822
沁人心脾	-16823
维多利亚	-16824
人生的意义	-16825
支持和鼓励	-16826
看起来非常	-16827
效率和准确性	-16828
pg	-16829
四分	-16830
欢呼	-16831
決定	-16832
波斯	-16833
点了	-16834
纯粹	-16835
静态	-16836
();	-16837
oss	-16838
▁第二	-16839
人心弦	-16840
列出来	-16841
当人们	-16842
有意思	-16843
的形象	-16844
的海水	-16845
面积是	-16846
食品和	-16847
ined	-16848
为了确保	-16849
如何保护	-16850
它还可以	-16851
旅行计划	-16852
有着悠久	-16853
四舍五入到	-16854
深度学习的	-16855
▁speak	-16856
更详细的信息	-16857
▁elephant	-16858
то	-16859
上周	-16860
坚固	-16861
模具	-16862
煎饼	-16863
的外	-16864
跳动	-16865
香甜	-16866
ias	-16867
▁Or	-16868
和冲突	-16869
和商业	-16870
感人至	-16871
稳定和	-16872
解答吗	-16873
闪耀着	-16874
ones	-16875
三个句子	-16876
下列问题	-16877
什么问题	-16878
看到一个	-16879
紧急情况	-16880
还有助于	-16881
人们可以在	-16882
应用程序的	-16883
给我想一些	-16884
适当的运动	-16885
非常受欢迎	-16886
▁回答这个问题	-16887
▁Learning	-16888
倾诉	-16889
入住	-16890
前端	-16891
后天	-16892
大声	-16893
当事	-16894
间接	-16895
uns	-16896
▁os	-16897
▁明天	-16898
城市里	-16899
的官方	-16900
▁為什麼	-16901
你知道吗	-16902
包含以下	-16903
您想了解	-16904
文化差异	-16905
event	-16906
▁item	-16907
他给了小红	-16908
需求和预算	-16909
是一位著名的	-16910
我无法提供实时	-16911
mb	-16912
▁风	-16913
功夫	-16914
尽头	-16915
之所以	-16916
使用者	-16917
动画片	-16918
印象派	-16919
去参加	-16920
思故乡	-16921
科技与	-16922
筛选出	-16923
ched	-16924
宠物之一	-16925
成为我们	-16926
是我们的	-16927
的名称和	-16928
的数量是	-16929
简要描述	-16930
食肉动物	-16931
match	-16932
ories	-16933
现在我想知道	-16934
适当的标点符号	-16935
请从文章中提取出	-16936
▁愿	-16937
主席	-16938
夏令	-16939
悠然	-16940
捕获	-16941
流转	-16942
点心	-16943
皮革	-16944
都与	-16945
電影	-16946
uis	-16947
},\	-16948
他正在	-16949
复杂和	-16950
奠定了	-16951
管理等	-16952
邪恶的	-16953
logo	-16954
pare	-16955
ross	-16956
▁por	-16957
再来一个	-16958
▁fall	-16959
他送给小红	-16960
天气怎么样	-16961
我想问一下	-16962
世界上最高的	-16963
人工智能将在	-16964
iversity	-16965
人工智能的应用领域	-16966
养殖	-16967
冬日	-16968
比利	-16969
油腻	-16970
窃取	-16971
腿部	-16972
Yes	-16973
参观了	-16974
因为这	-16975
陈代谢	-16976
▁sat	-16977
也成为了	-16978
他们正在	-16979
夏天也是	-16980
当地文化	-16981
投资决策	-16982
无限可能	-16983
重要信息	-16984
银翼杀手	-16985
题目要求	-16986
while	-16987
leased	-16988
▁sense	-16989
我会尽力帮助您	-16990
并给出详细的推理过程	-16991
▁回答问题并给出详细的推理过程	-16992
▁分	-16993
▁請	-16994
。<	-16995
半球	-16996
夜市	-16997
心头	-16998
忘却	-16999
手持	-17000
抄袭	-17001
摩天	-17002
素数	-17003
限定	-17004
露出	-17005
oke	-17006
一个新	-17007
地完成	-17008
微小的	-17009
itch	-17010
▁ren	-17011
创新能力	-17012
并提出了	-17013
角色扮演	-17014
的季节之一	-17015
看起来更加	-17016
请告诉我您	-17017
明天的天气预报	-17018
▁将以下英文句子翻译成中文	-17019
流通	-17020
溪流	-17021
菜和	-17022
霜降	-17023
麦片	-17024
▁动物	-17025
去追求	-17026
在整个	-17027
孙悟空	-17028
异常值	-17029
的评价	-17030
覆盖着	-17031
保持警惕	-17032
写作灵感	-17033
医疗健康	-17034
应该根据	-17035
更美好的	-17036
的主旨是	-17037
自动学习	-17038
都是一个	-17039
▁hope	-17040
不同的类别	-17041
他们可能会	-17042
具有良好的	-17043
发现了一种	-17044
ification	-17045
▁basketball	-17046
▁克	-17047
中被	-17048
俯瞰	-17049
土耳	-17050
弹奏	-17051
数码	-17052
无私	-17053
柑橘	-17054
沉没	-17055
演技	-17056
着我	-17057
饼皮	-17058
▁{'	-17059
价格是	-17060
创意和	-17061
另一只	-17062
和小红	-17063
存储和	-17064
我只能	-17065
温柔的	-17066
循环经济	-17067
放在一个	-17068
更加方便	-17069
翻译结果	-17070
计算一个	-17071
领域中的	-17072
▁City	-17073
是什么样的	-17074
社会和经济	-17075
您所在的城市	-17076
认知行为疗法	-17077
对上述文本进行纠错	-17078
对上述文本进行纠错后的结果	-17079
bs	-17080
云端	-17081
修建	-17082
再用	-17083
奉献	-17084
山上	-17085
感性	-17086
所学	-17087
木质	-17088
楼梯	-17089
的路	-17090
盆栽	-17091
祥和	-17092
舌头	-17093
时使用	-17094
猫和狗	-17095
的人际	-17096
▁sug	-17097
在线购物	-17098
实时监测	-17099
这个星球	-17100
▁diff	-17101
咨询专业的	-17102
相关的句子	-17103
重要的是要	-17104
从这篇文章中	-17105
▁对给定的文本	-17106
找到适合自己的	-17107
GO	-17108
仇恨	-17109
兽医	-17110
刷牙	-17111
手册	-17112
时要	-17113
晶莹	-17114
深秋	-17115
溪水	-17116
福特	-17117
精华	-17118
Est	-17119
isa	-17120
他吃了	-17121
代表性	-17122
决定了	-17123
回收和	-17124
在现实	-17125
守望者	-17126
某个人	-17127
精度和	-17128
让孩子	-17129
高性能	-17130
令人陶醉	-17131
允许用户	-17132
更复杂的	-17133
魔法学校	-17134
berry	-17135
▁古诗生成	-17136
小说的开头	-17137
▁stand	-17138
▁System	-17139
以下是我为您生成的	-17140
上一	-17141
拉德	-17142
搭载	-17143
省的	-17144
着迷	-17145
级的	-17146
纳德	-17147
▁Ph	-17148
公里的	-17149
在上面	-17150
大小和	-17151
想法吗	-17152
根据你	-17153
活动等	-17154
解释了	-17155
造纸术	-17156
你可以将	-17157
思维模式	-17158
您需要我	-17159
我们相信	-17160
我看到了	-17161
所有人的	-17162
用户提供	-17163
提高生产力	-17164
ending	-17165
▁family	-17166
作为一个人工智能助手	-17167
Ne	-17168
周年	-17169
子上	-17170
董事	-17171
零件	-17172
不仅在	-17173
好莱坞	-17174
度左右	-17175
的中文	-17176
的神秘	-17177
责任感	-17178
face	-17179
以帮助您	-17180
它是一部	-17181
小说中的	-17182
控制饮食	-17183
自动识别	-17184
麦田里的	-17185
ately	-17186
pecial	-17187
rivate	-17188
Up	-17189
▁按	-17190
多了	-17191
延续	-17192
排行	-17193
棒球	-17194
色列	-17195
蔓延	-17196
震惊	-17197
馒头	-17198
▁昨天	-17199
▁红烧	-17200
中学习	-17201
受害者	-17202
地上霜	-17203
我曾经	-17204
狗和猫	-17205
的对象	-17206
▁Col	-17207
▁Red	-17208
咨询专业	-17209
将在未来	-17210
沟通能力	-17211
需要知道	-17212
▁http	-17213
我们可能会	-17214
的地理位置	-17215
的生活方式	-17216
全球气候变暖	-17217
变得更加美好	-17218
减少使用塑料袋	-17219
=-	-17220
元组	-17221
如茵	-17222
巴士	-17223
建築	-17224
撞击	-17225
敬礼	-17226
清淡	-17227
疑是	-17228
秦始	-17229
配色	-17230
fix	-17231
rig	-17232
主题句	-17233
会带来	-17234
小松鼠	-17235
我开始	-17236
有一定	-17237
有趣和	-17238
棕色的	-17239
的规定	-17240
知识点	-17241
amed	-17242
中扮演着	-17243
买了一个	-17244
你是一名	-17245
像人一样	-17246
几十年中	-17247
可以将其	-17248
扮演一名	-17249
放入锅中	-17250
用自己的	-17251
这是我的	-17252
thing	-17253
了解他们的	-17254
平等的机会和	-17255
根据您的需求	-17256
人工智能的未来	-17257
▁而	-17258
一種	-17259
仪器	-17260
前后	-17261
坐着	-17262
审判	-17263
少许	-17264
权衡	-17265
没错	-17266
海星	-17267
考古	-17268
舞曲	-17269
触发	-17270
隧道	-17271
音节	-17272
med	-17273
▁支持	-17274
他认为	-17275
我感觉	-17276
而著名	-17277
Jane	-17278
也会影响	-17279
回答答案	-17280
图像中的	-17281
糖醋排骨	-17282
详细介绍	-17283
随时随地	-17284
orage	-17285
主题相关的	-17286
以下句子中	-17287
gether	-17288
▁email	-17289
▁multi	-17290
导数	-17291
摩根	-17292
梗概	-17293
线下	-17294
▁vo	-17295
▁点击	-17296
▁鼓励	-17297
也有着	-17298
和你的	-17299
肌肉和	-17300
auth	-17301
unch	-17302
为了提供	-17303
量子纠缠	-17304
local	-17305
可持续能源	-17306
名词和动词	-17307
并不是一个	-17308
所有的名词	-17309
▁请回答问题	-17310
请问你有什么	-17311
Netflix	-17312
▁对下面的文本进行纠错	-17313
三大	-17314
周二	-17315
巨型	-17316
探寻	-17317
牙膏	-17318
神庙	-17319
下一代	-17320
土耳其	-17321
坚果和	-17322
应包括	-17323
是用来	-17324
最高峰	-17325
的法律	-17326
网络上	-17327
色彩和	-17328
学术论文	-17329
深刻的影响	-17330
_______	-17331
人工智能的科普文章	-17332
SO	-17333
▁看	-17334
动手	-17335
勇往	-17336
压迫	-17337
四年	-17338
定价	-17339
报警	-17340
排队	-17341
是被	-17342
极了	-17343
着陆	-17344
解开	-17345
马云	-17346
孤独感	-17347
必须是	-17348
执行官	-17349
main	-17350
可能出现	-17351
莱昂纳多	-17352
进行重写	-17353
适合家庭	-17354
我才能帮助您	-17355
Property	-17356
▁JavaScript	-17357
こと	-17358
叶片	-17359
毕竟	-17360
股份	-17361
荷叶	-17362
讲话	-17363
足以	-17364
身穿	-17365
xml	-17366
▁CO	-17367
▁姓名	-17368
修改后	-17369
到达了	-17370
总收入	-17371
爱情是	-17372
的一家	-17373
的小鸟	-17374
自闭症	-17375
▁air	-17376
▁boy	-17377
不断改进	-17378
以下方式	-17379
利用效率	-17380
的小故事	-17381
这些特征	-17382
这家餐馆	-17383
▁Time	-17384
和社交媒体	-17385
炎热的夏天	-17386
美丽的景色	-17387
这可以帮助	-17388
uments	-17389
?'	-17390
万有	-17391
书面	-17392
北海	-17393
即时	-17394
声称	-17395
店的	-17396
疗效	-17397
融资	-17398
边形	-17399
餐点	-17400
高大	-17401
Mar	-17402
ume	-17403
中含有	-17404
停用词	-17405
日下午	-17406
的总价	-17407
积极和	-17408
等食材	-17409
行星的	-17410
以下方法	-17411
动画电影	-17412
详细说明	-17413
闭上眼睛	-17414
造成的影响	-17415
减少能源消耗	-17416
▁根据以下描述	-17417
ji	-17418
在大	-17419
妥善	-17420
居家	-17421
差值	-17422
早起	-17423
电费	-17424
__(	-17425
rec	-17426
勤洗手	-17427
和环保	-17428
家族的	-17429
的服装	-17430
非常大	-17431
▁pas	-17432
不可篡改	-17433
为您推荐	-17434
分类模型	-17435
切成薄片	-17436
可以看看	-17437
坚持下去	-17438
多元化和	-17439
▁Will	-17440
给我们带来	-17441
前景非常广阔	-17442
请给我讲一个	-17443
▁生成一个诗歌	-17444
变得越来越重要	-17445
gy	-17446
乌鸦	-17447
保罗	-17448
占有	-17449
塔尔	-17450
很差	-17451
氢气	-17452
混凝	-17453
遮阳	-17454
鸡精	-17455
▁植物	-17456
一步步	-17457
和演员	-17458
等服务	-17459
anks	-17460
▁lst	-17461
它涉及到	-17462
排序算法	-17463
比较喜欢	-17464
狗的文章	-17465
需要掌握	-17466
需要更多	-17467
Today	-17468
太阳系中的	-17469
面临的挑战	-17470
▁common	-17471
tg	-17472
tw	-17473
冰山	-17474
处处	-17475
妥协	-17476
娃娃	-17477
日是	-17478
眼中	-17479
”。“	-17480
下雨天	-17481
不可思	-17482
个问题	-17483
为公司	-17484
但他的	-17485
层次感	-17486
必要性	-17487
或朋友	-17488
没有被	-17489
高尔夫	-17490
ixel	-17491
两个单词	-17492
可以处理	-17493
的时间内	-17494
这个公式	-17495
▁根据下面	-17496
从前有一个	-17497
社交媒体和	-17498
第一个字母	-17499
▁little	-17500
快速的棕色狐狸	-17501
我将为您写一篇关于	-17502
两国	-17503
公历	-17504
减小	-17505
塞尔	-17506
增值	-17507
子女	-17508
拼盘	-17509
攀爬	-17510
预先	-17511
ols	-17512
▁岁月	-17513
友谊和	-17514
在职场	-17515
游泳等	-17516
移动到	-17517
通用的	-17518
▁put	-17519
如果小明	-17520
您提到的	-17521
我最近在	-17522
深入研究	-17523
网络连接	-17524
进行学习	-17525
Space	-17526
▁init	-17527
VM	-17528
为之	-17529
個人	-17530
卖出	-17531
天才	-17532
宽容	-17533
技艺	-17534
暂停	-17535
法官	-17536
移到	-17537
顶尖	-17538
IBM	-17539
iOS	-17540
▁法国	-17541
▁番茄	-17542
勇往直	-17543
史蒂夫	-17544
平台的	-17545
的品质	-17546
的地标	-17547
诗歌的	-17548
走到了	-17549
(),\	-17550
不断优化	-17551
冰川融化	-17552
在家工作	-17553
投资策略	-17554
流连忘返	-17555
ivity	-17556
享受阳光和	-17557
具有一定的	-17558
我们需要计算	-17559
体能	-17560
唱着	-17561
帐户	-17562
并行	-17563
当年	-17564
感应	-17565
推崇	-17566
白的	-17567
這種	-17568
遭到	-17569
ced	-17570
多云转	-17571
工作法	-17572
或情感	-17573
房间的	-17574
来确保	-17575
的商业	-17576
研讨会	-17577
纪念品	-17578
▁ide	-17579
一本好书	-17580
一起度过	-17581
解决一个	-17582
teger	-17583
▁post	-17584
亚马逊雨林	-17585
尝试不同的	-17586
数学表达式	-17587
uation	-17588
在这段文本中	-17589
install	-17590
▁paragraph	-17591
VP	-17592
之以	-17593
功率	-17594
四肢	-17595
围巾	-17596
晶体	-17597
用於	-17598
美麗	-17599
Red	-17600
并增加	-17601
等材料	-17602
还应该	-17603
这一刻	-17604
两个整数	-17605
国际机场	-17606
植树造林	-17607
提供了许多	-17608
▁those	-17609
OT	-17610
ре	-17611
。’	-17612
一体	-17613
參與	-17614
取整	-17615
味的	-17616
本人	-17617
氨基	-17618
第六	-17619
终结	-17620
从北京	-17621
变化和	-17622
可以的	-17623
最小化	-17624
的小吃	-17625
立方米	-17626
透明的	-17627
降雨量	-17628
你是我的	-17629
可靠性和	-17630
对自己的	-17631
无处不在	-17632
研究方向	-17633
身边的人	-17634
通货膨胀	-17635
▁ident	-17636
改善睡眠质量	-17637
包括自然语言处理	-17638
Go	-17639
交错	-17640
刺绣	-17641
后期	-17642
点餐	-17643
球迷	-17644
茸茸	-17645
?”“	-17646
▁名词	-17647
▁饮食	-17648
密码学	-17649
形状和	-17650
更清晰	-17651
来解释	-17652
物品的	-17653
的提高	-17654
秦始皇	-17655
他遇到了	-17656
值得一游	-17657
公共卫生	-17658
平底锅中	-17659
最伟大的	-17660
每周至少	-17661
以确保您的	-17662
script	-17663
▁clear	-17664
请输入第一个	-17665
请输入第二个	-17666
这段文本主要	-17667
▁String	-17668
中文翻译成英文	-17669
以往	-17670
写了	-17671
卡车	-17672
尼罗	-17673
性强	-17674
综述	-17675
背部	-17676
CPU	-17677
主要有	-17678
在这片	-17679
地球和	-17680
一个单词	-17681
人物形象	-17682
日益严重	-17683
的影响是	-17684
非常简单	-17685
▁Name	-17686
男生人数为	-17687
▁house	-17688
文艺复兴时期	-17689
诊断和治疗方案	-17690
问题或需要帮助	-17691
▁改正文本中的错误	-17692
世界上最高的山峰是什么	-17693
上方	-17694
不定	-17695
在高	-17696
左边	-17697
标出	-17698
躲避	-17699
部长	-17700
金刚	-17701
iwi	-17702
▁va	-17703
行星和	-17704
▁lot	-17705
大气中的	-17706
计算过程	-17707
也可以帮助	-17708
具体取决于	-17709
技能和经验	-17710
足够的时间	-17711
▁likes	-17712
我们可以得到	-17713
▁generate	-17714
布莱	-17715
平和	-17716
戒烟	-17717
无误	-17718
繁多	-17719
误导	-17720
니다	-17721
他买了	-17722
发现和	-17723
可行性	-17724
在那个	-17725
太阳光	-17726
建立在	-17727
的气氛	-17728
的选项	-17729
起一个	-17730
较好的	-17731
Hola	-17732
ader	-17733
包括医疗	-17734
商品名称	-17735
并告诉我	-17736
得出结论	-17737
您还需要	-17738
旅游的灵感	-17739
表达的情感	-17740
以下是一个例子	-17741
▁artificial	-17742
ka	-17743
反而	-17744
橡胶	-17745
漫天	-17746
烧开	-17747
了一起	-17748
打破了	-17749
斯蒂芬	-17750
onna	-17751
▁arg	-17752
中的数据	-17753
具体而言	-17754
可读性和	-17755
对我来说	-17756
很高兴能	-17757
然后将其	-17758
的一句话	-17759
gress	-17760
中提取出所有	-17761
给我解释一下	-17762
美国独立战争	-17763
▁颗	-17764
呼唤	-17765
座椅	-17766
斯的	-17767
点滴	-17768
皮书	-17769
紧紧	-17770
者是	-17771
自学	-17772
闲聊	-17773
▁社会	-17774
烤蔬菜	-17775
精确地	-17776
With	-17777
呼吸系统	-17778
我会尽快	-17779
文本段落	-17780
已经取得了	-17781
并提供一个	-17782
挑战和机遇	-17783
▁haven	-17784
完成这个任务	-17785
让人心旷神怡	-17786
▁trying	-17787
数据隐私和安全	-17788
,-	-17789
不等	-17790
收缩	-17791
略微	-17792
色泽	-17793
蒸发	-17794
薪酬	-17795
较少	-17796
隐患	-17797
RNA	-17798
之和为	-17799
也存在	-17800
写一份	-17801
药物的	-17802
莫扎特	-17803
飞行器	-17804
我还可以	-17805
推理逻辑	-17806
编写一段	-17807
而不需要	-17808
至关重要的作用	-17809
一副	-17810
之夜	-17811
于世	-17812
教会	-17813
晴空	-17814
用手	-17815
诚信	-17816
马丁	-17817
他送了	-17818
我也会	-17819
支付宝	-17820
波特与	-17821
混凝土	-17822
精彩的	-17823
经历和	-17824
给人类	-17825
高强度	-17826
alax	-17827
挑战自己	-17828
花开花落	-17829
隐私泄露	-17830
▁said	-17831
也存在一些	-17832
人工智能还	-17833
会发生什么	-17834
写一篇介绍	-17835
的工作原理	-17836
促进可持续发展	-17837
二手	-17838
兵马	-17839
冷藏	-17840
几颗	-17841
划船	-17842
好吗	-17843
概要	-17844
满天	-17845
碧空	-17846
結構	-17847
过大	-17848
问道	-17849
GPS	-17850
兴奋和	-17851
加强了	-17852
卫生间	-17853
去散步	-17854
很适合	-17855
的联系	-17856
个人成长	-17857
可以推荐	-17858
向我提问	-17859
生态保护	-17860
用户界面	-17861
的目标是	-17862
造成影响	-17863
▁game	-17864
告诉我一个	-17865
让我来为您	-17866
这可以帮助您	-17867
▁ç	-17868
一到	-17869
一是	-17870
争夺	-17871
便是	-17872
团圆	-17873
媒介	-17874
施肥	-17875
湖畔	-17876
物资	-17877
球和	-17878
解密	-17879
诺兰	-17880
读物	-17881
通话	-17882
遗忘	-17883
飞鸟	-17884
与他们	-17885
养宠物	-17886
十进制	-17887
和努力	-17888
和软件	-17889
在晚上	-17890
摩托车	-17891
请将其	-17892
身上的	-17893
人员伤亡	-17894
他们决定	-17895
公共汽车	-17896
四大发明	-17897
因为这些	-17898
它描述了	-17899
市场调研	-17900
循环利用	-17901
水上活动	-17902
自然界中	-17903
英语学习	-17904
▁real	-17905
数据可视化	-17906
的一个分支	-17907
▁-----	-17908
ertific	-17909
▁eating	-17910
做工	-17911
施加	-17912
本周	-17913
繁花	-17914
绚丽	-17915
蜥蜴	-17916
oup	-17917
▁整理	-17918
在购买	-17919
毛茸茸	-17920
的消息	-17921
绕口令	-17922
这五个	-17923
▁rap	-17924
是多少呢	-17925
黑客帝国	-17926
▁生成一组	-17927
接下来请你	-17928
具有重要意义	-17929
低温	-17930
向着	-17931
平安	-17932
情緒	-17933
法则	-17934
镜子	-17935
ini	-17936
元因此	-17937
包容和	-17938
对人体	-17939
物种的	-17940
那你能	-17941
Form	-17942
▁cut	-17943
▁van	-17944
事实推理	-17945
它可以在	-17946
性别平等	-17947
非常高兴	-17948
label	-17949
保护自己的	-17950
可以提取出	-17951
减少环境污染	-17952
▁根据给定的电影	-17953
km	-17954
得主	-17955
总能	-17956
明清	-17957
為了	-17958
胜任	-17959
脑力	-17960
诊疗	-17961
贵宾	-17962
孤独和	-17963
往往会	-17964
晚上的	-17965
的影響	-17966
设计中	-17967
转化成	-17968
XXXX	-17969
和维生素	-17970
品牌名字	-17971
建筑风格	-17972
拥有一个	-17973
智能助手	-17974
aster	-17975
是我最喜欢的	-17976
的含义是什么	-17977
address	-17978
它们之间的关系	-17979
敏捷的棕色狐狸跳过了懒狗	-17980
:{	-17981
PE	-17982
夜行	-17983
幸存	-17984
废水	-17985
日到	-17986
极光	-17987
浮潜	-17988
粼粼	-17989
缭绕	-17990
和质量	-17991
来训练	-17992
的前提	-17993
迪卡普	-17994
▁Cal	-17995
一首关于	-17996
主动语态	-17997
仅供参考	-17998
数据集中	-17999
新冠疫情	-18000
最大限度	-18001
的时间是	-18002
Record	-18003
▁sleep	-18004
下面这段文本	-18005
基于以上这段文本	-18006
业主	-18007
利弊	-18008
块糖	-18009
巨人	-18010
或更	-18011
月至	-18012
球场	-18013
红花	-18014
螺旋	-18015
這裡	-18016
销量	-18017
高等	-18018
鱼和	-18019
▁#[	-18020
交易所	-18021
宁静的	-18022
它包含	-18023
我想听	-18024
最后将	-18025
race	-18026
▁Set	-18027
▁sky	-18028
三个苹果	-18029
下面这个	-18030
受到影响	-18031
文本纠错	-18032
根据上述	-18033
eline	-18034
如何更好地	-18035
描述秋天的	-18036
科技发展的	-18037
models	-18038
SD	-18039
准时	-18040
域名	-18041
它被	-18042
平稳	-18043
▁ri	-18044
▁作为	-18045
交互式	-18046
奥巴马	-18047
灵活的	-18048
的类别	-18049
边长度	-18050
fect	-18051
▁Mod	-18052
和不平等	-18053
是最好的	-18054
ridge	-18055
下一个数字	-18056
与之相关的	-18057
偏见和歧视	-18058
学习和成长	-18059
的环境问题	-18060
迪卡普里奥	-18061
▁appro	-18062
▁将下列句子	-18063
可以考虑使用	-18064
▁Create	-18065
▁together	-18066
给出具体的推理逻辑	-18067
不清	-18068
密钥	-18069
怪物	-18070
打了	-18071
最終	-18072
百科	-18073
简直	-18074
肉丝	-18075
高清	-18076
齐全	-18077
了一個	-18078
的思想	-18079
的款式	-18080
这些是	-18081
医生进行	-18082
工业生产	-18083
撒上一些	-18084
社会发展	-18085
编程技能	-18086
自然之美	-18087
语音合成	-18088
那么它的	-18089
鸟语花香	-18090
床前明月光	-18091
是一年四季	-18092
需要不断地	-18093
iction	-18094
在这个文本中	-18095
这个问题的答案是什么	-18096
则在	-18097
完毕	-18098
巨头	-18099
搜寻	-18100
旅遊	-18101
远古	-18102
长安	-18103
难道	-18104
》,《	-18105
他经常	-18106
和您的	-18107
大家好	-18108
房子的	-18109
的手机	-18110
的论文	-18111
imum	-18112
如何进行	-18113
满意度和	-18114
生日快乐	-18115
电子游戏	-18116
锻炼方式	-18117
以下是一份	-18118
太阳能和风能	-18119
▁custom	-18120
麦田里的守望者	-18121
▁reverse	-18122
位于喜马拉雅山脉	-18123
▁根据给定的关键词	-18124
tk	-18125
再买	-18126
冰沙	-18127
呼啸	-18128
堡礁	-18129
心底	-18130
抬起	-18131
春色	-18132
赵六	-18133
间隔	-18134
书籍和	-18135
会更加	-18136
内置的	-18137
并努力	-18138
旋律和	-18139
更安全	-18140
来说明	-18141
的性质	-18142
能够让	-18143
aves	-18144
句子结构	-18145
广告宣传	-18146
微风轻拂	-18147
炎炎夏日	-18148
随机整数	-18149
帮助和支持	-18150
提供足够的	-18151
被广泛用于	-18152
▁对文本错误进行修改	-18153
Brainstorming	-18154
七言	-18155
为他	-18156
先后	-18157
助於	-18158
太过	-18159
局面	-18160
床垫	-18161
手写	-18162
拉里	-18163
机动	-18164
海鸥	-18165
淡水	-18166
烟花	-18167
蓬勃	-18168
题为	-18169
ilk	-18170
优雅的	-18171
全球最	-18172
则表示	-18173
可穿戴	-18174
在户外	-18175
它通常	-18176
政策的	-18177
瓶饮料	-18178
被困在	-18179
这四个	-18180
远处的	-18181
了一会儿	-18182
但是它们	-18183
图像分类	-18184
寻找一些	-18185
得到应用	-18186
每周进行	-18187
环保组织	-18188
的世界中	-18189
高品质的	-18190
开放式问题	-18191
教育和培训	-18192
旅行的灵感	-18193
是很重要的	-18194
更好地掌握	-18195
权力的游戏	-18196
根据用户的	-18197
自己的人生	-18198
ration	-18199
▁langu	-18200
不绝	-18201
冗余	-18202
收银	-18203
苏州	-18204
SVM	-18205
uri	-18206
▁标题	-18207
咨询师	-18208
星期二	-18209
空间中	-18210
orth	-18211
▁ret	-18212
他们可能	-18213
任务清单	-18214
在生活中	-18215
在这样的	-18216
小数点后	-18217
我在北京	-18218
清风拂面	-18219
能够快速	-18220
这件衣服	-18221
预测模型	-18222
▁File	-18223
因为我没有	-18224
蛋白质来源	-18225
享受大自然的	-18226
请提供您希望	-18227
作為	-18228
你最	-18229
喝茶	-18230
开胃	-18231
弹力	-18232
点钟	-18233
留在	-18234
美國	-18235
行動	-18236
西餐	-18237
》——	-18238
举行的	-18239
以改善	-18240
和地球	-18241
平底锅	-18242
拖延症	-18243
疲劳和	-18244
的一座	-18245
case	-18246
ival	-18247
沟通技巧	-18248
level	-18249
▁base	-18250
▁didn	-18251
▁left	-18252
两种不同的	-18253
先进的技术	-18254
我需要一些	-18255
有什么区别	-18256
加索	-18257
只猫	-18258
手的	-18259
社群	-18260
退出	-18261
逮捕	-18262
.__	-18263
ING	-18264
▁——	-18265
事件或	-18266
因为你	-18267
远方的	-18268
▁doc	-18269
不可思议	-18270
动物保护	-18271
城市交通	-18272
数字的和	-18273
▁beau	-18274
的文本内容	-18275
需要考虑到	-18276
elling	-18277
▁对文本错误进行纠正	-18278
DB	-18279
ln	-18280
上个	-18281
不对	-18282
他有	-18283
子孙	-18284
情报	-18285
源泉	-18286
碱基	-18287
碳酸	-18288
西斯	-18289
谴责	-18290
香水	-18291
个字母	-18292
他想买	-18293
伊斯兰	-18294
可用性	-18295
和内容	-18296
所以我	-18297
教育等	-18298
一种语言	-18299
希望你能	-18300
数据库中	-18301
自主决策	-18302
自我介绍	-18303
anges	-18304
描述夏天的	-18305
重要的影响	-18306
需要一定的	-18307
active	-18308
神经网络模型	-18309
压抑	-18310
多汁	-18311
打散	-18312
曼谷	-18313
港口	-18314
赤道	-18315
颁奖	-18316
冒险家	-18317
和偏见	-18318
和平静	-18319
和相关	-18320
应包含	-18321
来调整	-18322
柔韧性	-18323
一个苹果	-18324
以下内容	-18325
但是如果	-18326
保护我们	-18327
分钟即可	-18328
这些作品	-18329
还可以用于	-18330
下面这个句子	-18331
数据进行分析	-18332
Android	-18333
▁我有一个信息科学	-18334
▁我有一个信息科学相关的问题	-18335
介于	-18336
徐来	-18337
更强	-18338
讨厌	-18339
路口	-18340
XYZ	-18341
下雨了	-18342
东南亚	-18343
在您的	-18344
在这场	-18345
感恩节	-18346
生命力	-18347
而且还	-18348
requ	-18349
不用客气	-18350
仔细阅读	-18351
慢性疾病	-18352
能否帮我	-18353
营养丰富	-18354
到达目的地	-18355
包容的社会	-18356
小明原来有	-18357
美味的食物	-18358
这是我为您	-18359
改正文本错误	-18360
人工智能发展的	-18361
付费	-18362
你去	-18363
富士	-18364
山丘	-18365
用量	-18366
Par	-18367
ora	-18368
与自然	-18369
伊拉克	-18370
克服了	-18371
地区和	-18372
实现对	-18373
更高级	-18374
的大量	-18375
花时间	-18376
));\	-18377
Tube	-18378
专业术语	-18379
和它们的	-18380
实际问题	-18381
略有不同	-18382
获得成功	-18383
观看电影	-18384
这些元素	-18385
▁both	-18386
深度学习在	-18387
番茄工作法	-18388
医学影像分析	-18389
渐进性肌肉松弛	-18390
ли	-18391
作诗	-18392
巨龙	-18393
想买	-18394
明珠	-18395
海量	-18396
罗恩	-18397
与传统	-18398
中餐馆	-18399
从哪里	-18400
他一共	-18401
他一直	-18402
威胁到	-18403
是一条	-18404
是导致	-18405
的风景	-18406
训练的	-18407
在微风中	-18408
天空中的	-18409
学习一些	-18410
英文短文	-18411
update	-18412
可以得出结论	-18413
人工智能的历史	-18414
mt	-18415
原意	-18416
告别	-18417
喝了	-18418
场馆	-18419
沥干	-18420
泉水	-18421
烹制	-18422
爱上	-18423
罗勒	-18424
轮回	-18425
ism	-18426
rew	-18427
▁询问	-18428
催化剂	-18429
整体的	-18430
也是中国	-18431
也是非常	-18432
可以生成	-18433
和社会的	-18434
物种灭绝	-18435
自动摘要	-18436
Start	-18437
▁根据题目	-18438
将它们相加	-18439
的步骤如下	-18440
野生动植物	-18441
target	-18442
中的一个重要	-18443
=>	-18444
五花	-18445
共存	-18446
变软	-18447
存放	-18448
我最	-18449
摩尔	-18450
详情	-18451
鲍勃	-18452
ama	-18453
xxx	-18454
▁纽约	-18455
中保持	-18456
人体的	-18457
以支持	-18458
使用和	-18459
分析其	-18460
合并为	-18461
哈哈哈	-18462
如何将	-18463
技术等	-18464
排行榜	-18465
祝福语	-18466
▁Air	-18467
▁Ind	-18468
▁自动化	-18469
的结果为	-18470
board	-18471
具体的代码	-18472
请问您想要	-18473
▁column	-18474
▁编辑以下段落	-18475
这样我才能给出	-18476
件事	-18477
会让	-18478
修订	-18479
充沛	-18480
全文	-18481
在新	-18482
城区	-18483
店里	-18484
旅馆	-18485
每秒	-18486
沸腾	-18487
灯火	-18488
离散	-18489
篇章	-18490
调解	-18491
飲食	-18492
特有的	-18493
的对话	-18494
迟到了	-18495
▁个朋友	-18496
人类文明	-18497
动物之一	-18498
可以更加	-18499
数字相加	-18500
根据文本	-18501
环境监测	-18502
非常有用	-18503
ippet	-18504
有着丰富的	-18505
足够的信息	-18506
include	-18507
请从文章中提取	-18508
这篇文章探讨了	-18509
andatory	-18510
请对上述文本进行纠错	-18511
互联	-18512
使他	-18513
图谱	-18514
用时	-18515
疑惑	-18516
视着	-18517
迷你	-18518
陕西	-18519
包括其	-18520
困难时	-18521
年龄和	-18522
建筑的	-18523
我刚刚	-18524
社交圈	-18525
紧张感	-18526
解决了	-18527
字符串的	-18528
就是一个	-18529
帮助人类	-18530
有多少人	-18531
设计一款	-18532
设计方案	-18533
这些技巧	-18534
很受欢迎的	-18535
是不正确的	-18536
itions	-18537
">	-18538
MS	-18539
UL	-18540
▁了	-18541
中和	-18542
她是	-18543
存活	-18544
弱势	-18545
指纹	-18546
洒满	-18547
科目	-18548
空缺	-18549
默认	-18550
DER	-18551
oph	-18552
▁睡眠	-18553
你可能	-18554
带给你	-18555
有限的	-18556
欧洲的	-18557
流畅性	-18558
甜美的	-18559
等调料	-18560
自己在	-18561
pack	-18562
它可以让	-18563
我来为您	-18564
没有什么	-18565
然后选择	-18566
请问这个	-18567
道数学题	-18568
chedu	-18569
和人工智能	-18570
我可以帮助	-18571
故宫博物院	-18572
迪士尼乐园	-18573
Content	-18574
▁描述如何制作	-18575
体质	-18576
厚实	-18577
哥特	-18578
哭泣	-18579
天鹅	-18580
年中	-18581
早已	-18582
滚滚	-18583
磨损	-18584
艰苦	-18585
草丛	-18586
路易	-18587
?”。	-18588
foo	-18589
吃早餐	-18590
将会对	-18591
平静和	-18592
引力场	-18593
的成绩	-18594
的题目	-18595
综合性	-18596
请务必	-18597
Mark	-18598
如何平衡	-18599
投资目标	-18600
的故事吧	-18601
admin	-18602
ayout	-18603
emove	-18604
▁写篇关于	-18605
未来的科技	-18606
疾病的发生	-18607
ategory	-18608
▁请将以下句子	-18609
坐下	-18610
学中	-18611
村民	-18612
簡單	-18613
練習	-18614
衣柜	-18615
送了	-18616
道题	-18617
难关	-18618
nov	-18619
obe	-18620
▁秋风	-18621
▁草莓	-18622
主题词	-18623
举头望	-18624
了一片	-18625
体现出	-18626
原有的	-18627
后面的	-18628
强度和	-18629
或相关	-18630
打败了	-18631
来保持	-18632
正宗的	-18633
的区域	-18634
你可能会	-18635
打造一个	-18636
方面入手	-18637
这个方程	-18638
());\	-18639
Model	-18640
alaxy	-18641
▁Your	-18642
▁orig	-18643
为了更好地	-18644
可以通过对	-18645
知识和经验	-18646
▁生成一首诗	-18647
品尝当地美食	-18648
请提供更多的	-18649
plotlib	-18650
奥林匹克运动会	-18651
未来的发展趋势	-18652
Translation	-18653
一百	-18654
乘除	-18655
堵塞	-18656
果酱	-18657
究竟	-18658
筛查	-18659
認為	-18660
路边	-18661
Dir	-18662
gen	-18663
▁牛肉	-18664
不愿意	-18665
他们是	-18666
并从中	-18667
是哪座	-18668
清楚地	-18669
温度为	-18670
進一步	-18671
JSON	-18672
两个苹果	-18673
中华民族	-18674
从而影响	-18675
作品之一	-18676
数据安全	-18677
浪费时间	-18678
的方法是	-18679
这是一句	-18680
Linux	-18681
下面是一些	-18682
我们需要用	-18683
inding	-18684
▁tradu	-18685
▁و	-18686
会将	-18687
作战	-18688
依存	-18689
其境	-18690
又能	-18691
学业	-18692
福建	-18693
职务	-18694
设有	-18695
MRI	-18696
PAR	-18697
▁事件	-18698
偏好和	-18699
去旅游	-18700
和解释	-18701
因为在	-18702
将会是	-18703
文学家	-18704
[...]
