<unk>	0
<|im_start|>	0
<|im_end|>	0
<pad>	0
<user>	0
<bot>	0
<system>	0
<think>	0
</think>	0
<brief_think>	0
</brief_think>	0
<|endoftext|>	0
<|object_ref_start|>	0
<|object_ref_end|>	0
<|box_start|>	0
<|box_end|>	0
<|quad_start|>	0
<|quad_end|>	0
<|vision_start|>	0
<|vision_end|>	0
<|vision_pad|>	0
<|image_pad|>	0
<|video_pad|>	0
<tool_call>	0
</tool_call>	0
<|fim_prefix|>	0
<|fim_middle|>	0
<|fim_suffix|>	0
<|fim_pad|>	0
<|repo_name|>	0
<|file_sep|>	0
<tool_response>	0
</tool_response>	0
<|audio_start|>	0
<|audio_end|>	0
<tts_pad>	0
<tts_text_bos>	0
<tts_text_eod>	0
<tts_text_bos_single>	0
<|audio_pad|>	0
😀	0
😃	0
😄	0
😅	0
😂	0
😗	0
😙	0
😚	0
😊	0
🙃	0
🙂	0
😑	0
😐	0
🫢	0
🤭	0
🥱	0
🤗	0
🫣	0
😱	0
🤨	0
🧐	0
😒	0
😧	0
😟	0
🙄	0
😥	0
😦	0
😮‍💨	0
😢	0
😮	0
😤	0
☹️	0
😯	0
😠	0
🙁	0
😲	0
😡	0
🫤	0
😳	0
🤬	0
😕	0
🤯	0
🥵	0
🤢	0
🤮	0
😖	0
😣	0
😰	0
😨	0
😞	0
😓	0
😋	0
✌️	0
🫲	0
🫱	0
💪	0
👏	0
👍	0
👎	0
🤜	0
🤛	0
✊	0
👊	0
🥰	0
😍	0
🤪	0
🤓	0
🤖	0
👾	0
👻	0
🙌	0
👋	0
✋	0
🤲	0
🤝	0
🙏	0
💢	0
💥	0
💯	0
❤️	0
🐶	0
🐱	0
🐭	0
🐹	0
🐰	0
🦊	0
🐻	0
🐼	0
🐨	0
🐯	0
🦁	0
🐮	0
🐷	0
🐽	0
🐸	0
🐵	0
🐔	0
🐧	0
🐦	0
🍎	0
🍌	0
🍉	0
🍓	0
🍒	0
🍇	0
🍊	0
🍋	0
🍈	0
🥭	0
🥥	0
🥝	0
🍍	0
🍠	0
🍆	0
🥕	0
🥦	0
💔	0
💌	0
💕	0
💞	0
💓	0
💗	0
💖	0
💘	0
💝	0
⚠️	0
✅	0
❌	0
❓	0
⭐	0
Tower	0
tower	0
GPT	0
Midway	0

	0
		0
<0x00>	0
<0x01>	0
<0x02>	0
<0x03>	0
<0x04>	0
<0x05>	0
<0x06>	0
<0x07>	0
<0x08>	0
<0x09>	0
<0x0A>	0
<0x0B>	0
<0x0C>	0
<0x0D>	0
<0x0E>	0
<0x0F>	0
<0x10>	0
<0x11>	0
<0x12>	0
<0x13>	0
<0x14>	0
<0x15>	0
<0x16>	0
<0x17>	0
<0x18>	0
<0x19>	0
<0x1A>	0
<0x1B>	0
<0x1C>	0
<0x1D>	0
<0x1E>	0
<0x1F>	0
<0x20>	0
<0x21>	0
<0x22>	0
<0x23>	0
<0x24>	0
<0x25>	0
<0x26>	0
<0x27>	0
<0x28>	0
<0x29>	0
<0x2A>	0
<0x2B>	0
<0x2C>	0
<0x2D>	0
<0x2E>	0
<0x2F>	0
<0x30>	0
<0x31>	0
<0x32>	0
<0x33>	0
<0x34>	0
<0x35>	0
<0x36>	0
<0x37>	0
<0x38>	0
<0x39>	0
<0x3A>	0
<0x3B>	0
<0x3C>	0
<0x3D>	0
<0x3E>	0
<0x3F>	0
<0x40>	0
<0x41>	0
<0x42>	0
<0x43>	0
<0x44>	0
<0x45>	0
<0x46>	0
<0x47>	0
<0x48>	0
<0x49>	0
<0x4A>	0
<0x4B>	0
<0x4C>	0
<0x4D>	0
<0x4E>	0
<0x4F>	0
<0x50>	0
<0x51>	0
<0x52>	0
<0x53>	0
<0x54>	0
<0x55>	0
<0x56>	0
<0x57>	0
<0x58>	0
<0x59>	0
<0x5A>	0
<0x5B>	0
<0x5C>	0
<0x5D>	0
<0x5E>	0
<0x5F>	0
<0x60>	0
<0x61>	0
<0x62>	0
<0x63>	0
<0x64>	0
<0x65>	0
<0x66>	0
<0x67>	0
<0x68>	0
<0x69>	0
<0x6A>	0
<0x6B>	0
<0x6C>	0
<0x6D>	0
<0x6E>	0
<0x6F>	0
<0x70>	0
<0x71>	0
<0x72>	0
<0x73>	0
<0x74>	0
<0x75>	0
<0x76>	0
<0x77>	0
<0x78>	0
<0x79>	0
<0x7A>	0
<0x7B>	0
<0x7C>	0
<0x7D>	0
<0x7E>	0
<0x7F>	0
<0x80>	0
<0x81>	0
<0x82>	0
<0x83>	0
<0x84>	0
<0x85>	0
<0x86>	0
<0x87>	0
<0x88>	0
<0x89>	0
<0x8A>	0
<0x8B>	0
<0x8C>	0
<0x8D>	0
<0x8E>	0
<0x8F>	0
<0x90>	0
<0x91>	0
<0x92>	0
<0x93>	0
<0x94>	0
<0x95>	0
<0x96>	0
<0x97>	0
<0x98>	0
<0x99>	0
<0x9A>	0
<0x9B>	0
<0x9C>	0
<0x9D>	0
<0x9E>	0
<0x9F>	0
<0xA0>	0
<0xA1>	0
<0xA2>	0
<0xA3>	0
<0xA4>	0
<0xA5>	0
<0xA6>	0
<0xA7>	0
<0xA8>	0
<0xA9>	0
<0xAA>	0
<0xAB>	0
<0xAC>	0
<0xAD>	0
<0xAE>	0
<0xAF>	0
<0xB0>	0
<0xB1>	0
<0xB2>	0
<0xB3>	0
<0xB4>	0
<0xB5>	0
<0xB6>	0
<0xB7>	0
<0xB8>	0
<0xB9>	0
<0xBA>	0
<0xBB>	0
<0xBC>	0
<0xBD>	0
<0xBE>	0
<0xBF>	0
<0xC0>	0
<0xC1>	0
<0xC2>	0
<0xC3>	0
<0xC4>	0
<0xC5>	0
<0xC6>	0
<0xC7>	0
<0xC8>	0
<0xC9>	0
<0xCA>	0
<0xCB>	0
<0xCC>	0
<0xCD>	0
<0xCE>	0
<0xCF>	0
<0xD0>	0
<0xD1>	0
<0xD2>	0
<0xD3>	0
<0xD4>	0
<0xD5>	0
<0xD6>	0
<0xD7>	0
<0xD8>	0
<0xD9>	0
<0xDA>	0
<0xDB>	0
<0xDC>	0
<0xDD>	0
<0xDE>	0
<0xDF>	0
<0xE0>	0
<0xE1>	0
<0xE2>	0
<0xE3>	0
<0xE4>	0
<0xE5>	0
<0xE6>	0
<0xE7>	0
<0xE8>	0
<0xE9>	0
<0xEA>	0
<0xEB>	0
<0xEC>	0
<0xED>	0
<0xEE>	0
<0xEF>	0
<0xF0>	0
<0xF1>	0
<0xF2>	0
<0xF3>	0
<0xF4>	0
<0xF5>	0
<0xF6>	0
<0xF7>	0
<0xF8>	0
<0xF9>	0
<0xFA>	0
<0xFB>	0
<0xFC>	0
<0xFD>	0
<0xFE>	0
<0xFF>	0
--	-0
----	-1
in	-2
**	-3
句子	-4
▁e	-5
一个	-6
▁m	-7
▁;	-8
re	-9
==	-10
▁%	-11
er	-12
▁t	-13
le	-14
--------	-15
▁a	-16
on	-17
▁s	-18
or	-19
以下	-20
de	-21
he	-22
▁c	-23
文本	-24
▁"	-25
▁p	-26
****	-27
ch	-28
st	-29
文章	-30
at	-31
ov	-32
ar	-33
▁d	-34
al	-35
▁f	-36
▁i	-37
▁-	-38
▁r	-39
nd	-40
▁mov	-41
问题	-42
▁in	-43
给定	-44
可以	-45
et	-46
it	-47
生成	-48
什么	-49
这个	-50
ld	-51
cho	-52
▁请	-53
以下句子	-54
提供	-55
▁/	-56
ot	-57
en	-58
喜欢	-59
天气	-60
▁b	-61
根据	-62
====	-63
▁echo	-64
▁[	-65
▁.	-66
----------------	-67
▁(	-68
IN	-69
▁我	-70
▁the	-71
中的	-72
mp	-73
se	-74
需要	-75
lo	-76
ou	-77
IL	-78
mm	-79
op	-80
▁S	-81
********	-82
▁if	-83
电影	-84
ig	-85
es	-86
的句子	-87
非常	-88
▁根据	-89
进行	-90
▁$	-91
ion	-92
使其	-93
▁re	-94
▁\	-95
好的	-96
▁C	-97
BU	-98
lu	-99
ex	-100
▁将	-101
an	-102
▁x	-103
BUIL	-104
BUILD	-105
标题	-106
ed	-107
句话	-108
ct	-109
提取	-110
DI	-111
ro	-112
▁g	-113
ck	-114
▁n	-115
我们	-116
实体	-117
没有	-118
使其更	-119
▁P	-120
▁R	-121
li	-122
ild	-123
clu	-124
单词	-125
clude	-126
重写	-127
DIR	-128
##	-129
ile	-130
智能	-131
▁w	-132
▁这	-133
答案	-134
下面	-135
is	-136
生成一个	-137
今天	-138
ing	-139
给定的	-140
。”	-141
ad	-142
▁to	-143
▁"%	-144
简洁	-145
el	-146
of	-147
▁为	-148
▁A	-149
因为	-150
ax	-151
ri	-152
翻译	-153
▁:	-154
篇文章	-155
SP	-156
con	-157
oto	-158
▁文本	-159
all	-160
▁j	-161
▁ex	-162
..	-163
us	-164
▁给	-165
人工	-166
回答	-167
▁T	-168
关于	-169
错误	-170
▁E	-171
人工智能	-172
▁set	-173
HIN	-174
▁v	-175
HINX	-176
描述	-177
主题	-178
un	-179
as	-180
fig	-181
tr	-182
========	-183
▁D	-184
两个	-185
SPHINX	-186
信息	-187
关键	-188
BUILDDIR	-189
是一	-190
▁L	-191
▁@	-192
是什么	-193
ut	-194
%/	-195
学习	-196
am	-197
lin	-198
di	-199
▁重写	-200
告诉	-201
ic	-202
OR	-203
ab	-204
ER	-205
▁goto	-206
▁xmm	-207
ag	-208
AL	-209
一些	-210
▁F	-211
使其更加	-212
▁他	-213
▁对	-214
config	-215
ul	-216
▁给定	-217
ub	-218
▁#	-219
uild	-220
▁include	-221
OP	-222
ON	-223
▁of	-224
所有	-225
ht	-226
义词	-227
▁)	-228
翻译成	-229
情感	-230
▁从	-231
中提取	-232
告诉我	-233
使用	-234
改写	-235
▁=	-236
。"	-237
▁M	-238
▁de	-239
ers	-240
ror	-241
****************	-242
城市	-243
世界	-244
▁ad	-245
te	-246
▁==	-247
:“	-248
一下	-249
ent	-250
▁I	-251
中国	-252
AT	-253
你的	-254
如何	-255
如果	-256
。\	-257
],	-258
这篇文章	-259
▁*	-260
语法	-261
▁file	-262
存在	-263
一句话	-264
帮助	-265
分类	-266
▁_	-267
表达	-268
公司	-269
ac	-270
▁end	-271
if	-272
▁st	-273
rror	-274
ap	-275
判断	-276
了一	-277
ml	-278
语言	-279
ter	-280
co	-281
ke	-282
//	-283
rc	-284
的天气	-285
新闻	-286
%\	-287
il	-288
重新	-289
▁ld	-290
si	-291
工作	-292
TS	-293
现在	-294
关键词	-295
▁add	-296
时间	-297
▁error	-298
▁在	-299
应用	-300
建议	-301
无法	-302
ard	-303
要求	-304
是否	-305
EM	-306
他们	-307
尽管	-308
帮我	-309
是一个	-310
健康	-311
我的	-312
▁call	-313
ow	-314
▁+	-315
还是	-316
fin	-317
ET	-318
领域	-319
▁B	-320
正在	-321
当然	-322
vel	-323
的问题	-324
AR	-325
▁l	-326
ALL	-327
av	-328
其他	-329
▁and	-330
由于	-331
sp	-332
北京	-333
输入	-334
####	-335
内容	-336
包括	-337
▁好的	-338
▁“	-339
▁重写以下句子	-340
古诗	-341
明天	-342
ord	-343
意思	-344
DE	-345
▁给出	-346
qu	-347
level	-348
请问	-349
动物	-350
▁for	-351
昨天	-352
hel	-353
使其更加简洁	-354
▁G	-355
一段	-356
明了	-357
可能	-358
相同	-359
ext	-360
▁y	-361
▁is	-362
OPTS	-363
ist	-364
;;	-365
▁exit	-366
到了	-367
去了	-368
这句话	-369
ST	-370
▁你	-371
pt	-372
一篇	-373
▁$(	-374
具体	-375
card	-376
积极	-377
▁h	-378
▁这个	-379
▁根据给定的	-380
▁al	-381
已经	-382
um	-383
知道	-384
ildcard	-385
wildcard	-386
一首	-387
▁errorlevel	-388
__	-389
ur	-390
able	-391
▁'	-392
ation	-393
EN	-394
ss	-395
它们	-396
自然	-397
▁句子	-398
技术	-399
end	-400
est	-401
编辑	-402
公园	-403
out	-404
=%	-405
help	-406
▁eax	-407
哪些	-408
完成	-409
SPHINXOPTS	-410
ake	-411
选项	-412
SPHINXBUILD	-413
以下文本	-414
谢谢	-415
ush	-416
相关	-417
eb	-418
lib	-419
fine	-420
em	-421
HO	-422
ack	-423
正确	-424
人名	-425
一个句子	-426
抽取	-427
▁lo	-428
识别	-429
▁co	-430
html	-431
自己	-432
最近	-433
hed	-434
Build	-435
未来	-436
▁not	-437
我会	-438
ect	-439
同义词	-440
推荐	-441
感到	-442
ux	-443
include	-444
影响	-445
餐厅	-446
关系	-447
▁W	-448
IT	-449
nt	-450
重要	-451
▁将以下句子	-452
所以	-453
ir	-454
::	-455
opy	-456
id	-457
上最	-458
包含	-459
▁N	-460
cx	-461
▁fin	-462
▁翻译成	-463
▁u	-464
ff	-465
苹果	-466
文章中提取	-467
▁push	-468
音乐	-469
linux	-470
不存在	-471
ME	-472
exe	-473
▁th	-474
================	-475
有趣	-476
▁rem	-477
评论	-478
▁db	-479
▁or	-480
ol	-481
▁H	-482
发展	-483
这个句子	-484
两个句子	-485
更加	-486
机器	-487
FF	-488
所有的	-489
全球	-490
现代	-491
不存在实体	-492
怎么	-493
ALLSPHINXOPTS	-494
%"	-495
为您	-496
EL	-497
art	-498
ate	-499
给出	-500
and	-501
美国	-502
主要	-503
int	-504
人类	-505
▁选项	-506
生活	-507
环境	-508
任务	-509
虽然	-510
define	-511
写一个	-512
om	-513
”。	-514
▁by	-515
历史	-516
数据	-517
的文本	-518
朋友	-519
名称	-520
ame	-521
他的	-522
比赛	-523
分析	-524
哪个	-525
不同	-526
简单	-527
新的	-528
▁她	-529
能够	-530
▁::	-531
ished	-532
cp	-533
im	-534
应该	-535
很多	-536
环保	-537
ith	-538
word	-539
成语	-540
▁finished	-541
类型	-542
的人	-543
选择	-544
决定	-545
ase	-546
▁pro	-547
heck	-548
还有	-549
抽取出	-550
但是	-551
RO	-552
▁files	-553
给我	-554
ay	-555
产品	-556
ener	-557
模型	-558
摘要	-559
世界上最	-560
th	-561
咖啡	-562
▁REM	-563
SE	-564
▁O	-565
IG	-566
三个	-567
▁<	-568
我可以	-569
age	-570
文言	-571
文言文	-572
那么	-573
vers	-574
▁抽取出	-575
很好	-576
计划	-577
RE	-578
有关	-579
我喜欢	-580
的文章	-581
将其	-582
续写	-583
不能	-584
医疗	-585
旅游	-586
下列	-587
ode	-588
▁ret	-589
▁|	-590
方式	-591
短语	-592
科技	-593
努力	-594
set	-595
dx	-596
请提供	-597
ata	-598
部电影	-599
大的	-600
拼写	-601
修改	-602
的语	-603
通过	-604
您的	-605
题目	-606
给定的句子	-607
高的	-608
AN	-609
中立	-610
高兴	-611
▁编辑	-612
的信息	-613
bx	-614
我很	-615
ore	-616
矛盾	-617
▁..	-618
▁古诗	-619
输出	-620
理解	-621
蕴含	-622
计算	-623
▁you	-624
色的	-625
▁其	-626
下联	-627
希望	-628
随时	-629
▁do	-630
旅行	-631
▁le	-632
语法错误	-633
▁be	-634
CO	-635
▁给我	-636
▁make	-637
小说	-638
提供一个	-639
活动	-640
文中	-641
▁--	-642
文章中	-643
现代文	-644
OT	-645
up	-646
▁J	-647
add	-648
简短	-649
的标题	-650
bin	-651
科学	-652
▁are	-653
▁成语	-654
▁q	-655
运动	-656
▁重新	-657
ense	-658
文字	-659
▁cmp	-660
故事	-661
替换	-662
找到	-663
▁生成	-664
当然可以	-665
ess	-666
),	-667
研究	-668
▁上	-669
▁原	-670
方法	-671
看电影	-672
太阳	-673
▁pop	-674
gr	-675
方面	-676
风格	-677
lat	-678
服务	-679
▁The	-680
语态	-681
使其更加简洁明了	-682
▁mm	-683
ult	-684
动语态	-685
ction	-686
are	-687
有什么	-688
▁>	-689
的电影	-690
ort	-691
下面的句子	-692
ign	-693
▁sh	-694
保护	-695
arm	-696
表达了	-697
TR	-698
诗歌	-699
保持	-700
一起	-701
任何	-702
本书	-703
成功	-704
lic	-705
或者	-706
早上	-707
..\	-708
ain	-709
dir	-710
预报	-711
ORD	-712
取消	-713
▁con	-714
解决	-715
形容	-716
▁尽管	-717
▁with	-718
sc	-719
▁dri	-720
提高	-721
更多	-722
情况	-723
ze	-724
▁X	-725
mple	-726
段落	-727
bu	-728
eg	-729
食物	-730
ip	-731
▁前	-732
put	-733
概括	-734
▁帮我	-735
结果	-736
AV	-737
发现	-738
的地	-739
认为	-740
变化	-741
假设	-742
▁提取	-743
ec	-744
ang	-745
在家	-746
os	-747
这些	-748
参加	-749
散步	-750
▁ax	-751
LO	-752
一句	-753
时候	-754
转换	-755
中的实体	-756
不是	-757
ound	-758
总结	-759
跑步	-760
起来	-761
编写	-762
EC	-763
开始	-764
具有	-765
名字	-766
▁假设	-767
中文	-768
▁一	-769
人的	-770
地球	-771
我想	-772
loc	-773
SI	-774
清晰	-775
▁drivers	-776
AD	-777
get	-778
IX	-779
▁U	-780
出处	-781
▁前提	-782
不错	-783
的单词	-784
▁由于	-785
ave	-786
反义词	-787
asm	-788
▁判断	-789
才能	-790
多少	-791
实体识别	-792
抱歉	-793
组织	-794
推理	-795
正面	-796
▁成语出处	-797
ms	-798
WORD	-799
########	-800
to	-801
每天	-802
▁生成一个	-803
属于	-804
ES	-805
ML	-806
▁copy	-807
ue	-808
我不	-809
下雨	-810
ce	-811
ATH	-812
▁^	-813
气候	-814
天的	-815
小明	-816
之间	-817
名词	-818
纠错	-819
人们	-820
减少	-821
▁CON	-822
游泳	-823
许多	-824
▁//	-825
ject	-826
▁SET	-827
echo	-828
成为	-829
ire	-830
="	-831
的应用	-832
text	-833
然后	-834
▁an	-835
////	-836
文章中提取出	-837
▁给定一个	-838
仍然	-839
文化	-840
▁将以下	-841
水果	-842
▁推理	-843
sr	-844
我们的	-845
▁{	-846
身体	-847
但他	-848
阅读	-849
哪里	-850
污染	-851
▁it	-852
中立答案	-853
关系判断	-854
▁推理关系判断	-855
dq	-856
一篇文章	-857
build	-858
让我	-859
▁jmp	-860
Kconfig	-861
ll	-862
机器学习	-863
▁IN	-864
ress	-865
MP	-866
lag	-867
IC	-868
词语	-869
▁V	-870
AI	-871
会议	-872
导致	-873
如果你	-874
ne	-875
介绍	-876
适合	-877
▁用	-878
自己的	-879
晚上	-880
第一	-881
ript	-882
icense	-883
cc	-884
▁上联	-885
为什么	-886
;;;;	-887
▁ch	-888
ath	-889
HOME	-890
美丽	-891
这段	-892
▁on	-893
▁xor	-894
买了	-895
它的	-896
数字	-897
最喜欢	-898
▁我喜欢	-899
AS	-900
都是	-901
意义	-902
高的山	-903
其中	-904
写诗	-905
形式	-906
▁sub	-907
ps	-908
▁请从	-909
消极	-910
个人	-911
▁this	-912
含义	-913
UL	-914
fo	-915
地点	-916
手机	-917
以及	-918
ment	-919
之一	-920
学生	-921
纠正	-922
请问您	-923
处理	-924
ite	-925
sh	-926
给定的文本	-927
bp	-928
ight	-929
想要	-930
请你	-931
阳光	-932
饮食	-933
edi	-934
rom	-935
流畅	-936
▁en	-937
▁ar	-938
▁License	-939
经济	-940
邮件	-941
SR	-942
od	-943
FIG	-944
你能	-945
程序	-946
MM	-947
一组	-948
CH	-949
▁equ	-950
ourc	-951
oft	-952
erv	-953
▁答案	-954
arch	-955
一种	-956
的主题	-957
▁..\	-958
xt	-959
按照	-960
的意思	-961
的风格	-962
国家	-963
ory	-964
rib	-965
这个问题	-966
一份	-967
汽车	-968
了解	-969
▁ptr	-970
dp	-971
ep	-972
负面	-973
usr	-974
写一个标题	-975
两个句子是否	-976
上海	-977
考试	-978
▁ecx	-979
经常	-980
ebp	-981
latex	-982
str	-983
的语义	-984
ace	-985
hin	-986
高的山峰	-987
作为	-988
例如	-989
报道	-990
的事	-991
cl	-992
OV	-993
ure	-994
UT	-995
是一种	-996
纽约	-997
OS	-998
学校	-999
▁今天	-1000
用户	-1001
正确的	-1002
hinx	-1003
把这句话	-1004
探索	-1005
不好	-1006
感谢	-1007
社会	-1008
▁;;	-1009
创建	-1010
▁%%	-1011
还有其他	-1012
▁exist	-1013
▁给出一个	-1014
其中的	-1015
link	-1016
这篇文章中提取	-1017
bit	-1018
▁can	-1019
▁o	-1020
改写为	-1021
ly	-1022
交通	-1023
温度	-1024
▁HT	-1025
如果您	-1026
▁CONFIG	-1027
ND	-1028
:\	-1029
▁判断下面	-1030
垃圾	-1031
拼写错误	-1032
相同的语义	-1033
ass	-1034
eax	-1035
一只	-1036
iv	-1037
▁古诗生成	-1038
表达了相同的语义	-1039
▁判断下面两个句子是否	-1040
ind	-1041
▁reg	-1042
LE	-1043
TE	-1044
这部电影	-1045
SC	-1046
的影响	-1047
快乐	-1048
▁cd	-1049
▁off	-1050
气温	-1051
被动语态	-1052
。'	-1053
看到	-1054
ern	-1055
▁sp	-1056
mov	-1057
原因	-1058
把这句话翻译成	-1059
具体的	-1060
acro	-1061
▁out	-1062
▁HTML	-1063
因此	-1064
查询	-1065
▁我们	-1066
文中所有的	-1067
AC	-1068
文中所有的实体	-1069
▁抽取出文中所有的实体	-1070
不用	-1071
ava	-1072
In	-1073
md	-1074
别字	-1075
歌曲	-1076
loop	-1077
▁use	-1078
下列句子	-1079
气候变化	-1080
提到	-1081
教育	-1082
▁因为	-1083
错别字	-1084
电视	-1085
适当	-1086
我无法	-1087
yp	-1088
▁as	-1089
▁ebx	-1090
▁请提取	-1091
游戏	-1092
▁分类	-1093
发生	-1094
著名	-1095
line	-1096
rint	-1097
▁文章	-1098
check	-1099
▁我想	-1100
的语言	-1101
file	-1102
成一个	-1103
确定	-1104
▁根据提供	-1105
ribut	-1106
▁根据以下	-1107
购物	-1108
易于	-1109
简洁明了	-1110
ersion	-1111
UR	-1112
总是	-1113
改变	-1114
ome	-1115
上的	-1116
客气	-1117
获得	-1118
夏天	-1119
尝试	-1120
▁byte	-1121
笑话	-1122
enerat	-1123
谢谢你的	-1124
▁你好	-1125
转换为	-1126
标点	-1127
新闻标题	-1128
目前	-1129
足球	-1130
own	-1131
▁dc	-1132
形容词	-1133
▁int	-1134
符号	-1135
▁edx	-1136
文本错误	-1137
bo	-1138
ew	-1139
项目	-1140
▁将下面	-1141
五言	-1142
表现	-1143
▁翻译成文言文	-1144
:'	-1145
数学	-1146
真的	-1147
::::	-1148
lock	-1149
ork	-1150
简短的	-1151
▁该	-1152
位于	-1153
张三	-1154
▁请问	-1155
存在哪些	-1156
价格	-1157
▁li	-1158
存在哪些实体	-1159
TI	-1160
▁他们	-1161
周末	-1162
但我	-1163
▁翻译成现代文	-1164
",	-1165
(%	-1166
动词	-1167
美味	-1168
ans	-1169
dqa	-1170
下文	-1171
情绪	-1172
家餐厅	-1173
坚持	-1174
挑战	-1175
的最	-1176
添加	-1177
措施	-1178
thelp	-1179
类别	-1180
世界上最高的山峰	-1181
了一个	-1182
检查	-1183
爱情	-1184
电子	-1185
res	-1186
改写成	-1187
计算机	-1188
AG	-1189
▁del	-1190
事件	-1191
必须	-1192
one	-1193
▁__	-1194
info	-1195
续写古诗	-1196
合适	-1197
log	-1198
▁为什么	-1199
stall	-1200
感觉	-1201
的主要	-1202
非常好	-1203
do	-1204
情感分析	-1205
能力	-1206
▁这句话	-1207
合并	-1208
IXEL	-1209
一段文本	-1210
▁from	-1211
准确	-1212
不会	-1213
锻炼	-1214
我需要	-1215
词汇	-1216
urn	-1217
▁单词	-1218
市场	-1219
pp	-1220
英文	-1221
▁实体识别	-1222
所在	-1223
标点符号	-1224
疾病	-1225
def	-1226
xmm	-1227
详细	-1228
东西	-1229
请告诉我	-1230
电脑	-1231
ail	-1232
for	-1233
进行改写	-1234
准备	-1235
ware	-1236
ree	-1237
有趣的	-1238
超市	-1239
▁主题	-1240
喜欢吃	-1241
相关的	-1242
?”	-1243
pl	-1244
政府	-1245
这是	-1246
gs	-1247
觉得	-1248
▁给定一个句子	-1249
出现	-1250
的一	-1251
▁MOV	-1252
易于理解	-1253
ick	-1254
macro	-1255
列表	-1256
▁那	-1257
欢迎	-1258
问句	-1259
▁inc	-1260
消极答案	-1261
gn	-1262
mmand	-1263
颜色	-1264
▁问题	-1265
在公园	-1266
▁res	-1267
AP	-1268
▁str	-1269
昨晚	-1270
系统	-1271
src	-1272
flag	-1273
相反	-1274
买了一	-1275
作者	-1276
▁&	-1277
改为	-1278
解释	-1279
香蕉	-1280
use	-1281
txt	-1282
等等	-1283
data	-1284
她的	-1285
▁标题	-1286
总统	-1287
自动	-1288
▁虽然	-1289
gram	-1290
St	-1291
▁run	-1292
);	-1293
emp	-1294
▁In	-1295
▁St	-1296
rite	-1297
▁由于天气	-1298
~~	-1299
安全	-1300
tern	-1301
创作	-1302
dev	-1303
rax	-1304
xml	-1305
能源	-1306
的天气预报	-1307
▁lea	-1308
我会尽	-1309
:"	-1310
LI	-1311
bat	-1312
▁all	-1313
yte	-1314
pro	-1315
就是	-1316
美食	-1317
孩子	-1318
的是	-1319
编程	-1320
▁请将	-1321
▁rax	-1322
令人	-1323
带来	-1324
评价	-1325
质量	-1326
,$	-1327
AB	-1328
以便	-1329
地区	-1330
no	-1331
开放	-1332
的答案	-1333
EX	-1334
小时	-1335
聊天	-1336
▁cp	-1337
更正	-1338
文章中的	-1339
星期	-1340
英语	-1341
衣服	-1342
过去	-1343
他很	-1344
兴趣	-1345
找出	-1346
ill	-1347
的时候	-1348
一直	-1349
变暖	-1350
ast	-1351
公司的	-1352
lease	-1353
漂亮	-1354
蔬菜	-1355
▁IF	-1356
▁Th	-1357
文本中的	-1358
这是一个	-1359
',	-1360
几个	-1361
列出	-1362
我没有	-1363
ra	-1364
位置	-1365
自然语言	-1366
ED	-1367
知识	-1368
▁op	-1369
▁padd	-1370
AVA	-1371
▁描述	-1372
tp	-1373
报告	-1374
易懂	-1375
ari	-1376
ernel	-1377
AME	-1378
▁si	-1379
▁题目	-1380
▁PTR	-1381
▁po	-1382
▁tr	-1383
exinfo	-1384
▁根据给定的文本	-1385
sub	-1386
▁ST	-1387
日期	-1388
您可以	-1389
indow	-1390
ok	-1391
在家里	-1392
的城市	-1393
代码	-1394
大利	-1395
日本	-1396
新闻报道	-1397
ee	-1398
聪明	-1399
▁test	-1400
特别	-1401
购买	-1402
Con	-1403
中心	-1404
制作	-1405
pd	-1406
珠穆	-1407
珠穆朗	-1408
PATH	-1409
▁这是一	-1410
品牌	-1411
金融	-1412
你可以	-1413
oftware	-1414
ded	-1415
ix	-1416
这本书	-1417
ages	-1418
创建一个	-1419
US	-1420
健身	-1421
玛峰	-1422
观点	-1423
act	-1424
珠穆朗玛峰	-1425
古代	-1426
考虑	-1427
讨论	-1428
ual	-1429
▁请为	-1430
ions	-1431
特定	-1432
▁从这篇文章中提取	-1433
比如	-1434
话题	-1435
部分	-1436
cript	-1437
ity	-1438
yst	-1439
ingle	-1440
▁dword	-1441
unp	-1442
不同的	-1443
最喜欢的	-1444
▁对文本错误	-1445
▁对文本错误进行	-1446
有很多	-1447
size	-1448
▁start	-1449
我今天	-1450
搜索	-1451
您需要	-1452
ument	-1453
▁at	-1454
披萨	-1455
alue	-1456
改正	-1457
目标	-1458
超过	-1459
ary	-1460
umb	-1461
ctest	-1462
▁编辑以下句子	-1463
lob	-1464
AM	-1465
享受	-1466
▁he	-1467
▁regist	-1468
py	-1469
是的	-1470
net	-1471
:《	-1472
实现	-1473
行星	-1474
▁为以下	-1475
▁古诗续写	-1476
dll	-1477
企业	-1478
样的	-1479
comp	-1480
全球变暖	-1481
local	-1482
ant	-1483
Pro	-1484
谢谢你	-1485
第二	-1486
那个	-1487
stri	-1488
DR	-1489
排列	-1490
模仿	-1491
取消了	-1492
巴黎	-1493
指定	-1494
有效	-1495
空气	-1496
简明	-1497
CM	-1498
使得	-1499
海洋	-1500
论文	-1501
ver	-1502
ource	-1503
▁This	-1504
++	-1505
...	-1506
景点	-1507
诊断	-1508
今天天气	-1509
endif	-1510
unpck	-1511
医生	-1512
gnu	-1513
非常感谢	-1514
▁mova	-1515
,[	-1516
CL	-1517
Re	-1518
ial	-1519
name	-1520
inter	-1521
恶劣	-1522
海滩	-1523
的主	-1524
之间的	-1525
比较	-1526
顺序	-1527
esp	-1528
QU	-1529
sl	-1530
▁原始	-1531
为您提供	-1532
▁z	-1533
当地	-1534
疫情	-1535
▁""	-1536
ickle	-1537
增加	-1538
要去	-1539
ait	-1540
怎么样	-1541
▁check	-1542
当前	-1543
房间	-1544
注意	-1545
克力	-1546
col	-1547
巧克力	-1548
有哪些	-1549
广告	-1550
://	-1551
重写为	-1552
的关键词	-1553
炎热	-1554
▁lda	-1555
愉快	-1556
通常	-1557
ols	-1558
▁vmov	-1559
unction	-1560
so	-1561
▁请用	-1562
有一个	-1563
每个	-1564
▁word	-1565
▁根据输入	-1566
▁模仿	-1567
的食物	-1568
cess	-1569
完整	-1570
并且	-1571
口号	-1572
天空	-1573
绝句	-1574
ROR	-1575
org	-1576
▁cl	-1577
场景	-1578
艺术	-1579
ystem	-1580
预测	-1581
▁EX	-1582
▁抽取出文中所有的实体不存在实体	-1583
五个	-1584
创意	-1585
野餐	-1586
▁>>	-1587
的重要	-1588
一首五言	-1589
一条	-1590
变得	-1591
大学	-1592
▁ymm	-1593
出来	-1594
用于	-1595
ull	-1596
▁any	-1597
anges	-1598
生成一个标题	-1599
创造	-1600
管理	-1601
../	-1602
cpu	-1603
更好	-1604
设计	-1605
byte	-1606
需求	-1607
机器人	-1608
适当的	-1609
ule	-1610
请随时	-1611
simple	-1612
▁punpck	-1613
一次	-1614
▁src	-1615
kernel	-1616
▁address	-1617
我将	-1618
牛奶	-1619
更简洁	-1620
▁为给定的	-1621
拥有	-1622
是哪	-1623
相似	-1624
结构	-1625
▁lat	-1626
*.	-1627
NU	-1628
▁下	-1629
下来	-1630
吸引	-1631
irect	-1632
字母	-1633
容易	-1634
自由	-1635
陈述	-1636
ime	-1637
Lo	-1638
继续	-1639
---	-1640
去公园	-1641
▁从文章中提取出	-1642
▁Y	-1643
小狗	-1644
生命	-1645
▁下联	-1646
我昨天	-1647
▁从文章中提取	-1648
▁project	-1649
Ex	-1650
回家	-1651
持续	-1652
提出	-1653
食品	-1654
jar	-1655
ype	-1656
▁改写	-1657
▁edi	-1658
▁为一篇	-1659
indows	-1660
qthelp	-1661
最高	-1662
CON	-1663
▁bx	-1664
天气很	-1665
是多少	-1666
File	-1667
▁that	-1668
是在	-1669
的新	-1670
科学家	-1671
OL	-1672
不知道	-1673
....	-1674
的同义词	-1675
。“	-1676
我在	-1677
ular	-1678
人工智能在	-1679
下面这个句子	-1680
fe	-1681
性的	-1682
ide	-1683
▁dw	-1684
不客气	-1685
意大利	-1686
感到非常	-1687
一定	-1688
治疗	-1689
联系	-1690
行动	-1691
rsp	-1692
▁使用	-1693
▁get	-1694
▁un	-1695
▁请告诉我	-1696
linkcheck	-1697
OF	-1698
cs	-1699
ww	-1700
下午	-1701
▁文本纠错	-1702
可爱	-1703
的首	-1704
科幻	-1705
询问	-1706
ice	-1707
thon	-1708
▁写	-1709
▁如果	-1710
▁告诉我	-1711
!"	-1712
基于	-1713
这里	-1714
重述	-1715
form	-1716
在公园里	-1717
天气预报	-1718
解答	-1719
技巧	-1720
low	-1721
ptr	-1722
产生	-1723
类型的	-1724
Co	-1725
命名	-1726
▁回答	-1727
▁按照	-1728
很高兴	-1729
▁movd	-1730
▁将以下文本	-1731
mb	-1732
ys	-1733
▁,	-1734
重要的	-1735
▁esi	-1736
ING	-1737
长的	-1738
需要我	-1739
▁data	-1740
▁move	-1741
////////	-1742
ug	-1743
条件	-1744
ask	-1745
AX	-1746
一本	-1747
ENT	-1748
什么是	-1749
最好的	-1750
寻找	-1751
著名的	-1752
ump	-1753
▁提供	-1754
lobal	-1755
################	-1756
出门	-1757
edx	-1758
最大的	-1759
得到	-1760
▁now	-1761
right	-1762
▁pages	-1763
要求对	-1764
call	-1765
▁关键词	-1766
人工智能的	-1767
▁原句	-1768
▁秋	-1769
方案	-1770
INT	-1771
LIB	-1772
这样	-1773
bits	-1774
sw	-1775
上班	-1776
吃了	-1777
有些	-1778
篮球	-1779
这首	-1780
面包	-1781
Reg	-1782
ust	-1783
并输出	-1784
port	-1785
▁arg	-1786
帮您	-1787
问我	-1788
语言模型	-1789
htmlhelp	-1790
地方	-1791
家庭	-1792
真是	-1793
son	-1794
他们的	-1795
太阳系	-1796
文本中	-1797
的关键	-1798
per	-1799
▁END	-1800
?"	-1801
晴朗	-1802
ause	-1803
read	-1804
寒冷	-1805
我去	-1806
社交	-1807
▁bit	-1808
▁对联	-1809
inglehtml	-1810
演员	-1811
短文	-1812
红色	-1813
ero	-1814
nder	-1815
进行纠错	-1816
▁对以下句子	-1817
自然语言处理	-1818
▁vmovdqa	-1819
仗工	-1820
仗工整	-1821
ount	-1822
要求对仗工整	-1823
建筑	-1824
户外	-1825
主动语态	-1826
▁have	-1827
▁DWORD	-1828
VER	-1829
由于天气	-1830
▁为以下句子	-1831
功能	-1832
类似	-1833
ine	-1834
▁这篇文章	-1835
ariable	-1836
ZE	-1837
你好	-1838
各种	-1839
哺乳	-1840
而且	-1841
▁AD	-1842
的含义	-1843
▁version	-1844
▁大	-1845
季节	-1846
比喻	-1847
电话	-1848
速度	-1849
UB	-1850
XX	-1851
语句	-1852
ove	-1853
atch	-1854
home	-1855
▁code	-1856
听起来	-1857
开心	-1858
▁.\	-1859
的形式	-1860
的方法	-1861
▁comp	-1862
stride	-1863
REM	-1864
▁cx	-1865
▁一篇	-1866
更简单	-1867
近义词	-1868
非常喜欢	-1869
▁print	-1870
同时	-1871
提示	-1872
植物	-1873
行为	-1874
ublic	-1875
enerated	-1876
”,	-1877
▁we	-1878
夏季	-1879
测试	-1880
物品	-1881
返回	-1882
销售	-1883
ault	-1884
这篇文章中	-1885
▁under	-1886
------------	-1887
RI	-1888
ak	-1889
po	-1890
一部	-1891
不相同	-1892
▁NOT	-1893
是什么意思	-1894
▁重新编写	-1895
;;;;;;;;	-1896
作品	-1897
图书	-1898
ecx	-1899
led	-1900
的事情	-1901
▁PIXEL	-1902
海拔	-1903
让人	-1904
esi	-1905
的地方	-1906
load	-1907
▁Set	-1908
我很高兴	-1909
新闻文章	-1910
▁text	-1911
▁根据给定的句子	-1912
删除	-1913
生日	-1914
▁AL	-1915
▁GNU	-1916
今天的天气	-1917
一杯	-1918
支持	-1919
生物	-1920
餐馆	-1921
DER	-1922
ev	-1923
try	-1924
这是一	-1925
NAME	-1926
MS	-1927
ts	-1928
行的	-1929
里的	-1930
▁#$	-1931
更多的	-1932
能否	-1933
pre	-1934
tmp	-1935
▁ep	-1936
怎么说	-1937
上文	-1938
充满	-1939
mem	-1940
作业	-1941
不喜欢	-1942
▁dec	-1943
上述	-1944
之前	-1945
的名称	-1946
的情感	-1947
的应用领域	-1948
宠物	-1949
幸福	-1950
淇淋	-1951
风吹	-1952
=="	-1953
▁评论	-1954
edia	-1955
现在请你	-1956
▁把这句话翻译成	-1957
到达	-1958
表示	-1959
SET	-1960
冰淇淋	-1961
http	-1962
▁movl	-1963
ib	-1964
平均	-1965
所以我	-1966
Regular	-1967
困难	-1968
状况	-1969
网站	-1970
趋势	-1971
DAT	-1972
▁LD	-1973
的内容	-1974
该句子	-1975
中性	-1976
这篇	-1977
bug	-1978
▁那么	-1979
将其中的	-1980
ample	-1981
约翰	-1982
这种	-1983
哺乳动物	-1984
有点	-1985
▁ov	-1986
美丽的	-1987
code	-1988
▁EQU	-1989
▁loc	-1990
▁用一句话	-1991
PU	-1992
某个	-1993
▁dx	-1994
提到了	-1995
替换为	-1996
人工智能技术	-1997
利用	-1998
key	-1999
▁EC	-2000
主语	-2001
出去	-2002
情节	-2003
我会尽力	-2004
——	-2005
abi	-2006
vir	-2007
▁命名	-2008
下面这句话	-2009
作用	-2010
▁识别	-2011
istribut	-2012
ob	-2013
不断	-2014
体验	-2015
广泛	-2016
▁rcx	-2017
▁这是一个	-2018
人物	-2019
法国	-2020
行业	-2021
aram	-2022
▁man	-2023
这家餐厅	-2024
umber	-2025
▁build	-2026
还有其他问题	-2027
▁以	-2028
书籍	-2029
只有	-2030
真好	-2031
min	-2032
健康的	-2033
去看电影	-2034
句子翻译成	-2035
,%	-2036
En	-2037
今年	-2038
标签	-2039
正式	-2040
ART	-2041
▁SP	-2042
很抱歉	-2043
▁命名实体识别	-2044
病毒	-2045
老师	-2046
表述	-2047
test	-2048
▁variable	-2049
SB	-2050
UN	-2051
▁direct	-2052
化为	-2053
定义	-2054
YTE	-2055
图书馆	-2056
我去了	-2057
hl	-2058
他在	-2059
孤独	-2060
是谁	-2061
▁jn	-2062
提到的	-2063
的情绪	-2064
国际	-2065
不用谢	-2066
rame	-2067
script	-2068
▁对文本错误进行修改	-2069
为你	-2070
对于	-2071
思考	-2072
work	-2073
进行分类	-2074
使其更简洁	-2075
▁return	-2076
组成	-2077
▁"%~	-2078
error	-2079
▁将下面句子翻译成	-2080
心情	-2081
采取	-2082
ASE	-2083
请问你	-2084
▁下文中	-2085
media	-2086
▁Copy	-2087
▁下文中存在哪些实体	-2088
io	-2089
END	-2090
PRO	-2091
Noto	-2092
▁cont	-2093
hp	-2094
打算	-2095
早餐	-2096
温暖	-2097
生产	-2098
风险	-2099
man	-2100
▁se	-2101
在哪里	-2102
ebug	-2103
▁请根据	-2104
▁will	-2105
以下句子中的	-2106
;%	-2107
TH	-2108
ge	-2109
感受	-2110
更改	-2111
蛋糕	-2112
▁这句话在	-2113
古代怎么说	-2114
)。	-2115
附近	-2116
ach	-2117
更好地	-2118
rent	-2119
▁帮我把这句话翻译成	-2120
人生	-2121
十分	-2122
经历	-2123
▁一个	-2124
关键字	-2125
▁情感分析	-2126
▁Gener	-2127
▁K	-2128
商品	-2129
心理	-2130
将它们	-2131
效率	-2132
可能会	-2133
版本	-2134
生态	-2135
糟糕	-2136
sphinx	-2137
习惯	-2138
▁dd	-2139
▁ebp	-2140
▁temp	-2141
生成一个与	-2142
》。	-2143
essage	-2144
不要	-2145
代表	-2146
年轻	-2147
文学	-2148
花园	-2149
▁ab	-2150
最近的	-2151
▁文本中	-2152
前往	-2153
ost	-2154
目的地	-2155
▁movq	-2156
一天	-2157
不可	-2158
草莓	-2159
驾驶	-2160
ive	-2161
▁us	-2162
▁改正	-2163
tion	-2164
NotoS	-2165
▁generated	-2166
ru	-2167
是我	-2168
自行	-2169
unk	-2170
健康饮食	-2171
▁给我一个	-2172
是珠穆朗玛峰	-2173
▁}	-2174
对话	-2175
摄氏	-2176
符合	-2177
秋天的	-2178
JAVA	-2179
lect	-2180
viron	-2181
▁抽取出下文	-2182
使其更加流畅	-2183
▁抽取出下文中的实体	-2184
▁《	-2185
今晚	-2186
修正	-2187
ORT	-2188
ebx	-2189
CODER	-2190
Ch	-2191
To	-2192
pr	-2193
二十	-2194
商店	-2195
放松	-2196
网络	-2197
资源	-2198
方面的	-2199
char	-2200
mmon	-2201
vironment	-2202
iz	-2203
▁当	-2204
距离	-2205
逗号	-2206
针对	-2207
NUL	-2208
▁请对	-2209
igned	-2210
ng	-2211
vc	-2212
河流	-2213
语气	-2214
rcx	-2215
▁Sp	-2216
的时间	-2217
▁将以下句子中的	-2218
创新	-2219
太好	-2220
您好	-2221
▁OR	-2222
▁dis	-2223
▁我昨天	-2224
▁value	-2225
▁command	-2226
cd	-2227
▁识别出	-2228
使其更具	-2229
▁帮我写诗	-2230
最终	-2231
的天气情况	-2232
出色	-2233
排序	-2234
TION	-2235
ache	-2236
irst	-2237
flags	-2238
▁当然可以	-2239
分别	-2240
夏日	-2241
想法	-2242
火车	-2243
聚会	-2244
那里	-2245
▁sta	-2246
Ar	-2247
度假	-2248
数量	-2249
橙子	-2250
SRC	-2251
tes	-2252
完成了	-2253
fault	-2254
▁识别出上文	-2255
文本中的实体	-2256
▁识别出上文中的实体	-2257
▁把	-2258
一家	-2259
写作	-2260
oth	-2261
DW	-2262
一样	-2263
优秀	-2264
改善	-2265
软件	-2266
dst	-2267
iew	-2268
uff	-2269
人名和	-2270
喝咖啡	-2271
语法和	-2272
start	-2273
▁Public	-2274
很棒	-2275
技能	-2276
▁ER	-2277
以下问题	-2278
DECODER	-2279
▁whe	-2280
▁抽取出文本中的实体	-2281
但她	-2282
范围	-2283
rem	-2284
的名字	-2285
压力	-2286
后的	-2287
打开	-2288
读书	-2289
OTO	-2290
RAN	-2291
▁je	-2292
▁ECHO	-2293
▁latex	-2294
▁stack	-2295
uration	-2296
▁string	-2297
▁文本中存在哪些实体	-2298
db	-2299
dw	-2300
媒体	-2301
英国	-2302
▁写诗	-2303
让我们	-2304
哪个城市	-2305
谢谢你的建议	-2306
▁distribut	-2307
')	-2308
▁qu	-2309
lean	-2310
node	-2311
▁这部电影	-2312
CC	-2313
左右	-2314
方向	-2315
职业	-2316
表格	-2317
过了	-2318
copy	-2319
%.	-2320
一位	-2321
传统	-2322
塑料	-2323
熊猫	-2324
特点	-2325
瑜伽	-2326
受欢迎	-2327
并提供	-2328
ecut	-2329
表达了什么	-2330
▁请用一句话	-2331
讲述	-2332
▁抱歉	-2333
store	-2334
▁output	-2335
▁General	-2336
▁好	-2337
一年	-2338
通顺	-2339
很喜欢	-2340
▁esp	-2341
▁重新写	-2342
表达了什么情感	-2343
▁文本表达了什么情感	-2344
▁春	-2345
值得	-2346
医学	-2347
航班	-2348
获取	-2349
过程	-2350
dex	-2351
mit	-2352
中国的	-2353
▁jsr	-2354
可以帮助	-2355
无法回答	-2356
▁doctest	-2357
保健	-2358
哪种	-2359
大象	-2360
提醒	-2361
ould	-2362
▁PRO	-2363
▁psr	-2364
lection	-2365
相应	-2366
cmd	-2367
____	-2368
license	-2369
事情	-2370
共同	-2371
成绩	-2372
最新	-2373
秋天	-2374
ies	-2375
▁电影	-2376
因为天气	-2377
环境保护	-2378
▁epub	-2379
::::::::	-2380
和我	-2381
明媚	-2382
ARG	-2383
▁修改	-2384
有意义	-2385
urrent	-2386
的话	-2387
电影院	-2388
rupt	-2389
sent	-2390
给定文本	-2391
变成	-2392
机会	-2393
的好	-2394
绿色	-2395
训练	-2396
ACK	-2397
AGE	-2398
因为我	-2399
摄氏度	-2400
自行车	-2401
一段文字	-2402
评论表达	-2403
▁size	-2404
"。	-2405
上面	-2406
晚餐	-2407
梦想	-2408
pdf	-2409
▁no	-2410
▁对于	-2411
▁小明	-2412
SIZE	-2413
pack	-2414
▁该评论表达	-2415
的情绪是什么	-2416
▁该评论表达的情绪是什么	-2417
>>	-2418
一场	-2419
伦敦	-2420
算法	-2421
▁[%	-2422
!”	-2423
ong	-2424
rep	-2425
▁可以	-2426
▁rdi	-2427
电子邮件	-2428
PL	-2429
ry	-2430
个字	-2431
味道	-2432
常见	-2433
美景	-2434
今天的	-2435
▁char	-2436
没有语法错误	-2437
的意思是什么	-2438
去年	-2439
将在	-2440
让你	-2441
两个单词	-2442
▁load	-2443
nl	-2444
例子	-2445
动作	-2446
开发	-2447
ert	-2448
长度	-2449
上下文	-2450
提供的	-2451
疑问句	-2452
一些关于	-2453
ql	-2454
复杂	-2455
想去	-2456
李明	-2457
细节	-2458
蓝色	-2459
随机	-2460
鸡蛋	-2461
IGN	-2462
▁*/	-2463
▁AN	-2464
▁其二	-2465
转化为	-2466
epub	-2467
句子中的	-2468
NotoSans	-2469
▁狗	-2470
关注	-2471
快速	-2472
探讨	-2473
看了	-2474
说明	-2475
gin	-2476
▁如何	-2477
可持续	-2478
▁pickle	-2479
▁从这篇文章中提取出	-2480
,-	-2481
CE	-2482
为其	-2483
是个	-2484
演讲	-2485
至少	-2486
▁hl	-2487
它更加	-2488
红色的	-2489
ated	-2490
回答问题	-2491
▁line	-2492
帮忙	-2493
有所	-2494
gcc	-2495
的建议	-2496
BYTE	-2497
nown	-2498
▁read	-2499
▁	-2500
e	-2501
,	-2502
。	-2503
的	-2504
o	-2505
t	-2506
i	-2507
r	-2508
a	-2509
n	-2510
s	-2511
l	-2512
-	-2513
d	-2514
c	-2515
:	-2516
m	-2517
一	-2518
0	-2519
p	-2520
h	-2521
u	-2522
.	-2523
我	-2524
1	-2525
f	-2526
个	-2527
_	-2528
%	-2529
x	-2530
/	-2531
是	-2532
b	-2533
文	-2534
句	-2535
"	-2536
I	-2537
g	-2538
*	-2539
E	-2540
以	-2541
子	-2542
=	-2543
S	-2544
下	-2545
R	-2546
D	-2547
2	-2548
在	-2549
有	-2550
中	-2551
这	-2552
v	-2553
T	-2554
了	-2555
A	-2556
L	-2557
;	-2558
、	-2559
为	-2560
天	-2561
\	-2562
O	-2563
C	-2564
P	-2565
成	-2566
人	-2567
和	-2568
不	-2569
?	-2570
N	-2571
题	-2572
w	-2573
本	-2574
他	-2575
提	-2576
生	-2577
出	-2578
给	-2579
B	-2580
要	-2581
4	-2582
y	-2583
你	-2584
M	-2585
3	-2586
写	-2587
能	-2588
请	-2589
好	-2590
)	-2591
(	-2592
词	-2593
问	-2594
定	-2595
语	-2596
上	-2597
其	-2598
可	-2599
8	-2600
F	-2601
k	-2602
U	-2603
6	-2604
更	-2605
行	-2606
气	-2607
H	-2608
关	-2609
用	-2610
于	-2611
很	-2612
将	-2613
们	-2614
到	-2615
么	-2616
章	-2617
新	-2618
5	-2619
X	-2620
重	-2621
使	-2622
去	-2623
来	-2624
面	-2625
最	-2626
时	-2627
体	-2628
”	-2629
大	-2630
对	-2631
您	-2632
会	-2633
学	-2634
[	-2635
]	-2636
取	-2637
明	-2638
“	-2639
地	-2640
名	-2641
据	-2642
喜	-2643
电	-2644
什	-2645
常	-2646
答	-2647
动	-2648
情	-2649
欢	-2650
$	-2651
话	-2652
G	-2653
法	-2654
如	-2655
正	-2656
加	-2657
q	-2658
#	-2659
影	-2660
供	-2661
国	-2662
简	-2663
物	-2664
然	-2665
作	-2666
实	-2667
感	-2668
进	-2669
家	-2670
多	-2671
分	-2672
主	-2673
标	-2674
根	-2675
+	-2676
工	-2677
类	-2678
7	-2679
j	-2680
并	-2681
所	-2682
需	-2683
现	-2684
同	-2685
高	-2686
改	-2687
因	-2688
相	-2689
自	-2690
小	-2691
意	-2692
单	-2693
篇	-2694
果	-2695
看	-2696
义	-2697
里	-2698
些	-2699
!	-2700
非	-2701
发	-2702
它	-2703
错	-2704
9	-2705
从	-2706
没	-2707
公	-2708
诗	-2709
'	-2710
但	-2711
方	-2712
想	-2713
V	-2714
点	-2715
表	-2716
W	-2717
得	-2718
美	-2719
无	-2720
或	-2721
帮	-2722
过	-2723
述	-2724
当	-2725
回	-2726
力	-2727
字	-2728
今	-2729
之	-2730
年	-2731
理	-2732
言	-2733
还	-2734
她	-2735
数	-2736
机	-2737
哪	-2738
应	-2739
经	-2740
吗	-2741
市	-2742
色	-2743
心	-2744
案	-2745
风	-2746
日	-2747
两	-2748
间	-2749
事	-2750
前	-2751
等	-2752
度	-2753
智	-2754
三	-2755
解	-2756
保	-2757
球	-2758
开	-2759
信	-2760
@	-2761
何	-2762
别	-2763
那	-2764
水	-2765
说	-2766
段	-2767
种	-2768
品	-2769
性	-2770
谢	-2771
都	-2772
该	-2773
道	-2774
海	-2775
后	-2776
太	-2777
>	-2778
包	-2779
建	-2780
洁	-2781
比	-2782
化	-2783
告	-2784
书	-2785
长	-2786
z	-2787
起	-2788
合	-2789
山	-2790
入	-2791
翻	-2792
息	-2793
译	-2794
尽	-2795
代	-2796
吃	-2797
含	-2798
与	-2799
具	-2800
首	-2801
习	-2802
联	-2803
短	-2804
目	-2805
变	-2806
容	-2807
城	-2808
误	-2809
Y	-2810
部	-2811
达	-2812
被	-2813
古	-2814
技	-2815
编	-2816
食	-2817
乐	-2818
描	-2819
极	-2820
确	-2821
知	-2822
思	-2823
K	-2824
世	-2825
选	-2826
游	-2827
断	-2828
任	-2829
全	-2830
让	-2831
餐	-2832
式	-2833
者	-2834
内	-2835
列	-2836
业	-2837
求	-2838
推	-2839
通	-2840
系	-2841
键	-2842
而	-2843
位	-2844
议	-2845
论	-2846
花	-2847
计	-2848
输	-2849
科	-2850
型	-2851
由	-2852
助	-2853
月	-2854
件	-2855
只	-2856
诉	-2857
歌	-2858
星	-2859
也	-2860
处	-2861
着	-2862
项	-2863
结	-2864
步	-2865
务	-2866
特	-2867
原	-2868
完	-2869
管	-2870
近	-2871
爱	-2872
界	-2873
流	-2874
括	-2875
存	-2876
车	-2877
健	-2878
场	-2879
清	-2880
已	-2881
环	-2882
未	-2883
活	-2884
就	-2885
晚	-2886
否	-2887
形	-2888
狗	-2889
少	-2890
五	-2891
总	-2892
北	-2893
司	-2894
决	-2895
买	-2896
创	-2897
报	-2898
适	-2899
格	-2900
雨	-2901
空	-2902
J	-2903
找	-2904
闻	-2905
组	-2906
识	-2907
程	-2908
园	-2909
旅	-2910
快	-2911
持	-2912
领	-2913
试	-2914
阳	-2915
落	-2916
景	-2917
手	-2918
评	-2919
术	-2920
音	-2921
每	-2922
判	-2923
消	-2924
做	-2925
十	-2926
》	-2927
《	-2928
指	-2929
西	-2930
期	-2931
京	-2932
此	-2933
昨	-2934
产	-2935
身	-2936
把	-2937
预	-2938
号	-2939
真	-2940
外	-2941
<	-2942
反	-2943
读	-2944
样	-2945
节	-2946
换	-2947
量	-2948
兴	-2949
平	-2950
金	-2951
康	-2952
受	-2953
医	-2954
光	-2955
秋	-2956
放	-2957
二	-2958
立	-2959
域	-2960
展	-2961
温	-2962
易	-2963
红	-2964
查	-2965
积	-2966
器	-2967
猫	-2968
早	-2969
趣	-2970
利	-2971
模	-2972
第	-2973
约	-2974
续	-2975
服	-2976
转	-2977
历	-2978
设	-2979
口	-2980
春	-2981
算	-2982
周	-2983
友	-2984
交	-2985
史	-2986
|	-2987
境	-2988
制	-2989
热	-2990
随	-2991
修	-2992
态	-2993
呢	-2994
白	-2995
候	-2996
听	-2997
始	-2998
打	-2999
望	-3000
称	-3001
客	-3002
门	-3003
四	-3004
~	-3005
难	-3006
辑	-3007
张	-3008
次	-3009
安	-3010
见	-3011
夏	-3012
及	-3013
赛	-3014
考	-3015
运	-3016
几	-3017
马	-3018
老	-3019
故	-3020
病	-3021
观	-3022
头	-3023
条	-3024
王	-3025
菜	-3026
响	-3027
向	-3028
东	-3029
再	-3030
序	-3031
深	-3032
英	-3033
区	-3034
跑	-3035
·	-3036
抽	-3037
复	-3038
觉	-3039
户	-3040
价	-3041
怎	-3042
才	-3043
味	-3044
路	-3045
示	-3046
己	-3047
功	-3048
员	-3049
假	-3050
排	-3051
疗	-3052
克	-3053
够	-3054
厅	-3055
纠	-3056
峰	-3057
香	-3058
份	-3059
南	-3060
华	-3061
飞	-3062
云	-3063
例	-3064
统	-3065
荐	-3066
带	-3067
造	-3068
虽	-3069
Q	-3070
满	-3071
片	-3072
斯	-3073
命	-3074
夜	-3075
参	-3076
摘	-3077
^	-3078
万	-3079
划	-3080
商	-3081
认	-3082
整	-3083
照	-3084
导	-3085
引	-3086
李	-3087
苹	-3088
演	-3089
足	-3090
聊	-3091
传	-3092
接	-3093
概	-3094
教	-3095
叶	-3096
准	-3097
质	-3098
战	-3099
购	-3100
视	-3101
社	-3102
护	-3103
广	-3104
朋	-3105
析	-3106
超	-3107
丽	-3108
况	-3109
笑	-3110
散	-3111
象	-3112
Z	-3113
政	-3114
房	-3115
女	-3116
索	-3117
元	-3118
声	-3119
源	-3120
边	-3121
探	-3122
减	-3123
记	-3124
图	-3125
火	-3126
且	-3127
网	-3128
择	-3129
冷	-3130
符	-3131
仍	-3132
效	-3133
走	-3134
希	-3135
草	-3136
鸟	-3137
玩	-3138
失	-3139
强	-3140
黄	-3141
林	-3142
似	-3143
咖	-3144
细	-3145
令	-3146
啡	-3147
拼	-3148
直	-3149
共	-3150
基	-3151
独	-3152
店	-3153
研	-3154
神	-3155
巴	-3156
轻	-3157
替	-3158
{	-3159
树	-3160
究	-3161
致	-3162
获	-3163
至	-3164
尔	-3165
备	-3166
馆	-3167
收	-3168
料	-3169
便	-3170
河	-3171
询	-3172
努	-3173
队	-3174
}	-3175
饮	-3176
儿	-3177
又	-3178
州	-3179
属	-3180
优	-3181
蕴	-3182
测	-3183
许	-3184
季	-3185
拉	-3186
注	-3187
盾	-3188
必	-3189
暖	-3190
治	-3191
曲	-3192
百	-3193
构	-3194
讲	-3195
谁	-3196
矛	-3197
鱼	-3198
布	-3199
像	-3200
按	-3201
民	-3202
抱	-3203
吧	-3204
米	-3205
朗	-3206
离	-3207
远	-3208
军	-3209
越	-3210
梦	-3211
染	-3212
&	-3213
衣	-3214
画	-3215
绝	-3216
各	-3217
江	-3218
院	-3219
速	-3220
喝	-3221
士	-3222
师	-3223
饭	-3224
寒	-3225
班	-3226
千	-3227
状	-3228
除	-3229
德	-3230
亚	-3231
负	-3232
亮	-3233
低	-3234
增	-3235
育	-3236
绿	-3237
酒	-3238
举	-3239
顺	-3240
则	-3241
先	-3242
即	-3243
精	-3244
险	-3245
孩	-3246
著	-3247
织	-3248
杯	-3249
释	-3250
校	-3251
素	-3252
黑	-3253
资	-3254
青	-3255
野	-3256
穿	-3257
介	-3258
讨	-3259
冰	-3260
置	-3261
巧	-3262
台	-3263
邮	-3264
畅	-3265
沙	-3266
歉	-3267
母	-3268
规	-3269
晰	-3270
朝	-3271
率	-3272
微	-3273
升	-3274
阅	-3275
送	-3276
归	-3277
牛	-3278
施	-3279
脑	-3280
泳	-3281
往	-3282
某	-3283
调	-3284
济	-3285
绍	-3286
值	-3287
待	-3288
享	-3289
午	-3290
污	-3291
石	-3292
洲	-3293
支	-3294
忙	-3295
降	-3296
验	-3297
松	-3298
静	-3299
坚	-3300
眼	-3301
尝	-3302
舞	-3303
尼	-3304
戏	-3305
款	-3306
疫	-3307
蓝	-3308
座	-3309
遇	-3310
胜	-3311
炎	-3312
角	-3313
汉	-3314
迎	-3315
善	-3316
码	-3317
吸	-3318
害	-3319
剧	-3320
线	-3321
末	-3322
居	-3323
检	-3324
蛋	-3325
较	-3326
睡	-3327
府	-3328
虑	-3329
连	-3330
六	-3331
钱	-3332
福	-3333
恶	-3334
充	-3335
养	-3336
汽	-3337
念	-3338
佳	-3339
留	-3340
职	-3341
练	-3342
晴	-3343
须	-3344
伤	-3345
官	-3346
滩	-3347
终	-3348
办	-3349
汇	-3350
寻	-3351
销	-3352
陈	-3353
集	-3354
颜	-3355
雪	-3356
棒	-3357
站	-3358
礼	-3359
营	-3360
际	-3361
势	-3362
密	-3363
惊	-3364
牌	-3365
奇	-3366
累	-3367
肉	-3368
绪	-3369
八	-3370
萨	-3371
添	-3372
男	-3373
亲	-3374
富	-3375
拥	-3376
纽	-3377
奶	-3378
彩	-3379
玛	-3380
七	-3381
疑	-3382
洋	-3383
漫	-3384
鸡	-3385
钟	-3386
刚	-3387
哈	-3388
室	-3389
措	-3390
防	-3391
票	-3392
追	-3393
浪	-3394
木	-3395
珠	-3396
融	-3397
九	-3398
困	-3399
凉	-3400
龙	-3401
挑	-3402
干	-3403
初	-3404
罗	-3405
炼	-3406
懂	-3407
企	-3408
限	-3409
却	-3410
圾	-3411
帝	-3412
材	-3413
垃	-3414
疾	-3415
艺	-3416
波	-3417
围	-3418
费	-3419
糕	-3420
—	-3421
策	-3422
显	-3423
维	-3424
奥	-3425
采	-3426
博	-3427
岁	-3428
冠	-3429
孤	-3430
楼	-3431
详	-3432
阿	-3433
啊	-3434
愉	-3435
级	-3436
`	-3437
坐	-3438
版	-3439
封	-3440
激	-3441
宝	-3442
湖	-3443
熊	-3444
宣	-3445
盛	-3446
配	-3447
唱	-3448
省	-3449
争	-3450
众	-3451
临	-3452
久	-3453
迟	-3454
典	-3455
植	-3456
死	-3457
装	-3458
症	-3459
庭	-3460
缺	-3461
住	-3462
破	-3463
普	-3464
印	-3465
漂	-3466
免	-3467
锻	-3468
均	-3469
航	-3470
专	-3471
团	-3472
繁	-3473
继	-3474
跳	-3475
证	-3476
半	-3477
叫	-3478
蕉	-3479
玉	-3480
夫	-3481
征	-3482
飘	-3483
披	-3484
卡	-3485
幸	-3486
搜	-3487
杂	-3488
曾	-3489
幻	-3490
刻	-3491
冬	-3492
依	-3493
律	-3494
范	-3495
仿	-3496
压	-3497
君	-3498
氏	-3499
顿	-3500
穆	-3501
醒	-3502
贵	-3503
诊	-3504
土	-3505
疲	-3506
摄	-3507
双	-3508
异	-3509
蔬	-3510
跟	-3511
良	-3512
互	-3513
益	-3514
聪	-3515
永	-3516
铁	-3517
银	-3518
售	-3519
黎	-3520
晨	-3521
愿	-3522
烟	-3523
吹	-3524
差	-3525
笔	-3526
威	-3527
聚	-3528
停	-3529
秘	-3530
乡	-3531
伦	-3532
鲜	-3533
忘	-3534
投	-3535
灵	-3536
录	-3537
左	-3538
尚	-3539
村	-3540
街	-3541
武	-3542
祝	-3543
個	-3544
突	-3545
止	-3546
舒	-3547
频	-3548
登	-3549
农	-3550
课	-3551
另	-3552
秀	-3553
软	-3554
哦	-3555
劣	-3556
奋	-3557
订	-3558
旨	-3559
败	-3560
慢	-3561
宜	-3562
拿	-3563
毛	-3564
苦	-3565
甜	-3566
药	-3567
余	-3568
宫	-3569
窗	-3570
兵	-3571
悲	-3572
刘	-3573
志	-3574
签	-3575
休	-3576
切	-3577
旧	-3578
皇	-3579
严	-3580
拔	-3581
橙	-3582
雅	-3583
右	-3584
篮	-3585
糖	-3586
毒	-3587
返	-3588
冒	-3589
救	-3590
驾	-3591
兰	-3592
派	-3593
奖	-3594
责	-3595
击	-3596
茶	-3597
油	-3598
父	-3599
痛	-3600
谷	-3601
监	-3602
籍	-3603
苏	-3604
附	-3605
呼	-3606
迷	-3607
露	-3608
局	-3609
控	-3610
丰	-3611
筑	-3612
淋	-3613
乳	-3614
渐	-3615
枝	-3616
灾	-3617
谓	-3618
勇	-3619
纪	-3620
泛	-3621
紧	-3622
恐	-3623
守	-3624
巨	-3625
群	-3626
底	-3627
喻	-3628
卫	-3629
欲	-3630
唐	-3631
池	-3632
训	-3633
略	-3634
辆	-3635
仗	-3636
伴	-3637
暴	-3638
怀	-3639
遍	-3640
闭	-3641
映	-3642
沉	-3643
塔	-3644
曰	-3645
翰	-3646
驶	-3647
删	-3648
梅	-3649
宠	-3650
忆	-3651
欧	-3652
烈	-3653
刺	-3654
劳	-3655
乎	-3656
烤	-3657
虎	-3658
块	-3659
浓	-3660
赏	-3661
宗	-3662
警	-3663
权	-3664
趋	-3665
眠	-3666
纳	-3667
针	-3668
播	-3669
犹	-3670
背	-3671
藏	-3672
哺	-3673
床	-3674
皮	-3675
革	-3676
骑	-3677
亦	-3678
宾	-3679
绩	-3680
血	-3681
哥	-3682
虚	-3683
塑	-3684
桥	-3685
纷	-3686
避	-3687
逐	-3688
阴	-3689
零	-3690
森	-3691
莫	-3692
霜	-3693
幽	-3694
乘	-3695
瓜	-3696
股	-3697
危	-3698
掉	-3699
偏	-3700
宇	-3701
寂	-3702
核	-3703
闲	-3704
杀	-3705
乔	-3706
宁	-3707
距	-3708
启	-3709
淇	-3710
射	-3711
财	-3712
付	-3713
洗	-3714
般	-3715
坦	-3716
莓	-3717
板	-3718
圆	-3719
泰	-3720
延	-3721
悦	-3722
若	-3723
隐	-3724
填	-3725
糟	-3726
倒	-3727
堂	-3728
姆	-3729
惯	-3730
缓	-3731
敦	-3732
碧	-3733
访	-3734
攻	-3735
遗	-3736
仅	-3737
姓	-3738
副	-3739
竹	-3740
脉	-3741
鞋	-3742
圣	-3743
妈	-3744
执	-3745
暗	-3746
田	-3747
坏	-3748
枫	-3749
额	-3750
°	-3751
洛	-3752
牙	-3753
络	-3754
鸣	-3755
镇	-3756
亡	-3757
媒	-3758
川	-3759
焦	-3760
盖	-3761
借	-3762
犯	-3763
谈	-3764
豆	-3765
欣	-3766
乱	-3767
径	-3768
拂	-3769
担	-3770
灯	-3771
逗	-3772
媚	-3773
察	-3774
移	-3775
层	-3776
岛	-3777
寿	-3778
货	-3779
杰	-3780
桃	-3781
尊	-3782
汤	-3783
衡	-3784
赢	-3785
愁	-3786
折	-3787
犬	-3788
滑	-3789
苗	-3790
醉	-3791
拟	-3792
洞	-3793
爬	-3794
献	-3795
退	-3796
套	-3797
楚	-3798
仙	-3799
祖	-3800
荣	-3801
协	-3802
斗	-3803
童	-3804
扬	-3805
顾	-3806
柳	-3807
县	-3808
承	-3809
罪	-3810
励	-3811
屋	-3812
瑜	-3813
箱	-3814
陆	-3815
默	-3816
伽	-3817
們	-3818
尤	-3819
胡	-3820
桌	-3821
杨	-3822
端	-3823
废	-3824
急	-3825
拜	-3826
朵	-3827
韵	-3828
幅	-3829
弟	-3830
肯	-3831
堡	-3832
燕	-3833
谜	-3834
忠	-3835
勤	-3836
敢	-3837
溪	-3838
撰	-3839
紫	-3840
尘	-3841
夕	-3842
妙	-3843
掌	-3844
氧	-3845
爽	-3846
珍	-3847
辞	-3848
丝	-3849
倾	-3850
残	-3851
浮	-3852
湿	-3853
為	-3854
芳	-3855
赞	-3856
鼠	-3857
卖	-3858
卷	-3859
悠	-3860
鼓	-3861
患	-3862
纸	-3863
诚	-3864
酸	-3865
唯	-3866
忧	-3867
萧	-3868
震	-3869
涉	-3870
迹	-3871
吉	-3872
申	-3873
庆	-3874
载	-3875
缩	-3876
补	-3877
晋	-3878
弃	-3879
臣	-3880
扼	-3881
束	-3882
丧	-3883
岸	-3884
」	-3885
乏	-3886
委	-3887
操	-3888
泊	-3889
润	-3890
潮	-3891
袋	-3892
「	-3893
龄	-3894
赵	-3895
迪	-3896
伊	-3897
烧	-3898
私	-3899
翠	-3900
雄	-3901
粉	-3902
麦	-3903
骨	-3904
柔	-3905
琴	-3906
贝	-3907
脚	-3908
既	-3909
厚	-3910
禁	-3911
饼	-3912
伞	-3913
绕	-3914
齐	-3915
墨	-3916
奔	-3917
船	-3918
孙	-3919
摇	-3920
途	-3921
郎	-3922
雷	-3923
怕	-3924
悬	-3925
叹	-3926
镜	-3927
à	-3928
塞	-3929
對	-3930
族	-3931
皆	-3932
恩	-3933
耳	-3934
尾	-3935
來	-3936
促	-3937
肥	-3938
咪	-3939
伯	-3940
谱	-3941
於	-3942
础	-3943
宋	-3944
惠	-3945
會	-3946
盘	-3947
稍	-3948
党	-3949
冲	-3950
⁄	-3951
韩	-3952
幕	-3953
惫	-3954
爆	-3955
癌	-3956
碳	-3957
】	-3958
淡	-3959
奏	-3960
批	-3961
督	-3962
【	-3963
稳	-3964
佛	-3965
吴	-3966
竞	-3967
亿	-3968
拍	-3969
瑞	-3970
透	-3971
宙	-3972
招	-3973
鲸	-3974
耍	-3975
闪	-3976
猜	-3977
库	-3978
弹	-3979
授	-3980
萝	-3981
鹅	-3982
仪	-3983
睛	-3984
麻	-3985
婚	-3986
耀	-3987
隔	-3988
丹	-3989
壮	-3990
抗	-3991
荡	-3992
倦	-3993
钢	-3994
串	-3995
埃	-3996
堪	-3997
轮	-3998
寄	-3999
诸	-4000
泪	-4001
顶	-4002
梁	-4003
秦	-4004
晓	-4005
陵	-4006
颗	-4007
宽	-4008
挥	-4009
握	-4010
杜	-4011
逊	-4012
庄	-4013
敬	-4014
泉	-4015
舟	-4016
菲	-4017
慧	-4018
狮	-4019
莱	-4020
羊	-4021
培	-4022
甲	-4023
乃	-4024
垂	-4025
逛	-4026
倍	-4027
阵	-4028
鹿	-4029
潜	-4030
瓶	-4031
虫	-4032
這	-4033
â	-4034
徐	-4035
俗	-4036
熟	-4037
霞	-4038
î	-4039
予	-4040
暮	-4041
凡	-4042
學	-4043
葡	-4044
裙	-4045
赶	-4046
郁	-4047
链	-4048
鲁	-4049
萄	-4050
貌	-4051
靠	-4052
损	-4053
晒	-4054
荷	-4055
览	-4056
魔	-4057
固	-4058
烦	-4059
托	-4060
址	-4061
蜜	-4062
穷	-4063
绘	-4064
诺	-4065
燃	-4066
缘	-4067
侯	-4068
赋	-4069
彼	-4070
港	-4071
肺	-4072
蝶	-4073
兔	-4074
忽	-4075
沟	-4076
呆	-4077
尺	-4078
毕	-4079
艳	-4080
吾	-4081
孔	-4082
斜	-4083
迁	-4084
迅	-4085
妻	-4086
盟	-4087
薄	-4088
厨	-4089
肴	-4090
荒	-4091
净	-4092
摩	-4093
甚	-4094
辛	-4095
俄	-4096
娱	-4097
审	-4098
廷	-4099
炸	-4100
疏	-4101
腾	-4102
苍	-4103
诏	-4104
匹	-4105
席	-4106
戴	-4107
羽	-4108
脏	-4109
跃	-4110
逻	-4111
寺	-4112
恒	-4113
旗	-4114
卜	-4115
梨	-4116
怖	-4117
逢	-4118
å	-4119
爸	-4120
狂	-4121
甘	-4122
递	-4123
魂	-4124
舍	-4125
障	-4126
丁	-4127
恰	-4128
曼	-4129
横	-4130
肤	-4131
茫	-4132
乌	-4133
吟	-4134
岩	-4135
恨	-4136
朱	-4137
税	-4138
遣	-4139
闹	-4140
妇	-4141
妹	-4142
币	-4143
惜	-4144
瑟	-4145
锦	-4146
阶	-4147
墙	-4148
挺	-4149
稿	-4150
衫	-4151
贫	-4152
侍	-4153
占	-4154
卧	-4155
逆	-4156
遥	-4157
郡	-4158
鉴	-4159
哲	-4160
屏	-4161
旋	-4162
耐	-4163
亭	-4164
扩	-4165
猪	-4166
發	-4167
鼻	-4168
沮	-4169
遭	-4170
钓	-4171
召	-4172
壁	-4173
汁	-4174
卢	-4175
御	-4176
暂	-4177
偶	-4178
凌	-4179
厌	-4180
谋	-4181
動	-4182
央	-4183
怒	-4184
猎	-4185
粮	-4186
蒙	-4187
豪	-4188
兄	-4189
怪	-4190
昏	-4191
逃	-4192
剩	-4193
夷	-4194
時	-4195
裁	-4196
贡	-4197
剑	-4198
迫	-4199
估	-4200
刷	-4201
姐	-4202
涯	-4203
潺	-4204
盐	-4205
袖	-4206
贸	-4207
循	-4208
矶	-4209
翔	-4210
芒	-4211
凤	-4212
徒	-4213
揭	-4214
杉	-4215
枯	-4216
殊	-4217
敏	-4218
漠	-4219
腿	-4220
邀	-4221
仰	-4222
厘	-4223
旁	-4224
昂	-4225
架	-4226
灭	-4227
番	-4228
脱	-4229
鸭	-4230
á	-4231
è	-4232
伟	-4233
孝	-4234
弱	-4235
搭	-4236
歧	-4237
盈	-4238
蜂	-4239
骤	-4240
堵	-4241
氛	-4242
辣	-4243
仁	-4244
艾	-4245
芬	-4246
奉	-4247
咨	-4248
夺	-4249
硬	-4250
肠	-4251
锅	-4252
雾	-4253
呈	-4254
宿	-4255
混	-4256
恋	-4257
竟	-4258
践	-4259
酱	-4260
抓	-4261
敌	-4262
涨	-4263
翩	-4264
肖	-4265
辉	-4266
殿	-4267
脸	-4268
莎	-4269
贯	-4270
饰	-4271
储	-4272
凯	-4273
啼	-4274
庙	-4275
斑	-4276
阁	-4277
鬼	-4278
魏	-4279
鹤	-4280
®	-4281
拒	-4282
覆	-4283
贤	-4284
赠	-4285
厉	-4286
携	-4287
饿	-4288
兼	-4289
厂	-4290
沿	-4291
陪	-4292
Ä	-4293
岗	-4294
洪	-4295
烂	-4296
烹	-4297
耗	-4298
邻	-4299
咏	-4300
宴	-4301
炒	-4302
芝	-4303
衬	-4304
讯	-4305
丑	-4306
搞	-4307
触	-4308
贴	-4309
暑	-4310
卿	-4311
档	-4312
郑	-4313
哇	-4314
蝉	-4315
辅	-4316
页	-4317
£	-4318
í	-4319
’	-4320
冥	-4321
寸	-4322
灰	-4323
祈	-4324
蛇	-4325
踏	-4326
̈	-4327
卓	-4328
橘	-4329
绵	-4330
蝴	-4331
袭	-4332
裤	-4333
谊	-4334
嗯	-4335
踪	-4336
國	-4337
塘	-4338
惑	-4339
抵	-4340
挂	-4341
挤	-4342
溢	-4343
滚	-4344
滴	-4345
稀	-4346
凭	-4347
嘉	-4348
慰	-4349
泽	-4350
渴	-4351
現	-4352
祥	-4353
账	-4354
ë	-4355
‘	-4356
僧	-4357
援	-4358
涛	-4359
爵	-4360
瑰	-4361
侵	-4362
擎	-4363
曹	-4364
澳	-4365
脂	-4366
薯	-4367
阔	-4368
雁	-4369
厦	-4370
岂	-4371
懒	-4372
椒	-4373
猴	-4374
胁	-4375
铺	-4376
颈	-4377
勃	-4378
匆	-4379
帽	-4380
捕	-4381
捷	-4382
煮	-4383
豹	-4384
邦	-4385
泥	-4386
液	-4387
玄	-4388
阻	-4389
慈	-4390
桂	-4391
洒	-4392
津	-4393
種	-4394
茄	-4395
踢	-4396
辰	-4397
怜	-4398
艰	-4399
伐	-4400
哭	-4401
圈	-4402
柠	-4403
泡	-4404
罚	-4405
葱	-4406
锁	-4407
隆	-4408
¥	-4409
勒	-4410
宏	-4411
經	-4412
纯	-4413
開	-4414
馀	-4415
佩	-4416
刀	-4417
崇	-4418
棋	-4419
檬	-4420
毫	-4421
汗	-4422
疼	-4423
罢	-4424
违	-4425
饪	-4426
怨	-4427
抚	-4428
栖	-4429
與	-4430
诀	-4431
遵	-4432
俱	-4433
忍	-4434
浩	-4435
渡	-4436
租	-4437
董	-4438
赤	-4439
铃	-4440
饥	-4441
ñ	-4442
刑	-4443
振	-4444
丘	-4445
倚	-4446
吏	-4447
夸	-4448
愈	-4449
椅	-4450
涵	-4451
畔	-4452
钥	-4453
關	-4454
帆	-4455
擅	-4456
機	-4457
漏	-4458
莺	-4459
衰	-4460
迈	-4461
郊	-4462
陶	-4463
ð	-4464
昌	-4465
矣	-4466
莲	-4467
蒂	-4468
虹	-4469
話	-4470
誉	-4471
赐	-4472
Ê	-4473
凝	-4474
哀	-4475
毁	-4476
腊	-4477
雕	-4478
μ	-4479
匙	-4480
惟	-4481
淮	-4482
谐	-4483
驱	-4484
扫	-4485
插	-4486
昔	-4487
牵	-4488
甫	-4489
肌	-4490
»	-4491
妆	-4492
姿	-4493
昆	-4494
浅	-4495
玫	-4496
翅	-4497
詞	-4498
旱	-4499
瓦	-4500
眉	-4501
兮	-4502
懈	-4503
押	-4504
間	-4505
颂	-4506
侧	-4507
剪	-4508
盗	-4509
說	-4510
跨	-4511
酷	-4512
鲨	-4513
井	-4514
仇	-4515
仲	-4516
岭	-4517
悉	-4518
扰	-4519
棕	-4520
菌	-4521
雀	-4522
岳	-4523
翁	-4524
́	-4525
允	-4526
吐	-4527
呀	-4528
孟	-4529
惧	-4530
扶	-4531
攀	-4532
柿	-4533
署	-4534
莉	-4535
赖	-4536
驰	-4537
寞	-4538
廉	-4539
渔	-4540
體	-4541
乾	-4542
唤	-4543
桑	-4544
涌	-4545
熬	-4546
磨	-4547
腐	-4548
菊	-4549
菠	-4550
術	-4551
¿	-4552
坡	-4553
帘	-4554
弗	-4555
胞	-4556
蒸	-4557
郭	-4558
扎	-4559
氣	-4560
牧	-4561
彻	-4562
慎	-4563
扣	-4564
滨	-4565
狐	-4566
箭	-4567
胆	-4568
胸	-4569
茂	-4570
贺	-4571
赎	-4572
龟	-4573
偷	-4574
坛	-4575
弦	-4576
祸	-4577
習	-4578
胖	-4579
伏	-4580
册	-4581
夹	-4582
罩	-4583
語	-4584
讶	-4585
閒	-4586
¢	-4587
伙	-4588
俊	-4589
圳	-4590
拓	-4591
沈	-4592
矿	-4593
邪	-4594
陷	-4595
颠	-4596
ä	-4597
並	-4598
堆	-4599
滋	-4600
腰	-4601
茨	-4602
鸿	-4603
¶	-4604
仔	-4605
咳	-4606
弄	-4607
恢	-4608
汝	-4609
纤	-4610
绽	-4611
請	-4612
伍	-4613
届	-4614
拖	-4615
拯	-4616
贼	-4617
逼	-4618
	-4619
催	-4620
帅	-4621
弯	-4622
掩	-4623
狼	-4624
猛	-4625
瑶	-4626
逝	-4627
Ð	-4628
宅	-4629
湾	-4630
鳄	-4631
齿	-4632
ã	-4633
乙	-4634
寓	-4635
巾	-4636
幼	-4637
恭	-4638
旦	-4639
祭	-4640
荫	-4641
贷	-4642
赴	-4643
铅	-4644
饱	-4645
函	-4646
啤	-4647
愤	-4648
湘	-4649
禅	-4650
综	-4651
赫	-4652
霍	-4653
ê	-4654
ì	-4655
丢	-4656
剂	-4657
悟	-4658
應	-4659
戒	-4660
摆	-4661
盒	-4662
绣	-4663
變	-4664
豚	-4665
闷	-4666
馨	-4667
¬	-4668
Ï	-4669
丛	-4670
叙	-4671
奈	-4672
娜	-4673
尿	-4674
屈	-4675
役	-4676
晖	-4677
樂	-4678
浴	-4679
滿	-4680
燥	-4681
嫌	-4682
碎	-4683
驻	-4684
ò	-4685
ó	-4686
伸	-4687
撑	-4688
柏	-4689
瞬	-4690
秒	-4691
仓	-4692
冻	-4693
凋	-4694
崖	-4695
枕	-4696
汪	-4697
盆	-4698
蹈	-4699
叔	-4700
啦	-4701
慨	-4702
敲	-4703
欺	-4704
炉	-4705
粗	-4706
纵	-4707
纹	-4708
绳	-4709
芦	-4710
贾	-4711
ö	-4712
宰	-4713
恼	-4714
慕	-4715
抑	-4716
碑	-4717
苔	-4718
Î	-4719
ï	-4720
丈	-4721
兽	-4722
嗽	-4723
姑	-4724
巢	-4725
昭	-4726
杏	-4727
浸	-4728
畏	-4729
瘦	-4730
谦	-4731
豫	-4732
贪	-4733
題	-4734
侣	-4735
卉	-4736
卒	-4737
呗	-4738
恤	-4739
猩	-4740
碍	-4741
笼	-4742
聘	-4743
讓	-4744
逸	-4745
遂	-4746
麼	-4747
侠	-4748
啸	-4749
數	-4750
毅	-4751
浦	-4752
渠	-4753
煎	-4754
轩	-4755
邑	-4756
­	-4757
喉	-4758
娘	-4759
悄	-4760
沒	-4761
無	-4762
缀	-4763
蓬	-4764
過	-4765
Ã	-4766
Ö	-4767
丞	-4768
截	-4769
扮	-4770
筹	-4771
谨	-4772
̄	-4773
傲	-4774
壶	-4775
婆	-4776
碗	-4777
肪	-4778
陌	-4779
壤	-4780
娃	-4781
將	-4782
抢	-4783
樱	-4784
沧	-4785
狱	-4786
珊	-4787
禽	-4788
給	-4789
舌	-4790
襄	-4791
讽	-4792
邓	-4793
電	-4794
鲍	-4795
兹	-4796
悚	-4797
搬	-4798
耕	-4799
荆	-4800
裕	-4801
進	-4802
阐	-4803
骄	-4804
愚	-4805
扑	-4806
灿	-4807
粒	-4808
躺	-4809
È	-4810
ç	-4811
冗	-4812
叛	-4813
叠	-4814
寥	-4815
柯	-4816
琼	-4817
翼	-4818
诞	-4819
辈	-4820
馈	-4821
魅	-4822
¤	-4823
奴	-4824
崩	-4825
扇	-4826
枪	-4827
柴	-4828
業	-4829
歡	-4830
肝	-4831
菇	-4832
裹	-4833
該	-4834
钻	-4835
铜	-4836
雇	-4837
«	-4838
É	-4839
凄	-4840
婉	-4841
悔	-4842
挖	-4843
掘	-4844
撒	-4845
晶	-4846
沃	-4847
涂	-4848
碰	-4849
糊	-4850
肃	-4851
舱	-4852
蚁	-4853
鹰	-4854
點	-4855
Â	-4856
̧	-4857
乒	-4858
俯	-4859
吕	-4860
墓	-4861
峡	-4862
弥	-4863
撞	-4864
泄	-4865
脆	-4866
裂	-4867
跌	-4868
轨	-4869
辨	-4870
遮	-4871
е	-4872
儒	-4873
喧	-4874
尖	-4875
彭	-4876
浆	-4877
渊	-4878
溃	-4879
祠	-4880
議	-4881
資	-4882
×	-4883
劲	-4884
吁	-4885
問	-4886
尉	-4887
庸	-4888
怡	-4889
拳	-4890
斋	-4891
框	-4892
痕	-4893
粘	-4894
茅	-4895
蛙	-4896
趟	-4897
酪	-4898
韦	-4899
鸥	-4900
鸦	-4901
§	-4902
傍	-4903
券	-4904
咸	-4905
哉	-4906
壳	-4907
拌	-4908
樣	-4909
氢	-4910
淘	-4911
烁	-4912
焉	-4913
腹	-4914
辱	-4915
钩	-4916
鹦	-4917
±	-4918
Ò	-4919
嘴	-4920
婴	-4921
梧	-4922
漾	-4923
澄	-4924
碌	-4925
肩	-4926
膀	-4927
蘑	-4928
觅	-4929
霸	-4930
颖	-4931
鹉	-4932
Ó	-4933
割	-4934
劝	-4935
務	-4936
嗨	-4937
姜	-4938
嫩	-4939
愛	-4940
杭	-4941
枚	-4942
浏	-4943
湛	-4944
潭	-4945
熙	-4946
胃	-4947
胎	-4948
袁	-4949
陋	-4950
崔	-4951
戈	-4952
撼	-4953
擦	-4954
桶	-4955
禹	-4956
篱	-4957
颐	-4958
劫	-4959
吞	-4960
咙	-4961
咬	-4962
囚	-4963
宵	-4964
履	-4965
從	-4966
栏	-4967
烘	-4968
爷	-4969
琳	-4970
璃	-4971
確	-4972
禄	-4973
筋	-4974
羞	-4975
阑	-4976
霄	-4977
凶	-4978
姚	-4979
庞	-4980
彦	-4981
徽	-4982
據	-4983
狸	-4984
環	-4985
盎	-4986
稻	-4987
衔	-4988
诈	-4989
谚	-4990
達	-4991
¡	-4992
ý	-4993
乓	-4994
佐	-4995
呵	-4996
契	-4997
拾	-4998
撤	-4999
斩	-5000
決	-5001
衷	-5002
贞	-5003
赚	-5004
辩	-5005
風	-5006
宛	-5007
抒	-5008
昼	-5009
械	-5010
沐	-5011
浙	-5012
焰	-5013
矩	-5014
竭	-5015
笛	-5016
腻	-5017
茸	-5018
醋	-5019
饲	-5020
倡	-5021
债	-5022
庐	-5023
弘	-5024
愧	-5025
斤	-5026
旷	-5027
朔	-5028
栽	-5029
浑	-5030
涧	-5031
玻	-5032
偿	-5033
吨	-5034
吵	-5035
喷	-5036
噪	-5037
寫	-5038
巷	-5039
帕	-5040
慷	-5041
摧	-5042
摸	-5043
杖	-5044
渺	-5045
潇	-5046
澈	-5047
烛	-5048
艇	-5049
薛	-5050
裡	-5051
誓	-5052
谣	-5053
颁	-5054
丙	-5055
咱	-5056
拘	-5057
摔	-5058
桐	-5059
梳	-5060
歇	-5061
泣	-5062
苑	-5063
藤	-5064
計	-5065
鼎	-5066
傅	-5067
削	-5068
嬉	-5069
宪	-5070
寇	-5071
帐	-5072
惨	-5073
捉	-5074
梯	-5075
瓣	-5076
簡	-5077
膏	-5078
葛	-5079
裴	-5080
辟	-5081
锋	-5082
黛	-5083
Á	-5084
Ç	-5085
÷	-5086
а	-5087
抛	-5088
掠	-5089
曦	-5090
殖	-5091
涕	-5092
芹	-5093
虾	-5094
蝠	-5095
辽	-5096
Ô	-5097
乞	-5098
匀	-5099
呃	-5100
堤	-5101
娇	-5102
寡	-5103
帖	-5104
朴	-5105
棵	-5106
榜	-5107
沸	-5108
涩	-5109
祀	-5110
绚	-5111
蓉	-5112
蔚	-5113
蝙	-5114
論	-5115
颇	-5116
Í	-5117
æ	-5118
尸	-5119
曳	-5120
柱	-5121
殷	-5122
沾	-5123
溯	-5124
疆	-5125
缕	-5126
蒜	-5127
蜀	-5128
許	-5129
钦	-5130
骗	-5131
仆	-5132
勿	-5133
喵	-5134
坤	-5135
巡	-5136
戊	-5137
搅	-5138
栋	-5139
淀	-5140
瞻	-5141
葬	-5142
蕾	-5143
薪	-5144
н	-5145
→	-5146
凑	-5147
哎	-5148
嚣	-5149
坠	-5150
場	-5151
姬	-5152
惬	-5153
惰	-5154
戰	-5155
扁	-5156
杆	-5157
熱	-5158
結	-5159
肿	-5160
萦	-5161
蚂	-5162
詹	-5163
酬	-5164
鬓	-5165
鸾	-5166
Ì	-5167
þ	-5168
伪	-5169
屿	-5170
峻	-5171
歷	-5172
淹	-5173
煌	-5174
狭	-5175
眺	-5176
腔	-5177
膜	-5178
虐	-5179
虞	-5180
襟	-5181
铸	-5182
锡	-5183
阙	-5184
陽	-5185
鸽	-5186
兩	-5187
卯	-5188
妃	-5189
極	-5190
焕	-5191
纲	-5192
肚	-5193
脊	-5194
葵	-5195
蛮	-5196
蠢	-5197
谏	-5198
車	-5199
逮	-5200
長	-5201
響	-5202
À	-5203
и	-5204
亏	-5205
吊	-5206
妨	-5207
姻	-5208
拆	-5209
書	-5210
梭	-5211
橄	-5212
欠	-5213
產	-5214
窃	-5215
缠	-5216
耶	-5217
耸	-5218
肆	-5219
蚊	-5220
袅	-5221
©	-5222
亥	-5223
勋	-5224
喂	-5225
實	-5226
庚	-5227
弊	-5228
徙	-5229
榄	-5230
磁	-5231
竿	-5232
網	-5233
胀	-5234
萌	-5235
蛛	-5236
锐	-5237
饺	-5238
鳞	-5239
¦	-5240
û	-5241
俭	-5242
偈	-5243
嗣	-5244
嘛	-5245
圖	-5246
寅	-5247
後	-5248
捐	-5249
朽	-5250
棉	-5251
瀑	-5252
猿	-5253
皎	-5254
絮	-5255
羡	-5256
蒲	-5257
觀	-5258
诱	-5259
谅	-5260
躁	-5261
铭	-5262
Ú	-5263
卑	-5264
囊	-5265
垒	-5266
埋	-5267
峦	-5268
巫	-5269
庵	-5270
扔	-5271
挽	-5272
棘	-5273
檐	-5274
泼	-5275
漆	-5276
澡	-5277
當	-5278
痴	-5279
秩	-5280
筛	-5281
統	-5282
維	-5283
聲	-5284
臂	-5285
蓄	-5286
蔡	-5287
蜘	-5288
迢	-5289
陕	-5290
隶	-5291
類	-5292
Ñ	-5293
Õ	-5294
屯	-5295
巳	-5296
帶	-5297
廊	-5298
彰	-5299
捡	-5300
晦	-5301
柜	-5302
標	-5303
濟	-5304
灣	-5305
璨	-5306
禾	-5307
稽	-5308
舆	-5309
舜	-5310
艘	-5311
芙	-5312
薇	-5313
見	-5314
贬	-5315
赦	-5316
蹄	-5317
魄	-5318
Æ	-5319
Ë	-5320
ÿ	-5321
р	-5322
內	-5323
刮	-5324
寨	-5325
怅	-5326
扉	-5327
捧	-5328
旬	-5329
旺	-5330
梵	-5331
玲	-5332
璀	-5333
處	-5334
蜡	-5335
裳	-5336
辖	-5337
雍	-5338
顷	-5339
飓	-5340
麗	-5341
亩	-5342
傳	-5343
匠	-5344
吓	-5345
嗅	-5346
坞	-5347
垫	-5348
尧	-5349
強	-5350
挡	-5351
浊	-5352
滤	-5353
爪	-5354
琦	-5355
筝	-5356
義	-5357
胶	-5358
裔	-5359
試	-5360
谧	-5361
輸	-5362
辐	-5363
酿	-5364
難	-5365
饶	-5366
骂	-5367
創	-5368
咽	-5369
坊	-5370
夢	-5371
屡	-5372
弼	-5373
憾	-5374
戍	-5375
挫	-5376
潘	-5377
焙	-5378
瑚	-5379
矫	-5380
紅	-5381
绒	-5382
绮	-5383
脾	-5384
茵	-5385
設	-5386
識	-5387
诵	-5388
趁	-5389
醇	-5390
霾	-5391
顽	-5392
鹭	-5393
é	-5394
亨	-5395
喊	-5396
妮	-5397
導	-5398
抹	-5399
斐	-5400
桓	-5401
沛	-5402
溶	-5403
疯	-5404
癸	-5405
盏	-5406
秉	-5407
纱	-5408
诛	-5409
質	-5410
赔	-5411
遊	-5412
酉	-5413
韧	-5414
麟	-5415
Å	-5416
ü	-5417
冯	-5418
單	-5419
坪	-5420
妖	-5421
弓	-5422
徊	-5423
抖	-5424
淌	-5425
溜	-5426
滞	-5427
濒	-5428
焚	-5429
犀	-5430
窝	-5431
粥	-5432
約	-5433
罐	-5434
芽	-5435
門	-5436
靖	-5437
韶	-5438
骚	-5439
俩	-5440
價	-5441
厕	-5442
哑	-5443
壬	-5444
尹	-5445
惩	-5446
戌	-5447
戚	-5448
拨	-5449
挪	-5450
梢	-5451
榴	-5452
樽	-5453
渭	-5454
牡	-5455
狩	-5456
瓷	-5457
盼	-5458
耻	-5459
蔓	-5460
蔽	-5461
迭	-5462
ß	-5463
о	-5464
參	-5465
叉	-5466
唇	-5467
嘿	-5468
庶	-5469
徘	-5470
徵	-5471
擁	-5472
敕	-5473
棠	-5474
椎	-5475
牢	-5476
獨	-5477
砂	-5478
篷	-5479
罕	-5480
翱	-5481
聽	-5482
肢	-5483
蹲	-5484
躲	-5485
驗	-5486
乍	-5487
勾	-5488
厥	-5489
奢	-5490
妾	-5491
崛	-5492
惹	-5493
戎	-5494
挚	-5495
挣	-5496
棹	-5497
橡	-5498
沁	-5499
澹	-5500
灌	-5501
炫	-5502
缤	-5503
聆	-5504
臭	-5505
贩	-5506
霭	-5507
預	-5508
』	-5509
兆	-5510
冢	-5511
區	-5512
圭	-5513
夠	-5514
宦	-5515
尋	-5516
岐	-5517
峨	-5518
恍	-5519
惭	-5520
慌	-5521
搏	-5522
晏	-5523
椰	-5524
浇	-5525
渚	-5526
準	-5527
煤	-5528
琐	-5529
砖	-5530
硕	-5531
節	-5532
膳	-5533
萍	-5534
蜥	-5535
衍	-5536
贱	-5537
锤	-5538
隋	-5539
鞭	-5540
颤	-5541
鹏	-5542
黯	-5543
	-5544
ø	-5545
с	-5546
仑	-5547
侦	-5548
勉	-5549
啥	-5550
奠	-5551
孕	-5552
寐	-5553
嵩	-5554
巅	-5555
帷	-5556
揽	-5557
敞	-5558
暇	-5559
枉	-5560
汀	-5561
浚	-5562
涟	-5563
滔	-5564
爾	-5565
甸	-5566
盲	-5567
砍	-5568
窄	-5569
缝	-5570
膨	-5571
萋	-5572
薰	-5573
袍	-5574
覺	-5575
輕	-5576
逍	-5577
钞	-5578
險	-5579
õ	-5580
т	-5581
『	-5582
刊	-5583
劾	-5584
匿	-5585
員	-5586
塌	-5587
廣	-5588
忌	-5589
態	-5590
旌	-5591
東	-5592
枢	-5593
梗	-5594
滥	-5595
漪	-5596
瀚	-5597
稼	-5598
穴	-5599
蕃	-5600
藝	-5601
蟹	-5602
袜	-5603
詩	-5604
轿	-5605
鸵	-5606
Ù	-5607
ú	-5608
д	-5609
丸	-5610
倩	-5611
冤	-5612
凰	-5613
卦	-5614
吠	-5615
垣	-5616
壑	-5617
奸	-5618
姨	-5619
嫁	-5620
孰	-5621
師	-5622
怯	-5623
掀	-5624
斥	-5625
晕	-5626
窦	-5627
箫	-5628
簿	-5629
細	-5630
肾	-5631
芜	-5632
藍	-5633
蜴	-5634
護	-5635
讼	-5636
購	-5637
钉	-5638
靡	-5639
ù	-5640
仕	-5641
冉	-5642
嗎	-5643
嗟	-5644
嘲	-5645
妍	-5646
娥	-5647
幫	-5648
悍	-5649
憎	-5650
柚	-5651
株	-5652
檀	-5653
沥	-5654
沫	-5655
灼	-5656
煦	-5657
礁	-5658
笺	-5659
筵	-5660
粹	-5661
绸	-5662
缪	-5663
聞	-5664
荔	-5665
虏	-5666
褒	-5667
觞	-5668
認	-5669
轴	-5670
遛	-5671
邊	-5672
醫	-5673
鹃	-5674
侮	-5675
僵	-5676
冈	-5677
刃	-5678
厄	-5679
嚼	-5680
坟	-5681
峭	-5682
帜	-5683
晃	-5684
晤	-5685
槛	-5686
炭	-5687
狄	-5688
睦	-5689
磅	-5690
稠	-5691
稷	-5692
積	-5693
粟	-5694
粤	-5695
羁	-5696
腺	-5697
蛾	-5698
谒	-5699
蹦	-5700
逾	-5701
還	-5702
酵	-5703
霁	-5704
驯	-5705
∶	-5706
◇	-5707
偃	-5708
僻	-5709
刹	-5710
剥	-5711
呐	-5712
咕	-5713
奂	-5714
妥	-5715
彙	-5716
戶	-5717
抬	-5718
拙	-5719
昙	-5720
朕	-5721
條	-5722
毋	-5723
毯	-5724
氮	-5725
淳	-5726
溫	-5727
漱	-5728
矮	-5729
窥	-5730
終	-5731
總	-5732
纶	-5733
萎	-5734
蕊	-5735
蟒	-5736
複	-5737
負	-5738
邃	-5739
酌	-5740
陛	-5741
驚	-5742
驴	-5743
Ø	-5744
亞	-5745
佣	-5746
別	-5747
叮	-5748
嗜	-5749
屠	-5750
岚	-5751
巍	-5752
挠	-5753
昵	-5754
氯	-5755
涝	-5756
澎	-5757
澜	-5758
烫	-5759
牟	-5760
琅	-5761
璧	-5762
畴	-5763
窟	-5764
級	-5765
組	-5766
續	-5767
纬	-5768
缅	-5769
缸	-5770
耿	-5771
茎	-5772
蘋	-5773
評	-5774
诲	-5775
邵	-5776
隨	-5777
霏	-5778
驿	-5779
в	-5780
偕	-5781
優	-5782
厢	-5783
叟	-5784
啰	-5785
喘	-5786
嗡	-5787
掷	-5788
斓	-5789
斷	-5790
昧	-5791
栗	-5792
淑	-5793
漉	-5794
炳	-5795
炽	-5796
熏	-5797
珑	-5798
碱	-5799
穹	-5800
竖	-5801
簇	-5802
绛	-5803
缆	-5804
聯	-5805
膝	-5806
芭	-5807
茏	-5808
荀	-5809
蓑	-5810
藉	-5811
蜓	-5812
蟾	-5813
視	-5814
調	-5815
谥	-5816
豐	-5817
貓	-5818
踩	-5819
較	-5820
運	-5821
適	-5822
邯	-5823
钗	-5824
铝	-5825
陀	-5826
靜	-5827
飒	-5828
麓	-5829
м	-5830
□	-5831
侬	-5832
備	-5833
冀	-5834
剖	-5835
勺	-5836
吼	-5837
嗦	-5838
嘶	-5839
坎	-5840
堅	-5841
堕	-5842
奕	-5843
寝	-5844
尬	-5845
尴	-5846
張	-5847
敛	-5848
斌	-5849
柄	-5850
柑	-5851
泌	-5852
珂	-5853
畫	-5854
皑	-5855
碟	-5856
穗	-5857
粼	-5858
興	-5859
芯	-5860
荧	-5861
萬	-5862
虔	-5863
蜻	-5864
螺	-5865
裘	-5866
親	-5867
谭	-5868
豁	-5869
責	-5870
費	-5871
遐	-5872
選	-5873
邢	-5874
郢	-5875
钮	-5876
闰	-5877
陇	-5878
隙	-5879
霓	-5880
骇	-5881
骏	-5882
ô	-5883
兑	-5884
則	-5885
哗	-5886
圃	-5887
坑	-5888
垄	-5889
墅	-5890
孜	-5891
屐	-5892
屬	-5893
巩	-5894
彬	-5895
戲	-5896
扭	-5897
擊	-5898
攘	-5899
斛	-5900
榆	-5901
槐	-5902
樊	-5903
樵	-5904
汲	-5905
汴	-5906
沪	-5907
泾	-5908
涤	-5909
渗	-5910
湃	-5911
熠	-5912
琢	-5913
矢	-5914
稚	-5915
笋	-5916
綠	-5917
線	-5918
纺	-5919
翘	-5920
脩	-5921
腕	-5922
腦	-5923
臾	-5924
舅	-5925
茗	-5926
蚕	-5927
褐	-5928
訊	-5929
買	-5930
赌	-5931
辜	-5932
闺	-5933
頭	-5934
鹊	-5935
俘	-5936
俚	-5937
傻	-5938
冶	-5939
匈	-5940
吻	-5941
喃	-5942
嗓	-5943
報	-5944
娑	-5945
專	-5946
彗	-5947
惕	-5948
抄	-5949
拈	-5950
捞	-5951
棍	-5952
汹	-5953
涣	-5954
測	-5955
溺	-5956
漓	-5957
濡	-5958
灶	-5959
熹	-5960
獲	-5961
瘤	-5962
瘫	-5963
皋	-5964
盹	-5965
睁	-5966
睿	-5967
砌	-5968
硫	-5969
窍	-5970
绎	-5971
膺	-5972
舰	-5973
萤	-5974
藕	-5975
蛟	-5976
轼	-5977
迥	-5978
遁	-5979
邺	-5980
酋	-5981
酣	-5982
酥	-5983
钠	-5984
锥	-5985
颅	-5986
颓	-5987
鹳	-5988
л	-5989
乖	-5990
侈	-5991
僅	-5992
凿	-5993
匪	-5994
卻	-5995
叩	-5996
嚴	-5997
妄	-5998
妩	-5999
娶	-6000
婢	-6001
廿	-6002
彤	-6003
悼	-6004
摊	-6005
擇	-6006
擢	-6007
旭	-6008
桨	-6009
滕	-6010
濃	-6011
瑕	-6012
疮	-6013
痰	-6014
眸	-6015
瞩	-6016
砥	-6017
砸	-6018
笨	-6019
绰	-6020
羌	-6021
胥	-6022
莽	-6023
菱	-6024
葫	-6025
蝎	-6026
讀	-6027
诣	-6028
谎	-6029
邹	-6030
釋	-6031
闯	-6032
闽	-6033
霖	-6034
養	-6035
骼	-6036
Ý	-6037
к	-6038
剔	-6039
劃	-6040
卤	-6041
嘈	-6042
嘹	-6043
噬	-6044
奚	-6045
婪	-6046
寰	-6047
庇	-6048
恕	-6049
惆	-6050
拱	-6051
掏	-6052
揉	-6053
擒	-6054
敷	-6055
斧	-6056
暝	-6057
曝	-6058
朦	-6059
杳	-6060
構	-6061
汰	-6062
沽	-6063
浣	-6064
渝	-6065
渤	-6066
炬	-6067
炮	-6068
牲	-6069
狡	-6070
琪	-6071
璋	-6072
皂	-6073
砚	-6074
祇	-6075
祚	-6076
笠	-6077
簧	-6078
簪	-6079
胧	-6080
脖	-6081
腌	-6082
腳	-6083
苇	-6084
萃	-6085
蒋	-6086
藻	-6087
蚀	-6088
衙	-6089
討	-6090
讳	-6091
谬	-6092
跋	-6093
轰	-6094
锄	-6095
阜	-6096
靴	-6097
飛	-6098
館	-6099
驳	-6100
驼	-6101
魁	-6102
魚	-6103
鲤	-6104
鸳	-6105
黏	-6106
仞	-6107
佑	-6108
係	-6109
倘	-6110
卮	-6111
卸	-6112
啾	-6113
夭	-6114
妒	-6115
娟	-6116
層	-6117
嵌	-6118
徉	-6119
惶	-6120
戮	-6121
曙	-6122
梓	-6123
棱	-6124
椽	-6125
榻	-6126
泠	-6127
炖	-6128
烯	-6129
痪	-6130
皱	-6131
瞌	-6132
稱	-6133
窜	-6134
緒	-6135
練	-6136
绻	-6137
缥	-6138
缱	-6139
翳	-6140
耽	-6141
舉	-6142
苟	-6143
茹	-6144
藜	-6145
藩	-6146
蟠	-6147
誤	-6148
課	-6149
證	-6150
诰	-6151
跹	-6152
迄	-6153
邱	-6154
钧	-6155
闾	-6156
陡	-6157
隧	-6158
霉	-6159
靈	-6160
鞍	-6161
Ü	-6162
ы	-6163
•	-6164
伶	-6165
俏	-6166
俟	-6167
凛	-6168
凸	-6169
募	-6170
咫	-6171
哮	-6172
嘻	-6173
園	-6174
坝	-6175
垠	-6176
婿	-6177
嫖	-6178
嫦	-6179
宸	-6180
寶	-6181
帛	-6182
幡	-6183
廓	-6184
徜	-6185
怠	-6186
惮	-6187
慮	-6188
擔	-6189
斟	-6190
昊	-6191
晁	-6192
桔	-6193
況	-6194
泻	-6195
涎	-6196
淅	-6197
烽	-6198
煞	-6199
猕	-6200
琛	-6201
瓢	-6202
瓮	-6203
疹	-6204
痘	-6205
皓	-6206
眷	-6207
瞰	-6208
硅	-6209
磋	-6210
磬	-6211
礴	-6212
籁	-6213
绥	-6214
绶	-6215
缭	-6216
翡	-6217
肇	-6218
腥	-6219
華	-6220
蔷	-6221
號	-6222
衢	-6223
製	-6224
譬	-6225
谪	-6226
谴	-6227
轧	-6228
鎮	-6229
雖	-6230
雜	-6231
颊	-6232
飯	-6233
馒	-6234
馬	-6235
骋	-6236
骥	-6237
骸	-6238
鳌	-6239
龚	-6240
	-6241
○	-6242
伫	-6243
佞	-6244
佥	-6245
侃	-6246
俞	-6247
兀	-6248
匡	-6249
協	-6250
呕	-6251
咒	-6252
啃	-6253
嘎	-6254
嶂	-6255
慵	-6256
憂	-6257
憩	-6258
懦	-6259
扯	-6260
捣	-6261
捲	-6262
搁	-6263
撕	-6264
撷	-6265
暹	-6266
棚	-6267
涡	-6268
淫	-6269
渥	-6270
濛	-6271
濠	-6272
爭	-6273
狀	-6274
盡	-6275
睹	-6276
瞳	-6277
砺	-6278
箕	-6279
絡	-6280
綵	-6281
編	-6282
缚	-6283
肘	-6284
胤	-6285
臧	-6286
芸	-6287
茁	-6288
荻	-6289
菩	-6290
蕲	-6291
蝗	-6292
記	-6293
诃	-6294
躬	-6295
躯	-6296
遽	-6297
銀	-6298
鍵	-6299
锯	-6300
闵	-6301
隅	-6302
隍	-6303
雲	-6304
韬	-6305
須	-6306
領	-6307
颍	-6308
飨	-6309
駕	-6310
驭	-6311
髓	-6312
黍	-6313
黜	-6314
я	-6315
佗	-6316
侄	-6317
俐	-6318
俨	-6319
俸	-6320
倫	-6321
冕	-6322
劇	-6323
吝	-6324
啄	-6325
啟	-6326
喀	-6327
喇	-6328
喔	-6329
噜	-6330
嚏	-6331
圍	-6332
墩	-6333
奎	-6334
屑	-6335
岑	-6336
崎	-6337
崭	-6338
幄	-6339
幢	-6340
彝	-6341
慣	-6342
拭	-6343
撩	-6344
曜	-6345
枣	-6346
槎	-6347
樹	-6348
殇	-6349
涼	-6350
淆	-6351
湯	-6352
潦	-6353
炀	-6354
炙	-6355
烷	-6356
爰	-6357
犊	-6358
猷	-6359
玺	-6360
琉	-6361
琵	-6362
琶	-6363
異	-6364
眾	-6365
睫	-6366
祷	-6367
笙	-6368
筒	-6369
筠	-6370
筷	-6371
築	-6372
紀	-6373
繼	-6374
绅	-6375
缈	-6376
羹	-6377
聋	-6378
脅	-6379
臻	-6380
苞	-6381
蜒	-6382
蜗	-6383
蜿	-6384
裸	-6385
褪	-6386
規	-6387
谍	-6388
谟	-6389
贰	-6390
軟	-6391
轉	-6392
辇	-6393
辙	-6394
迦	-6395
遏	-6396
邈	-6397
郝	-6398
郵	-6399
鄂	-6400
阮	-6401
項	-6402
飙	-6403
饷	-6404
骞	-6405
髻	-6406
鸢	-6407
鹂	-6408
～	-6409
	-6410
	-6411
π	-6412
г	-6413
ч	-6414
亘	-6415
兜	-6416
匮	-6417
哼	-6418
唾	-6419
喱	-6420
噢	-6421
墟	-6422
壞	-6423
奮	-6424
娄	-6425
峥	-6426
悴	-6427
憧	-6428
戟	-6429
拦	-6430
挟	-6431
搔	-6432
攒	-6433
桩	-6434
楠	-6435
楷	-6436
榛	-6437
橱	-6438
歐	-6439
洽	-6440
涓	-6441
溟	-6442
滟	-6443
炊	-6444
煲	-6445
燎	-6446
營	-6447
狠	-6448
甥	-6449
畦	-6450
畿	-6451
痒	-6452
瘾	-6453
盯	-6454
瞧	-6455
禀	-6456
禮	-6457
秧	-6458
秽	-6459
穩	-6460
筇	-6461
籽	-6462
羅	-6463
羲	-6464
耘	-6465
胺	-6466
舂	-6467
莹	-6468
葩	-6469
藓	-6470
藥	-6471
衾	-6472
誠	-6473
谙	-6474
谛	-6475
赁	-6476
赃	-6477
赊	-6478
趴	-6479
辄	-6480
辍	-6481
遠	-6482
郸	-6483
銮	-6484
錯	-6485
鐘	-6486
钙	-6487
铛	-6488
锈	-6489
閱	-6490
離	-6491
鞅	-6492
駛	-6493
骁	-6494
骰	-6495
	-6496
п	-6497
у	-6498
仄	-6499
伎	-6500
俎	-6501
俾	-6502
倭	-6503
兒	-6504
凫	-6505
剌	-6506
勝	-6507
卅	-6508
吒	-6509
咆	-6510
哆	-6511
唠	-6512
嘱	-6513
坂	-6514
坳	-6515
垆	-6516
宕	-6517
岫	-6518
崧	-6519
弩	-6520
彈	-6521
恂	-6522
恣	-6523
恪	-6524
憬	-6525
扃	-6526
挨	-6527
敝	-6528
昶	-6529
暨	-6530
曬	-6531
棺	-6532
椭	-6533
橹	-6534
毡	-6535
氲	-6536
汾	-6537
沂	-6538
沓	-6539
沼	-6540
溉	-6541
滁	-6542
滇	-6543
潛	-6544
潞	-6545
熔	-6546
瑄	-6547
瑪	-6548
瑾	-6549
甄	-6550
甩	-6551
畜	-6552
療	-6553
砧	-6554
硃	-6555
磊	-6556
祁	-6557
窮	-6558
笆	-6559
篝	-6560
簟	-6561
紐	-6562
絕	-6563
绊	-6564
绑	-6565
缴	-6566
羸	-6567
胄	-6568
舔	-6569
苒	-6570
茜	-6571
荟	-6572
莪	-6573
菖	-6574
蔼	-6575
薨	-6576
蘸	-6577
謝	-6578
讚	-6579
诘	-6580
谕	-6581
賞	-6582
跤	-6583
輛	-6584
辕	-6585
迤	-6586
邸	-6587
钵	-6588
铎	-6589
陂	-6590
陟	-6591
隊	-6592
階	-6593
雏	-6594
霹	-6595
鞠	-6596
願	-6597
饯	-6598
骆	-6599
鸯	-6600
麒	-6601
黔	-6602
鼾	-6603
龍	-6604
	-6605
	-6606
―	-6607
丕	-6608
亢	-6609
偉	-6610
偎	-6611
傷	-6612
僚	-6613
勘	-6614
卞	-6615
卵	-6616
呜	-6617
呦	-6618
呱	-6619
咀	-6620
咋	-6621
咎	-6622
哩	-6623
唉	-6624
啭	-6625
嗔	-6626
嗝	-6627
噩	-6628
夙	-6629
姊	-6630
屁	-6631
屎	-6632
岖	-6633
岱	-6634
幂	-6635
幾	-6636
庾	-6637
弈	-6638
弋	-6639
怦	-6640
恬	-6641
恳	-6642
恺	-6643
悅	-6644
惚	-6645
惴	-6646
慶	-6647
懿	-6648
抉	-6649
拇	-6650
換	-6651
撮	-6652
杠	-6653
杲	-6654
柘	-6655
柬	-6656
栅	-6657
栈	-6658
桡	-6659
楫	-6660
楹	-6661
殁	-6662
殃	-6663
殉	-6664
毓	-6665
沱	-6666
淙	-6667
減	-6668
湲	-6669
溥	-6670
滂	-6671
漢	-6672
濑	-6673
濯	-6674
灞	-6675
烩	-6676
牺	-6677
犁	-6678
瘴	-6679
盂	-6680
瞥	-6681
瞪	-6682
砾	-6683
祉	-6684
祜	-6685
秃	-6686
窘	-6687
竺	-6688
笃	-6689
篆	-6690
簌	-6691
粱	-6692
糙	-6693
紛	-6694
紹	-6695
繪	-6696
纣	-6697
绾	-6698
罄	-6699
罔	-6700
罹	-6701
芍	-6702
苜	-6703
茌	-6704
莒	-6705
菰	-6706
衲	-6707
袂	-6708
褚	-6709
诩	-6710
诬	-6711
谌	-6712
谤	-6713
谯	-6714
貂	-6715
貴	-6716
赡	-6717
赣	-6718
跪	-6719
踵	-6720
逅	-6721
邂	-6722
釜	-6723
铢	-6724
铮	-6725
铲	-6726
锌	-6727
镶	-6728
阎	-6729
雌	-6730
雙	-6731
雳	-6732
馔	-6733
骊	-6734
骧	-6735
鸱	-6736
鹄	-6737
鹫	-6738
麾	-6739
黃	-6740
	-6741
Þ	-6742
・	-6743
亵	-6744
俑	-6745
僖	-6746
勞	-6747
勵	-6748
叨	-6749
哟	-6750
唧	-6751
嘘	-6752
垢	-6753
堇	-6754
塊	-6755
娆	-6756
婵	-6757
婷	-6758
媲	-6759
嫂	-6760
宮	-6761
崽	-6762
彪	-6763
恆	-6764
恸	-6765
悸	-6766
惘	-6767
愍	-6768
懋	-6769
拐	-6770
拣	-6771
捍	-6772
揣	-6773
晞	-6774
札	-6775
杞	-6776
杼	-6777
棂	-6778
榮	-6779
槁	-6780
橇	-6781
權	-6782
歙	-6783
歸	-6784
泓	-6785
泯	-6786
涅	-6787
淄	-6788
渍	-6789
渣	-6790
溅	-6791
漸	-6792
猗	-6793
猥	-6794
痿	-6795
瘀	-6796
矗	-6797
硝	-6798
祐	-6799
祗	-6800
禧	-6801
窖	-6802
窠	-6803
笳	-6804
筐	-6805
箨	-6806
範	-6807
糯	-6808
纂	-6809
纥	-6810
罡	-6811
翟	-6812
胪	-6813
胳	-6814
脯	-6815
腮	-6816
臨	-6817
芋	-6818
芥	-6819
苛	-6820
荥	-6821
莘	-6822
莞	-6823
萼	-6824
蓼	-6825
蘭	-6826
蜚	-6827
蜷	-6828
衝	-6829
袤	-6830
裝	-6831
觐	-6832
訓	-6833
詢	-6834
誼	-6835
賽	-6836
赘	-6837
踞	-6838
蹙	-6839
轲	-6840
週	-6841
酮	-6842
醴	-6843
銷	-6844
錄	-6845
钾	-6846
镕	-6847
镗	-6848
闱	-6849
闸	-6850
隗	-6851
隰	-6852
隻	-6853
顏	-6854
顯	-6855
馏	-6856
馥	-6857
驸	-6858
髦	-6859
鬆	-6860
鮮	-6861
鸠	-6862
鸪	-6863
麝	-6864
龜	-6865
😭	-6866
	-6867
●	-6868
ー	-6869
丐	-6870
佚	-6871
侨	-6872
俳	-6873
僮	-6874
劈	-6875
咯	-6876
啬	-6877
坷	-6878
執	-6879
奄	-6880
姗	-6881
婧	-6882
媛	-6883
嫔	-6884
嫣	-6885
孺	-6886
寧	-6887
屉	-6888
峤	-6889
嵘	-6890
巉	-6891
弑	-6892
弛	-6893
彷	-6894
徇	-6895
忱	-6896
忿	-6897
愫	-6898
憶	-6899
懊	-6900
懼	-6901
戛	-6902
抃	-6903
採	-6904
搖	-6905
攸	-6906
昕	-6907
暧	-6908
杵	-6909
栾	-6910
桀	-6911
桢	-6912
榈	-6913
榨	-6914
槽	-6915
樓	-6916
檔	-6917
檢	-6918
殚	-6919
殴	-6920
氤	-6921
氦	-6922
汐	-6923
汩	-6924
汶	-6925
沦	-6926
洼	-6927
涴	-6928
渎	-6929
漙	-6930
潔	-6931
爲	-6932
猾	-6933
獻	-6934
珀	-6935
