<unk>	0
<s>	0
</s>	0
<pad>	0
<user>	0
<bot>	0
<end>	0
😀	0
😃	0
😄	0
😅	0
😂	0
😗	0
😙	0
😚	0
😊	0
🙃	0
🙂	0
😑	0
😐	0
🫢	0
🤭	0
🥱	0
🤗	0
🫣	0
😱	0
🤨	0
🧐	0
😒	0
😧	0
😟	0
🙄	0
😥	0
😦	0
😮‍💨	0
😢	0
😮	0
😤	0
☹️	0
😯	0
😠	0
🙁	0
😲	0
😡	0
🫤	0
😳	0
🤬	0
😕	0
🤯	0
🥵	0
🤢	0
🤮	0
😖	0
😣	0
😰	0
😨	0
😞	0
😓	0
😋	0
✌️	0
🫲	0
🫱	0
💪	0
👏	0
👍	0
👎	0
🤜	0
🤛	0
✊	0
👊	0
🥰	0
😍	0
🤪	0
🤓	0
🤖	0
👾	0
👻	0
🙌	0
👋	0
✋	0
🤲	0
🤝	0
🙏	0
💢	0
💥	0
💯	0
❤️	0
🐶	0
🐱	0
🐭	0
🐹	0
🐰	0
🦊	0
🐻	0
🐼	0
🐨	0
🐯	0
🦁	0
🐮	0
🐷	0
🐽	0
🐸	0
🐵	0
🐔	0
🐧	0
🐦	0
🍎	0
🍌	0
🍉	0
🍓	0
🍒	0
🍇	0
🍊	0
🍋	0
🍈	0
🥭	0
🥥	0
🥝	0
🍍	0
🍠	0
🍆	0
🥕	0
🥦	0
💔	0
💌	0
💕	0
💞	0
💓	0
💗	0
💖	0
💘	0
💝	0
Tower	0
tower	0
GPT	0
Midway	0

	0
		0
<0x00>	0
<0x01>	0
<0x02>	0
<0x03>	0
<0x04>	0
<0x05>	0
<0x06>	0
<0x07>	0
<0x08>	0
<0x09>	0
<0x0A>	0
<0x0B>	0
<0x0C>	0
<0x0D>	0
<0x0E>	0
<0x0F>	0
<0x10>	0
<0x11>	0
<0x12>	0
<0x13>	0
<0x14>	0
<0x15>	0
<0x16>	0
<0x17>	0
<0x18>	0
<0x19>	0
<0x1A>	0
<0x1B>	0
<0x1C>	0
<0x1D>	0
<0x1E>	0
<0x1F>	0
<0x20>	0
<0x21>	0
<0x22>	0
<0x23>	0
<0x24>	0
<0x25>	0
<0x26>	0
<0x27>	0
<0x28>	0
<0x29>	0
<0x2A>	0
<0x2B>	0
<0x2C>	0
<0x2D>	0
<0x2E>	0
<0x2F>	0
<0x30>	0
<0x31>	0
<0x32>	0
<0x33>	0
<0x34>	0
<0x35>	0
<0x36>	0
<0x37>	0
<0x38>	0
<0x39>	0
<0x3A>	0
<0x3B>	0
<0x3C>	0
<0x3D>	0
<0x3E>	0
<0x3F>	0
<0x40>	0
<0x41>	0
<0x42>	0
<0x43>	0
<0x44>	0
<0x45>	0
<0x46>	0
<0x47>	0
<0x48>	0
<0x49>	0
<0x4A>	0
<0x4B>	0
<0x4C>	0
<0x4D>	0
<0x4E>	0
<0x4F>	0
<0x50>	0
<0x51>	0
<0x52>	0
<0x53>	0
<0x54>	0
<0x55>	0
<0x56>	0
<0x57>	0
<0x58>	0
<0x59>	0
<0x5A>	0
<0x5B>	0
<0x5C>	0
<0x5D>	0
<0x5E>	0
<0x5F>	0
<0x60>	0
<0x61>	0
<0x62>	0
<0x63>	0
<0x64>	0
<0x65>	0
<0x66>	0
<0x67>	0
<0x68>	0
<0x69>	0
<0x6A>	0
<0x6B>	0
<0x6C>	0
<0x6D>	0
<0x6E>	0
<0x6F>	0
<0x70>	0
<0x71>	0
<0x72>	0
<0x73>	0
<0x74>	0
<0x75>	0
<0x76>	0
<0x77>	0
<0x78>	0
<0x79>	0
<0x7A>	0
<0x7B>	0
<0x7C>	0
<0x7D>	0
<0x7E>	0
<0x7F>	0
<0x80>	0
<0x81>	0
<0x82>	0
<0x83>	0
<0x84>	0
<0x85>	0
<0x86>	0
<0x87>	0
<0x88>	0
<0x89>	0
<0x8A>	0
<0x8B>	0
<0x8C>	0
<0x8D>	0
<0x8E>	0
<0x8F>	0
<0x90>	0
<0x91>	0
<0x92>	0
<0x93>	0
<0x94>	0
<0x95>	0
<0x96>	0
<0x97>	0
<0x98>	0
<0x99>	0
<0x9A>	0
<0x9B>	0
<0x9C>	0
<0x9D>	0
<0x9E>	0
<0x9F>	0
<0xA0>	0
<0xA1>	0
<0xA2>	0
<0xA3>	0
<0xA4>	0
<0xA5>	0
<0xA6>	0
<0xA7>	0
<0xA8>	0
<0xA9>	0
<0xAA>	0
<0xAB>	0
<0xAC>	0
<0xAD>	0
<0xAE>	0
<0xAF>	0
<0xB0>	0
<0xB1>	0
<0xB2>	0
<0xB3>	0
<0xB4>	0
<0xB5>	0
<0xB6>	0
<0xB7>	0
<0xB8>	0
<0xB9>	0
<0xBA>	0
<0xBB>	0
<0xBC>	0
<0xBD>	0
<0xBE>	0
<0xBF>	0
<0xC0>	0
<0xC1>	0
<0xC2>	0
<0xC3>	0
<0xC4>	0
<0xC5>	0
<0xC6>	0
<0xC7>	0
<0xC8>	0
<0xC9>	0
<0xCA>	0
<0xCB>	0
<0xCC>	0
<0xCD>	0
<0xCE>	0
<0xCF>	0
<0xD0>	0
<0xD1>	0
<0xD2>	0
<0xD3>	0
<0xD4>	0
<0xD5>	0
<0xD6>	0
<0xD7>	0
<0xD8>	0
<0xD9>	0
<0xDA>	0
<0xDB>	0
<0xDC>	0
<0xDD>	0
<0xDE>	0
<0xDF>	0
<0xE0>	0
<0xE1>	0
<0xE2>	0
<0xE3>	0
<0xE4>	0
<0xE5>	0
<0xE6>	0
<0xE7>	0
<0xE8>	0
<0xE9>	0
<0xEA>	0
<0xEB>	0
<0xEC>	0
<0xED>	0
<0xEE>	0
<0xEF>	0
<0xF0>	0
<0xF1>	0
<0xF2>	0
<0xF3>	0
<0xF4>	0
<0xF5>	0
<0xF6>	0
<0xF7>	0
<0xF8>	0
<0xF9>	0
<0xFA>	0
<0xFB>	0
<0xFC>	0
<0xFD>	0
<0xFE>	0
<0xFF>	0
,	-2.81548
▁	-3.69659
。	-3.70497
的	-3.92593
、	-4.29321
1	-4.29743
0	-4.30751
2	-4.42901
在	-5.09451
.	-5.11285
和	-5.1557
“	-5.15696
3	-5.17479
5	-5.27574
9	-5.30498
年	-5.38741
)	-5.43456
4	-5.43767
8	-5.48292
6	-5.50966
”	-5.52599
(	-5.55076
:	-5.58267
7	-5.60203
月	-5.77478
是	-5.79765
了	-5.80667
为	-5.85736
中	-5.97718
与	-6.07055
日	-6.12514
s	-6.20933
▁*	-6.22717
等	-6.24634
有	-6.26307
对	-6.2802
;	-6.31049
》	-6.32652
-	-6.3769
上	-6.39101
《	-6.4101
人	-6.44616
大	-6.46608
以	-6.49103
▁the	-6.50556
将	-6.51085
后	-6.52322
不	-6.66336
也	-6.69028
到	-6.69636
一	-6.70927
从	-6.71448
时	-6.73323
而	-6.75809
中国	-6.79496
他	-6.80339
/	-6.81032
新	-6.81101
被	-6.83488
。”	-6.84555
·	-6.85141
于	-6.85655
_	-6.89272
说	-6.9213
但	-6.92268
公司	-6.93049
地	-6.9425
并	-6.96334
及	-6.99348
会	-6.99889
就	-7.05398
我	-7.07385
要	-7.08715
下	-7.11395
进行	-7.11882
工作	-7.12751
小	-7.13224
企业	-7.15819
▁of	-7.1608
其	-7.17658
向	-7.17796
高	-7.18199
个	-7.19588
▁to	-7.20267
▁|	-7.20541
多	-7.21087
来	-7.21562
都	-7.21932
?	-7.22267
▁and	-7.23063
▁**	-7.23418
由	-7.23873
区	-7.24784
家	-7.24952
我们	-7.24978
▁a	-7.26716
'	-7.29088
市场	-7.2936
%	-7.29823
用	-7.31247
通过	-7.31672
前	-7.32245
**	-7.33167
市	-7.34519
或	-7.35378
还	-7.36371
三	-7.37104
”,	-7.3746
发展	-7.3767
”。	-7.37952
服务	-7.39052
表示	-7.3942
ed	-7.39438
里	-7.40768
之	-7.41342
性	-7.41401
▁in	-7.43255
子	-7.43425
出	-7.43682
▁(	-7.44224
一个	-7.44771
元	-7.45294
天	-7.45949
这	-7.47019
至	-7.48663
名	-7.4881
该	-7.48998
水	-7.49569
把	-7.49591
着	-7.50552
可	-7.5064
山	-7.51891
长	-7.52587
已	-7.54081
亿元	-7.54625
所	-7.54831
国家	-7.55832
以及	-7.55945
美国	-7.56409
他们	-7.56794
建设	-7.57286
▁“	-7.5749
能	-7.57496
让	-7.57651
内	-7.59484
好	-7.59624
点	-7.59727
可以	-7.59803
没有	-7.60658
过	-7.6114
技术	-7.61491
分	-7.62073
产品	-7.62457
王	-7.62749
ing	-7.63131
成为	-7.64223
县	-7.64396
更	-7.65506
万	-7.65636
目前	-7.6584
她	-7.65925
问题	-7.66002
已经	-7.66339
又	-7.66362
项目	-7.66412
国	-7.67178
车	-7.67241
金	-7.68462
者	-7.68699
%,	-7.6877
作为	-7.69769
化	-7.69809
比	-7.71037
其中	-7.71237
路	-7.71687
!	-7.73611
自	-7.73835
德	-7.74488
号	-7.75285
这个	-7.75884
去	-7.76313
海	-7.76976
自己	-7.77344
:“	-7.77584
d	-7.77705
经济	-7.77793
%。	-7.78252
活动	-7.788
外	-7.78979
使用	-7.79298
A	-7.79923
▁"	-7.80187
村	-7.80234
实现	-7.80846
文	-7.81221
需要	-7.81277
成	-7.82054
文化	-7.82276
无	-7.82435
同时	-7.82817
西	-7.82906
这些	-7.83018
管理	-7.83278
因	-7.83928
你	-7.84633
行业	-7.84687
C	-7.84705
国际	-7.8506
投资	-7.85139
两	-7.85932
记者	-7.86051
平台	-7.86406
称	-7.86558
正	-7.86842
得	-7.86904
南	-7.87052
政府	-7.87889
马	-7.88042
张	-7.88107
给	-7.886
法	-7.8863
特	-7.88817
e	-7.88852
方面	-7.89613
开始	-7.89719
道	-7.90054
包括	-7.90565
▁Entry	-7.90774
「	-7.90957
生	-7.91075
东	-7.91154
起	-7.91181
城	-7.91662
军	-7.92298
最	-7.92773
要求	-7.93058
本	-7.93296
第	-7.93396
认为	-7.95028
做	-7.95396
李	-7.95439
开	-7.95454
部	-7.95817
达	-7.95825
就是	-7.9642
美	-7.96471
同	-7.96534
提供	-7.96961
头	-7.9722
t	-7.97326
则	-7.97382
林	-7.97426
因为	-7.97821
手	-7.97935
全	-7.97996
拉	-7.9816
时间	-7.98575
队	-7.98713
S	-7.98917
北京	-7.99131
今年	-7.99152
合作	-7.9921
站	-7.99247
看	-7.99731
再	-7.99864
四	-8.00081
斯	-8.00501
安全	-8.00533
学	-8.0056
发现	-8.00646
约	-8.01074
组织	-8.01948
如	-8.02167
当	-8.02213
社会	-8.02318
心	-8.02528
老	-8.02559
版	-8.02832
华	-8.02896
对于	-8.03133
安	-8.0342
万元	-8.04147
▁在	-8.04287
一些	-8.05001
教育	-8.05199
线	-8.05386
业务	-8.05415
中心	-8.05914
系统	-8.06122
五	-8.06151
方	-8.06569
政策	-8.06727
二	-8.06872
产业	-8.07087
计划	-8.07318
g	-8.07918
开展	-8.08134
出现	-8.08318
研究	-8.08461
全国	-8.08536
——	-8.09361
获得	-8.0973
生产	-8.09948
主要	-8.10196
n	-8.10653
总	-8.11933
共	-8.12119
发	-8.12312
米	-8.12333
各	-8.12342
地区	-8.12485
世界	-8.12634
强	-8.12882
利	-8.12982
力	-8.13049
如果	-8.13826
还是	-8.13839
次	-8.14145
数据	-8.14228
使	-8.14393
之后	-8.145
人员	-8.14563
提升	-8.14818
B	-8.1496
期	-8.15367
明	-8.15389
行	-8.15448
打	-8.15854
局	-8.16029
城市	-8.16397
也是	-8.16431
平	-8.16435
龙	-8.16681
科技	-8.168
er	-8.16806
卡	-8.17036
」	-8.1738
能力	-8.174
台	-8.17459
全球	-8.17511
信息	-8.17515
根据	-8.18181
科	-8.18365
影响	-8.18442
日本	-8.1854
生活	-8.19374
近	-8.19571
因此	-8.19652
由于	-8.1975
y	-8.19853
支持	-8.20043
场	-8.20089
部分	-8.20256
相关	-8.20372
可能	-8.20756
+	-8.21082
推动	-8.21226
r	-8.21712
持续	-8.21815
花	-8.21929
位	-8.21981
河	-8.22049
▁I	-8.2226
G	-8.22513
进入	-8.22644
量	-8.22762
光	-8.22835
但是	-8.23013
罗	-8.23438
红	-8.23524
▁=	-8.23573
集团	-8.23674
银行	-8.23899
超	-8.23954
想	-8.24231
曾	-8.24494
情况	-8.24563
上海	-8.24642
创新	-8.24697
经	-8.24833
它	-8.24856
现在	-8.24892
价格	-8.25123
原	-8.25261
门	-8.25391
重	-8.26437
只	-8.26576
品牌	-8.26754
正在	-8.26786
克	-8.26794
机	-8.26797
书	-8.26942
▁that	-8.27224
江	-8.27242
这种	-8.27258
▁for	-8.27275
这一	-8.2731
应	-8.27678
数	-8.28105
田	-8.28166
设计	-8.28389
却	-8.2842
完成	-8.28438
面	-8.28766
大学	-8.28839
州	-8.29075
陈	-8.29195
北	-8.29195
未来	-8.29313
建	-8.30019
"	-8.30452
镇	-8.30861
▁-	-8.31031
级	-8.31152
尔	-8.31201
其他	-8.31246
▁[	-8.31267
加	-8.31404
风	-8.3154
国内	-8.31558
省	-8.31643
内容	-8.31995
领域	-8.32095
都是	-8.32181
o	-8.32455
群众	-8.32638
我国	-8.32837
战	-8.32863
周	-8.32882
消费	-8.32895
某	-8.32923
事	-8.33025
爱	-8.33218
日电	-8.33411
......	-8.33474
▁「	-8.33525
工程	-8.33843
用户	-8.33961
D	-8.33969
m	-8.34077
提高	-8.34141
学习	-8.34545
类	-8.34834
入	-8.34975
们	-8.35123
能够	-8.35194
网	-8.35206
人民	-8.3533
机构	-8.35474
继续	-8.35548
香港	-8.36268
代表	-8.36376
非	-8.36391
▁was	-8.36488
▁is	-8.36605
之一	-8.36803
汽车	-8.36862
走	-8.36966
黄	-8.36986
学校	-8.36997
资金	-8.37284
增加	-8.37286
式	-8.37782
才	-8.37867
环境	-8.37972
需求	-8.38012
这是	-8.38234
网络	-8.38236
超过	-8.38321
刘	-8.38778
▁《	-8.38802
单	-8.39033
白	-8.39491
处	-8.39757
受	-8.40026
很	-8.40541
电影	-8.41195
增长	-8.4135
期间	-8.41382
型	-8.41534
石	-8.41607
方式	-8.41659
虽然	-8.41664
均	-8.41789
—	-8.41842
学生	-8.41933
第一	-8.42141
进	-8.42178
那	-8.42249
阿	-8.42531
种	-8.42615
清	-8.42964
a	-8.43058
口	-8.43356
度	-8.43742
作	-8.43752
实施	-8.4415
加强	-8.44371
销售	-8.44394
甚至	-8.44624
还有	-8.44786
即	-8.45042
P	-8.45116
转	-8.45303
报	-8.45546
风险	-8.45718
M	-8.45805
位于	-8.4581
不同	-8.45874
发布	-8.46194
具有	-8.46218
ly	-8.46232
重点	-8.46592
al	-8.46644
最终	-8.46775
股	-8.47172
i	-8.47181
保护	-8.47254
不断	-8.47286
未	-8.47313
通	-8.47562
回	-8.47695
成功	-8.48217
云	-8.48224
建立	-8.483
标准	-8.48452
保障	-8.48507
电	-8.48555
解决	-8.4893
带	-8.49179
模式	-8.49377
希望	-8.49511
权	-8.49578
双	-8.49619
▁第	-8.49648
发生	-8.49673
低	-8.49859
制	-8.50007
▁it	-8.50028
公	-8.50058
非常	-8.50319
共同	-8.50742
参与	-8.50768
设备	-8.50939
全面	-8.50957
参加	-8.51069
关系	-8.51118
率	-8.51248
历史	-8.5132
达到	-8.51357
只有	-8.51587
为了	-8.51833
主	-8.52127
如何	-8.52155
▁with	-8.53071
选择	-8.53494
中的	-8.5355
信	-8.53882
亿	-8.54023
积极	-8.54124
形成	-8.54176
进一步	-8.54266
体	-8.5434
资源	-8.54436
自己的	-8.54769
岁	-8.54774
不能	-8.54786
利用	-8.54851
T	-8.54916
亚	-8.55179
交易	-8.55279
任	-8.55562
定	-8.55761
且	-8.55949
现场	-8.56094
神	-8.5612
个人	-8.56149
介绍	-8.56256
旅游	-8.56499
关于	-8.5657
首	-8.57172
单位	-8.5723
制度	-8.57427
六	-8.57461
F	-8.575
据	-8.57544
水平	-8.57551
‘	-8.57746
科学	-8.57943
联合	-8.58476
女	-8.58485
区域	-8.5853
图	-8.58613
es	-8.58666
开发	-8.58747
条	-8.58789
b	-8.5885
医院	-8.58959
连	-8.59004
先	-8.59048
▁on	-8.59227
占	-8.59258
气	-8.59348
太	-8.59427
推进	-8.59484
促进	-8.59696
流	-8.59722
部门	-8.59878
决定	-8.59881
p	-8.59891
像	-8.60263
提出	-8.60404
球	-8.606
帮助	-8.60686
成本	-8.60718
家庭	-8.6092
随着	-8.61033
应用	-8.61181
商	-8.61308
店	-8.61563
报告	-8.61833
纳	-8.61848
】	-8.61912
N	-8.62129
x	-8.62402
片	-8.62539
所以	-8.62644
例	-8.62782
▁The	-8.62811
经过	-8.62824
很多	-8.63031
相	-8.63085
当时	-8.63216
古	-8.63245
▁be	-8.63352
更加	-8.63795
格	-8.63815
此	-8.63836
指出	-8.64033
▁as	-8.6413
专业	-8.6435
间	-8.64612
钱	-8.64613
K	-8.64814
▁据	-8.64886
客户	-8.64909
拥有	-8.65035
工业	-8.6521
得到	-8.654
规模	-8.65412
不过	-8.65604
c	-8.6565
金融	-8.65683
直接	-8.65735
改革	-8.65759
派	-8.65841
经营	-8.65886
房	-8.6601
港	-8.66607
所有	-8.66651
▁his	-8.66761
调整	-8.66814
而且	-8.67032
报道	-8.67108
赛	-8.67143
社区	-8.6718
正式	-8.67279
系	-8.67352
英国	-8.67375
立	-8.67669
乡	-8.6771
健康	-8.67905
便	-8.67939
L	-8.68128
精神	-8.68314
价值	-8.6859
史	-8.68738
每	-8.6885
农业	-8.68974
执行	-8.6915
导致	-8.69354
体系	-8.69417
以上	-8.6959
波	-8.69611
工	-8.6993
巴	-8.69936
传统	-8.70026
AI	-8.70135
难	-8.70292
必须	-8.70436
组	-8.70503
的人	-8.70509
基	-8.70525
措施	-8.70613
按照	-8.70625
集	-8.70948
声	-8.71004
▁{	-8.71249
语	-8.7192
来自	-8.71946
无法	-8.71953
费	-8.72041
任务	-8.72158
运营	-8.72309
会议	-8.72353
办	-8.72379
分析	-8.72397
布	-8.7242
少	-8.72816
居民	-8.72829
功能	-8.72875
v	-8.72951
h	-8.73037
收入	-8.73324
空	-8.73329
疫情	-8.73466
更多	-8.73579
有关	-8.73755
的时候	-8.73787
热	-8.73947
这样	-8.73978
台湾	-8.74245
宣传	-8.74328
兵	-8.74428
快	-8.74595
大家	-8.74605
分别	-8.74613
民	-8.74641
不是	-8.74689
火	-8.74794
▁A	-8.74862
游戏	-8.7514
预计	-8.75259
黑	-8.75383
基本	-8.75393
段	-8.75554
▁}	-8.75568
木	-8.75607
作品	-8.75654
关注	-8.75694
节	-8.75719
边	-8.75863
远	-8.75906
或者	-8.76
奖	-8.7601
行为	-8.76068
百	-8.76091
师	-8.76139
控制	-8.76184
比较	-8.7626
’	-8.76292
乐	-8.76343
坚持	-8.76497
H	-8.7678
in	-8.7684
星	-8.76884
来说	-8.76907
运动	-8.76932
基金	-8.77211
]	-8.7733
委员会	-8.77466
合	-8.77476
消费者	-8.77524
机制	-8.77547
▁he	-8.77566
跟	-8.77574
综合	-8.77748
人才	-8.77775
调	-8.77776
处理	-8.77782
楼	-8.77823
一起	-8.77909
取得	-8.77955
飞	-8.78147
员	-8.78154
显示	-8.78337
字	-8.78388
杨	-8.78413
调查	-8.78434
两个	-8.78764
物	-8.78871
▁you	-8.78899
艺术	-8.78963
目标	-8.78977
生态	-8.79267
一直	-8.79314
真	-8.79422
打造	-8.79504
建议	-8.79516
兰	-8.79581
结果	-8.79701
宣布	-8.79718
业	-8.79822
桥	-8.79872
▁专栏	-8.79874
联	-8.79888
之间	-8.8015
视频	-8.80297
应该	-8.80439
川	-8.80509
请	-8.80545
过去	-8.80551
之前	-8.80577
结构	-8.806
变	-8.80653
政治	-8.80658
今天	-8.80721
▁'	-8.80736
()	-8.80761
吃	-8.80776
塔	-8.80913
收	-8.81012
按	-8.81483
干	-8.81497
最后	-8.81637
色	-8.81647
厂	-8.81837
代	-8.81856
E	-8.8191
ion	-8.82011
较	-8.82015
体验	-8.82284
成立	-8.82388
)、	-8.82511
情	-8.82756
I	-8.82819
团	-8.82831
规划	-8.82879
受到	-8.82924
双方	-8.83056
当地	-8.83166
仍	-8.83167
看到	-8.83169
存在	-8.83312
群	-8.83385
团队	-8.83458
第二	-8.83587
药	-8.83589
党	-8.83652
▁S	-8.83683
选	-8.837
岛	-8.83759
交通	-8.8385
志	-8.83851
法国	-8.83885
长期	-8.83944
▁#	-8.84047
空间	-8.841
他的	-8.84119
减少	-8.84232
时代	-8.84547
推出	-8.84552
八	-8.84593
f	-8.8467
深	-8.85002
身	-8.8505
德国	-8.85165
半	-8.85177
比赛	-8.85224
教	-8.85246
买	-8.85257
新的	-8.85314
反	-8.85334
优势	-8.85341
▁at	-8.85487
此次	-8.85543
上的	-8.85801
中央	-8.85902
>	-8.85947
阳	-8.86058
七	-8.86117
宝	-8.8617
法院	-8.86199
仅	-8.86375
保持	-8.86593
动	-8.86764
常	-8.86802
来看	-8.86881
媒体	-8.86921
雷	-8.86977
亦	-8.87034
手机	-8.87128
的是	-8.8723
智能	-8.87249
院	-8.8758
举行	-8.87595
汉	-8.8762
管	-8.8786
苏	-8.8804
--------	-8.88087
班	-8.8809
案件	-8.88106
明显	-8.88187
感	-8.88249
作用	-8.88256
端	-8.88348
去年	-8.88413
质量	-8.88521
行动	-8.88719
完全	-8.89203
奇	-8.89234
没	-8.89241
青	-8.89402
上市	-8.89466
专家	-8.8951
亿美元	-8.89588
地方	-8.89717
世	-8.89734
接受	-8.89865
▁p	-8.899
or	-8.89976
俄罗斯	-8.90019
U	-8.9003
左右	-8.90109
并且	-8.90281
建筑	-8.90343
见	-8.90427
人们	-8.90515
铁	-8.90643
当前	-8.90645
交流	-8.90849
一次	-8.90911
问	-8.90969
放	-8.90985
特别	-8.91022
股份	-8.91034
进行了	-8.91111
不仅	-8.91162
车辆	-8.91207
任何	-8.91461
尼	-8.915
青年	-8.91605
首次	-8.91634
排	-8.91682
了解	-8.91683
整体	-8.91741
起来	-8.91741
价	-8.91819
维	-8.91931
▁s	-8.91971
兴	-8.91975
▁C	-8.92088
余	-8.92156
re	-8.92224
交	-8.92313
英	-8.92399
武	-8.92727
吴	-8.92758
l	-8.92837
运	-8.92963
负责	-8.93119
除了	-8.93189
重要	-8.93244
博	-8.93264
一样	-8.93288
事件	-8.93349
严重	-8.93394
表现	-8.93445
是否	-8.9356
品	-8.93752
改	-8.93752
九	-8.93894
孩子	-8.93926
伊	-8.93941
许多	-8.93954
R	-8.93977
再次	-8.93999
街	-8.94098
沙	-8.94106
▁【	-8.94107
自然	-8.94167
力量	-8.94222
病	-8.94349
座	-8.94478
夫	-8.94478
及时	-8.94516
欧洲	-8.94533
一种	-8.94584
春	-8.94689
基础	-8.94712
监管	-8.94754
担任	-8.94899
盘	-8.94968
有效	-8.94993
写	-8.95006
一般	-8.95016
准备	-8.95018
稳定	-8.95302
此外	-8.95523
铁路	-8.95602
什么	-8.95618
方向	-8.95659
关	-8.95844
比如	-8.95874
全部	-8.959
十	-8.96022
▁if	-8.96097
件	-8.9613
规定	-8.96164
案	-8.96276
到了	-8.96411
▁from	-8.96581
以来	-8.96589
指数	-8.96714
升	-8.96906
领导	-8.97261
%;	-8.97268
松	-8.97271
恢复	-8.9729
保	-8.97387
法律	-8.97412
农村	-8.97444
取	-8.97664
吗	-8.97829
购买	-8.97852
令	-8.9788
▁>	-8.98089
新闻	-8.98139
投入	-8.98183
努力	-8.98285
资产	-8.9832
en	-8.98728
采用	-8.98798
器	-8.98803
胜	-8.98852
落	-8.98863
编辑	-8.98911
▁$	-8.98991
▁_	-8.99102
针对	-8.99128
结合	-8.99157
互联网	-8.99166
奥	-8.99206
满	-8.99239
产	-8.99336
》(	-8.99384
战略	-8.99467
”“	-8.99573
这样的	-8.99724
月份	-8.99797
游	-8.99867
朝	-8.99916
倍	-8.9998
采取	-9.00085
公开	-9.00097
永	-9.00308
不少	-9.00373
吉	-9.00412
野	-9.00505
千	-9.00553
装	-9.0056
客	-9.00632
有限公司	-9.00688
油	-9.00755
款	-9.00779
an	-9.00949
农民	-9.00972
社	-9.00998
呢	-9.0105
普	-9.01089
重大	-9.01164
变化	-9.01198
▁her	-9.01279
O	-9.0129
树	-9.01435
的问题	-9.01455
数量	-9.01612
商业	-9.0166
不会	-9.01673
属	-9.0175
系列	-9.01785
培训	-9.01915
时期	-9.01969
电子	-9.02001
一位	-9.02077
年度	-9.02272
校	-9.02328
强调	-9.02486
传	-9.02528
才能	-9.02553
最高	-9.0258
庄	-9.02605
福	-9.02621
干部	-9.02692
检查	-9.02698
完善	-9.02708
鱼	-9.02795
集中	-9.02821
广	-9.02844
最近	-9.02871
各种	-9.02925
湖	-9.03031
源	-9.03076
并不	-9.0312
▁by	-9.03225
届	-9.0325
只是	-9.03371
造成	-9.03523
▁c	-9.03576
V	-9.03681
革命	-9.03726
."	-9.03736
方案	-9.03943
项	-9.03995
义	-9.0406
儿	-9.04073
库	-9.04088
现代	-9.04113
先生	-9.04166
经验	-9.04188
人类	-9.04387
▁not	-9.0443
发行	-9.04456
条件	-9.04595
住	-9.04622
居	-9.04631
那么	-9.0466
同比增长	-9.04675
球队	-9.04676
酒	-9.04796
轮	-9.04844
土	-9.04896
此前	-9.04982
宗	-9.05009
船	-9.05034
做好	-9.05083
责任	-9.05092
训练	-9.05372
户	-9.0541
治	-9.05517
u	-9.05623
指	-9.05695
学院	-9.05854
实	-9.05877
吨	-9.05881
整个	-9.06121
板	-9.0648
投	-9.06485
是一个	-9.06516
实际	-9.06594
修	-9.06629
堂	-9.06729
思想	-9.06882
托	-9.07144
刚	-9.0742
草	-9.0755
皮	-9.0763
观众	-9.07633
卖	-9.07719
也有	-9.07726
若	-9.07748
体育	-9.0775
意	-9.07764
属于	-9.07788
困难	-9.07936
阶段	-9.07991
下降	-9.08002
一名	-9.08053
理	-9.08062
截至	-9.08078
▁原标题	-9.08147
表	-9.08168
。」	-9.08222
送	-9.08294
自由	-9.08339
韩国	-9.08373
板块	-9.08518
包	-9.08527
室	-9.08702
音乐	-9.08771
几	-9.08857
叶	-9.08998
后来	-9.09128
[	-9.09199
故事	-9.09303
票	-9.09857
运行	-9.09944
连续	-9.09952
宁	-9.10149
▁this	-9.10158
制作	-9.10217
接	-9.1024
展	-9.10263
梅	-9.10271
确保	-9.10305
音	-9.10417
讲	-9.10482
加快	-9.10607
美元	-9.1063
投资者	-9.10701
深圳	-9.1071
画	-9.10767
著	-9.10796
申请	-9.1081
获	-9.10973
指导	-9.1118
绿色	-9.11193
官	-9.11339
拍	-9.11339
过程中	-9.11444
的重要	-9.11598
贸易	-9.11631
富	-9.11639
制造	-9.11748
吧	-9.11769
w	-9.11908
带来	-9.11911
落实	-9.12018
馆	-9.12054
主题	-9.12069
市民	-9.12272
圣	-9.12302
香	-9.12366
死	-9.12425
菜	-9.12517
梁	-9.12549
ic	-9.12583
ation	-9.12637
最大的	-9.12639
协议	-9.12805
森	-9.12887
泰	-9.12912
提	-9.13016
除	-9.13052
医疗	-9.13114
直	-9.13178
开放	-9.13183
一年	-9.13193
–	-9.13232
具体	-9.13296
这次	-9.13333
预期	-9.13414
逐渐	-9.13546
大量	-9.13694
▁had	-9.13951
优化	-9.14054
听	-9.14236
士	-9.14242
统一	-9.14267
恩	-9.14301
同样	-9.14453
出口	-9.14489
相比	-9.14578
增	-9.14635
成员	-9.14911
主动	-9.14947
面对	-9.14983
压力	-9.15071
▁de	-9.15289
安排	-9.15379
产生	-9.15405
主席	-9.15585
微	-9.15686
曲	-9.15777
能源	-9.15794
支	-9.15841
材料	-9.16205
有些	-9.16224
话	-9.16317
越	-9.16369
一家	-9.16474
战争	-9.166
基地	-9.16645
▁P	-9.16657
X	-9.16687
实践	-9.16694
推广	-9.16764
知识	-9.16872
季	-9.17044
迪	-9.17098
患者	-9.17099
改善	-9.17139
渠道	-9.17164
公里	-9.17339
支付	-9.17343
第三	-9.17533
雪	-9.17535
工人	-9.17616
瓦	-9.17664
数据显示	-9.1768
职工	-9.17759
累计	-9.17773
年代	-9.17808
id	-9.17834
早	-9.18074
协会	-9.18114
哈	-9.18307
员工	-9.18542
别	-9.18559
引导	-9.1871
鲁	-9.18761
满足	-9.18831
数字	-9.19003
范围	-9.19016
!”	-9.19019
明确	-9.19033
用于	-9.19102
根	-9.19166
on	-9.19295
收购	-9.19305
▁or	-9.19349
k	-9.19374
布局	-9.19493
环	-9.19543
土地	-9.19559
玉	-9.19575
园	-9.19781
农	-9.19794
重新	-9.19886
快速	-9.19995
状态	-9.2016
发挥	-9.20198
叫	-9.20242
列	-9.20312
氏	-9.20475
▁are	-9.20486
杰	-9.20554
商品	-9.20558
就业	-9.20608
韩	-9.20636
如今	-9.20637
维护	-9.20726
萨	-9.20748
▁中新网	-9.20823
唐	-9.20841
退	-9.20915
诺	-9.20931
▁从	-9.20971
治理	-9.21007
突破	-9.21039
=	-9.21147
降低	-9.2115
上述	-9.21207
保证	-9.21286
瑞	-9.21305
何	-9.21314
近日	-9.2139
W	-9.21558
朱	-9.21893
);	-9.21939
初	-9.22013
广州	-9.22037
机会	-9.22114
it	-9.22281
cn	-9.22448
迅速	-9.22455
新增	-9.22566
活	-9.22584
然而	-9.22625
联系	-9.22799
节目	-9.22838
食	-9.22851
平均	-9.22888
▁F	-9.22905
防	-9.2292
推	-9.22964
归	-9.23127
世纪	-9.23172
的发展	-9.23295
规范	-9.23379
治疗	-9.23436
牌	-9.2358
证	-9.23713
方法	-9.23795
涉及	-9.23837
每年	-9.2386
ent	-9.23967
底	-9.23986
今	-9.24032
▁have	-9.24052
升级	-9.24111
曾经	-9.24145
其实	-9.24186
只能	-9.24241
ur	-9.24369
知	-9.24595
孙	-9.24611
如此	-9.24615
老师	-9.24744
工作人员	-9.24792
往	-9.24809
封	-9.24842
眼	-9.24872
赵	-9.24891
北京市	-9.24895
核	-9.24958
分钟	-9.25154
康	-9.25225
智	-9.25291
电话	-9.25319
us	-9.25338
近期	-9.25366
前往	-9.25374
伟	-9.25455
上涨	-9.25473
政	-9.25485
一条	-9.25496
博物馆	-9.25536
教师	-9.25599
车站	-9.25642
研发	-9.25739
游客	-9.25761
伦	-9.25959
降	-9.25984
供应	-9.2606
齐	-9.26259
民族	-9.26334
le	-9.26377
。**	-9.26449
守	-9.26593
负责人	-9.26671
威	-9.26681
角	-9.26688
绿	-9.26728
界	-9.27045
小时	-9.27068
差	-9.27203
广告	-9.27345
夜	-9.27402
离	-9.27477
副	-9.2753
成果	-9.27662
▁T	-9.2771
海外	-9.27722
▁an	-9.27748
随后	-9.27778
扩大	-9.27804
工厂	-9.27853
消息	-9.27866
男	-9.28056
配	-9.28096
儿童	-9.28182
复	-9.28266
各地	-9.28283
诗	-9.28433
印度	-9.28457
套	-9.28501
而是	-9.28525
解	-9.28608
创作	-9.28856
原因	-9.29026
广东	-9.29054
效率	-9.29062
统计	-9.2909
跑	-9.29215
改变	-9.2924
多次	-9.29289
效果	-9.29364
贷款	-9.29405
梦	-9.29629
查	-9.29684
程	-9.29716
:《	-9.29936
胡	-9.29959
探索	-9.29965
道路	-9.30075
年的	-9.30149
冲	-9.30169
另外	-9.30247
宫	-9.30299
笔	-9.30493
思	-9.30601
J	-9.30625
业绩	-9.30658
真正	-9.30959
十分	-9.30962
剧	-9.30965
洛	-9.31125
给予	-9.31297
极	-9.31311
先后	-9.31331
公园	-9.31371
逐步	-9.31417
软件	-9.31525
换	-9.3158
靠	-9.31665
结束	-9.31697
厅	-9.31794
冷	-9.31831
甲	-9.31935
井	-9.31993
特色	-9.32018
传播	-9.32038
拿	-9.32166
找	-9.32179
面积	-9.322
留	-9.32233
}	-9.32291
应当	-9.32357
整	-9.32372
层	-9.32416
人口	-9.32465
大型	-9.32491
而言	-9.32589
展示	-9.32616
趋势	-9.32618
尽管	-9.32624
仍然	-9.32752
透露	-9.32816
电视	-9.32846
雄	-9.32865
夏	-9.32986
▁b	-9.33003
核心	-9.33018
加入	-9.33058
围绕	-9.33141
失	-9.33158
资本	-9.3325
冠军	-9.33284
秋	-9.33307
言	-9.33307
人物	-9.33363
运输	-9.33373
设	-9.33388
共有	-9.33405
形式	-9.33463
▁B	-9.33496
利益	-9.33567
▁He	-9.33627
依法	-9.33687
例如	-9.33757
强化	-9.33797
事业	-9.33803
特别是	-9.33803
演员	-9.3397
文学	-9.34101
倒	-9.34138
苹果	-9.34246
卫	-9.34257
创	-9.34323
牛	-9.34369
z	-9.34425
莫	-9.34488
以后	-9.3454
峰	-9.34546
顺	-9.34614
▁<	-9.34639
举办	-9.34687
莱	-9.34757
增强	-9.34889
破	-9.34896
旧	-9.34989
女子	-9.35165
操作	-9.35174
的方式	-9.35228
它们	-9.3526
南京	-9.3528
小区	-9.35313
觉得	-9.35355
需	-9.35393
银	-9.35399
ter	-9.35402
易	-9.35402
勒	-9.35403
景	-9.35522
记	-9.35812
公共	-9.35861
营	-9.35903
处于	-9.3592
的情况	-9.35972
▁根据	-9.35996
岁的	-9.36039
证券	-9.36086
机场	-9.36091
线上	-9.36108
融资	-9.36185
st	-9.36211
塞	-9.36268
”、“	-9.36339
现	-9.3636
监督	-9.36712
合同	-9.36756
更是	-9.3677
雅	-9.36801
不足	-9.36827
独立	-9.3688
顶	-9.36899
智慧	-9.36909
驻	-9.36977
冰	-9.37032
相对	-9.37075
理论	-9.37111
雨	-9.3712
形	-9.3717
总统	-9.37235
和平	-9.37247
亮	-9.37268
完	-9.37283
歌	-9.37289
内部	-9.37314
正常	-9.37323
的一个	-9.37371
办理	-9.37406
职业	-9.37525
改造	-9.37676
距离	-9.37686
创造	-9.37759
母	-9.37816
观	-9.37956
支撑	-9.38081
▁but	-9.38107
读	-9.38171
经常	-9.38201
照	-9.38299
委	-9.38303
也会	-9.38308
实行	-9.38364
轻	-9.38411
记录	-9.38412
\	-9.38499
深入	-9.38567
设立	-9.38593
ri	-9.38593
断	-9.38765
公布	-9.38776
提供了	-9.3889
附近	-9.38918
货	-9.38945
秀	-9.38952
浙江	-9.3898
藏	-9.39031
▁\	-9.39076
亚洲	-9.39101
礼	-9.3914
尚	-9.39153
指标	-9.39172
演出	-9.39173
各类	-9.39239
培养	-9.3927
果	-9.39569
致	-9.39579
食品	-9.3964
伤	-9.3965
作者	-9.39748
戏	-9.39753
的话	-9.39764
上升	-9.3982
▁f	-9.39857
工具	-9.39934
也在	-9.3996
构建	-9.40055
ment	-9.40088
参考	-9.40211
蓝	-9.40255
符合	-9.4026
丰	-9.40333
行政	-9.40346
测试	-9.40369
领	-9.40372
不要	-9.40482
部队	-9.40487
稳	-9.40489
街道	-9.40527
尾	-9.40622
的新	-9.40691
设施	-9.40693
抖音	-9.40702
从而	-9.40749
el	-9.40752
启动	-9.40781
欧	-9.40811
存	-9.40885
电商	-9.40914
老人	-9.40934
荣	-9.40958
成长	-9.41173
因素	-9.41278
th	-9.41299
司法	-9.41307
人工智能	-9.41316
补	-9.41337
联盟	-9.41344
▁M	-9.41358
杀	-9.4144
限制	-9.41517
考虑	-9.4158
女性	-9.41664
难以	-9.41856
谁	-9.41877
这里	-9.41888
at	-9.42004
丽	-9.42028
都有	-9.42094
事故	-9.42134
骨	-9.42218
于是	-9.42268
郡	-9.42335
生物	-9.42395
苏联	-9.42533
挑战	-9.42536
普通	-9.42537
三个	-9.42547
竞争	-9.42604
我的	-9.42653
自身	-9.42738
劳动	-9.42809
流量	-9.42862
基于	-9.42868
亲	-9.4295
佳	-9.42995
男子	-9.43048
求	-9.43083
以下	-9.43099
教学	-9.43149
脚	-9.43166
卢	-9.43188
徐	-9.43231
之间的	-9.43292
▁she	-9.43335
{	-9.43341
多个	-9.4337
Y	-9.43442
制定	-9.43475
陆	-9.43491
登	-9.43541
》《	-9.43542
鼓励	-9.43612
设置	-9.43614
补贴	-9.43616
税	-9.43673
动力	-9.43729
一点	-9.4376
评估	-9.43824
重庆	-9.43832
充分	-9.43897
课	-9.44015
毛	-9.44147
零	-9.44197
的影响	-9.44228
出版	-9.44318
都会	-9.44365
啊	-9.44418
°	-9.4442
人的	-9.44461
力度	-9.44553
确定	-9.44556
养	-9.44558
考	-9.44564
ar	-9.44594
精	-9.44617
成绩	-9.44667
视	-9.44713
mw	-9.4472
京	-9.44745
曼	-9.44897
贝	-9.44921
▁my	-9.44958
车型	-9.45003
族	-9.45061
谷	-9.45109
职	-9.45223
大会	-9.45302
结	-9.45414
计算	-9.4559
讨论	-9.45625
朋友	-9.45636
▁t	-9.4575
然后	-9.45766
》、《	-9.45828
圈	-9.45958
▁E	-9.45975
三年	-9.4599
场景	-9.45998
加速	-9.46035
保险	-9.46137
▁re	-9.46267
索	-9.46302
芯片	-9.4633
血	-9.4645
许	-9.46482
他们的	-9.46516
比例	-9.46579
赛事	-9.4665
种植	-9.46808
依然	-9.46814
词	-9.46824
意见	-9.4683
来到	-9.4689
几乎	-9.46896
质	-9.46906
不到	-9.4714
每天	-9.47176
:**	-9.47185
就会	-9.47206
公告	-9.47245
最新	-9.47264
飞机	-9.47295
股价	-9.47414
导演	-9.47437
减	-9.47457
两人	-9.47469
招	-9.47502
模型	-9.47547
章	-9.47587
费用	-9.47661
第一次	-9.47737
天津	-9.47767
停	-9.47768
盛	-9.47798
只要	-9.47804
一场	-9.47811
贡献	-9.47861
▁G	-9.47862
作出	-9.47867
直播	-9.47933
关键	-9.47986
那些	-9.48026
覆盖	-9.48156
衣	-9.4819
静	-9.48336
感到	-9.48343
部署	-9.48352
有所	-9.48413
立即	-9.48459
出来	-9.48567
评价	-9.48576
东北	-9.48623
顿	-9.48708
钢	-9.48756
为主	-9.48758
理解	-9.4888
优	-9.48934
万吨	-9.49052
航	-9.49088
合理	-9.49229
假	-9.4925
htm	-9.49316
庆	-9.49316
近年来	-9.49492
拍摄	-9.49504
村民	-9.49515
姆	-9.4956
的同时	-9.49574
成都	-9.49655
▁此外	-9.49681
ve	-9.49684
有人	-9.49701
谈	-9.49786
网友	-9.4989
专	-9.49941
广大	-9.49965
推荐	-9.49968
左	-9.50021
民警	-9.5006
彩	-9.50089
短	-9.50093
▁me	-9.50098
伯	-9.50109
注意	-9.50204
资料	-9.50212
下跌	-9.50215
检测	-9.50363
随	-9.50378
主体	-9.50405
父亲	-9.50419
大部分	-9.50582
灯	-9.50651
丹	-9.50699
过程	-9.50831
文明	-9.50854
丁	-9.51052
试	-9.51114
is	-9.51176
杯	-9.51218
com	-9.51234
肉	-9.51288
的地方	-9.51288
印	-9.51403
望	-9.51438
联赛	-9.51438
占比	-9.51446
茶	-9.515
出了	-9.51625
温	-9.51629
装备	-9.51784
一定	-9.51798
蒙	-9.51829
谢	-9.51878
江苏	-9.51909
既	-9.5198
融合	-9.52003
当天	-9.52038
故	-9.5204
沟通	-9.5206
球员	-9.52082
▁R	-9.52103
官方	-9.5211
提前	-9.52186
值	-9.5222
山东	-9.52236
销量	-9.52294
喜欢	-9.52303
卷	-9.52335
洋	-9.52423
论	-9.525
良	-9.52516
造	-9.52557
计	-9.5267
教授	-9.52682
ro	-9.52687
说明	-9.52757
有望	-9.52767
知道	-9.52812
鸟	-9.52813
煤	-9.52841
我们的	-9.52925
等地	-9.53068
意识	-9.53072
泽	-9.5313
每个	-9.53158
惠	-9.53205
据悉	-9.5323
人民币	-9.53248
您	-9.53315
分别为	-9.53495
▁so	-9.53522
军事	-9.53535
则是	-9.53722
程度	-9.53811
乱	-9.53932
洪	-9.54153
足	-9.54266
突出	-9.54309
善	-9.54474
艾	-9.54605
人士	-9.54641
▁责任编辑	-9.54643
▁said	-9.54644
府	-9.54686
跌	-9.54733
离开	-9.54739
as	-9.54781
屋	-9.54781
的情况下	-9.54821
异	-9.54949
本次	-9.5513
吸引	-9.55204
展开	-9.5526
加工	-9.55308
尽	-9.5539
以前	-9.55745
手段	-9.55778
人数	-9.55808
有了	-9.55824
警	-9.55989
至今	-9.55994
及其	-9.56215
▁were	-9.56237
追	-9.56261
表演	-9.56263
等方面	-9.5638
第四	-9.56605
优质	-9.56735
宇	-9.56749
算	-9.56761
创业	-9.56765
▁---	-9.56812
对此	-9.56861
Z	-9.56889
营销	-9.56985
晓	-9.5701
法治	-9.57039
郑	-9.5709
基层	-9.5711
速度	-9.57137
▁we	-9.57155
身体	-9.57166
房屋	-9.57192
全省	-9.57212
▁no	-9.57352
杜	-9.57359
周边	-9.57425
警方	-9.57503
新能源	-9.57577
然	-9.57599
并没有	-9.57617
兼	-9.57618
俱乐部	-9.57668
反对	-9.57672
唱	-9.57675
不得	-9.57728
调研	-9.57733
做到	-9.57774
临	-9.57798
▁In	-9.5788
跳	-9.57916
理念	-9.57949
切	-9.57964
密	-9.57973
抓	-9.58013
久	-9.58025
对方	-9.58282
他说	-9.58345
速	-9.5839
是一种	-9.58522
▁v	-9.58552
物流	-9.5862
乌	-9.58624
落地	-9.58671
昌	-9.58676
个月	-9.58716
掉	-9.58722
他在	-9.58811
中华人民共和国	-9.58844
应对	-9.58848
股票	-9.58853
味	-9.58875
隆	-9.58883
邀请	-9.58926
宋	-9.58994
偏	-9.59053
目	-9.5913
▁one	-9.59159
全市	-9.5925
避免	-9.59251
友	-9.59291
最大	-9.59361
民主	-9.5944
娱乐	-9.59531
怎么	-9.59547
to	-9.59548
▁李	-9.59589
末	-9.59705
可能会	-9.5971
航空	-9.59714
为什么	-9.59734
潮	-9.59795
并在	-9.5993
规则	-9.60028
同比	-9.60061
乡村	-9.60085
="	-9.60113
嘉	-9.60128
仁	-9.60165
产量	-9.60279
出行	-9.60421
拟	-9.60434
较大	-9.60455
执法	-9.60467
▁they	-9.60468
告诉	-9.60499
期待	-9.60506
面临	-9.60549
冬	-9.60643
位置	-9.60659
辆	-9.60787
突然	-9.60809
町	-9.60809
尤其是	-9.60853
涨	-9.60868
▁up	-9.61103
理想	-9.6116
语言	-9.61235
备	-9.61239
周期	-9.6125
网站	-9.61252
还要	-9.61266
右	-9.61343
?”	-9.61408
是在	-9.61455
终于	-9.61463
编	-9.61637
Q	-9.61691
情绪	-9.61693
](//	-9.61827
压	-9.61965
武汉	-9.6199
丰富	-9.61991
发表	-9.62001
万人	-9.62017
剂	-9.62033
现实	-9.62034
移动	-9.6205
坐	-9.62085
|	-9.62108
进口	-9.62203
公众	-9.62271
ers	-9.62305
召开	-9.62308
▁all	-9.62391
架	-9.62436
高质量发展	-9.62524
▁d	-9.62551
li	-9.62618
这么	-9.62749
麦	-9.62774
队伍	-9.6278
组成	-9.6287
▁do	-9.62894
找到	-9.62912
枪	-9.62962
盖	-9.63042
小说	-9.63079
普遍	-9.63208
首先	-9.63277
ia	-9.63306
风格	-9.63448
的时间	-9.6356
咨询	-9.63596
现象	-9.63601
父母	-9.63615
成了	-9.63736
利率	-9.63794
最佳	-9.64014
四川	-9.64055
列车	-9.64111
都在	-9.64143
):	-9.64172
贵	-9.64223
新型	-9.64271
下来	-9.64355
课程	-9.64379
钟	-9.64382
施工	-9.64387
不同的	-9.64417
▁张	-9.64457
确认	-9.64493
继	-9.64528
溪	-9.64611
容易	-9.64622
意义	-9.6463
酒店	-9.64766
旅客	-9.64808
散	-9.64905
君	-9.64945
胜利	-9.64957
财政	-9.64971
赴	-9.6502
演	-9.65115
链	-9.65172
具备	-9.65295
助力	-9.65377
苦	-9.65387
独	-9.65489
组合	-9.65571
玛	-9.65578
互动	-9.65581
始终	-9.65591
▁D	-9.65693
q	-9.65788
足球	-9.65829
使得	-9.65851
优秀	-9.65853
反映	-9.6593
抗	-9.65949
的工作	-9.65969
精准	-9.66026
加拿大	-9.6616
▁him	-9.66366
访问	-9.66374
健	-9.66407
看来	-9.66411
引起	-9.66445
产业链	-9.66524
维持	-9.66533
具	-9.6665
人群	-9.66659
年底	-9.66677
纪念	-9.66683
▁which	-9.66702
工会	-9.66754
更多的	-9.66775
娜	-9.66823
高端	-9.66823
▁end	-9.66881
两国	-9.66969
广西	-9.67002
令人	-9.67026
培育	-9.67034
该公司	-9.67066
配合	-9.67074
至少	-9.67106
相信	-9.67123
料	-9.67155
角色	-9.67205
引发	-9.67266
通常	-9.6734
不可	-9.67364
加大	-9.67391
喜	-9.67416
征	-9.67449
中学	-9.67467
标	-9.67615
岩	-9.67651
玩	-9.67722
背	-9.67908
真的	-9.67922
植物	-9.67923
一份	-9.67975
收益	-9.6816
供	-9.68165
日前	-9.68218
实力	-9.68295
通知	-9.68298
AR	-9.68339
笑	-9.68359
刀	-9.6839
机关	-9.68462
日上午	-9.68568
郭	-9.68591
含	-9.68618
▁can	-9.68666
寺	-9.68725
西班牙	-9.68732
采购	-9.68748
释放	-9.68779
一批	-9.6878
带动	-9.68781
严	-9.68787
朝鲜	-9.69012
委员	-9.6903
洞	-9.69036
祖	-9.69148
▁out	-9.69201
概念	-9.69319
接近	-9.69321
承担	-9.69327
似乎	-9.69399
搞	-9.6964
宽	-9.69672
影	-9.69673
状况	-9.69713
电池	-9.69799
司	-9.69893
旅	-9.69955
相当	-9.70011
~	-9.70076
高度	-9.70086
医	-9.70125
阅读	-9.70165
污染	-9.70213
定位	-9.70264
将在	-9.70285
卫生	-9.70415
攻击	-9.70483
并非	-9.70487
ity	-9.70494
免费	-9.70513
东西	-9.70515
直到	-9.70551
很大	-9.70576
越来越	-9.70652
▁王	-9.70693
来源	-9.70697
让人	-9.7075
毒	-9.70802
回到	-9.70809
策略	-9.70831
▁would	-9.70833
举	-9.70884
产能	-9.70891
文章	-9.70981
解释	-9.71028
罪	-9.71094
▁K	-9.71157
ne	-9.71215
当然	-9.71218
打击	-9.71226
▁their	-9.71327
国务院	-9.71412
出台	-9.71521
跨	-9.71543
医生	-9.71557
同志	-9.71609
你们	-9.71625
军队	-9.7163
et	-9.71736
务	-9.71778
戴	-9.71819
凯	-9.71819
小学	-9.71917
动物	-9.7201
对手	-9.72028
了一个	-9.72111
施	-9.72169
的主要	-9.72197
转型	-9.72223
份	-9.72254
扬	-9.72292
一系列	-9.72299
之外	-9.72304
环节	-9.72348
ol	-9.72373
利润	-9.72392
弹	-9.72393
出现了	-9.72535
评论	-9.72596
日至	-9.72656
日起	-9.72728
侧	-9.72809
”(	-9.72865
舞	-9.72881
急	-9.73008
翻	-9.73103
自动	-9.73112
蒂	-9.73125
欧盟	-9.73321
▁对于	-9.73335
借	-9.73359
建成	-9.7341
持有	-9.73487
协调	-9.73608
忠	-9.73614
新能源汽车	-9.73757
不再	-9.73757
金额	-9.73783
环保	-9.73845
The	-9.73872
帮	-9.74008
帝	-9.74015
引领	-9.74056
绝	-9.74061
告诉记者	-9.74089
整合	-9.74156
▁今年	-9.74266
很难	-9.74297
ul	-9.74305
paper	-9.74416
构成	-9.74441
遇到	-9.74464
称为	-9.7449
犯罪	-9.74517
河南	-9.74577
步	-9.74628
证明	-9.74652
控	-9.74688
开出	-9.74698
un	-9.7472
主义	-9.74721
://	-9.74784
一切	-9.74826
短期	-9.74827
民众	-9.74846
公路	-9.74866
作家	-9.74928
将会	-9.74988
坚决	-9.74991
ra	-9.75047
一项	-9.75051
众多	-9.75072
特征	-9.75084
提醒	-9.75144
依据	-9.75157
丝	-9.75226
红色	-9.75299
发出	-9.75301
公司的	-9.75316
商家	-9.75317
学术	-9.75368
批准	-9.75373
从事	-9.75396
专门	-9.75403
仓	-9.75448
势	-9.75502
禁止	-9.75508
办公室	-9.75551
*	-9.75561
就能	-9.75596
est	-9.75614
增速	-9.75615
并未	-9.75623
亩	-9.75661
高校	-9.75661
▁目前	-9.75682
希	-9.75708
越南	-9.75744
观察	-9.7576
购	-9.75773
欢迎	-9.7581
监测	-9.75872
预测	-9.75875
聚焦	-9.75889
分享	-9.75942
经历	-9.75952
海洋	-9.75991
呈现	-9.761
爆发	-9.76175
上市公司	-9.76218
桑	-9.76241
集体	-9.76263
纪	-9.7629
一天	-9.76302
负	-9.76373
天气	-9.7642
待	-9.7647
死亡	-9.76476
共享	-9.7649
实现了	-9.76557
铜	-9.76582
吕	-9.76618
意大利	-9.76622
微信	-9.76705
ir	-9.76798
俄	-9.76824
剑	-9.76885
乌克兰	-9.76948
▁摄	-9.77015
旗	-9.77129
细	-9.77158
硬	-9.77189
埃	-9.77194
还在	-9.77262
感染	-9.77334
缺乏	-9.77365
指挥	-9.7738
也不	-9.77386
房地产	-9.77397
有着	-9.77412
运动员	-9.77449
地位	-9.77464
重视	-9.77536
额	-9.7757
黄金	-9.77593
棉	-9.77784
素	-9.77868
它的	-9.7789
引	-9.77957
连接	-9.77966
三大	-9.77993
ch	-9.78003
～	-9.78123
她的	-9.78173
品质	-9.78231
配置	-9.78267
运用	-9.78348
协同	-9.78394
驾驶	-9.78446
已有	-9.78451
澳大利亚	-9.78498
股东	-9.78501
赛季	-9.78533
同意	-9.78694
斗	-9.78846
注册	-9.78877
晚	-9.78949
穿	-9.79013
灵	-9.791
矛盾	-9.79123
▁近日	-9.79134
较为	-9.79177
抢	-9.79177
巨	-9.79208
数字化	-9.79245
武器	-9.79272
领域的	-9.793
矿	-9.79382
$	-9.79392
文件	-9.79456
怀	-9.7962
曹	-9.79634
毫米	-9.79652
日在	-9.79726
总结	-9.79753
通道	-9.79767
um	-9.79793
科研	-9.79825
▁--	-9.79829
发布的	-9.79893
获悉	-9.7998
纯	-9.80082
汇	-9.80095
▁H	-9.80135
当年	-9.80311
家长	-9.80375
享受	-9.80543
佛	-9.80566
类似	-9.8057
董事长	-9.80574
正是	-9.80589
带着	-9.80658
折	-9.80674
地产	-9.80687
示范	-9.80725
,"	-9.80739
池	-9.8076
深度	-9.80828
营收	-9.80897
延	-9.80909
股权	-9.80941
顺利	-9.81005
母亲	-9.81009
住房	-9.81095
IP	-9.81152
题	-9.8116
谈判	-9.81194
冲击	-9.81199
登记	-9.81205
身上	-9.81248
年至	-9.81285
心理	-9.81304
▁饰	-9.81511
高达	-9.81533
在中国	-9.81537
接触	-9.81552
秦	-9.81578
高效	-9.81608
群体	-9.81627
?」	-9.81666
生命	-9.81688
载	-9.81711
感觉	-9.81718
小米	-9.81732
联合国	-9.81781
表明	-9.818
技能	-9.81863
ll	-9.81884
但在	-9.81888
end	-9.81889
著名	-9.8201
供应链	-9.82017
信用	-9.82076
竹	-9.82195
人生	-9.82206
确实	-9.82241
击	-9.82265
习惯	-9.82266
一是	-9.82318
走向	-9.82356
提到	-9.82362
追求	-9.82376
制造业	-9.82405
籍	-9.82407
估值	-9.82414
▁N	-9.82565
信号	-9.8259
凡	-9.82625
篇	-9.82738
美联储	-9.82759
尚未	-9.82872
机械	-9.83019
即将	-9.83023
依	-9.83046
▁un	-9.83067
另一方面	-9.83074
堡	-9.83097
辉	-9.83105
虎	-9.83114
霍	-9.83132
秒	-9.83143
晋	-9.83158
拒绝	-9.83161
标签	-9.83166
评	-9.8319
出发	-9.83205
青岛	-9.83341
分为	-9.8337
大学生	-9.83464
赫	-9.8347
莉	-9.83547
细胞	-9.83567
石油	-9.83594
家族	-9.83595
功	-9.83638
民生	-9.8374
im	-9.8382
回应	-9.83823
福建	-9.83858
纪录	-9.83869
命	-9.83892
将于	-9.83913
履行	-9.83953
电力	-9.83982
▁your	-9.84011
聚	-9.84011
售	-9.8402
团结	-9.84028
办法	-9.84072
主任	-9.84198
纷纷	-9.84291
年轻人	-9.84358
停止	-9.8437
反应	-9.84416
ID	-9.84434
码	-9.84436
大众	-9.84473
程序	-9.84666
影片	-9.84666
危险	-9.84673
学者	-9.84706
社会主义	-9.84726
网上	-9.84757
蔡	-9.84763
严格	-9.84773
走进	-9.84803
认真	-9.8486
able	-9.84872
持	-9.85047
op	-9.85061
菲	-9.85142
的历史	-9.85155
疾病	-9.85171
床	-9.85188
块	-9.85194
二是	-9.85251
解放	-9.8531
采	-9.85425
非法	-9.85429
化学	-9.85504
艺	-9.85521
根本	-9.85536
路线	-9.85547
亏损	-9.85571
承诺	-9.85576
景区	-9.8558
工资	-9.85591
西方	-9.85591
▁m	-9.85596
服	-9.85606
活力	-9.85625
导	-9.85719
后续	-9.85803
纠纷	-9.8583
明年	-9.85838
扎	-9.85888
历	-9.85897
威胁	-9.85898
当事人	-9.8597
盐	-9.86066
带来的	-9.86083
线路	-9.86193
涉	-9.86262
发展的	-9.86266
盈利	-9.86271
原则	-9.86303
往往	-9.86331
总体	-9.86359
酸	-9.8637
的故事	-9.86382
▁据了解	-9.86395
错	-9.86415
权益	-9.86419
流程	-9.86432
▁into	-9.86483
配套	-9.86484
注	-9.86533
年前	-9.86576
混	-9.86589
企	-9.86608
论坛	-9.86635
孔	-9.86715
众	-9.86743
认识	-9.86747
自我	-9.86825
巴西	-9.8684
几个	-9.86863
探	-9.86905
医药	-9.86913
修复	-9.86949
婚	-9.86989
▁who	-9.87149
肥	-9.87263
药物	-9.87276
后的	-9.87291
适应	-9.87386
特殊	-9.87448
作业	-9.87487
资	-9.87519
一旦	-9.87631
本身	-9.87657
号码	-9.87676
总理	-9.87688
▁中国	-9.87694
▁e	-9.87768
▁记者	-9.87867
为此	-9.87873
▁历史	-9.87893
状	-9.88007
耳	-9.88014
先进	-9.88098
幸福	-9.88105
全力	-9.88116
披露	-9.88195
还将	-9.88304
帕	-9.88325
一下	-9.88356
广场	-9.88361
十二	-9.88382
▁W	-9.8839
儿子	-9.88437
想要	-9.88441
订单	-9.88447
兹	-9.88463
一度	-9.88466
陆续	-9.8847
昨天	-9.88499
斗争	-9.88506
惊	-9.88531
勇	-9.88594
版本	-9.88609
▁has	-9.88621
感谢	-9.88638
哥	-9.88738
号线	-9.88814
选手	-9.88822
am	-9.88886
动态	-9.88891
两岸	-9.88894
一方面	-9.88912
新疆	-9.88915
湾	-9.88964
炮	-9.88966
决赛	-9.89021
te	-9.89047
身份	-9.89067
▁It	-9.89078
知名	-9.89096
创建	-9.89229
厚	-9.89232
▁will	-9.89314
做出	-9.89391
泉	-9.89392
此时	-9.894
司机	-9.89472
岗	-9.89524
co	-9.89526
净利润	-9.89529
层面	-9.89621
基础设施	-9.89671
脱	-9.89706
▁本报讯	-9.89737
行情	-9.89743
英雄	-9.89755
下滑	-9.8977
老年人	-9.89816
债	-9.89908
特点	-9.89919
一线	-9.89934
地下	-9.90012
增加了	-9.90037
广泛	-9.9008
领先	-9.90089
振	-9.90092
敏	-9.90132
四个	-9.90141
▁@	-9.90167
法官	-9.90182
快手	-9.90265
排名	-9.90279
性能	-9.90325
案例	-9.90361
进展	-9.90365
形象	-9.90369
女儿	-9.90427
%、	-9.90427
挂	-9.90441
明星	-9.90465
粮食	-9.90552
相互	-9.90582
波动	-9.9063
五年	-9.90654
纳入	-9.90678
动作	-9.90706
的产品	-9.90739
刚刚	-9.90821
范	-9.90842
▁J	-9.90883
il	-9.90886
纸	-9.90888
粮	-9.90964
品种	-9.91018
实验	-9.91025
冠	-9.91043
就在	-9.91054
党员	-9.91148
森林	-9.91161
护	-9.91172
名单	-9.91256
签订	-9.91297
肯定	-9.91305
研究院	-9.91341
的小	-9.91398
非洲	-9.91452
旗下	-9.91472
对话	-9.91522
战斗	-9.91594
宣	-9.91601
更新	-9.9165
对外	-9.91662
临时	-9.91663
有的	-9.9167
助	-9.91687
滑	-9.91716
and	-9.91724
复杂	-9.91797
▁could	-9.91882
mo	-9.91898
破坏	-9.9192
」。	-9.9198
斯特	-9.92091
里的	-9.92095
新时代	-9.92237
魏	-9.92289
冲突	-9.92296
ine	-9.92301
▁more	-9.92316
多家	-9.9232
ig	-9.92356
两年	-9.92399
南部	-9.92661
歌曲	-9.92717
▁return	-9.92742
值得	-9.92766
另一	-9.92778
万辆	-9.92784
专利	-9.9279
境内	-9.92794
ce	-9.92892
格局	-9.92913
通报	-9.92916
对象	-9.92927
性的	-9.92964
担心	-9.93111
尝试	-9.93191
平衡	-9.93204
紧张	-9.93221
年间	-9.9324
有利于	-9.93241
私	-9.93246
官员	-9.9326
回归	-9.93263
ad	-9.93319
mm	-9.93392
佩	-9.93467
首都	-9.93525
开启	-9.93534
争取	-9.93646
敌	-9.93672
一边	-9.93674
▁been	-9.93677
的生活	-9.93681
▁back	-9.93758
▁then	-9.93818
一致	-9.93845
缘	-9.93922
上半年	-9.93948
榜	-9.93948
感受	-9.93958
la	-9.93963
小组	-9.93966
」,	-9.93986
市场的	-9.94048
危机	-9.94101
▁L	-9.94142
超级	-9.94196
巨大	-9.94238
所谓	-9.9425
获得了	-9.94384
自主	-9.9439
郎	-9.94432
试验	-9.94445
的大	-9.94467
鸡	-9.94501
个百分点	-9.94518
刺激	-9.9456
的基础上	-9.94566
就有	-9.94629
暗	-9.94676
父	-9.94724
置	-9.94747
方面的	-9.94747
此后	-9.9476
甘	-9.94955
混合	-9.94971
一张	-9.94992
解决方案	-9.95014
损失	-9.95099
lo	-9.95143
年来	-9.95152
上了	-9.9521
的行为	-9.95243
场所	-9.95255
摩	-9.95274
各个	-9.9536
的需求	-9.95366
优惠	-9.95383
汤	-9.95412
判断	-9.95414
农产品	-9.95418
▁生平	-9.95419
朗	-9.95474
放在	-9.95618
山西	-9.95625
哪	-9.9563
寿	-9.95641
寻找	-9.95681
药品	-9.95696
麻	-9.95705
将其	-9.95719
饭	-9.95784
箱	-9.9579
彭	-9.95864
更为	-9.95898
迎来	-9.95918
预算	-9.95963
事情	-9.96005
研究所	-9.96023
联邦	-9.96139
幕	-9.96195
虽	-9.962
燕	-9.96209
深化	-9.96228
医学	-9.96231
之下	-9.96243
显著	-9.9625
俊	-9.96303
举措	-9.96304
免	-9.96305
决策	-9.96307
救援	-9.96311
新加坡	-9.96315
年轻	-9.96361
波兰	-9.96369
协助	-9.96378
重要的	-9.96393
玩家	-9.96402
▁them	-9.96409
文物	-9.9641
播出	-9.96431
财	-9.96575
岗位	-9.96718
在一起	-9.96763
授权	-9.96783
ie	-9.96893
耶	-9.96896
方便	-9.96943
今日	-9.97007
或许	-9.9702
经济发展	-9.97086
东方	-9.97132
平安	-9.97137
侯	-9.97196
国产	-9.97198
球迷	-9.97217
最低	-9.97224
来了	-9.97233
会员	-9.9725
认定	-9.97266
大幅	-9.97271
身边	-9.97273
?**	-9.97287
青春	-9.97299
疫情防控	-9.97307
线下	-9.9731
试点	-9.97335
围	-9.9736
争	-9.97364
专项	-9.97395
ut	-9.97408
境	-9.97424
多数	-9.9746
表达	-9.9746
东部	-9.97493
之中	-9.97566
年以来	-9.97583
慢	-9.97595
即使	-9.97618
敬	-9.97644
多种	-9.97655
事实	-9.97685
の	-9.97687
回答	-9.97703
取消	-9.97714
掌握	-9.97715
se	-9.97765
也将	-9.97768
▁like	-9.97773
老板	-9.97796
弱	-9.97801
作战	-9.97823
观点	-9.979
领导人	-9.9799
回家	-9.98027
资格	-9.98042
射	-9.98121
事务	-9.98124
效应	-9.98138
皆	-9.9814
退休	-9.98155
思考	-9.9816
就可以	-9.98186
沟	-9.98219
声明	-9.98249
象	-9.98347
脸	-9.98369
发射	-9.98383
邦	-9.98387
的价格	-9.98466
山区	-9.9849
收到	-9.98614
房企	-9.98627
储能	-9.98635
主要是	-9.9864
救	-9.98668
出席	-9.98698
出生	-9.98755
杭州	-9.9879
摄	-9.98796
一片	-9.98826
舰	-9.98903
取得了	-9.99038
羊	-9.99066
半导体	-9.99071
调解	-9.99088
变成	-9.99127
育	-9.99143
贴	-9.99156
通信	-9.99205
也要	-9.99258
广东省	-9.99313
刻	-9.99433
▁con	-9.99557
经典	-9.99565
猪	-9.99666
智能化	-9.99677
面向	-9.997
样	-9.99711
在线	-9.99715
ant	-9.99715
中国人民	-9.9975
当日	-9.9994
事项	-9.99949
党的	-9.99969
现金	-9.99996
佐	-10.0001
特斯拉	-10.0001
是由	-10.0001
云南	-10.0004
工艺	-10.0006
na	-10.0008
优先	-10.0009
月底	-10.0011
也可以	-10.0015
各国	-10.0017
▁She	-10.0019
原本	-10.0028
大陆	-10.003
地铁	-10.0033
在这里	-10.0034
西部	-10.0036
日晚	-10.0042
整改	-10.0043
外国	-10.0046
兄弟	-10.0048
乙	-10.0048
简单	-10.0055
违法	-10.0056
元素	-10.0058
中间	-10.0058
财产	-10.0065
移民	-10.0067
这也是	-10.007
原来	-10.0073
贷	-10.0079
横	-10.0086
电视剧	-10.0087
苗	-10.0091
防止	-10.0096
澳门	-10.0097
当下	-10.0097
高速	-10.0099
承	-10.0102
▁不过	-10.0108
内地	-10.011
本地	-10.011
病例	-10.0117
社交	-10.0118
不知道	-10.0124
审	-10.013
拜	-10.0135
日下午	-10.0139
疫苗	-10.0143
www	-10.0143
批评	-10.0145
上海市	-10.0147
▁新华社	-10.0157
up	-10.016
▁time	-10.0161
洗	-10.0165
圆	-10.0173
鲜	-10.0177
切实	-10.0179
供给	-10.0185
厂商	-10.0186
涨幅	-10.0187
祥	-10.019
("	-10.019
描述	-10.0191
的原因	-10.0196
▁刘	-10.0199
遭遇	-10.0202
地点	-10.0204
▁get	-10.021
的关键	-10.0212
湖南	-10.0217
放弃	-10.022
****	-10.0225
信心	-10.0232
启	-10.0235
法庭	-10.0239
整治	-10.0239
博士	-10.0242
仙	-10.0242
柳	-10.0245
关心	-10.0247
唯一	-10.0249
龙头	-10.0269
继承	-10.0271
os	-10.0275
大力	-10.0279
物质	-10.028
潜力	-10.0283
成就	-10.0283
各项	-10.0286
播	-10.0286
拓展	-10.0287
冯	-10.0287
第一个	-10.0288
东京	-10.0288
地区的	-10.0289
友好	-10.0298
市值	-10.0314
青少年	-10.0317
糖	-10.0319
无论是	-10.0322
愿意	-10.0325
喝	-10.0328
▁&	-10.0329
仪	-10.033
止	-10.033
穆	-10.0335
到达	-10.0335
须	-10.0335
考试	-10.0337
预防	-10.0338
处置	-10.0338
▁//	-10.0341
紧	-10.0341
在于	-10.0345
选举	-10.0347
予以	-10.0351
容	-10.0351
批	-10.0355
病毒	-10.0362
呈	-10.0368
包含	-10.0378
粉	-10.0379
饰演	-10.0381
逻辑	-10.0385
退出	-10.0385
显	-10.0395
阿里	-10.0397
▁O	-10.04
深刻	-10.0402
▁co	-10.0407
发放	-10.0409
成熟	-10.041
提出了	-10.0416
录	-10.042
幼	-10.042
货币	-10.0429
乔	-10.0432
浩	-10.0433
可是	-10.0445
背景	-10.045
周年	-10.0451
华为	-10.0453
支出	-10.0454
在北京	-10.0467
▁about	-10.0473
昨日	-10.0474
一座	-10.0478
设有	-10.0479
依靠	-10.0484
代表团	-10.0487
分子	-10.0494
在美国	-10.0495
不好	-10.0496
的作用	-10.0501
会上	-10.0504
赛道	-10.0509
浪	-10.0515
早期	-10.052
愿	-10.0521
在内的	-10.0525
别人	-10.0527
终	-10.0527
补充	-10.0529
』	-10.0533
index	-10.0533
遗址	-10.0533
念	-10.0535
get	-10.0536
带领	-10.0545
检	-10.0547
内蒙古	-10.0551
西南	-10.0552
加上	-10.0554
贵州	-10.0555
陶	-10.0559
辛	-10.0565
高级	-10.0569
息	-10.0571
形成了	-10.0572
刺	-10.0575
展览	-10.0576
依托	-10.0583
舍	-10.0585
妻子	-10.0589
现有	-10.059
必	-10.0593
恒	-10.06
▁class	-10.0601
将继续	-10.0601
预	-10.0603
固	-10.0604
韦	-10.0615
账	-10.0621
大规模	-10.0628
腾	-10.0629
微博	-10.063
中国的	-10.0631
仪式	-10.0634
版权	-10.0646
j	-10.065
年龄	-10.0662
痛	-10.0668
公安	-10.068
结婚	-10.0687
零售	-10.069
ive	-10.0695
这位	-10.0698
西安	-10.0698
等问题	-10.0701
监	-10.0701
ty	-10.0705
形势	-10.071
温度	-10.0711
乘	-10.0717
津	-10.0725
险	-10.0726
充满	-10.0727
荣誉	-10.0733
率先	-10.0742
有一个	-10.0751
sh	-10.0755
遭	-10.0759
劲	-10.0771
烟	-10.0775
董	-10.0781
▁there	-10.0781
ー	-10.0784
氛围	-10.0784
举行的	-10.0786
同年	-10.0789
类型	-10.0794
协商	-10.0797
当中	-10.0801
简	-10.0805
学科	-10.0817
起了	-10.0817
她们	-10.082
总经理	-10.0821
接到	-10.0821
很快	-10.0822
长江	-10.0826
今后	-10.0829
未能	-10.083
识别	-10.0835
依旧	-10.0835
细节	-10.0837
大约	-10.0838
打开	-10.0846
真实	-10.0851
go	-10.0855
不够	-10.0857
股份有限公司	-10.0878
陵	-10.0881
禁	-10.0881
饰	-10.0883
净	-10.0884
搜索	-10.0886
幅度	-10.0889
尽快	-10.0889
合计	-10.0889
意外	-10.0896
文艺	-10.0898
本土	-10.0899
")	-10.0899
ence	-10.0901
迁	-10.0901
发起	-10.0907
沉	-10.0909
▁/	-10.0913
no	-10.0915
废	-10.092
更好	-10.0926
ian	-10.0927
进步	-10.0929
镜	-10.0933
坡	-10.0937
手术	-10.0947
休	-10.0956
国王	-10.0958
工作的	-10.096
如下	-10.0961
而在	-10.0962
可能是	-10.0965
露	-10.0966
更大	-10.0973
将军	-10.0974
机遇	-10.0975
锋	-10.0978
烧	-10.0981
前期	-10.0984
茂	-10.099
印尼	-10.0991
▁g	-10.0993
展现	-10.0994
永远	-10.0994
思路	-10.0999
家人	-10.1
库存	-10.1
引进	-10.1001
全年	-10.1013
资本市场	-10.1019
淡	-10.1022
好的	-10.1026
分类	-10.1034
妈妈	-10.1041
以色列	-10.1041
约翰	-10.1042
争议	-10.1042
致力于	-10.1043
庙	-10.1052
有限	-10.1061
流行	-10.1061
闻	-10.1062
迷	-10.107
::	-10.1073
快递	-10.1078
现代化	-10.108
all	-10.1081
一定要	-10.1088
译	-10.1089
是因为	-10.1089
营造	-10.1093
赔偿	-10.1094
击败	-10.1095
流动	-10.1095
以下简称	-10.1095
扩张	-10.1095
分布	-10.1101
下游	-10.1102
#	-10.1116
大多数	-10.1117
诚	-10.1118
正确	-10.1118
?"	-10.112
de	-10.1123
万美元	-10.1131
讯	-10.1133
杂	-10.1138
忙	-10.1139
柏	-10.1143
柱	-10.1145
被称为	-10.1145
高速公路	-10.1146
呼吁	-10.1147
坚定	-10.1147
武装	-10.1148
驱动	-10.1151
建造	-10.1152
团体	-10.1158
公交	-10.116
保留	-10.1161
里面	-10.1165
飞行	-10.1165
鹏	-10.1167
▁la	-10.1168
蔬菜	-10.1168
留下	-10.1169
的核心	-10.1169
沃	-10.1169
南方	-10.1172
一段	-10.118
ate	-10.1183
练	-10.1192
下的	-10.1192
万股	-10.1198
贤	-10.1198
财务	-10.1199
马来西亚	-10.1199
▁when	-10.12
大小	-10.1206
文旅	-10.1207
遭到	-10.1214
出售	-10.1218
对接	-10.1219
▁我	-10.1223
润	-10.1231
▁作为	-10.1235
son	-10.1237
...	-10.1242
▁over	-10.1243
是中国	-10.1248
账户	-10.1252
一带一路	-10.1253
参观	-10.126
适合	-10.1265
安装	-10.1266
合并	-10.1271
平方米	-10.1274
分析师	-10.1281
暴	-10.1284
完成了	-10.1284
金融机构	-10.1286
良好	-10.1299
▁st	-10.1301
萧	-10.1301
腾讯	-10.1304
发布了	-10.1305
孟	-10.1306
暨	-10.1306
期货	-10.1312
收集	-10.1312
十年	-10.1316
财经	-10.1325
man	-10.1335
名为	-10.1335
毕业	-10.1339
是个	-10.1348
体现	-10.1349
卫星	-10.1352
分配	-10.1353
时刻	-10.1356
尊重	-10.1361
的要求	-10.1365
光伏	-10.1366
io	-10.1373
并不是	-10.1375
`	-10.1381
文字	-10.1382
就要	-10.1386
河北	-10.1387
执	-10.1389
另	-10.1392
枚	-10.1396
开通	-10.1399
总是	-10.14
队员	-10.1402
移	-10.1404
付	-10.1407
能否	-10.1409
什	-10.1412
锻炼	-10.1413
▁some	-10.1415
隔离	-10.1418
下一步	-10.1421
警察	-10.1426
历史上	-10.1435
南非	-10.1438
劳	-10.1441
区间	-10.1442
湖北	-10.1442
侵略	-10.1447
域	-10.1451
条例	-10.1454
安徽	-10.1459
产业发展	-10.1459
债券	-10.1463
那个	-10.1463
棒	-10.1466
态度	-10.1467
差距	-10.1469
关闭	-10.1469
创意	-10.1471
试图	-10.1472
站在	-10.1473
太阳	-10.1475
审批	-10.1478
同学	-10.1481
名称	-10.1484
秩序	-10.1486
会有	-10.1493
着力	-10.15
芳	-10.1504
还能	-10.1505
低于	-10.1507
获取	-10.1511
最初	-10.1517
早在	-10.1525
em	-10.1528
航天	-10.1529
承认	-10.153
转变	-10.1534
APP	-10.1535
炉	-10.1541
允许	-10.1543
听到	-10.1545
署	-10.1546
ver	-10.1552
并于	-10.1553
初步	-10.1554
附	-10.1555
▁en	-10.1557
name	-10.1558
冬季	-10.1565
子女	-10.1566
各级	-10.1566
焦	-10.157
观看	-10.1574
薄	-10.1574
的事情	-10.1577
▁dis	-10.1577
担当	-10.158
背后	-10.1583
多元	-10.1586
魔	-10.1595
充分发挥	-10.1596
带来了	-10.1596
也没有	-10.1601
的数据	-10.1604
全区	-10.1605
略	-10.1608
ance	-10.1612
洲	-10.1616
产品的	-10.1621
物资	-10.1627
证据	-10.1628
签约	-10.1629
慧	-10.1631
嘴	-10.1631
餐	-10.1632
抽	-10.1637
晚上	-10.1638
频道	-10.1639
原料	-10.1639
健身	-10.1639
▁h	-10.1647
泰国	-10.1648
无论	-10.1654
限	-10.166
多名	-10.1667
彻底	-10.1677
冈	-10.1688
▁China	-10.1689
交付	-10.169
那样	-10.1693
暂时	-10.1696
美食	-10.1698
二十	-10.1701
效	-10.1701
术	-10.1702
修改	-10.1705
被告	-10.171
qu	-10.1711
败	-10.1715
荒	-10.1719
和其他	-10.172
脑	-10.1723
也能	-10.1724
他人	-10.1729
审判	-10.1729
校园	-10.1733
都要	-10.1734
判决	-10.1739
软	-10.174
谋	-10.1741
详细	-10.1743
狗	-10.1743
ill	-10.1745
▁陈	-10.1747
融	-10.1749
处罚	-10.1749
招生	-10.1752
到底	-10.1754
主持	-10.1754
ist	-10.176
相关的	-10.1761
逃	-10.1762
om	-10.1776
海南	-10.1777
成交	-10.1787
公益	-10.1789
中文	-10.1789
你的	-10.1794
希腊	-10.1799
大队	-10.1801
毕竟	-10.1801
休息	-10.1801
粉丝	-10.1801
一体化	-10.1803
透	-10.1804
机器人	-10.1812
<	-10.182
ry	-10.1822
摆	-10.1825
宗教	-10.1827
互	-10.1828
就像	-10.1829
测	-10.1834
学会	-10.1834
激发	-10.1834
海军	-10.1835
年起	-10.1836
->	-10.1837
缺	-10.1839
豪	-10.1841
同步	-10.1844
观念	-10.1846
人民政府	-10.1849
主力	-10.185
估计	-10.1858
配备	-10.1859
渡	-10.186
整理	-10.186
走势	-10.1862
人民群众	-10.1862
图片	-10.1864
等等	-10.1866
迎	-10.1867
全体	-10.1867
▁only	-10.1868
国外	-10.1872
物业	-10.1875
机动车	-10.1875
由此	-10.1878
震	-10.1879
弗	-10.1882
行业的	-10.1885
臣	-10.1886
有可能	-10.1907
贺	-10.1912
一直在	-10.1914
毛主席	-10.1915
me	-10.1923
顾	-10.1924
办公	-10.1925
简称	-10.1932
回收	-10.1932
积	-10.1937
成为了	-10.1947
不了	-10.1948
多少	-10.1949
宏	-10.1953
无人	-10.1963
贫困	-10.1964
寒	-10.1964
攻	-10.1964
奈	-10.1966
琴	-10.1967
活跃	-10.1967
墨	-10.197
é	-10.1971
储备	-10.1972
@	-10.1981
影视	-10.1992
签署	-10.1999
达成	-10.2003
本人	-10.2006
绝对	-10.2007
年初	-10.2011
大数据	-10.2013
再度	-10.2017
ok	-10.2023
定期	-10.2023
不得不	-10.2026
皇	-10.2026
邓	-10.2027
应急	-10.2028
缓解	-10.2029
监控	-10.2029
某些	-10.203
硬件	-10.203
生涯	-10.2031
巨头	-10.2034
防控	-10.2036
流通	-10.2039
义务	-10.2046
丰富的	-10.205
热点	-10.205
读者	-10.2053
科技创新	-10.2055
消	-10.2059
高于	-10.2063
](/	-10.2065
内的	-10.2071
准确	-10.2072
时尚	-10.2075
一部分	-10.2082
的目标	-10.2085
杆	-10.2085
呼	-10.2085
舞台	-10.2086
贾	-10.2086
题材	-10.2087
教练	-10.2088
管控	-10.2089
园区	-10.2089
未成年人	-10.209
家里	-10.2093
经理	-10.2094
两位	-10.2095
shtml	-10.2098
进攻	-10.2101
结束后	-10.2106
益	-10.2111
种子	-10.2111
下去	-10.2113
一周	-10.2113
还会	-10.2114
了解到	-10.2116
这场	-10.212
岸	-10.2122
十五	-10.2123
IT	-10.2137
去世	-10.2139
尖	-10.2142
扶贫	-10.2144
维修	-10.2146
▁its	-10.2152
▁what	-10.2155
崔	-10.2156
第五	-10.2164
三十	-10.2171
墙	-10.2182
壮	-10.2185
凉	-10.2186
一部	-10.2186
两次	-10.2187
授	-10.2188
主流	-10.219
寻求	-10.2204
投诉	-10.2204
行驶	-10.2207
歌手	-10.2207
诉	-10.221
▁other	-10.2212
京东	-10.2212
主张	-10.2218
告	-10.2221
化解	-10.2224
IN	-10.2234
珠	-10.2236
百年	-10.224
爆	-10.2244
北部	-10.2245
sa	-10.2246
控股	-10.2248
居住	-10.2249
墓	-10.2252
是什么	-10.2253
日报道	-10.2254
巩固	-10.2261
道德	-10.2262
融入	-10.2266
ta	-10.2272
固定	-10.2273
下午	-10.2273
首批	-10.2274
▁随着	-10.2276
犯	-10.2278
▁under	-10.2286
科学家	-10.2287
敌人	-10.2295
诸	-10.2296
浅	-10.2319
睡	-10.232
潘	-10.2321
赢得	-10.2321
妇女	-10.2321
外界	-10.2326
派出所	-10.2328
乘客	-10.2333
浦东	-10.2333
档	-10.234
西北	-10.2341
后期	-10.2346
竞争力	-10.2348
首个	-10.2352
多年	-10.2353
最多	-10.2355
ies	-10.2359
在此	-10.2361
涛	-10.2362
似	-10.237
济	-10.2372
隔	-10.2373
的机会	-10.2373
一路	-10.2375
▁###	-10.2378
姜	-10.2381
・	-10.2381
加盟	-10.2382
屏	-10.2382
专题	-10.2382
今年以来	-10.2384
的变化	-10.2385
帝国	-10.2386
打算	-10.2388
入选	-10.2401
铺	-10.2407
采访	-10.241
形态	-10.2414
一套	-10.2416
划	-10.2417
的关系	-10.2419
栋	-10.2426
阴	-10.243
较高	-10.2431
曾在	-10.2436
食物	-10.2438
累	-10.2438
孝	-10.2439
公平	-10.244
袁	-10.244
联动	-10.2446
宜	-10.2448
环比	-10.245
舒	-10.245
上线	-10.2455
英语	-10.2457
接下来	-10.2459
相同	-10.246
电视台	-10.2466
生长	-10.2469
最早	-10.2471
对比	-10.2473
▁first	-10.2474
斤	-10.2475
币	-10.2483
准	-10.2492
▁set	-10.2495
主导	-10.2496
戈	-10.2498
统	-10.2498
▁Re	-10.25
欣	-10.25
坑	-10.25
玻璃	-10.25
琳	-10.25
共和国	-10.2501
质疑	-10.2502
做了	-10.2504
权威	-10.2506
照片	-10.251
考核	-10.2518
全新	-10.2518
▁然而	-10.253
普及	-10.254
的风险	-10.2542
</	-10.2542
月初	-10.2545
地面	-10.2546
熊	-10.2553
援助	-10.256
互相	-10.2561
提示	-10.2562
变得	-10.2567
票房	-10.2567
▁w	-10.2567
这也	-10.2568
孩子们	-10.2572
一只	-10.2577
搭建	-10.2578
难题	-10.2579
▁As	-10.2589
家中	-10.2601
的作品	-10.2602
以上的	-10.2604
恶	-10.2604
灰	-10.2605
为何	-10.2605
浙江省	-10.2608
江西	-10.2612
▁know	-10.2613
bo	-10.2617
幅	-10.262
总量	-10.2621
毅	-10.2622
鸿	-10.2622
态势	-10.2622
所在	-10.2624
天狮	-10.2624
精彩	-10.2624
出现在	-10.2626
职务	-10.2637
▁而	-10.2639
沿	-10.264
专辑	-10.2645
祖国	-10.2645
▁除了	-10.2649
age	-10.2653
棋	-10.2653
报道称	-10.2656
显然	-10.2672
责	-10.2674
残	-10.2678
诸多	-10.2678
北方	-10.268
鼓	-10.2681
胶	-10.2683
瓶	-10.2683
巴黎	-10.2683
循环	-10.2683
▁two	-10.2684
声音	-10.2684
传承	-10.2686
翼	-10.2686
为例	-10.2688
rt	-10.2689
电脑	-10.2691
销	-10.2694
收获	-10.2696
有时	-10.2699
定义	-10.2715
▁r	-10.272
延伸	-10.272
财富	-10.2722
有机	-10.2723
人工	-10.2723
泥	-10.2724
竞赛	-10.2735
遇	-10.2741
沈	-10.2742
”**	-10.2742
门槛	-10.2745
霸	-10.2745
有助于	-10.2746
路径	-10.2747
女士	-10.275
塘	-10.275
ang	-10.2761
等人	-10.2764
还没有	-10.2766
转向	-10.2768
江苏省	-10.2771
更高	-10.2772
错误	-10.2775
良好的	-10.2776
借款	-10.2781
一辆	-10.2786
的企业	-10.279
ci	-10.2794
以为	-10.2795
ER	-10.2795
殿	-10.2796
主演	-10.2797
▁where	-10.2797
浮	-10.2797
赏	-10.2803
奋斗	-10.2806
▁new	-10.2806
荷兰	-10.2808
官兵	-10.281
返回	-10.2814
有关部门	-10.2816
!」	-10.2817
▁+	-10.2821
沈阳	-10.2823
意味着	-10.2825
党委	-10.2827
日益	-10.2831
国防	-10.2832
更有	-10.2836
▁than	-10.2836
地球	-10.2845
童	-10.2846
中方	-10.2849
高中	-10.285
害	-10.2855
有序	-10.2856
超市	-10.2857
都能	-10.2858
金属	-10.2864
蒋	-10.2865
激励	-10.2866
症	-10.287
负担	-10.287
等方式	-10.287
失败	-10.2871
杂志	-10.2872
庭	-10.2872
同比下降	-10.2874
取代	-10.2876
年内	-10.2879
紫	-10.2882
实际上	-10.2883
立法	-10.2885
得到了	-10.2886
碳	-10.2888
提交	-10.2896
中超	-10.29
过来	-10.2908
上下	-10.2913
基因	-10.2916
ay	-10.2918
长沙	-10.2921
▁同时	-10.2924
柜	-10.2926
各自	-10.2927
开工	-10.2929
茨	-10.2932
大赛	-10.2935
伊朗	-10.2935
必然	-10.2935
改进	-10.2938
这项	-10.2939
▁import	-10.2944
创始人	-10.2945
最重要的	-10.2949
回来	-10.2953
防范	-10.2958
总部	-10.2959
企业的	-10.2964
高铁	-10.2967
pe	-10.2969
阵	-10.298
另一个	-10.2986
王国	-10.2988
推出了	-10.2988
犬	-10.2992
误	-10.2992
鸣	-10.2993
公布的	-10.2995
帮扶	-10.2996
变革	-10.2997
一款	-10.2998
并将	-10.3
生意	-10.3002
推行	-10.3005
哈尔滨	-10.3013
的技术	-10.3025
&	-10.3026
",	-10.303
共建	-10.3032
女孩	-10.3036
席	-10.304
岳	-10.3041
危	-10.3042
债务	-10.3044
小型	-10.3045
瓜	-10.3047
猫	-10.305
年上半年	-10.3054
ac	-10.3057
仍有	-10.3058
住宅	-10.3058
轨道	-10.3061
销售额	-10.3063
共计	-10.3068
来的	-10.3069
▁但	-10.307
篮球	-10.3072
一步	-10.3072
更好地	-10.3073
异常	-10.3075
豆	-10.3078
特定	-10.3081
if	-10.3091
美军	-10.3093
per	-10.3101
仍在	-10.3106
灾	-10.3109
注重	-10.311
蛋	-10.3117
中华	-10.3117
拼	-10.3118
相关部门	-10.3119
违规	-10.3122
清晰	-10.3124
储	-10.3124
终端	-10.3125
对抗	-10.3126
拍卖	-10.3128
消防	-10.3128
ST	-10.3131
话题	-10.3131
白色	-10.3132
▁man	-10.3135
紧急	-10.3138
一块	-10.3145
告知	-10.3145
考虑到	-10.3146
目的	-10.3147
陕西	-10.3148
▁go	-10.3151
挺	-10.3156
也就是	-10.3156
等待	-10.3164
大豆	-10.3166
停车	-10.3172
湿	-10.3178
壳	-10.3186
考察	-10.3189
巨大的	-10.3189
审核	-10.319
气候	-10.319
携手	-10.3192
▁由于	-10.3195
顾问	-10.3196
序	-10.3197
红包	-10.3197
聚集	-10.32
货物	-10.32
走出	-10.3217
十八	-10.3218
转让	-10.3219
全世界	-10.3221
谱	-10.3223
年开始	-10.323
宾	-10.3243
以往	-10.3247
珍	-10.3249
尊	-10.325
虫	-10.3251
凤	-10.3252
公斤	-10.3253
引擎	-10.3253
火箭	-10.3254
服装	-10.3255
查询	-10.3255
多人	-10.3258
讲述	-10.3259
志愿者	-10.3265
乡镇	-10.3266
日报	-10.3273
主场	-10.3282
协作	-10.3282
知识产权	-10.3283
便利	-10.3283
完整	-10.3289
奖项	-10.3291
认可	-10.3292
组建	-10.3297
把握	-10.3299
而不是	-10.3308
引入	-10.331
宁波	-10.3313
少数	-10.3314
模拟	-10.3315
审查	-10.3317
航班	-10.3317
GDP	-10.3319
阳光	-10.3319
袭击	-10.3319
补偿	-10.3319
凭借	-10.3321
棉花	-10.3323
临床	-10.3325
ions	-10.3327
是指	-10.3328
得知	-10.3333
about	-10.3333
辖区	-10.3334
诉讼	-10.3336
本届	-10.334
议会	-10.3344
▁Co	-10.3346
等领域	-10.3355
通胀	-10.3362
协	-10.3362
tion	-10.3367
业主	-10.3368
手中	-10.3368
租	-10.3369
旁	-10.3374
订	-10.3374
隐	-10.3375
偶	-10.3379
袋	-10.3379
繁	-10.338
▁sp	-10.3381
前进	-10.3381
赤	-10.3383
架构	-10.3383
艳	-10.3383
阿富汗	-10.3385
的内容	-10.3385
赋能	-10.3387
民间	-10.339
节奏	-10.3391
第三方	-10.3394
战士	-10.3396
科普	-10.3398
寻	-10.3399
国内外	-10.3403
范围内	-10.3409
一级	-10.3411
房间	-10.3411
男性	-10.3411
上游	-10.3411
稿	-10.3417
地震	-10.342
申	-10.3422
总额	-10.3427
堆	-10.3427
改为	-10.3428
回忆	-10.3432
芬	-10.3433
典	-10.3435
山东省	-10.344
伏	-10.344
OR	-10.3441
桂	-10.3444
短视频	-10.3445
特朗普	-10.3451
加息	-10.3452
的一种	-10.3453
建立了	-10.3453
症状	-10.3453
自觉	-10.3454
客观	-10.3454
发动机	-10.3457
新建	-10.3458
热情	-10.3459
介	-10.3465
的精神	-10.3466
罗伦斯	-10.3467
的东西	-10.3476
认	-10.3488
的事	-10.349
▁近年来	-10.3502
▁虽然	-10.3503
密切	-10.3505
算法	-10.3509
实时	-10.3511
侨	-10.3512
央行	-10.3517
坦	-10.3517
公安机关	-10.3518
宪法	-10.3519
▁——	-10.352
在这个	-10.352
权利	-10.3521
装置	-10.3521
ting	-10.3522
面前	-10.3524
涉嫌	-10.3527
▁just	-10.3537
do	-10.3538
福建省	-10.3544
遗	-10.3546
搭	-10.3554
▁pro	-10.3556
str	-10.3559
赞	-10.3562
强大的	-10.3564
斌	-10.3568
哪些	-10.3571
受伤	-10.3572
ma	-10.3572
奉	-10.3573
原告	-10.3575
券商	-10.3575
虚	-10.3578
藤	-10.3582
陷入	-10.3586
已成为	-10.3589
万亿元	-10.3595
楚	-10.3596
约定	-10.3604
成效	-10.3607
早已	-10.3607
他还	-10.3609
夫人	-10.3621
ap	-10.3625
生成	-10.3629
国家队	-10.3632
访	-10.3633
供应商	-10.364
人民法院	-10.3644
养殖	-10.3647
统筹	-10.365
肖	-10.365
舆论	-10.365
膜	-10.3652
蔚来	-10.3652
庆祝	-10.3653
SH	-10.3653
的基本	-10.3655
传递	-10.3657
三是	-10.3659
ous	-10.3664
我觉得	-10.3672
幸	-10.3684
人民的	-10.3686
签	-10.3695
运作	-10.3701
分别是	-10.3705
▁V	-10.3708
友谊	-10.3718
无症状感染者	-10.3718
生动	-10.3719
牙	-10.372
咖啡	-10.372
▁该	-10.372
替代	-10.3721
苏州	-10.3721
自动驾驶	-10.3721
亮相	-10.3722
fe	-10.3724
投票	-10.3724
空气	-10.3725
十一	-10.3731
受理	-10.3738
公正	-10.3745
春节	-10.3745
城区	-10.3751
迈	-10.3752
第六	-10.3753
十六	-10.3753
万亩	-10.3764
岭	-10.3768
浦	-10.3768
勤	-10.3769
日常	-10.3777
大连	-10.3779
磨	-10.3783
牺牲	-10.3788
墨西哥	-10.3789
▁after	-10.3789
审计	-10.379
相似	-10.3791
伦敦	-10.3792
树立	-10.3794
ard	-10.3795
战胜	-10.3798
▁any	-10.3798
申报	-10.3803
大概	-10.3804
之路	-10.3807
流动性	-10.3808
认证	-10.3811
有力	-10.3815
让我们	-10.3816
快乐	-10.3829
外交	-10.3833
的态度	-10.3841
一同	-10.3846
满意	-10.3847
发力	-10.3849
鞋	-10.3856
羽	-10.3857
规律	-10.3857
参	-10.3857
检验	-10.3857
遂	-10.3857
赫萝	-10.3858
蟹	-10.3858
权力	-10.3861
周末	-10.3863
坚	-10.3872
▁U	-10.3876
ni	-10.3886
red	-10.3886
理性	-10.3896
窗	-10.39
福州	-10.3901
映	-10.3902
▁make	-10.3902
前来	-10.3903
期限	-10.3905
让我	-10.3913
美丽	-10.3913
的表现	-10.3915
姓	-10.3918
四大	-10.3922
锡	-10.3923
鹰	-10.3927
奖励	-10.3927
▁through	-10.3927
世界杯	-10.3927
消除	-10.3929
IPO	-10.3931
链接	-10.3931
看好	-10.3932
据介绍	-10.3934
马上	-10.3946
发生了	-10.395
私人	-10.3956
充电	-10.3961
下调	-10.3963
万人次	-10.3963
政权	-10.3963
骗	-10.3963
暖	-10.3965
熟	-10.3967
打破	-10.3975
营业	-10.3976
▁杨	-10.3977
收费	-10.398
晨	-10.3982
ure	-10.3986
怕	-10.3986
粒	-10.3991
太平洋	-10.3992
狼	-10.3997
▁also	-10.3997
▁To	-10.3999
营养	-10.3999
越来越多	-10.4
的政策	-10.4008
演唱会	-10.4009
投放	-10.4009
占据	-10.4012
的一部分	-10.4014
hi	-10.4026
各方	-10.4028
星期	-10.403
新一代	-10.4032
违反	-10.4038
著作	-10.4039
抓住	-10.404
ge	-10.4043
室内	-10.4044
损害	-10.4046
一支	-10.405
帅	-10.4051
纽约	-10.4056
事实上	-10.4057
或是	-10.4058
凭	-10.4058
最好的	-10.4058
抵	-10.406
才是	-10.406
障碍	-10.4063
绕	-10.4064
赚	-10.4064
煤炭	-10.4066
乡村振兴	-10.4067
仔	-10.4067
华盛顿	-10.4067
淘宝	-10.4068
反复	-10.4072
抵达	-10.408
戏剧	-10.4081
因而	-10.4084
强烈	-10.4085
各大	-10.4089
更好的	-10.4091
些	-10.4098
▁use	-10.4098
ON	-10.4107
》)	-10.4108
二人	-10.4111
很多人	-10.4115
自行车	-10.412
不久	-10.4121
第二次	-10.4122
截至目前	-10.4126
开心	-10.4128
部长	-10.4131
国家的	-10.4133
路上	-10.4134
弃	-10.4136
日讯	-10.4136
莫斯科	-10.4139
制裁	-10.414
颜色	-10.4141
乃至	-10.4143
钢铁	-10.415
▁为了	-10.4165
原创	-10.4172
传统的	-10.4172
策	-10.4173
返	-10.4175
议	-10.4178
路段	-10.4181
新技术	-10.4184
享	-10.4189
中小企业	-10.419
赶	-10.4191
偷	-10.4196
辽宁	-10.4197
怪	-10.4198
洁	-10.4201
发言	-10.4203
In	-10.4204
耐	-10.4206
阿里巴巴	-10.4207
途径	-10.4209
接待	-10.4211
当代	-10.422
公主	-10.4221
将成为	-10.4229
欢	-10.4229
尤其	-10.4233
the	-10.4242
心里	-10.4244
觉	-10.4245
前后	-10.4245
转移	-10.4253
不超过	-10.4254
车企	-10.426
省级	-10.4267
辞	-10.427
兴趣	-10.4271
距	-10.4272
慈善	-10.4275
汗	-10.4276
壁	-10.4279
震荡	-10.4281
证监会	-10.4282
暂停	-10.4282
莎	-10.4282
曝光	-10.4283
每次	-10.4284
的原则	-10.4284
差异	-10.4285
▁=>	-10.4295
%)、	-10.4295
家属	-10.4297
多项	-10.4306
用来	-10.4307
▁public	-10.431
均为	-10.4317
有点	-10.4318
ud	-10.4323
搭载	-10.4324
操	-10.4327
旅行	-10.433
挑	-10.4332
反馈	-10.4333
晶	-10.4333
da	-10.4347
node	-10.4348
爆炸	-10.4349
ak	-10.4349
欲	-10.4352
不可能	-10.4353
危害	-10.4354
姚	-10.4354
鑫	-10.4354
验证	-10.4355
初期	-10.4355
句	-10.4356
增持	-10.4356
无人机	-10.4358
个股	-10.4359
大桥	-10.4361
要素	-10.4364
可持续发展	-10.4364
西藏	-10.4365
百度	-10.4366
上面	-10.4373
夏季	-10.4376
车主	-10.438
搬	-10.4382
郑州	-10.4384
相当于	-10.4388
新兴	-10.4394
延续	-10.4397
拿到	-10.4399
这就是	-10.4399
其余	-10.44
头部	-10.44
赢	-10.4404
的能力	-10.4424
炎	-10.4424
百姓	-10.4425
体制	-10.4427
委托	-10.443
举报	-10.4432
涌	-10.4434
老年	-10.4434
懂	-10.4436
海上	-10.4437
和谐	-10.4439
玩具	-10.4441
农户	-10.4442
年后	-10.4445
爱情	-10.4445
城乡	-10.4446
的过程	-10.4449
”)	-10.4454
梦想	-10.4455
保存	-10.4465
out	-10.4468
进程	-10.4471
合法	-10.4471
城镇	-10.4472
积累	-10.4473
命名	-10.4481
某某	-10.4482
人文	-10.449
au	-10.449
招聘	-10.4492
翔	-10.4492
一代	-10.4496
鬼	-10.45
询问	-10.45
五十	-10.45
坝	-10.4501
真正的	-10.4503
提案	-10.4505
论文	-10.4506
赖	-10.4511
两名	-10.4512
旨在	-10.4521
失去	-10.4526
奥运会	-10.4526
反而	-10.4529
▁l	-10.4532
仅有	-10.454
排查	-10.454
防护	-10.4542
相应	-10.4542
在上海	-10.4544
▁If	-10.4551
清楚	-10.4552
的过程中	-10.4553
太多	-10.4553
抱	-10.4567
拖	-10.4568
参赛	-10.4572
购物	-10.4573
轴	-10.4574
喊	-10.4574
晴	-10.4575
大师	-10.4575
借助	-10.4577
守护	-10.4578
表面	-10.4584
院长	-10.4584
古巴	-10.4585
公民	-10.4586
”;	-10.4587
实验室	-10.4587
昭	-10.459
上映	-10.4591
进度	-10.4592
信贷	-10.4592
效益	-10.4593
中有	-10.4595
大道	-10.4596
华人	-10.46
同时也	-10.4603
http	-10.4611
▁Me	-10.4614
不大	-10.4614
四年	-10.463
经费	-10.4631
娘	-10.4632
休闲	-10.4637
示	-10.4639
我是	-10.4643
看看	-10.4644
妮	-10.4645
纹	-10.4645
达到了	-10.4649
不用	-10.4649
玲	-10.4649
▁You	-10.4649
旭	-10.4649
虚拟	-10.4649
巡逻	-10.4649
照顾	-10.4649
柯	-10.4649
CEO	-10.465
悦	-10.465
涨停	-10.4651
落后	-10.4652
相继	-10.4653
校长	-10.4655
感情	-10.4656
较低	-10.4658
在全国	-10.466
拨	-10.4662
伙伴	-10.4667
交给	-10.4671
ted	-10.4674
自行	-10.4675
计算机	-10.4677
市区	-10.4681
set	-10.4683
一段时间	-10.4685
▁down	-10.4687
▁Ma	-10.4691
常常	-10.4694
其它	-10.4695
本周	-10.4701
标志	-10.4708
个小时	-10.4708
」(	-10.4709
占领	-10.4713
记载	-10.4714
撞	-10.4721
标的	-10.4722
枝	-10.4722
撒	-10.4724
乳	-10.4724
剧本	-10.4724
澳洲	-10.4725
翻译	-10.4726
注入	-10.4728
毛利率	-10.4733
色彩	-10.4734
那里	-10.4734
边界	-10.4742
地说	-10.4745
亲自	-10.4755
前景	-10.4759
扣	-10.4763
指引	-10.4764
ish	-10.4777
感受到	-10.4777
与此同时	-10.4778
律师	-10.4778
竞	-10.4785
参加了	-10.4786
崇	-10.4787
生存	-10.479
难度	-10.4792
职责	-10.4793
扫	-10.4794
桑珠孜区	-10.4799
弄	-10.48
舞蹈	-10.4801
担保	-10.4801
每月	-10.4801
隧道	-10.4801
附近的	-10.4801
便捷	-10.4802
门店	-10.4802
反弹	-10.4803
思维	-10.4804
很少	-10.4804
tor	-10.481
▁这	-10.4811
至于	-10.4814
成立于	-10.482
随时	-10.4824
▁另外	-10.4825
复苏	-10.4826
支付宝	-10.4828
等级	-10.4833
习近平总书记	-10.4842
▁number	-10.4845
▁–	-10.4847
tr	-10.4848
▁And	-10.4851
的意见	-10.4853
习	-10.4855
河南省	-10.4857
的位置	-10.4859
他们在	-10.486
夺	-10.4862
乃	-10.4871
寄	-10.4871
炼	-10.4874
VR	-10.4874
物品	-10.4875
ba	-10.4876
ン	-10.4877
经销商	-10.4877
眼睛	-10.4877
印象	-10.4877
预警	-10.4878
视觉	-10.4878
医保	-10.4879
存款	-10.488
预约	-10.4881
接种	-10.4884
mon	-10.4887
清理	-10.4889
出生于	-10.489
少年	-10.4898
是为了	-10.4899
高峰	-10.49
发电	-10.4914
之所以	-10.4914
予	-10.4914
rs	-10.4914
延长	-10.492
腿	-10.4921
过度	-10.4927
锦	-10.4928
大多	-10.4935
新鲜	-10.4937
ke	-10.4938
AT	-10.494
训	-10.4943
用品	-10.4943
平时	-10.4943
的优势	-10.4947
不知	-10.4948
册	-10.4949
挖掘	-10.4951
集成	-10.4952
祖父	-10.4952
理财	-10.4953
月至	-10.4953
繁荣	-10.4954
减持	-10.4956
完美	-10.4965
摄影	-10.4966
节日	-10.4968
丈夫	-10.4971
都没有	-10.4973
可见	-10.4979
通行	-10.4982
的消息	-10.4983
这类	-10.4985
吸	-10.4985
挖	-10.4986
ug	-10.4987
怎样	-10.4987
但他	-10.4988
▁y	-10.499
会议上	-10.4992
one	-10.4994
后者	-10.4995
编制	-10.4996
锁	-10.5002
开幕	-10.5003
发布会	-10.5004
▁But	-10.5005
▁==	-10.5012
外贸	-10.5015
Co	-10.5016
福利	-10.5016
▁see	-10.5019
甘肃	-10.5026
培	-10.5026
坏	-10.5029
充	-10.5031
▁自	-10.5031
共识	-10.5033
驾驶员	-10.5033
开拓	-10.5034
售价	-10.5035
诞生	-10.5036
ton	-10.5036
桥梁	-10.5037
促	-10.504
线索	-10.5042
成立了	-10.5043
鹿	-10.5048
个别	-10.5049
发动	-10.5049
总监	-10.5049
集团有限公司	-10.5052
筑	-10.506
商业化	-10.5064
他表示	-10.507
机器	-10.5072
的现象	-10.5075
页	-10.508
专用	-10.5082
不变	-10.5087
还可以	-10.5095
ho	-10.5097
决	-10.5098
依赖	-10.5099
莲	-10.5101
弟	-10.5102
输	-10.5103
坛	-10.5106
婚姻	-10.5107
持股	-10.5107
阿根廷	-10.5109
跌幅	-10.5109
怀疑	-10.5109
产生的	-10.511
消失	-10.511
首席	-10.511
绘画	-10.5111
葛	-10.5117
生态环境	-10.512
ts	-10.5121
五个	-10.5122
一个人	-10.5124
强劲	-10.5125
罗马	-10.5127
针	-10.5132
▁should	-10.5133
衣服	-10.5133
二年	-10.5149
宏观	-10.5151
上午	-10.5153
研究生	-10.5154
在今年	-10.517
电动车	-10.5174
名字	-10.5175
『	-10.5175
框架	-10.5177
诈骗	-10.518
逆	-10.5181
考古	-10.5182
掌	-10.5183
甜	-10.5187
核酸检测	-10.5188
出版社	-10.5188
激烈	-10.519
定价	-10.5191
▁way	-10.5193
情感	-10.5195
证实	-10.5196
陪	-10.5196
深圳市	-10.5198
意愿	-10.5199
一百	-10.5199
写作	-10.5201
的形式	-10.5206
响	-10.5208
这份	-10.5214
天下	-10.5221
进而	-10.5221
诗人	-10.5222
▁name	-10.5222
会在	-10.5223
他是	-10.5229
▁This	-10.5232
▁`	-10.5236
颗	-10.5237
化工	-10.5239
解除	-10.5246
师傅	-10.5249
妻	-10.525
经历了	-10.525
▁Ch	-10.5251
烈	-10.5254
不满	-10.5257
最好	-10.5258
Re	-10.5258
哥哥	-10.526
客运	-10.5261
多元化	-10.5262
菌	-10.5264
氢	-10.5267
平方公里	-10.5268
蛇	-10.5268
坚守	-10.5269
透明	-10.5269
财报	-10.527
号召	-10.527
北约	-10.527
极端	-10.5272
之际	-10.5272
回复	-10.5275
半年	-10.5279
▁当	-10.5287
合约	-10.5287
点击	-10.5291
购房	-10.5292
的通知	-10.5293
出来的	-10.5293
撤	-10.5296
四十	-10.5296
第一时间	-10.5297
一人	-10.53
的道路	-10.5304
华侨	-10.5306
的成绩	-10.5309
一半	-10.5309
古代	-10.5313
薪	-10.5314
▁如果	-10.532
确诊病例	-10.5321
仲	-10.5327
学员	-10.5333
东南	-10.5334
高质量	-10.5335
奏	-10.5341
逐	-10.5341
斑	-10.5343
祝	-10.5345
菲律宾	-10.5347
啦	-10.5347
防御	-10.5348
传媒	-10.5349
鉴定	-10.535
我也	-10.535
交换	-10.5354
天然	-10.536
沿线	-10.5361
清单	-10.5366
指定	-10.5371
中国共产党	-10.5372
区别	-10.5376
漫画	-10.5382
素质	-10.5384
ary	-10.5398
工作中	-10.5404
包装	-10.5408
动画	-10.5416
窗口	-10.5416
稻	-10.5419
('	-10.542
呼吸	-10.5425
约为	-10.5425
闲	-10.5427
亭	-10.5428
导弹	-10.5429
图书馆	-10.5429
走访	-10.543
回顾	-10.5432
研究中心	-10.5433
解读	-10.5433
ct	-10.5433
现在的	-10.5436
Chat	-10.5439
经济增长	-10.5444
小姐	-10.5445
地图	-10.5445
不想	-10.5446
的基础	-10.5453
骑	-10.5457
量化	-10.5462
最为	-10.5463
提出的	-10.5469
向上	-10.5472
捷	-10.5474
满意度	-10.5476
ee	-10.5484
担	-10.5485
也很	-10.5485
function	-10.5497
巡	-10.5497
报名	-10.5497
越来越多的	-10.5498
奥运	-10.5499
line	-10.5499
适当	-10.5502
闭	-10.5503
统治	-10.5503
人体	-10.5503
毁	-10.5505
恋	-10.5506
赠	-10.5506
▁now	-10.5507
播放	-10.5508
忧	-10.5509
辅助	-10.5509
▁people	-10.5509
物种	-10.551
减轻	-10.5512
立足	-10.5514
英文	-10.5515
test	-10.5516
有什么	-10.5519
组成的	-10.5519
克斯	-10.5519
以外	-10.5526
可信	-10.5527
代理	-10.553
红军	-10.5535
市场份额	-10.5537
工作者	-10.5538
调度	-10.5544
始	-10.5547
mi	-10.5547
聊	-10.555
正如	-10.5551
广播	-10.5551
贯彻	-10.5551
ong	-10.5552
标准化	-10.5558
健全	-10.556
释	-10.5562
淘汰	-10.5562
澳	-10.5562
les	-10.5565
抗疫	-10.5569
收藏	-10.557
的投资	-10.5575
助理	-10.5581
一件	-10.5582
对应	-10.5585
浓	-10.5587
学家	-10.5587
">	-10.5589
餐饮	-10.559
霞	-10.559
弘	-10.5591
土耳其	-10.5591
承包	-10.5591
考验	-10.5591
天然气	-10.5592
犯罪嫌疑人	-10.5592
修订	-10.5592
▁such	-10.5593
水利	-10.5593
夺得	-10.5594
视野	-10.5594
结算	-10.5595
测量	-10.5595
买卖	-10.5598
大国	-10.5598
▁%	-10.5602
大使	-10.5607
be	-10.5608
触	-10.5608
贝尔	-10.5613
平稳	-10.5617
但由于	-10.5617
直至	-10.562
上周	-10.5622
店铺	-10.5624
徒	-10.5628
中国人	-10.5628
场地	-10.5628
车间	-10.5632
不敢	-10.5635
物理	-10.5636
app	-10.5639
*******	-10.5641
条约	-10.5643
也被	-10.5648
改革开放	-10.5656
ner	-10.5657
总裁	-10.5661
AL	-10.5662
合伙人	-10.5666
养老	-10.5669
猛	-10.5674
英格兰	-10.5674
频繁	-10.5674
▁gr	-10.5674
ha	-10.5675
护理	-10.5676
答案	-10.5677
请求	-10.5678
查处	-10.5679
从未	-10.5679
角度	-10.5684
利好	-10.5686
下了	-10.5687
ear	-10.569
▁尽管	-10.5693
无数	-10.5694
不仅是	-10.5695
花园	-10.57
间的	-10.5707
有很多	-10.5712
ab	-10.5721
竟	-10.5726
盗	-10.5732
稍	-10.5736
伴	-10.574
潜	-10.5747
罚	-10.5748
......」	-10.5749
得以	-10.575
葬	-10.5752
画面	-10.5754
朴	-10.5755
习近平	-10.5756
东南亚	-10.5756
出战	-10.5757
瑞典	-10.5758
评级	-10.5762
▁对此	-10.5762
局势	-10.5763
▁n	-10.5766
吉林	-10.5768
重组	-10.5774
系统的	-10.5776
▁before	-10.5778
重庆市	-10.5779
▁本	-10.578
给了	-10.578
违法行为	-10.5781
高通	-10.5784
职能	-10.5786
昂	-10.5787
log	-10.5793
国民	-10.5794
吹	-10.5796
金牌	-10.5797
尤	-10.5797
所有的	-10.5799
辰	-10.58
▁com	-10.5805
外卖	-10.5807
神经	-10.5807
式的	-10.5808
获奖	-10.5816
中国队	-10.5827
奔	-10.5829
全程	-10.5829
胸	-10.5838
巧	-10.5839
泛	-10.584
喷	-10.5841
Type	-10.5842
▁$(	-10.5842
魅力	-10.5842
▁else	-10.5842
▁may	-10.5844
干涉	-10.5844
的一些	-10.5849
不管	-10.585
门票	-10.5853
锦标赛	-10.5854
即便	-10.5855
四川省	-10.5855
开源	-10.5855
想象	-10.5858
的可能性	-10.5862
艘	-10.5864
接着	-10.5865
▁off	-10.5866
Name	-10.5872
他认为	-10.5873
家乡	-10.5875
州市	-10.5875
记忆	-10.5876
排放	-10.5877
教育部	-10.5877
电竞	-10.5878
人次	-10.5879
▁even	-10.588
的第一	-10.588
our	-10.5881
mit	-10.5883
强国	-10.5888
ex	-10.5891
lu	-10.5905
开设	-10.5911
多位	-10.5915
提供的	-10.5915
拔	-10.5917
牧	-10.5917
pos	-10.5918
畅	-10.5919
▁look	-10.592
努	-10.5923
耀	-10.5924
扶	-10.5924
吊	-10.5925
祭	-10.5926
后面	-10.5926
伤害	-10.5927
万平方米	-10.5927
副主任	-10.5929
视角	-10.5929
振兴	-10.593
清洁	-10.593
最高的	-10.5932
商标	-10.5933
夜间	-10.5933
账号	-10.5934
ru	-10.5935
腰	-10.5936
热门	-10.5943
考生	-10.5943
埃及	-10.5947
报警	-10.5947
能量	-10.5948
艺人	-10.5957
帝国主义	-10.5957
的结果	-10.5963
招商	-10.5964
国民党	-10.5966
”,“	-10.5968
▁截至	-10.5969
交警	-10.5974
捕	-10.5976
Arm	-10.5981
合力	-10.5982
▁sh	-10.5986
市政府	-10.5987
明白	-10.5993
不太	-10.5994
肩	-10.5994
天津市	-10.5995
陆军	-10.5997
未来的	-10.5997
割	-10.6001
台风	-10.6002
季度	-10.6002
重建	-10.6003
>>	-10.6006
在这	-10.6006
御	-10.6009
RE	-10.601
ick	-10.601
闹	-10.601
马克思主义	-10.6011
舟	-10.6011
×	-10.6012
土壤	-10.6012
▁made	-10.6012
否则	-10.6014
温暖	-10.6014
ated	-10.6017
放松	-10.6018
黑色	-10.6021
ite	-10.6023
分散	-10.6024
创造了	-10.6024
据了解	-10.6025
新一轮	-10.6028
问题的	-10.6032
核电	-10.6035
研	-10.6037
ti	-10.6038
情况下	-10.6041
生活的	-10.6044
猎	-10.6044
▁work	-10.6049
大战	-10.6051
不如	-10.6053
递	-10.6056
PC	-10.6058
的名字	-10.6059
产生了	-10.6061
会谈	-10.6069
规	-10.607
认知	-10.6077
遍	-10.6078
拆	-10.6086
创办	-10.6093
显得	-10.6094
此事	-10.6094
兆	-10.6096
扮演	-10.6098
ス	-10.6098
英伟达	-10.6098
い	-10.6098
支援	-10.6098
队长	-10.6099
提振	-10.61
彼此	-10.61
登陆	-10.61
宁夏	-10.6103
士兵	-10.6106
上班	-10.6106
农场	-10.6107
透过	-10.6107
厘米	-10.6108
也就	-10.6108
玉米	-10.6111
坊	-10.6112
副主席	-10.6114
喜剧	-10.6115
记者从	-10.6118
▁La	-10.6118
肯	-10.6123
敢	-10.6126
哲	-10.6126
ust	-10.6127
px	-10.6128
使用的	-10.613
兽	-10.6131
我想	-10.6133
高水平	-10.6137
▁St	-10.6139
其后	-10.6141
To	-10.6144
材	-10.6147
厦门	-10.6156
空中	-10.6159
货车	-10.6161
纵	-10.6167
技	-10.6169
读书	-10.6169
百万	-10.6173
变成了	-10.6175
一世	-10.6175
织	-10.6176
内涵	-10.6181
......”	-10.6183
尘	-10.6184
补助	-10.6184
丘	-10.6184
燃料	-10.6185
▁&&	-10.6185
汪	-10.6186
信任	-10.6186
议员	-10.619
也许	-10.619
降价	-10.619
投产	-10.6191
南北	-10.6193
甚	-10.6198
中共	-10.6201
对中国	-10.6201
这一点	-10.6202
▁*/	-10.6208
比赛中	-10.6215
tra	-10.6216
对其	-10.6221
nd	-10.6221
▁Li	-10.6223
都市	-10.6225
在国内	-10.6228
出租车	-10.6236
续	-10.6238
影响力	-10.6238
刷	-10.6244
性和	-10.6244
坐在	-10.6253
院校	-10.6254
单一	-10.6254
──	-10.6259
几年	-10.6267
己	-10.6267
陷	-10.6267
十三	-10.627
钦	-10.6272
全方位	-10.6272
玄	-10.6272
伊拉克	-10.6273
值得一提的是	-10.6274
给我	-10.6275
领土	-10.6276
瑞士	-10.6277
同事	-10.6278
手续	-10.628
登场	-10.6282
PE	-10.6285
配送	-10.6285
ass	-10.6287
桃	-10.6294
阵地	-10.63
光明	-10.6301
)》	-10.6302
个体	-10.6302
问题上	-10.6303
的规定	-10.6305
同期	-10.6305
判	-10.6315
time	-10.6318
单曲	-10.6322
所属	-10.6325
两天	-10.6329
第七	-10.6332
潮流	-10.6332
液	-10.6335
int	-10.6339
水库	-10.6339
插	-10.634
▁图为	-10.6344
毕业生	-10.6347
裂	-10.6351
挂牌	-10.6358
纺织	-10.636
崛起	-10.6361
iPhone	-10.6361
船舶	-10.6361
谈到	-10.6362
灭	-10.6363
浪费	-10.6363
立刻	-10.6363
谷歌	-10.6364
供图	-10.6366
关联	-10.6366
乐观	-10.6366
额度	-10.6366
外部	-10.6366
没想到	-10.6368
变动	-10.637
两大	-10.637
可谓	-10.6372
世界上	-10.6373
生产的	-10.6373
port	-10.6377
超越	-10.6378
Ro	-10.638
出去	-10.638
打通	-10.6385
的力量	-10.6386
起诉	-10.6388
极大	-10.6389
自治区	-10.6389
▁Be	-10.6403
同行	-10.6403
ber	-10.6407
十九	-10.6408
队的	-10.6413
产权	-10.6418
CD	-10.642
港口	-10.6424
每一个	-10.6427
der	-10.6431
察	-10.6432
疑	-10.6435
的斗争	-10.6435
与其他	-10.6436
的信息	-10.6436
一带	-10.6437
粗	-10.6448
靖	-10.6449
家电	-10.645
倡议	-10.645
梳理	-10.645
砖	-10.645
游泳	-10.6451
指示	-10.6451
夫妻	-10.6452
待遇	-10.6453
重复	-10.6454
企业家	-10.6454
%)	-10.6454
情节	-10.6455
答	-10.6457
▁三	-10.6459
教会	-10.6464
领袖	-10.6464
这款	-10.6471
的学生	-10.6471
两种	-10.6474
ell	-10.6477
act	-10.6479
山西省	-10.6479
下行	-10.648
时许	-10.648
人心	-10.6483
洪水	-10.6489
研究员	-10.6495
想到	-10.6496
地质	-10.65
刑	-10.6508
转化	-10.6513
下半年	-10.6514
启用	-10.6515
之处	-10.6515
多方	-10.6517
艺术家	-10.6517
献	-10.6518
脱贫	-10.6521
利亚	-10.6522
阿尔	-10.6524
辅	-10.6524
我们要	-10.6529
让他	-10.653
势力	-10.6534
资助	-10.6537
▁our	-10.6538
漏	-10.6538
夹	-10.6538
怒	-10.6539
禁毒	-10.654
秘密	-10.654
比亚迪	-10.654
砂	-10.6541
策划	-10.6541
探讨	-10.6541
已被	-10.6542
乔治	-10.6542
回报	-10.6543
夫妇	-10.6547
群岛	-10.6554
【	-10.6556
都不	-10.6563
▁「......	-10.6564
编剧	-10.6566
不但	-10.657
大大	-10.6572
高层	-10.6579
我们也	-10.6583
地理	-10.6592
球场	-10.6593
房产	-10.6594
的说法	-10.6601
的想法	-10.6607
地域	-10.6609
生于	-10.6609
冰雪	-10.6613
装饰	-10.6615
工程师	-10.6618
ations	-10.6619
即可	-10.6622
灵活	-10.6622
安置	-10.6623
’,	-10.6624
跨境	-10.6625
黎	-10.6626
理由	-10.6628
涂	-10.6631
▁美国	-10.6631
践行	-10.6631
泡	-10.6631
一道	-10.6632
存储	-10.6632
通讯	-10.6633
东风	-10.6637
信用卡	-10.6638
ue	-10.664
增量	-10.6641
午	-10.6642
明天	-10.6644
裁判	-10.6646
宝马	-10.6649
精品	-10.665
作风	-10.6652
开业	-10.6654
和社会	-10.6659
宿	-10.666
的经济	-10.6661
红利	-10.6665
电子商务	-10.6668
的国家	-10.667
高管	-10.6677
ph	-10.668
当晚	-10.6683
bin	-10.6683
千万	-10.6686
发生在	-10.6688
交易所	-10.669
▁var	-10.6693
美帝国主义	-10.6695
新冠肺炎疫情	-10.6696
IF	-10.6703
营业收入	-10.6707
时代的	-10.6708
摊	-10.6709
可以在	-10.671
AN	-10.671
看到了	-10.6711
▁here	-10.6711
商务	-10.6711
倾	-10.6713
遭受	-10.6716
已经成为	-10.6717
轨	-10.6718
动员	-10.6719
雾	-10.6722
皇帝	-10.6723
殷	-10.6723
▁most	-10.6723
协定	-10.6725
短信	-10.6729
港股	-10.6732
爱国	-10.6736
电信	-10.6737
II	-10.6737
lt	-10.6738
的儿子	-10.6739
著名的	-10.6741
工商	-10.6743
课堂	-10.6746
市场上	-10.6751
市委	-10.6753
国会	-10.6753
美好	-10.6755
属性	-10.6762
dy	-10.6765
吸收	-10.6766
的比例	-10.6767
轻松	-10.6768
争夺	-10.6771
一个月	-10.6771
真是	-10.6772
这条	-10.6773
政策的	-10.6774
征集	-10.6781
官网	-10.6789
不一样	-10.679
)[	-10.6792
房子	-10.6793
沪	-10.6797
的市场	-10.6798
ast	-10.6801
脉	-10.6808
演唱	-10.681
添	-10.6811
灌	-10.6814
堤	-10.6814
苑	-10.6814
凌	-10.6815
坎	-10.6815
扶持	-10.6815
跟踪	-10.6815
氪	-10.6815
株	-10.6816
缩短	-10.6816
坦言	-10.6817
国有	-10.6817
约束	-10.6817
模	-10.6818
命令	-10.6818
严重的	-10.6819
人均	-10.6821
焦点	-10.6821
康复	-10.6821
MA	-10.6823
尽量	-10.6824
▁self	-10.6824
境外	-10.6827
皇家	-10.6827
ca	-10.6833
寨	-10.6835
回国	-10.6836
唯	-10.6839
税收	-10.6839
节约	-10.6844
安全生产	-10.6844
▁Le	-10.6844
lib	-10.685
登上	-10.685
滨	-10.6853
卡尔	-10.6861
这座	-10.6861
▁hand	-10.6865
IS	-10.6865
这家	-10.6866
哲学	-10.687
▁->	-10.6872
中国经济	-10.6873
强制	-10.6877
路口	-10.6878
每一	-10.6879
的研究	-10.6879
五大	-10.6883
长安	-10.6883
拿下	-10.6885
踏	-10.6888
桶	-10.6891
丢	-10.6892
者的	-10.6894
▁We	-10.6894
为期	-10.6898
成分	-10.6898
赌	-10.6899
气象	-10.6905
两者	-10.6905
同一	-10.6906
疏	-10.6906
剪	-10.6906
锅	-10.6907
哨	-10.6908
谨慎	-10.6909
彦	-10.6909
气氛	-10.6909
ial	-10.691
逝世	-10.691
救助	-10.691
改编	-10.6912
是一名	-10.6914
强度	-10.6916
其中包括	-10.6919
▁head	-10.6923
发明	-10.6923
该项目	-10.6924
感知	-10.6927
一季度	-10.6927
花费	-10.6928
如果你	-10.6929
般	-10.693
见到	-10.693
▁New	-10.6932
放心	-10.6937
联想	-10.6938
在接受	-10.6938
▁本报记者	-10.6942
郊	-10.6943
中介	-10.6945
看见	-10.6949
王子	-10.695
述	-10.6952
立场	-10.6956
ff	-10.6961
对待	-10.6965
不良	-10.6968
中美	-10.6972
原油	-10.6974
两地	-10.6975
▁long	-10.6976
它是	-10.6977
的老	-10.6981
教堂	-10.6989
ave	-10.699
提高了	-10.6992
紧密	-10.6993
逼	-10.6996
负债	-10.6999
薛	-10.7002
党中央	-10.7003
碧	-10.7003
匈牙利	-10.7003
鹤	-10.7003
邮	-10.7005
▁echo	-10.7006
常态化	-10.7006
输入	-10.7006
敏感	-10.7006
pa	-10.7009
长达	-10.7009
足够	-10.701
元宇宙	-10.7013
停车场	-10.7016
货币政策	-10.7017
也就是说	-10.7018
ot	-10.7021
共产党	-10.7025
警告	-10.7026
以此	-10.7031
输出	-10.7033
价值观	-10.7036
应该是	-10.7037
股市	-10.7038
独特	-10.7045
的思想	-10.7048
经贸	-10.7052
剧集	-10.7053
min	-10.7054
云南省	-10.7056
▁ch	-10.7058
单元	-10.7061
和发展	-10.7066
开发者	-10.7072
内心	-10.7072
第二天	-10.7076
▁So	-10.7076
决心	-10.7077
热爱	-10.7078
村里	-10.7078
舒适	-10.7083
绘	-10.7084
数十	-10.7089
▁For	-10.7098
罐	-10.7098
肌肉	-10.7099
陪伴	-10.7099
电梯	-10.71
破产	-10.7103
密集	-10.7104
中部	-10.7106
创下	-10.7108
单独	-10.7108
独特的	-10.711
此类	-10.7114
时段	-10.7115
提取	-10.7115
暂	-10.7116
防治	-10.7119
俗	-10.7121
缓	-10.713
平等	-10.713
主权	-10.7135
主角	-10.7136
当局	-10.7137
日期	-10.7142
▁place	-10.7143
中小	-10.7146
新区	-10.7149
让他们	-10.7153
送到	-10.7154
回落	-10.7155
大量的	-10.7157
▁pre	-10.7159
div	-10.7162
▁last	-10.7165
又有	-10.7168
黑龙江	-10.7172
▁right	-10.7175
by	-10.7176
几十	-10.7176
ps	-10.7179
少女	-10.718
避	-10.7182
前海	-10.7182
以便	-10.7185
▁line	-10.7185
▁every	-10.7186
荷	-10.7188
自贸区	-10.7189
的合作	-10.7192
防疫	-10.7193
妃	-10.7194
韵	-10.7194
租赁	-10.7195
萍	-10.7195
课题	-10.7197
演讲	-10.72
▁sub	-10.7201
残疾人	-10.7201
创立	-10.7201
十几	-10.7205
每日	-10.7205
正面	-10.7206
精心	-10.7206
周围	-10.7207
书籍	-10.7208
▁us	-10.7208
被迫	-10.7211
秘书长	-10.7215
TO	-10.722
踢	-10.7224
水果	-10.7225
力争	-10.7228
ful	-10.7235
我就	-10.7237
中新网	-10.7238
楼市	-10.724
突	-10.724
援	-10.724
支队	-10.7246
带有	-10.7247
性质	-10.7248
美术	-10.7254
醒	-10.7255
十大	-10.7256
用地	-10.7257
日凌晨	-10.7257
屏幕	-10.7262
保安	-10.7266
无限	-10.7266
亚军	-10.7267
评选	-10.7269
US	-10.7271
社员	-10.7275
审理	-10.7276
回升	-10.7281
▁i	-10.7281
渔	-10.7283
盒	-10.7285
埋	-10.7286
忍	-10.7287
帆	-10.7289
芯	-10.7289
宅	-10.729
谭	-10.729
琪	-10.7291
研制	-10.7291
口罩	-10.7292
仔细	-10.7292
客服	-10.7295
卖出	-10.7296
克服	-10.7297
报纸	-10.7298
完整的	-10.7298
含量	-10.7299
▁北京	-10.73
监察	-10.73
条款	-10.7302
这意味着	-10.7305
发现了	-10.7312
暴雨	-10.7313
▁吴	-10.732
意识到	-10.7322
未经	-10.7323
可以通过	-10.7324
在全球	-10.7332
本期	-10.7338
使命	-10.7341
修建	-10.7343
一行	-10.7345
▁li	-10.7346
▁Mo	-10.7348
国家级	-10.7349
每周	-10.7356
:「	-10.7361
▁well	-10.7362
▁int	-10.7364
很好	-10.7365
▁Al	-10.7366
全县	-10.7367
称号	-10.7367
付费	-10.7373
公司在	-10.7375
起点	-10.7377
传说	-10.7378
填	-10.7382
氧	-10.7383
鼻	-10.7383
狂	-10.7384
卓	-10.7386
廷	-10.7387
鸭	-10.7388
师生	-10.7388
阻止	-10.7389
在其	-10.739
骂	-10.739
幼儿园	-10.739
嘉宾	-10.739
缓慢	-10.739
的确	-10.739
▁much	-10.739
归母净利润	-10.7391
公尺	-10.7391
高考	-10.7391
national	-10.7392
变更	-10.7392
既然	-10.7392
阵容	-10.7394
▁did	-10.7394
隶属于	-10.7395
又称	-10.7399
物价	-10.7399
美股	-10.7399
兰州	-10.7403
六十	-10.741
设计师	-10.7413
我们在	-10.7413
当时的	-10.7416
淮	-10.7416
开了	-10.7418
量产	-10.742
碰	-10.7427
不低于	-10.7428
伟大	-10.7431
展示了	-10.7433
法规	-10.7441
品类	-10.7443
的城市	-10.7449
江南	-10.7453
了很多	-10.7455
所谓的	-10.7456
战役	-10.7456
领导干部	-10.7458
不多	-10.7458
更大的	-10.7458
data	-10.7462
缩	-10.7463
辈	-10.7467
棚	-10.747
当地时间	-10.7471
是对	-10.7472
▁th	-10.7472
现状	-10.7474
草原	-10.748
王某	-10.7481
长城	-10.7481
▁Bo	-10.7482
中国大陆	-10.7482
闽	-10.7485
绍	-10.7486
酷	-10.7487
咬	-10.7488
齿	-10.7489
萌	-10.7489
亚马逊	-10.7489
〈	-10.7489
〉	-10.7489
▁never	-10.7489
激动	-10.749
热烈	-10.7491
用途	-10.7495
什么样的	-10.7497
首相	-10.7503
大楼	-10.7503
全民	-10.7504
熟悉	-10.7508
这个问题	-10.7508
整车	-10.7512
户外	-10.7514
▁take	-10.752
ans	-10.7523
适	-10.7524
月以来	-10.7533
许可	-10.7535
信息化	-10.7539
▁据新华社	-10.7542
军人	-10.7543
的利益	-10.7544
要在	-10.7545
任职	-10.7545
ip	-10.7551
这时	-10.7559
的中国	-10.7563
▁don	-10.7567
提及	-10.7567
▁call	-10.7573
级别	-10.7574
频	-10.7577
优秀的	-10.758
当选	-10.7581
种类	-10.7581
颜	-10.7582
亏	-10.7583
旺	-10.7583
▁how	-10.7584
董事会	-10.7584
▁此次	-10.7584
罚款	-10.7585
出演	-10.7586
默	-10.7586
最多的	-10.7586
响应	-10.7588
不住	-10.759
侵权	-10.759
书店	-10.759
边缘	-10.7592
标志着	-10.7596
工作室	-10.7596
羽毛球	-10.7598
作物	-10.7604
▁def	-10.7605
进球	-10.7607
北大	-10.7607
一处	-10.761
less	-10.761
龄	-10.7612
二手车	-10.7613
性格	-10.7613
就医	-10.7614
防守	-10.7614
本来	-10.7616
号楼	-10.7617
解决了	-10.7622
▁据报道	-10.7625
车道	-10.7631
往来	-10.7632
▁炒股	-10.7632
学历	-10.7634
开展了	-10.7637
的比赛	-10.7642
ea	-10.7644
去了	-10.7647
水稻	-10.7652
实体	-10.7654
▁local	-10.7655
受益	-10.7656
时任	-10.7656
十七	-10.7663
](/)	-10.7666
的部分	-10.7667
org	-10.7667
ub	-10.767
贸	-10.7673
CA	-10.7673
址	-10.7675
阅	-10.7675
印发	-10.7684
是不是	-10.7684
摸	-10.7685
全线	-10.7685
宪	-10.7686
函	-10.7687
二季度	-10.7687
侠	-10.7689
故障	-10.7689
ny	-10.769
砸	-10.769
高度重视	-10.769
信仰	-10.7691
诉求	-10.7691
余人	-10.7692
氧化	-10.7694
IC	-10.7694
采集	-10.7694
亿元人民币	-10.7695
列表	-10.7695
一定的	-10.7697
主管	-10.77
被认为是	-10.7705
会见	-10.7706
设定	-10.7713
打出	-10.7717
大臣	-10.7718
万名	-10.7718
射击	-10.772
发生的	-10.7721
▁part	-10.7724
数据中心	-10.7725
那种	-10.7727
鉴	-10.7728
食用	-10.7729
今年的	-10.773
专属	-10.7739
派出	-10.7741
();	-10.7746
黄河	-10.775
基本上	-10.7751
▁let	-10.7763
市长	-10.7763
过去的	-10.7765
欧美	-10.7765
的社会	-10.7768
遗产	-10.7769
源于	-10.7772
裔	-10.7773
的安全	-10.7774
钻	-10.7777
的最大	-10.778
截止	-10.778
增产	-10.7781
泪	-10.7781
这是一个	-10.7782
业内	-10.7783
三星	-10.7783
截	-10.7783
ach	-10.7784
原因是	-10.7785
听说	-10.7785
盈	-10.7789
戒	-10.7789
查看	-10.7789
坪	-10.7791
入境	-10.7791
辐射	-10.7792
消毒	-10.7792
上行	-10.7792
执导	-10.7793
电动汽车	-10.7796
的具体	-10.7796
小幅	-10.7796
餐厅	-10.7796
▁**“	-10.7799
究竟	-10.78
两项	-10.7802
心中	-10.7802
队友	-10.7804
尼亚	-10.7804
中证	-10.7804
底线	-10.7806
片区	-10.7808
化石	-10.7811
上门	-10.7815
电网	-10.7815
后果	-10.7817
既有	-10.7818
不断提升	-10.7821
珠海	-10.7822
出身	-10.7823
享有	-10.7829
二级	-10.7843
晒	-10.7845
书写	-10.7845
--	-10.7848
▁Y	-10.7849
天地	-10.7849
万科	-10.7855
ash	-10.7858
一生	-10.7858
我认为	-10.7866
相应的	-10.7868
▁car	-10.7868
要把	-10.7874
六年	-10.7874
董事	-10.7876
的状态	-10.7877
金融服务	-10.7878
ness	-10.788
中期	-10.7883
好了	-10.7884
串	-10.7892
磁	-10.7893
挤	-10.7894
刑事	-10.7895
瞬间	-10.7895
位居	-10.7895
轩	-10.7895
迭代	-10.7895
RTX	-10.7896
并购	-10.7897
彰显	-10.7898
故意	-10.7899
其次	-10.7899
讲话	-10.7901
有一些	-10.7903
煤矿	-10.7905
炒	-10.7906
▁饰演	-10.7907
通用	-10.7908
真相	-10.7908
多了	-10.791
大奖	-10.7914
保健	-10.7915
▁阿	-10.7917
太空	-10.7918
仲裁	-10.7921
复制	-10.7929
AC	-10.793
受到了	-10.7935
▁De	-10.7937
▁ho	-10.7939
▁针对	-10.794
的身份	-10.7945
媒	-10.7945
口岸	-10.795
主办	-10.7955
▁</	-10.7955
的政治	-10.7955
中山	-10.7956
本报	-10.7958
元年	-10.7959
供需	-10.796
说话	-10.7965
仅为	-10.7966
与其	-10.7971
姐	-10.7971
污水	-10.7972
安全性	-10.7977
再到	-10.7978
▁x	-10.7988
柔	-10.799
病人	-10.799
污	-10.7991
入侵	-10.7993
联合会	-10.7993
用户的	-10.7993
贫	-10.7997
百分之	-10.7997
逢	-10.7998
逊	-10.7998
困境	-10.7999
爽	-10.7999
屯	-10.7999
磊	-10.7999
а	-10.7999
麻烦	-10.7999
充足	-10.8
总书记	-10.8001
球会	-10.8002
马斯克	-10.8002
企图	-10.8006
观赏	-10.8006
观测	-10.801
塑造	-10.8014
夏天	-10.8016
ES	-10.8019
影像	-10.8019
为其	-10.8021
剩余	-10.8022
项目的	-10.8022
中华民族	-10.8028
▁与此同时	-10.8029
关税	-10.803
维度	-10.8031
图书	-10.8035
都很	-10.8036
市场化	-10.8037
跃	-10.8038
太大	-10.804
gen	-10.8041
等多个	-10.8042
自动化	-10.8045
李某	-10.8046
衡	-10.8047
主教	-10.8051
atch	-10.8055
▁being	-10.8059
介绍了	-10.8065
态	-10.8069
基金会	-10.8075
际	-10.808
好转	-10.8081
十月	-10.8085
腹	-10.8087
ling	-10.8088
弯	-10.8088
退役	-10.8089
html	-10.8089
出海	-10.8097
多年来	-10.8099
当地的	-10.8102
扑	-10.8103
雾霾	-10.8104
英特尔	-10.8104
飘	-10.8104
イ	-10.8105
皮肤	-10.8105
匹配	-10.8105
▁good	-10.8105
科幻	-10.8107
跨越	-10.8107
赚钱	-10.8107
双十一	-10.8107
朋友圈	-10.8109
缴纳	-10.811
不确定性	-10.811
恶化	-10.8112
若干	-10.8112
Pa	-10.8121
ain	-10.8125
极为	-10.8125
重量	-10.8125
加强对	-10.8126
安徽省	-10.8126
看起来	-10.8127
法案	-10.8129
媒体报道	-10.8131
二次	-10.8136
▁X	-10.8136
张某	-10.8138
音乐会	-10.8139
生效	-10.8141
被告人	-10.8141
凌晨	-10.8142
不需要	-10.8143
一台	-10.8146
ice	-10.8148
随即	-10.815
景观	-10.815
合作社	-10.8153
说道	-10.8169
有一	-10.8169
孩子的	-10.8175
女王	-10.8176
管辖	-10.8179
不出	-10.8182
的支持	-10.8183
合作伙伴	-10.8183
拍照	-10.8184
节点	-10.8191
沿海	-10.8193
不错	-10.8194
code	-10.8194
国际社会	-10.8195
了不少	-10.8196
迹	-10.8198
体检	-10.8198
ec	-10.82
哭	-10.82
奎	-10.8206
碎	-10.8207
本科	-10.8208
艇	-10.8208
侍	-10.821
硕	-10.821
演绎	-10.821
决议	-10.821
共产主义	-10.8211
露出	-10.8212
▁around	-10.8214
这部	-10.8214
仅仅	-10.8215
业界	-10.8215
ess	-10.8215
精英	-10.8216
海拔	-10.8216
不高	-10.822
入口	-10.8221
政协	-10.8221
拆除	-10.8223
农机	-10.8224
说法	-10.8224
邻居	-10.8225
才会	-10.8234
年末	-10.8238
较多	-10.8239
担忧	-10.8243
王朝	-10.8244
抛	-10.8248
中午	-10.8249
基础上	-10.8256
增多	-10.8258
进士	-10.8262
拿出	-10.8262
早年	-10.8265
tro	-10.8265
上演	-10.8268
在香港	-10.8269
数学	-10.827
事发	-10.8276
舱	-10.8285
ED	-10.8286
考场求知楼	-10.8287
跟随	-10.8288
列入	-10.829
诊断	-10.829
呈现出	-10.8291
实用	-10.8296
主持人	-10.8297
的重大	-10.8298
商人	-10.8298
巷	-10.8299
普法	-10.83
管理局	-10.83
她说	-10.8302
又是	-10.8303
狮	-10.8304
▁昨天	-10.8306
载体	-10.8307
宇宙	-10.8307
翁	-10.8308
转型升级	-10.8309
舰队	-10.831
相结合	-10.8312
穷	-10.8313
奶	-10.8314
尹	-10.8317
封闭	-10.8317
防汛	-10.8318
柬埔寨	-10.8318
饼	-10.8318
翠	-10.8318
央视	-10.8318
▁between	-10.8318
黑匣子	-10.8318
公顷	-10.8319
叠加	-10.832
阿拉伯	-10.832
好像	-10.832
干预	-10.8321
假期	-10.8322
](	-10.8322
降至	-10.8322
济南	-10.8325
仿	-10.8328
观光	-10.8328
耕地	-10.8328
算力	-10.8329
大厦	-10.8329
边境	-10.8329
科技有限公司	-10.8333
收取	-10.8335
途	-10.8338
汇报	-10.8341
主播	-10.8342
简单的	-10.8347
史上	-10.835
疫	-10.8351
罗马尼亚	-10.8354
▁these	-10.8354
▁Ha	-10.8369
手法	-10.8369
公布了	-10.8369
出任	-10.8371
却是	-10.8382
美国的	-10.8383
平台的	-10.8383
猪肉	-10.8385
认识到	-10.8387
解决问题	-10.8389
▁**(	-10.839
今年上半年	-10.839
常规	-10.8391
气温	-10.8396
推出的	-10.84
的方法	-10.8401
群众的	-10.8403
的价值	-10.8403
自信	-10.8406
乎	-10.8409
不仅仅是	-10.8415
开车	-10.8416
长时间	-10.8418
河流	-10.8419
过了	-10.8419
嫁	-10.8423
妇	-10.8425
▁o	-10.8425
炸	-10.8426
巴勒斯坦	-10.8427
ル	-10.8427
短暂	-10.8428
增幅	-10.8428
分歧	-10.8429
顾客	-10.8429
滑板	-10.843
营运	-10.8431
永久	-10.8432
听取	-10.8433
远程	-10.8434
国企	-10.8435
市公安局	-10.8437
一句	-10.8439
源头	-10.844
人家	-10.8441
外观	-10.8443
国际机场	-10.8447
出场	-10.8447
的时代	-10.8448
办事	-10.8449
县委	-10.8455
▁type	-10.8456
相反	-10.8465
ds	-10.8466
市场需求	-10.8469
的设计	-10.8472
外援	-10.8475
付出	-10.848
冬天	-10.848
结论	-10.8481
快速发展	-10.8485
数字经济	-10.8486
中国电影	-10.849
的目的	-10.8494
扩展	-10.8494
加剧	-10.8495
的趋势	-10.8495
基本面	-10.8498
的声音	-10.8507
大家都	-10.8513
锐	-10.8521
赔	-10.8524
par	-10.8525
爬	-10.8525
服务业	-10.8526
据统计	-10.8527
兴建	-10.8527
投资人	-10.8528
两家	-10.853
雕	-10.8532
导向	-10.8532
冻	-10.8533
type	-10.8536
坤	-10.8536
仗	-10.8536
疯狂	-10.8537
赛场	-10.8537
借鉴	-10.8537
摆脱	-10.8537
▁while	-10.8537
榜样	-10.8538
栏目	-10.8538
▁very	-10.8538
扩散	-10.8538
威廉	-10.8538
SUV	-10.8539
旁边	-10.854
▁当然	-10.854
芬兰	-10.854
先锋	-10.8541
代码	-10.8541
调控	-10.8541
▁must	-10.8541
骨干	-10.8542
接收	-10.8543
丰收	-10.8543
span	-10.8544
造型	-10.8545
▁赵	-10.8546
创业板	-10.8547
政务	-10.855
化妆品	-10.855
ETF	-10.8553
航线	-10.8553
商店	-10.8554
数百	-10.8555
亮点	-10.8555
ref	-10.8555
发达	-10.8557
经济社会发展	-10.8559
身份证	-10.856
use	-10.856
过往	-10.8564
省份	-10.8566
胆	-10.8569
ture	-10.8569
小麦	-10.857
高位	-10.8572
必要	-10.8582
▁own	-10.8584
北斗	-10.859
全球化	-10.8591
城市的	-10.8593
▁事实上	-10.8597
率为	-10.8598
ng	-10.8598
he	-10.86
门口	-10.86
正确的	-10.8602
▁中新社	-10.8606
扩	-10.8608
几天	-10.8612
本报记者	-10.8613
si	-10.8613
和技术	-10.8616
辽	-10.8622
fa	-10.8623
▁黄	-10.8624
典型	-10.8624
提名	-10.8624
大气	-10.8626
婆	-10.863
SE	-10.8631
前沿	-10.8631
▁这是	-10.8632
劝	-10.8637
为基础	-10.8638
放缓	-10.8642
New	-10.8643
▁men	-10.8644
凤凰	-10.8645
长春	-10.8645
牢	-10.8645
进一步加强	-10.8645
丧	-10.8645
闯	-10.8646
私募	-10.8646
上世纪	-10.8647
慈	-10.8647
诊疗	-10.8648
被执行人	-10.8648
性价比	-10.8649
汽油	-10.8651
毫无	-10.8651
严肃	-10.8654
晋级	-10.8655
镜头	-10.8655
转化为	-10.8656
爱好者	-10.8656
房价	-10.8657
相关负责人	-10.866
医疗机构	-10.8662
过的	-10.8662
GB	-10.8662
技术的	-10.8662
维权	-10.8662
强势	-10.8662
白酒	-10.8664
的生产	-10.8664
而不	-10.8667
bi	-10.8669
上看	-10.8672
粤	-10.8672
这就	-10.8673
ake	-10.8674
已在	-10.8678
低迷	-10.8685
国土	-10.8686
哪里	-10.8687
cm	-10.8688
大批	-10.8688
国立	-10.869
jo	-10.8695
伸	-10.8695
邻	-10.8697
湖南省	-10.8702
可以看到	-10.8705
▁di	-10.8708
研究人员	-10.8709
▁const	-10.8712
留在	-10.8712
高温	-10.8712
合规	-10.8712
加大对	-10.8714
在日本	-10.8716
贵州省	-10.8716
河北省	-10.8717
可达	-10.8717
▁got	-10.872
";	-10.8722
示范区	-10.8723
▁周	-10.8733
▁left	-10.8734
row	-10.8736
ring	-10.8737
的女儿	-10.8737
▁如今	-10.874
剧情	-10.8742
创作者	-10.8743
不愿意	-10.8746
CO	-10.8751
是美国	-10.8753
的功能	-10.8753
朝阳	-10.8759
DE	-10.8759
的研发	-10.8759
党委书记	-10.876
碗	-10.876
蔓延	-10.876
逮捕	-10.8761
抗议	-10.8761
抑制	-10.8761
')	-10.8763
ern	-10.8764
毒品	-10.8764
承办	-10.8765
候选人	-10.8767
孤	-10.8767
再加上	-10.8768
办案	-10.8768
交往	-10.8768
的经验	-10.8768
land	-10.8769
传奇	-10.8769
码头	-10.877
复兴	-10.8772
ina	-10.8773
火星	-10.8773
自治	-10.8775
抓好	-10.8778
播种	-10.8779
劳动者	-10.8784
向前	-10.8786
个性	-10.8788
凝聚	-10.8794
滩	-10.88
好友	-10.8801
多地	-10.8807
再生	-10.8809
一定会	-10.8812
__	-10.8813
有机会	-10.8813
诚信	-10.8813
第一批	-10.8817
DIR	-10.882
麦克	-10.882
res	-10.8825
摇	-10.8825
都可以	-10.8827
汉语	-10.8828
志愿	-10.8831
了自己的	-10.8838
tic	-10.8844
篮	-10.8848
也成为	-10.8851
貌	-10.8852
最后一	-10.8854
经营者	-10.8856
item	-10.886
▁year	-10.8861
局面	-10.8865
份额	-10.8866
大于	-10.8867
看着	-10.8867
兄	-10.8868
的收入	-10.887
琼	-10.8871
适用	-10.8871
聪	-10.8871
妙	-10.8871
拳	-10.8871
NO	-10.8872
已于	-10.8872
腐败	-10.8873
Facebook	-10.8874
消耗	-10.8874
弘扬	-10.8874
真昼	-10.8874
凸显	-10.8875
而来	-10.8875
」、「	-10.8875
目录	-10.8875
艰难	-10.8875
▁来源	-10.8876
见面	-10.8877
介入	-10.8878
公爵	-10.8878
▁too	-10.8878
诗歌	-10.8878
讲解	-10.8878
暴力	-10.8878
楠	-10.8878
贵族	-10.8879
礼物	-10.8881
大街	-10.8885
智利	-10.8889
离婚	-10.889
很好的	-10.8891
生活中	-10.8892
隐患	-10.8893
外资	-10.8893
全新的	-10.8895
做法	-10.8897
脱贫攻坚	-10.8897
辽宁省	-10.8897
展出	-10.8897
发言人	-10.8898
度过	-10.8901
也曾	-10.8902
下面	-10.8906
tt	-10.8911
▁pa	-10.8911
▁think	-10.8913
港元	-10.8914
明显的	-10.8915
新车	-10.8918
举行了	-10.8921
或将	-10.8929
驾	-10.8934
▁此前	-10.8934
民营企业	-10.8936
营商环境	-10.8939
人气	-10.8942
人才培养	-10.8945
放大	-10.8948
台北	-10.8948
植	-10.8952
一期	-10.8956
柴油	-10.8964
的标准	-10.8965
八年	-10.8968
很大的	-10.897
识	-10.897
第三次	-10.8971
在未来	-10.8971
了一些	-10.8971
面临的	-10.8974
虹	-10.898
▁sc	-10.898
挥	-10.8982
有利	-10.8985
择	-10.8985
虚假	-10.8986
绳	-10.8987
竞技	-10.8988
给他	-10.8988
渐渐	-10.8989
康熙	-10.8989
缅甸	-10.8989
蕾	-10.8989
乾隆	-10.8989
▁An	-10.8989
自家	-10.899
混乱	-10.8991
纠正	-10.8991
涉案	-10.8991
一千	-10.8992
对外开放	-10.8992
▁want	-10.8994
蓝色	-10.8995
高兴	-10.8996
水位	-10.8996
OS	-10.8996
空军	-10.8998
天主教	-10.8998
海域	-10.8998
审议	-10.8998
鸟类	-10.8999
备案	-10.8999
感动	-10.8999
住在	-10.9001
客户端	-10.9002
▁state	-10.9005
定制	-10.9005
子公司	-10.9008
逾	-10.901
街头	-10.9014
独家	-10.9014
超出	-10.9014
接连	-10.9016
热线	-10.9017
指挥部	-10.9017
到期	-10.9017
map	-10.9023
首发	-10.9025
视为	-10.9026
余名	-10.9028
业务的	-10.9028
油价	-10.903
将对	-10.903
的增长	-10.9033
会被	-10.9036
商场	-10.9038
加以	-10.9039
家企业	-10.904
bl	-10.9042
认同	-10.9043
较小	-10.9044
常务	-10.9044
美国政府	-10.9045
ide	-10.9045
的效果	-10.9045
▁se	-10.9054
微信公众号	-10.9061
更换	-10.9062
攀	-10.9063
找到了	-10.9064
也不能	-10.9068
hy	-10.9068
不符合	-10.9074
App	-10.9076
总会	-10.9077
卧	-10.9077
仍是	-10.9078
传统文化	-10.908
的文化	-10.9085
座谈会	-10.9088
损	-10.909
裁	-10.9091
役	-10.9093
引起了	-10.9093
确诊	-10.9098
中国驻	-10.9098
帽	-10.9099
徽	-10.9101
脂	-10.9104
颇	-10.9104
爸爸	-10.9104
奖金	-10.9105
制药	-10.9105
烂	-10.9105
舌	-10.9105
遵守	-10.9105
近几年	-10.9105
丙	-10.9105
追究	-10.9105
CPI	-10.9105
青睐	-10.9105
倡导	-10.9105
邑	-10.9106
围棋	-10.9106
当作	-10.9107
合格	-10.9107
配音	-10.9107
筹备	-10.9108
的努力	-10.9109
立案	-10.911
传达	-10.911
个性化	-10.9112
该剧	-10.9112
豪华	-10.9112
浪潮	-10.9113
随机	-10.9116
首届	-10.9118
的选择	-10.9118
饮食	-10.9119
为代表的	-10.9119
全社会	-10.9121
三人	-10.9124
发售	-10.9126
还未	-10.9127
召开的	-10.9128
携带	-10.913
TV	-10.9131
的前提下	-10.9131
起义	-10.9132
一颗	-10.9132
的权利	-10.9133
各部门	-10.9135
喜爱	-10.9136
交通运输	-10.9137
情报	-10.9138
来自于	-10.9138
的战略	-10.9139
主人	-10.914
增进	-10.9141
一日	-10.9143
新城	-10.9143
侵犯	-10.9143
带头	-10.9144
万个	-10.9145
注意到	-10.9145
途中	-10.915
爱心	-10.9152
实地	-10.9153
十四	-10.9157
刊	-10.9157
合肥	-10.9158
No	-10.9166
ious	-10.9169
均价	-10.9172
就此	-10.9173
low	-10.9174
一直是	-10.9174
湖北省	-10.9174
ld	-10.9183
现任	-10.9185
该国	-10.9187
三国	-10.9188
进一步提升	-10.9192
外出	-10.9194
一体	-10.9196
▁el	-10.9197
强大	-10.9201
而成	-10.9201
工地	-10.9202
ka	-10.9204
摘	-10.9205
PO	-10.9208
第二个	-10.9209
次数	-10.9209
誉	-10.921
地方政府	-10.921
底部	-10.9211
为中国	-10.9211
乐队	-10.9212
较好	-10.9213
运河	-10.9214
多年的	-10.9215
券	-10.9216
渠	-10.9219
儒	-10.9219
硅	-10.922
过渡	-10.922
湘	-10.922
披	-10.9221
纪律	-10.9222
啥	-10.9222
焦虑	-10.9222
弦	-10.9223
绿色发展	-10.9223
逸	-10.9223
联络	-10.9223
生产线	-10.9224
と	-10.9224
颖	-10.9224
乘坐	-10.9224
▁per	-10.9225
谈话	-10.9226
火灾	-10.9226
抓获	-10.9227
蛋白	-10.9227
耐心	-10.9228
容量	-10.9229
讲座	-10.9231
孙杨	-10.9233
公社	-10.9234
资深	-10.9241
买入	-10.9241
维尔	-10.9241
旗下的	-10.9243
list	-10.9243
战场	-10.9244
职位	-10.9245
立体	-10.9245
迎接	-10.9246
饮料	-10.925
▁They	-10.9251
服务中心	-10.9252
ally	-10.9253
平台上	-10.9253
有效的	-10.9254
两个月	-10.9258
制约	-10.9261
还需要	-10.9263
风控	-10.9263
时光	-10.9266
举办的	-10.9266
https	-10.9266
代表大会	-10.9266
的做法	-10.9268
天空	-10.927
ga	-10.927
一方	-10.9274
业内人士	-10.9277
file	-10.9279
的感觉	-10.9279
之战	-10.928
一次性	-10.9282
▁去年	-10.9287
方针	-10.9287
网点	-10.9289
体现了	-10.9291
名义	-10.9292
项目建设	-10.9292
of	-10.9293
自助	-10.9293
大模型	-10.9295
市场规模	-10.9296
中长期	-10.9297
其中有	-10.9299
我要	-10.93
民宿	-10.9301
▁ex	-10.9302
冒	-10.9303
聊天	-10.9304
书记	-10.9309
新华	-10.931
gb	-10.931
季节	-10.9313
self	-10.9313
稀	-10.9314
Ta	-10.9316
患	-10.9317
存在的	-10.9319
ten	-10.9321
辖	-10.9324
也都	-10.9325
建设的	-10.933
书中	-10.9332
阻	-10.9334
风景	-10.9337
悲	-10.9338
伪	-10.934
荡	-10.934
基金经理	-10.9341
中关村	-10.9342
侵害	-10.9342
氪经授权	-10.9342
▁Ltd	-10.9342
标识	-10.9342
亨利	-10.9343
区内	-10.9343
神秘	-10.9343
助推	-10.9343
筹	-10.9344
副总经理	-10.9344
美术馆	-10.9345
拉斯	-10.9345
穿越	-10.9346
宽松	-10.9347
文献	-10.9347
pl	-10.9347
刚果	-10.9348
看似	-10.9349
与中国	-10.9349
都被	-10.9353
势头	-10.9353
▁test	-10.9354
家居	-10.9359
政党	-10.9359
eq	-10.9359
广州市	-10.9363
强烈的	-10.9363
昆明	-10.9367
鲜明	-10.9369
吸引了	-10.937
转换	-10.9372
先进的	-10.9374
▁world	-10.9377
不敌	-10.9379
所在的	-10.9383
新人	-10.9384
也让	-10.9389
▁case	-10.9395
过于	-10.9395
CC	-10.9396
技术创新	-10.9402
就算	-10.9405
造成了	-10.9406
及其他	-10.9408
六个	-10.941
一所	-10.941
零部件	-10.941
▁que	-10.9411
斯基	-10.9417
是一位	-10.9419
干警	-10.9424
入驻	-10.9424
合成	-10.9428
想法	-10.9431
一个个	-10.9436
把它	-10.9436
纲	-10.9437
一时	-10.9438
农业生产	-10.9439
公交车	-10.944
▁首先	-10.9441
但也	-10.9449
▁put	-10.945
法定	-10.9452
存量	-10.9454
拓	-10.9454
含有	-10.9455
▁file	-10.9457
部分地区	-10.9457
三季度	-10.9459
层次	-10.946
仰	-10.946
妹	-10.946
屈	-10.946
督促	-10.9462
骏	-10.9462
月中旬	-10.9462
桐	-10.9462
叙利亚	-10.9462
捐赠	-10.9463
message	-10.9463
▁same	-10.9463
窑	-10.9463
な	-10.9463
卿	-10.9463
孵化	-10.9463
发掘	-10.9463
祝贺	-10.9463
▁still	-10.9463
宠物	-10.9464
档案	-10.9464
▁ma	-10.9464
资讯	-10.9464
职业生涯	-10.9465
仪器	-10.9465
交互	-10.9465
添加	-10.9466
浓度	-10.9466
换乘	-10.9467
老百姓	-10.9469
起到	-10.9469
便宜	-10.9469
个国家	-10.947
更名为	-10.9474
期望	-10.9474
顶级	-10.9475
贯彻落实	-10.9475
农民工	-10.9475
美好生活	-10.9476
贝利	-10.9476
低价	-10.9476
way	-10.9476
有一定	-10.948
杀死	-10.948
关键词	-10.9481
很有	-10.9481
生活方式	-10.9481
ck	-10.9482
▁years	-10.9484
不止	-10.9485
便是	-10.9488
调节	-10.9488
▁Con	-10.949
)**	-10.9492
番	-10.9496
男女	-10.9496
声称	-10.9497
积分	-10.9501
出品	-10.9506
的胜利	-10.9508
安全隐患	-10.951
军区	-10.9514
铭	-10.9522
▁Q	-10.9526
恒大	-10.9529
涵盖	-10.9529
Me	-10.9531
替	-10.9531
几个月	-10.9532
驱	-10.9533
愈	-10.9539
人事	-10.9543
并以	-10.9545
We	-10.9546
一首	-10.9546
三级	-10.9551
▁Da	-10.9554
得分	-10.956
一群	-10.9566
家园	-10.9566
法律法规	-10.9569
昆	-10.9574
贡	-10.9574
慢慢	-10.9576
的压力	-10.9578
鼠	-10.958
出资	-10.9581
运转	-10.9584
衔接	-10.9584
除此之外	-10.9584
宿舍	-10.9585
奥地利	-10.9585
垂直	-10.9585
撤销	-10.9585
竟然	-10.9585
兼顾	-10.9585
减肥	-10.9586
茅台	-10.9587
周刊	-10.9587
确立	-10.9589
上一	-10.9589
非遗	-10.9589
热潮	-10.959
▁many	-10.959
尽可能	-10.9595
临近	-10.9596
演奏	-10.9596
智能手机	-10.9596
醉	-10.9597
偿还	-10.9599
正义	-10.9608
大局	-10.9611
一把	-10.9613
机车	-10.9614
还没	-10.9617
▁found	-10.9626
地块	-10.9629
上有	-10.963
畅通	-10.9632
一开始	-10.9632
You	-10.9636
lin	-10.9636
新闻发布会	-10.9637
党员干部	-10.9644
西亚	-10.9645
美方	-10.9647
De	-10.9648
新材料	-10.9649
栏	-10.9649
首位	-10.9652
另有	-10.9654
dir	-10.9657
公共卫生	-10.9657
科学技术	-10.9659
分红	-10.9659
参数	-10.9659
体重	-10.966
中小学	-10.9669
ier	-10.967
候	-10.967
($	-10.9672
造成的	-10.9674
my	-10.9677
七月	-10.9678
她在	-10.9678
短短	-10.9679
mg	-10.9682
很可能	-10.9683
悬	-10.9688
叔	-10.9688
二世	-10.9689
向好	-10.9689
命运	-10.9691
来讲	-10.9694
大地	-10.9698
亡	-10.9701
堵	-10.9701
常见	-10.9704
傅	-10.9706
裕	-10.9706
踩	-10.9707
汝	-10.9708
巴基斯坦	-10.9708
免疫	-10.9708
侦查	-10.9708
血液	-10.9709
搭配	-10.971
load	-10.971
长三角	-10.9711
该行	-10.9714
的速度	-10.9715
院士	-10.9716
天猫	-10.9719
女人	-10.972
资本主义	-10.9722
制品	-10.9722
随意	-10.9724
报价	-10.9725
本站	-10.9726
黄色	-10.9728
七年	-10.9731
那时	-10.9733
光明网	-10.9733
pi	-10.9734
了许多	-10.9737
两条	-10.9738
EN	-10.9739
部部长	-10.974
技术和	-10.974
▁本报	-10.9742
的一项	-10.9743
小微企业	-10.9745
的一次	-10.9746
ana	-10.9753
健康发展	-10.9753
体系建设	-10.9756
部份	-10.9756
得很	-10.976
北美	-10.9761
宴	-10.9767
记者了解到	-10.977
sp	-10.9773
剧场	-10.9775
的方向	-10.9776
在去年	-10.9778
中国政府	-10.9781
妇联	-10.9782
▁next	-10.9783
没有任何	-10.9784
必将	-10.9787
届时	-10.979
ger	-10.9795
运动会	-10.9796
中奖	-10.9797
最快	-10.9798
智能制造	-10.98
管理办法	-10.9803
一层	-10.9807
渐	-10.9807
▁day	-10.9809
yl	-10.981
袭	-10.9811
▁lo	-10.9811
证书	-10.9812
画家	-10.9813
学名	-10.9813
的各种	-10.9814
意向	-10.9814
年中国	-10.9818
今天的	-10.9818
密度	-10.982
荣获	-10.9821
聘	-10.9821
肠	-10.9827
划分	-10.9829
唱片	-10.9829
蚂蚁	-10.983
瘦	-10.9831
弥	-10.9831
铸	-10.9832
遵循	-10.9832
抵押	-10.9832
岁时	-10.9833
赐	-10.9833
▁life	-10.9833
▁might	-10.9833
▁face	-10.9834
线上线下	-10.9835
主管部门	-10.9835
稳健	-10.9836
NBA	-10.9836
回暖	-10.9837
江西省	-10.9837
String	-10.9838
东盟	-10.9838
承受	-10.9838
核实	-10.984
但这	-10.9841
落户	-10.9842
key	-10.9843
光荣	-10.9845
led	-10.9846
分局	-10.9847
劳动力	-10.9849
开发商	-10.985
扎实	-10.9851
要闻	-10.9853
优良	-10.9853
图像	-10.9855
▁used	-10.9864
原始	-10.9864
五月	-10.9864
曾任	-10.9868
▁cl	-10.9868
电源	-10.9869
极其	-10.9872
就开始	-10.9873
太平	-10.9873
原有	-10.9873
二百	-10.9875
秋季	-10.9879
文来自微信公众号	-10.9881
大脑	-10.9882
较高的	-10.9885
中外	-10.9885
路面	-10.9889
day	-10.9892
全国各地	-10.9893
将持续	-10.9895
委会	-10.9897
▁data	-10.9897
制造商	-10.9897
鉴于	-10.9906
况	-10.9907
一面	-10.9909
其实是	-10.9916
魔法	-10.9918
ens	-10.992
回购	-10.992
欧元	-10.9921
网球	-10.9921
漫	-10.9923
的相关	-10.9926
八十	-10.9927
的特点	-10.9929
前面	-10.9929
进军	-10.9934
第八	-10.9937
长远	-10.994
览	-10.9944
景点	-10.9944
大会上	-10.9945
潭	-10.9946
战后	-10.9946
一号	-10.9947
一笔	-10.9952
追溯	-10.9954
廉	-10.9954
效力	-10.9955
碑	-10.9955
束	-10.9956
腔	-10.9957
铝	-10.9957
龟	-10.9957
国际化	-10.9958
恐怖	-10.9958
▁again	-10.9959
繁殖	-10.9959
模块	-10.9959
し	-10.9959
饲养	-10.996
离不开	-10.996
妹妹	-10.996
盗窃	-10.996
邮政	-10.996
Model	-10.9961
巡查	-10.9961
全长	-10.9961
风貌	-10.9962
勇敢	-10.9962
实在	-10.9962
剧中	-10.9963
主教练	-10.9964
指责	-10.9966
不在	-10.9966
女友	-10.9966
概念股	-10.9967
目前的	-10.9969
既是	-10.997
促使	-10.9977
选择了	-10.9979
指南	-10.9986
不断提高	-10.9989
人力	-10.999
外汇	-10.9991
在过去	-10.9991
毕业后	-10.9994
▁am	-10.9996
作出了	-11.0001
▁通讯员	-11.0004
村庄	-11.0006
复合	-11.0007
第三季度	-11.0013
较大的	-11.0016
上级	-11.0016
ONE	-11.0018
下属	-11.0019
十四五	-11.0021
每个人	-11.0025
发送	-11.0028
高原	-11.0029
可持续	-11.003
财政部	-11.0032
已达	-11.0032
第一位	-11.0034
眼前	-11.0044
意图	-11.0045
ley	-11.0049
现货	-11.005
道理	-11.0053
书画	-11.0056
而已	-11.0057
ments	-11.0061
拨打	-11.0064
阁	-11.0065
的语言	-11.0072
中国企业	-11.0074
讨	-11.0076
公安局	-11.0078
催	-11.0079
中国特色社会主义	-11.008
秘	-11.0081
中东	-11.0081
涵	-11.0082
实习	-11.0084
柴	-11.0084
瑟	-11.0085
枢纽	-11.0086
泳	-11.0086
传销	-11.0086
丑	-11.0087
驰	-11.0087
郁	-11.0087
描绘	-11.0087
搜寻	-11.0088
廖	-11.0088
→	-11.0088
Error	-11.0088
质押	-11.0088
恐怕	-11.0088
眉	-11.0088
邹	-11.0088
脱离	-11.0088
欣赏	-11.0088
有不少	-11.0089
不及预期	-11.0089
牠们	-11.0089
物联网	-11.0089
激活	-11.0089
邱	-11.0089
mp	-11.0092
竞争对手	-11.0092
历任	-11.0095
草案	-11.0096
ating	-11.0097
净化	-11.0099
处理器	-11.0099
批判	-11.01
合资	-11.0101
本赛季	-11.0102
蒙古	-11.0104
安心	-11.0107
供电	-11.0109
有过	-11.011
同学们	-11.0112
白云	-11.0113
公报	-11.0114
先行	-11.0116
并对	-11.0116
研讨会	-11.012
跟着	-11.0122
春天	-11.0123
出的	-11.0125
夺冠	-11.0126
次会议	-11.0128
的品牌	-11.0129
有网友	-11.013
cx	-11.0131
的国际	-11.0136
在那里	-11.0139
地上	-11.014
时空	-11.0142
小镇	-11.0147
收盘	-11.0148
峰会	-11.0155
参与者	-11.0155
的创新	-11.016
这将	-11.016
▁true	-11.0162
中原	-11.0166
new	-11.0172
▁Ba	-11.0173
iv	-11.0173
还原	-11.0175
的热情	-11.0176
上市的	-11.0177
收录	-11.018
场比赛	-11.0181
目的是	-11.0182
的日子	-11.0183
品牌的	-11.0184
▁k	-11.0185
nt	-11.0186
List	-11.0186
开辟	-11.0187
凝	-11.0192
种种	-11.0192
执政	-11.0194
ung	-11.0195
时机	-11.0196
余额	-11.0199
Id	-11.0199
struct	-11.0202
▁郑	-11.0206
愁	-11.0208
人们的	-11.0209
崎	-11.021
赛后	-11.021
胎	-11.0215
悠	-11.0216
寸	-11.0216
招股书	-11.0218
印度尼西亚	-11.0218
山水	-11.0218
光明日报	-11.0219
▁against	-11.0219
暑期	-11.0219
特性	-11.0219
铁道	-11.0219
检修	-11.022
公示	-11.0221
选拔	-11.0222
创投	-11.0224
农药	-11.0226
语音	-11.0227
告别	-11.0227
家具	-11.0228
原来的	-11.0229
地址	-11.023
und	-11.0231
两侧	-11.0232
起步	-11.0234
云集	-11.0238
的所有	-11.0239
这对	-11.0243
列为	-11.0248
我会	-11.0248
amp	-11.0251
杭州市	-11.0251
万多	-11.0251
▁App	-11.0252
长大	-11.0253
就被	-11.026
用电	-11.026
米的	-11.0265
多万	-11.0266
背后的	-11.027
等多种	-11.0281
天使	-11.0281
的父亲	-11.0283
理事会	-11.0285
az	-11.029
so	-11.0291
流域	-11.0293
为止	-11.0301
AD	-11.0302
▁胡	-11.0302
icon	-11.0304
▁come	-11.0305
南昌	-11.0306
伟大的	-11.0308
辩	-11.031
我们将	-11.0311
的意义	-11.0313
双向	-11.0314
无疑	-11.0316
新品	-11.0317
斯坦	-11.0329
’。”	-11.0333
渗透	-11.0338
县城	-11.034
▁came	-11.0341
海岸	-11.0343
亿美元的	-11.0344
▁show	-11.0344
本文	-11.0344
遗憾	-11.0347
con	-11.0347
贞	-11.0347
吾	-11.0348
弟弟	-11.0348
歇	-11.0349
闸	-11.0349
娃	-11.0349
肿瘤	-11.0349
公寓	-11.0349
▁because	-11.0349
探测	-11.0349
弥补	-11.035
推迟	-11.035
持仓	-11.035
一站式	-11.035
展望	-11.0351
景象	-11.0352
竞选	-11.0352
姐姐	-11.0352
牵头	-11.0352
鼎	-11.0352
留言	-11.0354
保卫	-11.0355
柏林	-11.0358
▁going	-11.0359
三次	-11.036
一篇	-11.036
亿港元	-11.0361
大使馆	-11.0361
世代	-11.0361
活动的	-11.0362
西德	-11.0363
不利	-11.0364
机械化	-11.0364
靠近	-11.0364
赢得了	-11.0365
▁本次	-11.0369
是我	-11.0369
将是	-11.0371
提升了	-11.0373
▁按照	-11.0375
相机	-11.0378
公共服务	-11.0378
之内	-11.0378
不明	-11.0379
cal	-11.0382
开办	-11.0385
面临着	-11.039
前列	-11.039
art	-11.0401
采用了	-11.0401
校区	-11.0403
命名为	-11.0407
▁朱	-11.0409
奖号	-11.0409
本市	-11.0409
正当	-11.0411
作了	-11.0413
海关	-11.0413
展厅	-11.0414
小孩	-11.042
在京	-11.0423
▁今天	-11.0427
也不会	-11.0428
对他	-11.0431
千亿	-11.0433
持有的	-11.0434
资质	-11.0435
之子	-11.0437
出具	-11.0438
超过了	-11.0439
见证	-11.0441
有很大	-11.0446
细分	-11.0452
月开始	-11.0453
▁/*	-11.0457
商务部	-11.0459
还不	-11.0462
param	-11.0463
符	-11.0463
督	-11.0464
额外	-11.0465
用作	-11.0467
LE	-11.0468
ms	-11.0468
也为	-11.0471
我市	-11.0474
闪	-11.0476
染	-11.0477
▁Z	-11.0478
最美	-11.0478
遥	-11.0478
茅	-11.048
are	-11.048
检察院	-11.0481
溢	-11.0481
谴责	-11.0482
姑娘	-11.0482
浆	-11.0482
遏制	-11.0482
•	-11.0483
▁great	-11.0483
扇	-11.0483
干旱	-11.0483
贯通	-11.0484
这件事	-11.0484
出货量	-11.0484
辞职	-11.0484
描写	-11.0484
惊喜	-11.0484
导航	-11.0485
口径	-11.0485
PS	-11.0485
业余	-11.0486
合法权益	-11.0486
指控	-11.0486
减弱	-11.0486
成人	-11.0487
激	-11.0491
汇率	-11.0492
充分利用	-11.0492
内阁	-11.0492
点赞	-11.0492
改装	-11.0492
差不多	-11.0494
直播间	-11.0494
▁value	-11.0495
研报	-11.0497
司马	-11.0497
马路	-11.0497
▁There	-11.0498
从此	-11.05
治安	-11.0502
顺德	-11.0503
不愿	-11.0503
新冠病毒	-11.0503
▁『	-11.0504
自杀	-11.0505
通车	-11.051
CH	-11.0511
该市	-11.0512
民营	-11.0513
▁list	-11.0513
▁日本	-11.0518
也没	-11.0519
有个	-11.0522
ler	-11.0526
af	-11.0529
约有	-11.0533
早上	-11.0536
导师	-11.0537
旅游业	-11.0538
局部	-11.054
的角色	-11.0542
让她	-11.0544
融合发展	-11.0547
▁Do	-11.0548
外交部	-11.0549
rate	-11.0551
它们的	-11.0555
▁find	-11.0556
He	-11.0561
局局长	-11.0562
严峻	-11.0562
历经	-11.0564
di	-11.0566
▁日前	-11.0566
救治	-11.0566
期奖号	-11.0566
步伐	-11.0568
SS	-11.057
表现出	-11.0574
大厅	-11.0576
赶到	-11.0579
特拉	-11.0581
均有	-11.0583
并通过	-11.0594
的商业	-11.0594
挡	-11.0599
总工会	-11.0599
我在	-11.0605
新股	-11.0607
不上	-11.0608
的用户	-11.061
ft	-11.0612
绪	-11.0613
滑雪	-11.0613
”——	-11.0616
珊	-11.0616
畜	-11.0616
吐	-11.0617
梨	-11.0617
谦	-11.0617
豹	-11.0617
在一个	-11.0617
虚构	-11.0617
辉煌	-11.0617
洛杉矶	-11.0617
ア	-11.0618
交叉	-11.0618
港交所	-11.0618
▁Chinese	-11.0618
慰问	-11.0618
这两个	-11.0618
爱尔兰	-11.0618
▁water	-11.0618
赋予	-11.0618
た	-11.0618
技巧	-11.0618
倾向	-11.0618
▁few	-11.0618
拓宽	-11.0619
鼓舞	-11.0619
贯穿	-11.0619
闭环	-11.0619
口碑	-11.062
正规	-11.0623
不小	-11.0623
社团	-11.0623
值班	-11.0625
分裂	-11.0626
而非	-11.0626
缺少	-11.0629
专科	-11.0632
精力	-11.0633
稳定的	-11.0633
奉献	-11.0633
发布会上	-11.0634
假设	-11.0636
预售	-11.0641
太原	-11.0642
之旅	-11.0642
龙头企业	-11.0642
我们认为	-11.0642
多样	-11.0643
走到	-11.0643
样本	-11.0644
笔者	-11.0644
cre	-11.0644
到位	-11.0645
开发区	-11.0646
Al	-11.0646
特色的	-11.0647
双手	-11.0648
基础设施建设	-11.0649
年同期	-11.065
风电	-11.0651
专区	-11.0651
大片	-11.0652
▁each	-11.0653
ping	-11.0656
难点	-11.0658
商业模式	-11.0661
add	-11.0661
Ch	-11.0662
好好	-11.0666
日军	-11.0675
ors	-11.0675
积极参与	-11.0677
食品安全	-11.0677
等相关	-11.0682
相对较	-11.0683
厂家	-11.0685
len	-11.0685
要加强	-11.0686
一本	-11.0689
▁孙	-11.0694
ster	-11.0694
非常重要	-11.0695
迎来了	-11.0697
AS	-11.0699
科学院	-11.07
将为	-11.07
郊区	-11.0705
艺术品	-11.0705
自身的	-11.0705
config	-11.0705
排除	-11.0708
uck	-11.0709
团伙	-11.0713
趋	-11.0713
等工作	-11.0716
目前已	-11.0717
是我国	-11.0717
也不是	-11.0718
管制	-11.0719
时候	-11.0721
携	-11.0721
开支	-11.0723
▁help	-11.0723
新模式	-11.0724
酿	-11.0729
应用于	-11.0729
常见的	-11.073
伍	-11.073
研判	-11.073
高品质	-11.0731
选出	-11.0731
白天	-11.0735
pro	-11.074
分离	-11.0741
梯	-11.0743
编号	-11.0744
大门	-11.0745
sk	-11.0745
佛山	-11.0745
幻	-11.0746
去做	-11.0746
记得	-11.0746
书法	-11.075
敦	-11.0753
淘	-11.0753
缩表	-11.0754
藩	-11.0754
年报	-11.0754
霜	-11.0754
尺寸	-11.0755
困扰	-11.0755
丨	-11.0755
白皮书	-11.0755
比利时	-11.0755
电商平台	-11.0755
终止	-11.0755
传感器	-11.0755
简介	-11.0756
演习	-11.0756
提议	-11.0756
成交额	-11.0756
炒作	-11.0757
空气质量	-11.0757
四季度	-11.0758
的平均	-11.0758
提速	-11.0759
成交量	-11.0761
三种	-11.0761
专注于	-11.0762
跨度	-11.0763
坦克	-11.0764
破解	-11.0769
背景下	-11.077
新产品	-11.077
日晚间	-11.0771
大力发展	-11.0772
第十	-11.0775
的代表	-11.0776
该区	-11.0783
arr	-11.0783
环境保护	-11.0784
心情	-11.0788
▁run	-11.079
开创	-11.079
女生	-11.0793
但从	-11.0797
陪拍	-11.0797
Trans	-11.0801
这两	-11.0803
美国总统	-11.0804
专业化	-11.0806
小玉	-11.081
BC	-11.0811
▁上海	-11.0811
街区	-11.0813
新生	-11.0818
结构性	-11.0827
长度	-11.0829
世界的	-11.083
关注的	-11.0833
ise	-11.0837
文化交流	-11.0838
时间为	-11.0841
进了	-11.0844
诱	-11.0845
bit	-11.085
等因素	-11.085
count	-11.0853
._	-11.0854
增收	-11.0855
在网上	-11.0859
新冠肺炎	-11.0861
地带	-11.0864
ow	-11.0868
有许多	-11.087
失去了	-11.0871
前行	-11.0874
妈	-11.0874
耕	-11.0874
风暴	-11.0876
平均每	-11.088
违	-11.0882
燃	-11.0882
尺	-11.0887
学生的	-11.0888
躲	-11.0893
禄	-11.0893
姬	-11.0893
胃	-11.0893
交通事故	-11.0893
巢	-11.0894
睡眠	-11.0894
卓越	-11.0895
演练	-11.0895
警示	-11.0895
绍兴	-11.0895
失误	-11.0895
吐槽	-11.0896
细致	-11.0896
热闹	-11.0896
脚步	-11.0896
仓库	-11.0897
地处	-11.0899
集聚	-11.0899
名誉	-11.0899
意志	-11.0899
终身	-11.0899
征收	-11.09
专业的	-11.09
▁inform	-11.0901
是从	-11.0902
▁Lo	-11.0903
会长	-11.0904
▁thought	-11.0905
道歉	-11.0907
▁资料图	-11.0908
并入	-11.0909
实施方案	-11.091
ress	-11.0914
马丁	-11.0915
SZ	-11.0916
率领	-11.0917
jb	-11.0925
不及	-11.0927
该片	-11.0928
ning	-11.0928
缴	-11.0931
一大	-11.0932
加州	-11.0933
住了	-11.0933
任命	-11.0933
日开始	-11.0934
报告显示	-11.0935
盈利能力	-11.0937
税务	-11.0937
开盘	-11.0939
wa	-11.094
身为	-11.094
PM	-11.094
山县	-11.0942
用药	-11.0945
外地	-11.0946
早就	-11.0948
市场主体	-11.0948
的局面	-11.095
cur	-11.095
亲王	-11.0952
就没有	-11.0959
那是	-11.0959
不便	-11.0962
ase	-11.0968
保罗	-11.0968
hen	-11.0969
的朋友	-11.0969
亨	-11.097
不起	-11.097
ris	-11.0973
庞	-11.0974
盘中	-11.0975
▁Pro	-11.0975
要想	-11.0975
东亚	-11.0976
的地位	-11.0977
走了	-11.0978
书院	-11.0984
出租	-11.0985
ath	-11.0986
进来	-11.0988
将从	-11.0989
个城市	-11.0992
一番	-11.0993
历时	-11.0995
困	-11.0995
不行	-11.0997
明明	-11.0999
的决定	-11.1
谈及	-11.1002
ey	-11.1003
IL	-11.1007
各方面	-11.1011
ons	-11.1012
某个	-11.1013
下称	-11.1015
逐年	-11.1018
原材料	-11.1018
我们党	-11.102
三百	-11.1022
万亿	-11.1023
一组	-11.1024
上调	-11.1026
恨	-11.1033
垄断	-11.1033
巫	-11.1033
尉	-11.1034
禅	-11.1034
僧	-11.1034
囊	-11.1034
∶	-11.1034
う	-11.1034
▁little	-11.1034
▁those	-11.1035
▁differ	-11.1035
灵魂	-11.1035
phone	-11.1035
痛苦	-11.1035
奶茶	-11.1035
罢工	-11.1036
龚	-11.1036
详情	-11.1036
渴望	-11.1037
衡量	-11.1038
的信心	-11.1038
吃饭	-11.1039
频率	-11.1041
美容	-11.1043
大事	-11.1043
无奈	-11.1044
ose	-11.1045
理财产品	-11.1045
出色	-11.1046
票据	-11.1049
ight	-11.1049
出于	-11.105
缩小	-11.1051
代替	-11.1053
有时候	-11.1054
▁Br	-11.1054
运送	-11.1057
▁large	-11.1058
本月	-11.106
ical	-11.1061
事物	-11.1061
产值	-11.1062
有没有	-11.1068
ground	-11.1069
野生	-11.1069
某种	-11.1069
现行	-11.107
大学的	-11.1072
会出现	-11.1073
将以	-11.1074
会导致	-11.1076
进入了	-11.1078
风光	-11.1079
边防	-11.108
兴奋	-11.1083
平原	-11.1083
至此	-11.1083
ding	-11.109
做的	-11.1094
打电话	-11.1094
cc	-11.1095
TS	-11.1096
北京时间	-11.1106
Wh	-11.1107
病情	-11.1109
签署了	-11.1109
总投资	-11.1111
▁read	-11.1115
盟	-11.1118
远远	-11.1121
市政	-11.1122
稳定性	-11.1125
是一家	-11.1125
ative	-11.1126
的计划	-11.1128
的模式	-11.1129
的第二	-11.113
全覆盖	-11.1132
怎样的	-11.1133
低碳	-11.1134
海南省	-11.1135
占地	-11.1136
ull	-11.1137
相同的	-11.1139
可在	-11.1145
希望能	-11.1146
oc	-11.1147
分行	-11.1149
模范	-11.115
时期的	-11.1153
ME	-11.1154
七十	-11.1156
的伟大	-11.116
实体经济	-11.116
零跑	-11.1162
table	-11.1164
走上	-11.1166
赋	-11.1167
▁All	-11.1167
丛	-11.1167
)](	-11.1171
九月	-11.1173
阿尔巴尼亚	-11.1174
欠	-11.1174
疾	-11.1174
芽	-11.1174
▁j	-11.1174
讲述了	-11.1175
捧	-11.1176
酱	-11.1177
卜	-11.1177
得益于	-11.1177
苍	-11.1177
葡萄牙	-11.1177
丸	-11.1177
牲畜	-11.1177
陌生	-11.1177
酶	-11.1177
阻碍	-11.1177
嗯	-11.1177
抹	-11.1177
频频	-11.1177
る	-11.1177
别墅	-11.1178
前三	-11.1178
激情	-11.1178
鸡蛋	-11.1178
琦	-11.1178
认购	-11.1179
党支部	-11.1179
ov	-11.1181
丹麦	-11.1182
作曲	-11.1183
战术	-11.1183
他也	-11.1184
退票	-11.1185
曼联	-11.1186
val	-11.1186
可爱	-11.1187
轮融资	-11.1189
买了	-11.119
房地产市场	-11.1191
吸引力	-11.1191
否认	-11.1194
入学	-11.1199
师范大学	-11.1199
买量	-11.1199
网民	-11.1203
化名	-11.1203
南宁	-11.1204
开户	-11.1205
巴尔	-11.1206
生育	-11.1206
万元的	-11.1206
action	-11.1208
宣讲	-11.1209
初中	-11.1211
暴露	-11.1211
废除	-11.1212
源自	-11.1214
称赞	-11.1214
锁定	-11.1215
吉利	-11.1215
新华社	-11.1216
毫不	-11.1216
占用	-11.1217
一股	-11.1219
心灵	-11.1222
消费者的	-11.1224
到来	-11.1226
IR	-11.123
类似的	-11.1231
▁high	-11.1232
开启了	-11.1235
的空间	-11.1237
车队	-11.1237
马尔	-11.1237
的比赛中	-11.1237
km	-11.124
很重要	-11.124
都将	-11.1244
验	-11.1245
▁二	-11.1247
是否有	-11.1251
嫌疑人	-11.1256
航空公司	-11.1256
写道	-11.1262
促进了	-11.1263
较少	-11.1264
也需要	-11.1266
垫	-11.1268
▁text	-11.1271
律	-11.1276
推介	-11.1279
▁room	-11.1282
比分	-11.1285
分化	-11.1292
做出了	-11.1294
月台	-11.1296
▁mean	-11.1296
的球员	-11.13
中共中央	-11.13
▁Wa	-11.1301
服务器	-11.1303
广泛的	-11.1304
所在地	-11.1306
一波	-11.1306
特殊的	-11.1307
水上	-11.1307
ou	-11.1307
复杂的	-11.131
盆	-11.1311
发表了	-11.1311
凶	-11.1318
厨	-11.1321
魂	-11.1321
壁垒	-11.1321
旗帜	-11.1322
颂	-11.1322
浪漫	-11.1322
晖	-11.1322
り	-11.1322
瞄准	-11.1322
仿佛	-11.1322
咏	-11.1323
仕	-11.1323
旗舰	-11.1323
漏洞	-11.1323
知乎	-11.1323
vo	-11.1324
mer	-11.1324
祝福	-11.1324
显现	-11.1324
规格	-11.1325
截图	-11.1325
的成员	-11.1325
录取	-11.1326
跨界	-11.1326
omething	-11.1327
骑行	-11.1327
抢救	-11.1327
负面	-11.1328
场面	-11.133
ther	-11.1332
跨境电商	-11.1332
普通人	-11.1337
监管部门	-11.1339
关怀	-11.134
趣	-11.1341
等方面的	-11.1342
民主党	-11.1343
造车	-11.1345
学位	-11.1346
并与	-11.1347
关爱	-11.1347
▁sw	-11.1348
突发	-11.1348
无线	-11.1349
受欢迎	-11.135
历程	-11.1352
Cl	-11.1357
▁因此	-11.1358
基站	-11.136
建立起	-11.1361
ities	-11.1361
就读	-11.1362
具体的	-11.1362
wi	-11.1362
过后	-11.1362
上来	-11.1365
ix	-11.1367
ze	-11.1368
▁start	-11.1369
差别	-11.137
St	-11.137
四季	-11.1371
########	-11.1374
例子	-11.1375
打卡	-11.1378
内外	-11.1378
共同体	-11.1379
伙	-11.138
的重要性	-11.1383
主打	-11.1384
之上	-11.1385
口号	-11.1386
技术人员	-11.1393
一大批	-11.1396
下班	-11.1396
象征	-11.1397
万达	-11.14
ili	-11.1401
付款	-11.1401
被视为	-11.1402
这里的	-11.1403
现金流	-11.1405
用了	-11.1409
的世界	-11.1409
不存在	-11.141
完毕	-11.1412
EX	-11.1416
RA	-11.1417
一声	-11.1417
的关注	-11.1418
加之	-11.142
▁inter	-11.1423
SK	-11.1423
▁play	-11.1424
的数量	-11.1427
场上	-11.1428
革	-11.143
利息	-11.1433
以内	-11.144
敲	-11.1446
装修	-11.1446
一轮	-11.1447
湖区	-11.145
海峡	-11.1451
sta	-11.1451
信托	-11.1456
事业单位	-11.1457
这么多	-11.1457
规定的	-11.1458
▁On	-11.1459
惨	-11.1461
管理部门	-11.1461
肺	-11.1464
日消息	-11.1467
交通安全	-11.1467
让你	-11.1467
铅	-11.1468
姿	-11.1468
妖	-11.1468
医护人员	-11.1469
氯	-11.1469
汇聚	-11.1469
詹姆斯	-11.1469
卒	-11.1469
闫	-11.1469
▁until	-11.1469
宁德时代	-11.1469
涅	-11.147
反映了	-11.147
罕见	-11.147
深耕	-11.147
如同	-11.1471
烈士	-11.1471
均衡	-11.1472
素养	-11.1472
LA	-11.1472
QQ	-11.1472
社交媒体	-11.1473
门诊	-11.1474
深深	-11.1474
%-	-11.1475
被评为	-11.1476
伴随着	-11.1477
现阶段	-11.1478
牌照	-11.1478
能在	-11.1478
远离	-11.1479
战斗机	-11.1481
che	-11.1484
专项行动	-11.1486
树木	-11.1486
敢于	-11.1486
售卖	-11.1487
的任务	-11.1487
便民	-11.1488
原理	-11.1489
寿命	-11.1489
辅导	-11.1489
已经在	-11.1489
加深	-11.1493
热度	-11.1494
无需	-11.1494
的传统	-11.1494
身高	-11.1494
的活动	-11.1496
将近	-11.1498
洛阳	-11.1499
▁马	-11.1499
电动	-11.15
男人	-11.15
功夫	-11.1509
算是	-11.1509
能力和	-11.1509
中队	-11.1511
也表示	-11.1512
人死亡	-11.1515
▁art	-11.1516
▁文	-11.1518
少量	-11.1519
确	-11.1521
不幸	-11.1522
不易	-11.1526
涨价	-11.1527
高等教育	-11.1531
电台	-11.1543
一看	-11.1543
能不能	-11.1545
▁old	-11.1547
%/	-11.1548
清华大学	-11.155
适度	-11.155
还包括	-11.1553
被动	-11.1559
高潮	-11.1563
path	-11.1564
old	-11.1567
上网	-11.1568
eng	-11.1576
深受	-11.1577
并无	-11.1579
功率	-11.1582
▁Ca	-11.1584
conf	-11.1586
古城	-11.1587
联通	-11.1587
的孩子	-11.1587
位列	-11.1588
出门	-11.1588
阶段性	-11.1589
事后	-11.159
出土	-11.159
▁los	-11.1592
也开始	-11.1592
▁need	-11.1592
但我	-11.1596
电气	-11.1597
岁月	-11.1597
生鲜	-11.16
狱	-11.1603
活动中	-11.1607
su	-11.1611
咸	-11.1612
环境下	-11.1613
毕	-11.1613
臂	-11.1614
▁所以	-11.1616
迟	-11.1616
铃	-11.1616
娶	-11.1617
俩	-11.1617
锂	-11.1617
毛泽东	-11.1617
灾害	-11.1617
需求的	-11.1618
稳步	-11.1618
逛	-11.1618
苏格兰	-11.1618
洞庭湖	-11.1618
▁three	-11.1618
党组书记	-11.1619
更重要的是	-11.1619
像是	-11.1619
▁AI	-11.1619
哪怕	-11.1619
细菌	-11.162
住宿	-11.162
教训	-11.162
轨道交通	-11.1621
眼镜	-11.1621
的贡献	-11.1621
国家安全	-11.1621
攻关	-11.1622
受灾	-11.1624
饭店	-11.1624
部落	-11.1625
装甲	-11.1625
够	-11.1625
报废	-11.1626
领取	-11.1626
▁does	-11.1627
环球	-11.1629
que	-11.163
主帅	-11.1631
调动	-11.1632
不少人	-11.1636
DI	-11.1638
va	-11.1639
▁point	-11.1641
一直以来	-11.1642
空白	-11.1644
独自	-11.1646
当场	-11.1646
适用于	-11.1648
忘	-11.1648
大选	-11.1649
分布于	-11.1649
富有	-11.1649
ya	-11.1649
售票	-11.165
志愿服务	-11.1652
为主题	-11.1652
青海	-11.1657
▁徐	-11.1658
这一次	-11.1659
▁both	-11.1659
中新社	-11.1661
上诉	-11.1666
走在	-11.1669
实践中	-11.1672
林业	-11.1672
不必	-11.1672
进出口	-11.1674
一事	-11.1674
light	-11.1675
▁${	-11.1676
实际情况	-11.1679
省委	-11.1683
mark	-11.1683
五百	-11.1686
径	-11.1686
基督教	-11.1687
很容易	-11.1689
美国人	-11.1693
可以说	-11.1693
几次	-11.1695
初心	-11.1696
行李	-11.1698
兴起	-11.1705
日常生活	-11.1709
▁白	-11.1709
外面	-11.1715
来临	-11.1716
去年同期	-11.1718
TOP	-11.1719
La	-11.172
合理的	-11.172
一流	-11.1723
let	-11.1723
名人	-11.1728
是非常	-11.1731
排队	-11.1731
sc	-11.1735
鹅	-11.1735
处在	-11.1736
条件的	-11.1738
体内	-11.1742
防线	-11.1742
商户	-11.1743
居家	-11.1745
十余	-11.1748
萨尔	-11.1755
变为	-11.1756
转会	-11.1757
在英国	-11.1763
恰	-11.1763
渝	-11.1765
罢	-11.1766
旱	-11.1766
瓷	-11.1768
擦	-11.1769
裸	-11.1769
螺	-11.1769
雀	-11.1769
有限责任公司	-11.1769
哀	-11.1769
婉	-11.1769
吓	-11.177
潜艇	-11.177
熔	-11.177
勾	-11.177
鲍	-11.177
坂	-11.177
雯	-11.177
利比亚	-11.177
怀孕	-11.177
英寸	-11.177
婴儿	-11.177
传染病	-11.177
缩减	-11.1771
种族	-11.1772
高等学校	-11.1772
恶意	-11.1773
参展	-11.1773
抵抗	-11.1773
灵感	-11.1773
降息	-11.1773
php	-11.1773
餐馆	-11.1774
附属	-11.1776
ize	-11.1777
停产	-11.1777
货运	-11.1778
印刷	-11.1779
火爆	-11.1781
人力资源	-11.1783
一律	-11.1786
必要的	-11.1786
潜在	-11.1786
▁但是	-11.1786
同比减少	-11.1787
den	-11.1787
绝不	-11.1787
沿着	-11.1787
田园	-11.1789
葡萄酒	-11.1791
双重	-11.1791
入住	-11.1794
的那	-11.1799
流传	-11.1801
rm	-11.1801
三位	-11.1801
已完成	-11.1804
界面	-11.1805
黑龙江省	-11.1806
▁香港	-11.1807
的看法	-11.181
接入	-11.1813
华南	-11.1814
一页	-11.1814
现身	-11.1815
对阵	-11.1817
ition	-11.1819
华北	-11.1822
发展中国家	-11.1823
英超	-11.1823
▁val	-11.1825
户籍	-11.1826
▁Car	-11.1826
现已	-11.183
的责任	-11.1833
正常的	-11.1834
的水平	-11.1835
.'	-11.1837
陶瓷	-11.1839
曲线	-11.184
春秋	-11.1842
的战斗	-11.1842
展现了	-11.1843
contract	-11.1846
有必要	-11.1846
区域内	-11.1848
!》	-11.1851
text	-11.1853
等到	-11.1854
的未来	-11.1859
ai	-11.1859
cl	-11.186
历史文化	-11.1864
斯塔	-11.1865
各界	-11.187
为民	-11.1873
cle	-11.1874
前方	-11.1875
自从	-11.1876
九年	-11.1876
大致	-11.1879
个人信息	-11.1889
▁Ar	-11.189
▁live	-11.1896
偿	-11.1901
ki	-11.1904
统一的	-11.1905
核心技术	-11.1907
路边	-11.191
增长率	-11.1915
皇后	-11.1919
朵	-11.192
昊	-11.1922
隐私	-11.1922
奥巴马	-11.1923
盾	-11.1923
忌	-11.1923
禾	-11.1923
灌溉	-11.1923
倪	-11.1923
奢	-11.1923
虾	-11.1923
副会长	-11.1923
资产阶级	-11.1924
感慨	-11.1924
颁布	-11.1924
煮	-11.1924
哥伦比亚	-11.1924
大闸蟹	-11.1924
闷	-11.1924
GPU	-11.1924
▁during	-11.1924
pp	-11.1925
短缺	-11.1925
密码	-11.1926
width	-11.1926
直销	-11.1926
愿景	-11.1926
责令	-11.1927
▁didn	-11.1929
逆转	-11.1929
信念	-11.1929
▁eyes	-11.1929
布置	-11.193
致富	-11.193
事宜	-11.193
唯一的	-11.1931
打进	-11.1933
使其	-11.1934
伯爵	-11.1934
提问	-11.1934
自愿	-11.1937
主观	-11.194
的根本	-11.194
照明	-11.1942
好评	-11.1943
盘面	-11.195
link	-11.1952
追踪	-11.1953
构	-11.1953
希望通过	-11.1956
有哪些	-11.1957
银川	-11.1957
一艘	-11.1964
的领导	-11.1965
新京报记者	-11.1968
ham	-11.1968
与发展	-11.1971
已经是	-11.1974
增长了	-11.1976
留学	-11.1977
南海	-11.1978
掀起	-11.1978
▁至于	-11.1979
▁win	-11.1982
胜出	-11.1983
英勇	-11.1983
排水	-11.1987
预订	-11.1989
this	-11.1992
一幅	-11.1994
建筑物	-11.1994
▁图	-11.1996
的革命	-11.1997
和企业	-11.1998
巴萨	-11.2
分区	-11.2005
▁当地时间	-11.2005
北路	-11.2007
亿股	-11.2008
分数	-11.2009
是最	-11.201
清水	-11.2012
视线	-11.2013
与会	-11.2015
最小	-11.202
箭	-11.2021
民俗	-11.2023
消费品	-11.2024
产业化	-11.2027
▁open	-11.2029
不错的	-11.2031
农田	-11.2032
能看到	-11.2033
目的地	-11.2034
美洲	-11.2036
▁result	-11.2038
将进一步	-11.2041
科创	-11.2042
nc	-11.205
国庆	-11.2051
定增	-11.2055
ek	-11.2056
监护	-11.2059
辛苦	-11.2061
该校	-11.2062
山村	-11.2063
局长	-11.2065
无效	-11.2066
话剧	-11.2069
url	-11.2069
上学	-11.207
公积金	-11.2072
衰	-11.2073
管理者	-11.2073
绵	-11.2074
恐	-11.2075
特意	-11.2075
莹	-11.2077
○	-11.2078
巾	-11.2079
砍	-11.2079
蚕	-11.2079
烤	-11.2079
桩	-11.208
瑜	-11.208
肝	-11.208
ん	-11.208
宗旨	-11.208
か	-11.208
压缩	-11.208
脊	-11.208
棕榈油	-11.208
に	-11.208
限购	-11.2081
缺陷	-11.2081
阵营	-11.2082
笑容	-11.2082
坚实	-11.2083
原子	-11.2083
贫困户	-11.2083
连锁	-11.2083
▁without	-11.2084
购票	-11.2086
不同于	-11.2088
重启	-11.2089
排列	-11.209
完工	-11.2091
成员国	-11.2092
手里	-11.2092
不停	-11.2093
▁del	-11.2093
牵引	-11.2094
通往	-11.2095
国有企业	-11.2099
归属	-11.21
删除	-11.2107
东海	-11.2109
ire	-11.211
创新创业	-11.2115
这不是	-11.2116
更具	-11.2118
下载	-11.2121
数字化转型	-11.2121
斯托	-11.2122
高性能	-11.2123
▁其实	-11.2124
前夕	-11.2129
公约	-11.213
bb	-11.2132
水泥	-11.2133
个交易日	-11.2134
之时	-11.2136
将迎来	-11.2139
历史的	-11.2142
▁Ho	-11.2143
浙	-11.2145
▁love	-11.2148
信息技术	-11.2148
所需	-11.2149
former	-11.215
养成	-11.2151
制动	-11.2152
运营商	-11.2153
转为	-11.2153
分级	-11.2154
▁::	-11.2155
原名	-11.2162
牵	-11.2163
有效地	-11.2173
而被	-11.2179
现时	-11.2183
情怀	-11.2185
等部门	-11.2187
文本	-11.2189
到现在	-11.2189
粘	-11.2191
常用	-11.2192
▁night	-11.2192
盲	-11.2194
现有的	-11.2196
的土地	-11.2197
的观点	-11.2197
只会	-11.2197
lay	-11.2197
position	-11.2199
为由	-11.2201
合作协议	-11.2205
第九	-11.2208
tin	-11.221
减少了	-11.221
延期	-11.2213
同时还	-11.2216
数千	-11.2221
疆	-11.2222
总数	-11.2223
详	-11.2223
记者在	-11.2224
点位	-11.2224
火山	-11.2226
********	-11.2227
▁随后	-11.2232
熙	-11.2234
价格上涨	-11.2234
纪委	-11.2235
会场	-11.2236
垂	-11.2237
滕	-11.2237
邵	-11.2237
害怕	-11.2238
颠覆	-11.2238
仆	-11.2238
之家	-11.2239
奶奶	-11.2239
裤	-11.2239
纯粹	-11.2239
ト	-11.2239
瑶	-11.2239
Object	-11.2239
扫描	-11.2239
礁	-11.2239
纤维	-11.2239
旧金山	-11.2239
享福利	-11.2239
服役	-11.224
救灾	-11.224
:《【	-11.224
彼得	-11.2241
伞	-11.2241
慢性病	-11.2241
婚礼	-11.2242
▁later	-11.2243
纪念馆	-11.2244
离职	-11.2244
的理念	-11.2245
指导意见	-11.2245
苏丹	-11.2246
content	-11.2248
火车	-11.2248
▁away	-11.2248
急需	-11.2249
▁新华社北京	-11.225
挑选	-11.2251
实战	-11.2254
集中在	-11.2257
监制	-11.226
光辉	-11.226
湿地	-11.2262
绝大多数	-11.2263
▁http	-11.2263
\*	-11.2263
为企业	-11.2263
等多	-11.227
和他的	-11.2272
管道	-11.2274
CES	-11.2274
拿着	-11.2275
▁No	-11.2276
作为一个	-11.2276
的成本	-11.2278
的决心	-11.2282
精选	-11.2291
大概率	-11.2292
的钱	-11.2292
创作的	-11.2295
更高的	-11.2295
SP	-11.2296
三天	-11.2302
ik	-11.2302
体制改革	-11.2308
一审	-11.231
发布公告	-11.2318
庄村	-11.2326
民间投资	-11.2327
TR	-11.2327
原有的	-11.2329
▁home	-11.2334
积极性	-11.2334
金山	-11.2336
亦有	-11.2336
壮大	-11.2338
最具	-11.2339
驶	-11.2339
客场	-11.2341
开门	-11.2346
king	-11.2347
桌	-11.2353
条件下	-11.2355
err	-11.2359
行业发展	-11.2359
图为	-11.2361
药业	-11.2361
开采	-11.2362
郑州市	-11.2363
各项工作	-11.2364
受损	-11.2365
read	-11.2367
▁其次	-11.2367
他对	-11.2368
的成功	-11.237
葡萄	-11.2377
不只是	-11.2378
不佳	-11.2379
近两年	-11.238
展现出	-11.2381
分公司	-11.2383
的行动	-11.2385
side	-11.2386
干净	-11.2387
兔	-11.2392
市场预期	-11.2394
一个新的	-11.2395
授予	-11.2395
的角度	-11.2396
▁当前	-11.2396
从中	-11.2397
职场	-11.2398
滴	-11.2398
醇	-11.2398
斜	-11.2398
贪	-11.2399
有益	-11.2399
芝	-11.2399
臭	-11.2399
リ	-11.24
最大限度	-11.24
淑	-11.24
▁Di	-11.24
乒乓球	-11.24
忙碌	-11.24
怡	-11.24
ä	-11.24
み	-11.24
冀	-11.24
▁always	-11.24
▁clear	-11.24
监狱	-11.2401
勋章	-11.2401
致辞	-11.2402
加入了	-11.2402
厨房	-11.2402
重塑	-11.2402
极限	-11.2403
渔业	-11.2403
变迁	-11.2404
File	-11.2405
眼下	-11.2405
明确了	-11.2406
dev	-11.2406
▁once	-11.2407
比重	-11.2408
转载	-11.2409
的兴趣	-11.2409
召回	-11.2409
出道	-11.241
特效	-11.241
春季	-11.241
box	-11.2411
ever	-11.2412
从业者	-11.2414
代价	-11.2415
分布在	-11.2416
图案	-11.2418
▁郭	-11.2421
地表	-11.2421
建筑面积	-11.2422
阳县	-11.2423
城堡	-11.2426
lot	-11.2428
华东	-11.243
src	-11.243
基建	-11.2431
])	-11.2432
不成	-11.2432
曾是	-11.2439
超标	-11.2442
等活动	-11.2444
主营业务	-11.2446
诊	-11.2446
三千	-11.2449
的动力	-11.2451
ail	-11.2452
的资金	-11.2453
转发	-11.2453
引用	-11.2461
mil	-11.2463
体育场	-11.2465
中院	-11.2465
Map	-11.2469
ja	-11.2471
窝	-11.2474
塞尔	-11.2475
问题是	-11.2477
▁mov	-11.2477
的业绩	-11.248
千年	-11.248
朝阳区	-11.2483
公元	-11.2484
他与	-11.2485
ale	-11.2485
将来	-11.2489
外长	-11.249
仍然是	-11.249
常态	-11.2491
往年	-11.2495
上去	-11.2497
集群	-11.2498
的背后	-11.2499
▁id	-11.2504
教区	-11.2504
在外	-11.2505
各领域	-11.2506
有趣的	-11.2507
为主的	-11.2507
Pre	-11.2513
迫	-11.2517
德尔	-11.2519
哈尔滨市	-11.252
▁That	-11.2521
治水	-11.2522
进去	-11.2524
斯克	-11.2525
昭和	-11.2528
召	-11.2529
▁那么	-11.253
部位	-11.2531
降雨	-11.2539
运动的	-11.254
▁say	-11.2543
客人	-11.2548
市级	-11.2548
党内	-11.2548
的整体	-11.2549
死后	-11.2556
蝶	-11.2557
人民医院	-11.2557
没人	-11.2558
缝	-11.2559
滚	-11.2561
一共	-11.2561
伐	-11.2562
浴	-11.2563
癌	-11.2563
赞助	-11.2563
肌	-11.2564
严厉	-11.2564
Kindle	-11.2564
崖	-11.2564
尴尬	-11.2564
ま	-11.2564
喂	-11.2564
卵	-11.2564
▁another	-11.2564
鲁迅	-11.2564
沃尔玛	-11.2564
驿站	-11.2565
摩擦	-11.2565
干扰	-11.2565
的建议	-11.2565
游览	-11.2566
擅长	-11.2566
测算	-11.2566
收割	-11.2566
巨额	-11.2566
证券日报	-11.2566
隐藏	-11.2566
不清	-11.2566
降幅	-11.2568
逾期	-11.2568
吉林省	-11.2569
职业教育	-11.257
转账	-11.2571
党组织	-11.2575
可靠	-11.2575
消化	-11.2577
维奇	-11.2577
重申	-11.2577
穿上	-11.258
入围	-11.2581
家公司	-11.2582
各有	-11.2583
空调	-11.2583
前十	-11.2583
给出	-11.2585
船只	-11.2587
半岛	-11.2592
分工	-11.2592
场馆	-11.2593
IM	-11.2595
差异化	-11.2597
自称	-11.2598
匹	-11.26
支部	-11.26
发达国家	-11.2602
未知	-11.2603
男孩	-11.2603
灰色	-11.2603
攀升	-11.2604
国安	-11.2605
可前往	-11.2606
首款	-11.2606
离子	-11.2607
卡车	-11.2607
开始了	-11.2608
cs	-11.2615
打入	-11.2617
ope	-11.2617
ble	-11.2619
法人	-11.2623
党政	-11.2624
车身	-11.2624
才有	-11.2625
业态	-11.2628
▁—	-11.2631
管理层	-11.2633
单纯	-11.2634
绿地	-11.2635
Li	-11.2636
form	-11.2643
宣称	-11.2644
海尔	-11.2645
ade	-11.2647
更容易	-11.2649
松江	-11.265
产地	-11.2651
行车	-11.2655
也可	-11.2657
教导	-11.2658
军团	-11.2658
体制机制	-11.266
这种情况	-11.2662
Log	-11.2665
汽	-11.2667
财年	-11.267
乐团	-11.2675
▁fi	-11.2677
收益率	-11.2682
ome	-11.2683
ren	-11.2687
上传	-11.2693
毕业于	-11.2694
产出	-11.2695
神话	-11.2695
生产力	-11.2698
六大	-11.27
占有	-11.27
斩	-11.2701
not	-11.2705
TE	-11.271
没能	-11.2712
了吗	-11.2712
难民	-11.2716
已经有	-11.2717
站点	-11.2717
出台了	-11.2717
For	-11.2717
的存在	-11.2718
lat	-11.2719
纽	-11.2719
阶	-11.2719
经营主体	-11.2719
吞	-11.2721
趁	-11.2722
之初	-11.2723
▁Sp	-11.2724
车上	-11.2724
日均	-11.2724
阔	-11.2725
受影响	-11.2725
医疗服务	-11.2727
不受	-11.2727
窄	-11.2728
net	-11.2728
睿	-11.2729
蛮	-11.2729
黎巴嫩	-11.273
勃	-11.273
哈啰	-11.273
贼	-11.273
珀	-11.273
京津冀	-11.273
樊	-11.273
魁	-11.273
猴	-11.273
取决于	-11.273
圭	-11.273
粤港澳大湾区	-11.273
娅	-11.273
亚历山大	-11.273
夯实	-11.273
尧	-11.273
惟	-11.273
至关重要	-11.2731
雌	-11.2731
摄像头	-11.2731
张海超	-11.2731
祠	-11.2731
牙齿	-11.2731
摩托车	-11.2731
澜	-11.2731
α	-11.2731
ward	-11.2731
浓厚	-11.2731
检察机关	-11.2731
谋划	-11.2731
个基点	-11.2731
闲置	-11.2731
冒险	-11.2732
同胞	-11.2732
心脏	-11.2732
话语权	-11.2733
高出	-11.2733
旺季	-11.2733
可惜	-11.2733
遗传	-11.2734
步枪	-11.2734
聪明	-11.2735
CBA	-11.2735
开幕式	-11.2735
多样化	-11.2736
怎么样	-11.2736
的保护	-11.2737
零件	-11.2739
不禁	-11.274
降温	-11.274
MO	-11.2743
设置了	-11.2745
的意思	-11.2745
ible	-11.2745
火车站	-11.2747
试行	-11.2747
三个月	-11.2747
标本	-11.2748
玩法	-11.2749
不断完善	-11.275
擅自	-11.2752
的积极性	-11.2752
得更	-11.2753
ext	-11.2755
该股	-11.2755
创新能力	-11.2756
水质	-11.2757
美团	-11.2758
hu	-11.2758
长征	-11.2758
CT	-11.2759
ings	-11.276
领导的	-11.2761
体温	-11.2766
中国市场	-11.2768
和解	-11.2768
法制	-11.2774
低位	-11.2775
民事	-11.2775
ste	-11.2779
ery	-11.2779
就看	-11.2782
最早的	-11.2783
商城	-11.2783
图源	-11.2785
ign	-11.2787
万台	-11.2789
银行卡	-11.2789
▁des	-11.2793
的成长	-11.2795
看了	-11.2796
▁arm	-11.2798
VE	-11.28
新高	-11.2803
创新发展	-11.2804
政协委员	-11.2805
防卫	-11.2806
不见	-11.2806
保险公司	-11.2807
旅行社	-11.281
宏观经济	-11.2811
▁编辑	-11.2817
朋友们	-11.2818
▁form	-11.282
灯光	-11.282
回去	-11.2827
起飞	-11.2827
结束了	-11.2829
Get	-11.2835
info	-11.2835
对华	-11.2836
步行	-11.2836
歌剧	-11.2846
全场	-11.2847
概	-11.2849
情形	-11.2851
三峡	-11.2853
学生们	-11.2853
惊人	-11.2855
建国	-11.2856
护士	-11.2857
——“	-11.2858
半决赛	-11.2861
是如何	-11.2862
制定了	-11.2862
新冠疫情	-11.2863
优惠政策	-11.2865
Pro	-11.2865
行政处罚	-11.2865
这让	-11.2867
适宜	-11.2871
展会	-11.2871
在他的	-11.2873
把自己	-11.2874
警惕	-11.2875
▁house	-11.2875
ns	-11.2876
新版	-11.2877
下一个	-11.288
MS	-11.2881
存在着	-11.2881
拒	-11.2884
并为	-11.2884
▁John	-11.2885
以及其他	-11.2887
抬	-11.2887
如今的	-11.289
禽	-11.2891
可供	-11.2892
作案	-11.2893
抚	-11.2894
And	-11.2895
有一种	-11.2895
赣	-11.2897
募集	-11.2898
非常好	-11.2898
穗	-11.2899
罗斯	-11.2899
月下旬	-11.2899
奴	-11.2899
笼	-11.29
金字塔	-11.29
博弈	-11.29
饶	-11.29
红楼梦	-11.29
被誉为	-11.29
嘛	-11.29
珍惜	-11.29
保时捷	-11.29
被害人	-11.29
寮	-11.29
▁team	-11.29
佣金	-11.2901
碰撞	-11.2901
工人阶级	-11.2901
表态	-11.2902
续航	-11.2902
颁发	-11.2902
image	-11.2902
副总裁	-11.2902
邮轮	-11.2902
眼中	-11.2903
理事长	-11.2904
撰写	-11.2904
公募基金	-11.2905
email	-11.2905
导游	-11.2905
同比上升	-11.2905
要么	-11.2906
通告	-11.2906
今天上午	-11.2907
澎湃新闻	-11.2907
党课	-11.2907
席位	-11.2907
钢琴	-11.2907
攻克	-11.2908
万家	-11.2908
ark	-11.2908
食堂	-11.291
分割	-11.291
甘肃省	-11.2911
彼时	-11.2911
增至	-11.2912
复工	-11.2912
姓名	-11.2912
住院	-11.2912
▁told	-11.2912
▁**【	-11.2914
长期以来	-11.2916
美好的	-11.2917
楼盘	-11.2917
痛点	-11.2917
县级	-11.292
可用	-11.2922
sum	-11.2923
随之	-11.2924
小时内	-11.2925
高科技	-11.2925
调整后	-11.2927
月球	-11.2927
专车	-11.2927
何时	-11.2927
跑道	-11.2928
上期	-11.2932
Si	-11.2932
近代	-11.2932
西方国家	-11.2933
▁add	-11.2934
提高到	-11.2934
bs	-11.2935
解放军	-11.2936
商量	-11.2939
下令	-11.294
▁今年以来	-11.294
风云	-11.2941
克里	-11.2944
略有	-11.2944
▁hard	-11.2945
引发的	-11.2947
的生命	-11.2947
拉动	-11.2949
新赛季	-11.295
块钱	-11.2951
ense	-11.2951
▁app	-11.2952
走强	-11.2956
▁第三	-11.2956
时报	-11.2957
mus	-11.2958
米尔	-11.296
是我们	-11.296
没有人	-11.296
han	-11.2962
女神	-11.2966
是否会	-11.2968
▁□	-11.2968
经查	-11.297
不容易	-11.2972
万欧元	-11.2972
打破了	-11.2974
车内	-11.2979
衰退	-11.2984
处分	-11.2986
her	-11.2989
制作的	-11.2989
word	-11.2991
医师	-11.2995
留学生	-11.2997
的真实	-11.3003
时至	-11.3003
碰到	-11.3005
的办法	-11.3006
分成	-11.3008
国家战略	-11.3009
监督管理	-11.301
廊	-11.3011
string	-11.3011
allow	-11.3012
新闻网	-11.3013
多处	-11.3013
od	-11.3014
的法律	-11.3015
四是	-11.3021
OL	-11.3021
所需的	-11.3021
国民经济	-11.3021
的大型	-11.3022
历史性	-11.3028
▁最后	-11.3029
本轮	-11.3029
之地	-11.3031
大卫	-11.3035
发展趋势	-11.3035
穿着	-11.3038
金融业	-11.3038
陕西省	-11.3044
对美国	-11.3044
人人	-11.3046
叠	-11.3048
公里的	-11.3051
ism	-11.3053
与美国	-11.3053
旋	-11.3055
首家	-11.3056
键	-11.3056
消费市场	-11.3061
过多	-11.3062
size	-11.3067
遣	-11.3068
的心理	-11.3068
北京大学	-11.3068
咱	-11.3069
菊	-11.307
肢	-11.307
着重	-11.307
寇	-11.307
坠	-11.3071
黔	-11.3071
滋	-11.3071
砲	-11.3071
因地制宜	-11.3072
俞	-11.3072
躁	-11.3072
雁	-11.3072
慕	-11.3072
纱	-11.3072
的身影	-11.3073
泄露	-11.3073
▁When	-11.3073
削减	-11.3073
胰岛素	-11.3074
验收	-11.3074
颜值	-11.3074
感叹	-11.3074
奋战	-11.3074
京剧	-11.3074
冻结	-11.3074
标杆	-11.3074
帮忙	-11.3075
仍未	-11.3075
标注	-11.3075
求助	-11.3076
登录	-11.3076
偶然	-11.3076
共和党	-11.3076
亲切	-11.3076
违约	-11.3077
男友	-11.3077
海内外	-11.3077
独立的	-11.3078
自律	-11.3079
购物中心	-11.3079
半年报	-11.3079
代表性	-11.308
亲属	-11.308
为首的	-11.3081
重返	-11.3081
什么时候	-11.3082
事迹	-11.3082
出入口	-11.3084
字母	-11.3084
启发	-11.3085
ins	-11.3087
满满	-11.3087
风雨	-11.3089
拜登	-11.3089
合适的	-11.3091
ew	-11.3091
火热	-11.3094
脸上	-11.3096
演化	-11.3097
新闻发布会上	-11.3098
流失	-11.3099
进出	-11.31
db	-11.3101
是一部	-11.3104
成都市	-11.3105
下方	-11.3106
Qu	-11.3108
的车辆	-11.3114
古老	-11.3118
的概念	-11.3119
国道	-11.3123
rain	-11.3125
中通	-11.3129
IV	-11.313
话语	-11.313
的最新	-11.3131
满了	-11.3131
许可证	-11.3138
不清楚	-11.314
▁mis	-11.3149
source	-11.3149
南越	-11.3153
稻田	-11.3154
年产	-11.3154
ich	-11.3155
博主	-11.3156
It	-11.3157
产业集群	-11.3159
伴随	-11.316
太子	-11.3161
公分	-11.3162
给自己	-11.3164
是谁	-11.3165
的一切	-11.3165
就已经	-11.3167
Lo	-11.3172
报告中	-11.3174
月末	-11.3174
还表示	-11.318
举办了	-11.318
同盟	-11.318
打工	-11.3182
▁At	-11.3185
销售收入	-11.3187
▁面对	-11.3188
梅西	-11.3188
这名	-11.319
了起来	-11.3193
包容	-11.3193
促销	-11.3194
叫做	-11.3194
成为中国	-11.3195
国际合作	-11.3197
MP	-11.3198
新媒体	-11.32
出动	-11.32
▁答	-11.32
极大的	-11.3202
br	-11.3203
采访时	-11.3203
掉了	-11.3203
行人	-11.3205
的巨大	-11.3209
评审	-11.3211
次年	-11.3212
不对	-11.3213
子弹	-11.322
表彰	-11.3221
要做	-11.3221
书面	-11.3222
在欧洲	-11.3223
宾馆	-11.3224
租金	-11.3225
本地区	-11.3227
得多	-11.3227
区分	-11.3227
遮	-11.3229
重心	-11.323
在当地	-11.3231
有权	-11.3234
外来	-11.3234
疗	-11.3234
写了	-11.3235
▁Man	-11.3236
雷斯	-11.3239
全局	-11.3241
时间内	-11.3242
▁Univers	-11.3242
▁feel	-11.3243
放到	-11.3244
龙湖	-11.3244
拥	-11.3244
怨	-11.3245
窃	-11.3245
Test	-11.3245
蒸	-11.3246
劫	-11.3246
爷爷	-11.3247
燃烧	-11.3247
尿	-11.3247
浇	-11.3247
姑	-11.3247
撕	-11.3247
会不会	-11.3247
AG	-11.3247
忽视	-11.3247
弓	-11.3248
庸	-11.3248
那就是	-11.3248
矩阵	-11.3248
潍坊	-11.3248
歧视	-11.3248
▁private	-11.3248
▁women	-11.3248
き	-11.3248
纲领	-11.3248
引发了	-11.3248
挪威	-11.3248
筒	-11.3248
疑似	-11.3248
HBM	-11.3249
素材	-11.3249
▁RUN	-11.3249
暑假	-11.3249
爵士	-11.3249
嘉靖	-11.3249
赶紧	-11.3249
硕士	-11.3249
阶层	-11.3249
忠诚	-11.3249
派遣	-11.325
征服	-11.325
新闻发言人	-11.325
抓紧	-11.325
持久	-11.325
授课	-11.3251
二十五	-11.3251
温泉	-11.3251
自主研发	-11.3251
套餐	-11.3251
▁tell	-11.3252
多邻国	-11.3252
建立健全	-11.3252
跌停	-11.3253
郎酒	-11.3253
冷静	-11.3253
摊位	-11.3253
中国人民解放军	-11.3254
彩票	-11.3254
客流	-11.3255
此举	-11.3256
民航	-11.3256
gl	-11.3257
步入	-11.3259
恋爱	-11.326
生猪	-11.3261
自豪	-11.3261
苏宁	-11.3261
让更多	-11.3265
愈发	-11.3265
总计	-11.3266
opt	-11.3266
气息	-11.3268
但因	-11.3268
适时	-11.3269
Path	-11.3271
组织开展	-11.3271
是以	-11.3271
转运	-11.3273
已经开始	-11.3279
但却	-11.3279
水面	-11.3279
当初	-11.3281
EC	-11.3284
最有	-11.3284
要有	-11.3285
将达到	-11.3288
她是	-11.3289
新手	-11.3289
使馆	-11.3295
原型	-11.3296
后再	-11.3298
只好	-11.3301
开行	-11.3303
uch	-11.3304
快捷	-11.3307
生机	-11.3309
想起	-11.3313
在这一	-11.3317
古典	-11.3317
二十二	-11.3319
增设	-11.3321
会对	-11.3322
为一	-11.3323
阿陈	-11.3327
▁string	-11.3329
中发现	-11.3329
该县	-11.333
的条件	-11.3331
NE	-11.3332
制度改革	-11.3332
这段	-11.3332
硫	-11.3332
中毒	-11.3333
的认可	-11.3338
手指	-11.3339
vin	-11.3342
LI	-11.3345
和支持	-11.3346
无力	-11.3346
说过	-11.3346
大城市	-11.3347
威尔	-11.335
千里	-11.335
家庭教育	-11.3353
足够的	-11.3364
生产基地	-11.3366
毫	-11.3369
介绍说	-11.3369
产区	-11.3369
洛克	-11.337
周一	-11.3371
第一部	-11.3371
据说	-11.3372
石头	-11.3373
悉	-11.3376
▁br	-11.3377
这样一个	-11.3378
升至	-11.3378
完成后	-11.3379
多重	-11.3381
会计	-11.3384
的竞争	-11.3387
实质	-11.339
的身体	-11.3391
LED	-11.3392
前提	-11.3392
成年	-11.3396
开学	-11.3399
的游戏	-11.3404
Le	-11.3408
大面积	-11.3408
采取了	-11.3409
二战	-11.3411
高价	-11.3412
忘记	-11.3412
做得	-11.3414
客车	-11.3414
尝	-11.3414
PR	-11.3414
栖息	-11.3417
▁Un	-11.3419
系统性	-11.3419
大盘	-11.3421
杭	-11.3422
的合法权益	-11.3423
人身	-11.3424
诏	-11.3424
但仍	-11.3426
PA	-11.3426
拱	-11.3426
好莱坞	-11.3426
慕尼黑	-11.3426
猎豹	-11.3426
排行榜	-11.3426
博览会	-11.3426
芦	-11.3426
太古可口可乐	-11.3426
マ	-11.3427
淳	-11.3427
ド	-11.3427
彪	-11.3427
的重要组成部分	-11.3427
的到来	-11.3427
Netflix	-11.3427
糖尿病	-11.3427
畅销	-11.3427
洽谈	-11.3427
朔	-11.3427
矢	-11.3427
▁enough	-11.3427
采摘	-11.3427
司令	-11.3428
饲料	-11.3428
三分之一	-11.3428
盲目	-11.3429
刚才	-11.343
幸运	-11.343
致敬	-11.343
跑步	-11.343
总督	-11.343
server	-11.343
录音	-11.343
供热	-11.3431
偶像	-11.3432
清晨	-11.3432
报销	-11.3433
▁city	-11.3433
第一财经	-11.3434
制片人	-11.3434
骑手	-11.3434
十足	-11.3434
居然	-11.3435
沉重	-11.3435
减排	-11.3435
知名度	-11.3436
▁using	-11.3437
奇偶比为	-11.3437
早日	-11.3437
经济效益	-11.3438
战友	-11.3438
不同程度	-11.344
▁El	-11.3442
对自己	-11.3442
刷新	-11.3443
▁End	-11.3446
第一季度	-11.3446
节目中	-11.3448
HO	-11.345
Of	-11.3452
名额	-11.3453
手工	-11.3459
范畴	-11.3459
中国科学院	-11.3459
集结	-11.3461
长约	-11.3462
标题	-11.3463
综合性	-11.3464
重仓	-11.3465
外籍	-11.3465
等情况	-11.3465
降水	-11.3468
▁近期	-11.3469
带到	-11.3469
三维	-11.3469
城管	-11.3471
建于	-11.3472
马克	-11.3472
▁du	-11.3475
般的	-11.3478
uc	-11.3478
反映出	-11.3479
我不	-11.348
房东	-11.3481
道路上	-11.3481
与之	-11.3482
江门	-11.3483
格外	-11.3489
ui	-11.349
节能	-11.3493
工业化	-11.3493
供水	-11.3493
降低了	-11.3494
EA	-11.3499
▁install	-11.3499
▁second	-11.3499
时间里	-11.3503
聚会	-11.3504
石器	-11.3505
面试	-11.351
发表的	-11.351
是很	-11.3513
说起	-11.3516
型号	-11.3516
▁false	-11.3517
利润率	-11.352
放开	-11.3521
ET	-11.3525
致电	-11.3525
赛区	-11.3531
坚强	-11.3534
已知	-11.3536
大跌	-11.3537
弹性	-11.3538
▁Get	-11.3538
已是	-11.354
度假	-11.3541
class	-11.3542
法学	-11.3555
大胆	-11.3555
的良好	-11.3555
á	-11.3559
不应	-11.3559
TI	-11.3559
cap	-11.356
由中国	-11.3564
▁第二	-11.3571
十个	-11.3571
总面积	-11.3573
违法犯罪	-11.3575
可通过	-11.3577
公安部	-11.3577
天皇	-11.3578
这些问题	-11.358
放量	-11.3581
聚合	-11.3582
后方	-11.3587
的母亲	-11.3589
捐	-11.3594
几百	-11.3596
一类	-11.3602
综	-11.3603
均在	-11.3604
时隔	-11.3605
叹	-11.3605
开发的	-11.3606
襄	-11.3606
抄	-11.3607
夷	-11.3608
栽	-11.3608
狄	-11.3608
蓬	-11.3608
拥抱	-11.3608
欺诈	-11.3608
▁since	-11.3608
▁small	-11.3608
▁country	-11.3608
万里	-11.3608
可以看出	-11.3609
练习	-11.3609
兑现	-11.3609
宣告	-11.3609
探测器	-11.361
专访	-11.361
刘利民	-11.361
收缩	-11.361
邮件	-11.3611
▁four	-11.3611
奇迹	-11.3611
批发	-11.3611
尔斯	-11.3611
全身	-11.3612
依照	-11.3612
亚运会	-11.3612
观致	-11.3612
差评	-11.3613
长安汽车	-11.3613
受害者	-11.3613
被人	-11.3614
找不到	-11.3614
劳动合同	-11.3614
编曲	-11.3614
相较于	-11.3615
公元前	-11.3615
向北	-11.3615
珠江	-11.3616
直观	-11.3616
自研	-11.3618
中秋	-11.3618
代言	-11.3618
佩戴	-11.3619
Data	-11.362
衢州	-11.3621
诸如	-11.3621
头上	-11.3621
万张	-11.3621
被困	-11.3622
之日起	-11.3623
民意	-11.3623
发扬	-11.3623
赔率	-11.3624
加快推进	-11.3626
备受	-11.3627
东侧	-11.3627
亿欧元	-11.3628
设想	-11.3628
扣除	-11.3629
直线	-11.3631
购车	-11.3632
ord	-11.3632
筛选	-11.3633
星球	-11.3633
南极	-11.3634
文化和	-11.3641
相处	-11.3643
▁give	-11.3643
火力	-11.3649
返还	-11.3651
层层	-11.3651
充满了	-11.3651
合一	-11.3651
沃尔	-11.3652
来源于	-11.3652
布拉	-11.3652
例行	-11.3653
Do	-11.3653
数据库	-11.3654
总收入	-11.3655
▁///	-11.3656
的事实	-11.3658
面包	-11.3658
有意	-11.3659
▁seem	-11.366
工作站	-11.366
高尚	-11.3663
老家	-11.3665
较快	-11.3667
水产	-11.3669
▁tri	-11.367
大力支持	-11.367
却在	-11.3671
▁power	-11.3672
网络安全	-11.3673
sy	-11.3675
IO	-11.3676
给他们	-11.3677
各位	-11.3678
日宣布	-11.3679
矿山	-11.368
该案	-11.368
▁Her	-11.3681
不管是	-11.3684
的质量	-11.3689
及以上	-11.3689
设立了	-11.3691
决赛中	-11.3693
那么多	-11.3696
大军	-11.3699
人间	-11.3702
极高	-11.3707
▁free	-11.3717
的最高	-11.3718
儿女	-11.3722
剧院	-11.3722
▁follow	-11.3724
县人	-11.3725
任期	-11.3725
的共同	-11.3726
享年	-11.3727
通讯员	-11.3731
审美	-11.3732
发票	-11.3732
流转	-11.3733
▁Hu	-11.3737
心理学	-11.3739
六月	-11.3739
巴拉	-11.3739
在现场	-11.374
杰出	-11.374
委书记	-11.3743
的预期	-11.3745
在国际	-11.3746
▁而在	-11.3751
cor	-11.3754
中小学生	-11.3755
区域性	-11.3756
出席了	-11.3767
▁fact	-11.3768
教育局	-11.3769
严格的	-11.377
格尔	-11.377
有一次	-11.3773
规模化	-11.3773
没有什么	-11.3773
▁其他	-11.3774
正好	-11.3774
堪	-11.3776
二者	-11.3776
及相关	-11.3778
准入	-11.3781
爵	-11.3784
费率	-11.3784
控股股东	-11.3786
叛	-11.3788
只需	-11.3789
${	-11.379
泄	-11.3791
逝	-11.3791
矮	-11.3791
歌唱	-11.3791
渣	-11.3792
朋	-11.3792
洒	-11.3792
汁	-11.3793
捡	-11.3793
欺骗	-11.3793
蒲	-11.3793
甩	-11.3793
塔利班	-11.3793
ラ	-11.3793
拯救	-11.3793
趟	-11.3794
ロ	-11.3794
mission	-11.3794
拦	-11.3794
王小平	-11.3794
陀	-11.3794
秸秆	-11.3794
检察官	-11.3794
癌症	-11.3794
Value	-11.3794
▁Bar	-11.3794
青霉素	-11.3794
易到	-11.3794
▁single	-11.3794
旺盛	-11.3794
江淮汽车	-11.3795
受疫情影响	-11.3795
原住民	-11.3795
style	-11.3795
溢价	-11.3795
公务员	-11.3796
揭露	-11.3796
从业人员	-11.3796
借贷	-11.3796
签证	-11.3796
欢乐	-11.3797
白银	-11.3797
著作权	-11.3799
在此之前	-11.3799
失望	-11.3799
可以说是	-11.3799
会晤	-11.3799
春节期间	-11.38
按摩	-11.38
料理	-11.38
关切	-11.3801
阅文	-11.3801
新房	-11.3802
核查	-11.3802
配件	-11.3802
受害人	-11.3803
一万	-11.3804
峰值	-11.3804
传输	-11.3805
航运	-11.3807
投身	-11.3807
云计算	-11.3808
抗战	-11.3808
的背景下	-11.381
增值	-11.3811
前不久	-11.3811
航行	-11.3812
孤独	-11.3812
尾数	-11.3812
闻名	-11.3813
国产化	-11.3813
▁things	-11.3813
黄牛	-11.3813
触及	-11.3815
要是	-11.3815
加油	-11.3817
公众号	-11.3818
itch	-11.3818
搬家	-11.3818
].	-11.382
网约车	-11.3822
上方	-11.3823
风情	-11.3825
获得感	-11.3829
计划在	-11.383
未来发展	-11.3831
放置	-11.3832
怎么办	-11.3834
革新	-11.3836
有两个	-11.3837
进一步扩大	-11.3837
ING	-11.384
里亚	-11.384
我们会	-11.3842
制止	-11.3844
万户	-11.3845
指的是	-11.3846
本案	-11.385
!"	-11.3852
结果显示	-11.3852
精细化	-11.3852
互助	-11.3856
前者	-11.3857
rr	-11.3857
的全部	-11.3857
不论	-11.3857
名叫	-11.3858
武帝	-11.3858
点评	-11.3858
当地政府	-11.3859
多年前	-11.386
庭审	-11.3863
首日	-11.3863
武汉市	-11.3864
保守	-11.3866
race	-11.3867
深度融合	-11.3873
▁何	-11.3875
生态系统	-11.3878
站台	-11.3878
村镇	-11.3882
转移到	-11.3884
比较大	-11.3885
上限	-11.3886
阿拉	-11.3887
蜜	-11.3889
▁pass	-11.389
新能源车	-11.3895
兑	-11.3895
动能	-11.3897
曾表示	-11.3901
西侧	-11.3902
短期内	-11.3902
陪同	-11.3903
生产经营	-11.3904
瓦尔	-11.3904
一对	-11.3904
脚下	-11.3905
又名	-11.3905
南区	-11.3906
接受了	-11.3906
产业园	-11.3908
其他国家	-11.391
CR	-11.3911
多为	-11.3912
三条	-11.3919
链条	-11.3923
ough	-11.3927
接下来的	-11.3931
手枪	-11.3939
▁check	-11.3939
他被	-11.394
不等	-11.3943
ional	-11.3947
买房	-11.3947
对应的	-11.3948
信访	-11.3948
得出	-11.3951
低调	-11.3953
AM	-11.3953
三世	-11.3957
解说	-11.3957
全员	-11.3958
磷	-11.3959
政务服务	-11.3959
级别的	-11.396
下车	-11.3964
获胜	-11.3964
搜	-11.3964
CE	-11.3967
购买了	-11.3974
专注	-11.3975
出国	-11.3975
医学院	-11.3975
梵	-11.3976
区块链	-11.3976
了近	-11.3978
一九五	-11.3978
攻坚	-11.3979
综艺	-11.3979
承载	-11.3979
宠	-11.398
大西洋	-11.398
研究报告	-11.398
▁key	-11.398
尸	-11.398
碱	-11.3981
垒	-11.3981
恶劣	-11.3981
中欧班列	-11.3981
直升机	-11.3982
幽	-11.3982
裙	-11.3982
枕	-11.3982
戎	-11.3982
危地马拉	-11.3982
槽	-11.3982
橡胶	-11.3982
第二次世界大战	-11.3982
▁York	-11.3982
across	-11.3982
螃蟹	-11.3982
氮	-11.3982
复工复产	-11.3982
严谨	-11.3982
党组成员	-11.3982
忽略	-11.3982
操纵	-11.3982
昨晚	-11.3982
μ	-11.3983
州刺史	-11.3983
finance	-11.3983
沉淀	-11.3983
反腐	-11.3983
共享单车	-11.3983
全面深化改革	-11.3983
报酬	-11.3983
巡视	-11.3983
覆	-11.3984
走廊	-11.3984
紧紧	-11.3984
注射	-11.3984
典型案例	-11.3984
报告期内	-11.3984
珠峰	-11.3985
撤离	-11.3985
净值	-11.3985
受贿	-11.3985
摄影师	-11.3986
▁Mar	-11.3986
要坚持	-11.3986
微软	-11.3986
形状	-11.3986
上山	-11.3986
儒学	-11.3986
卫视	-11.3986
简直	-11.3987
抵制	-11.3987
飞行员	-11.3987
的妻子	-11.3989
重症	-11.399
对公司	-11.3993
故乡	-11.3993
昔日	-11.3994
下辖	-11.3994
相关负责人表示	-11.3995
这本书	-11.3995
终点	-11.3995
日正式	-11.3996
为了让	-11.3996
实业	-11.3997
很高	-11.3998
▁ad	-11.3998
进驻	-11.3999
表达了	-11.4001
购置	-11.4002
集合	-11.4004
这几年	-11.4004
An	-11.4005
kin	-11.4005
▁据台湾	-11.4008
法律规定	-11.4009
操作系统	-11.401
河水	-11.4011
stand	-11.4012
万千瓦	-11.4012
但其	-11.4013
长久	-11.4016
夜晚	-11.4017
AP	-11.4018
高档	-11.4018
生死	-11.4018
Play	-11.4018
lan	-11.4019
”?	-11.4022
用好	-11.4022
平面	-11.4023
晋升	-11.4024
体会	-11.4024
▁door	-11.4024
制成	-11.4027
重点关注	-11.4027
一阵	-11.4027
便于	-11.4028
zh	-11.4031
gr	-11.4032
▁编者按	-11.4034
▁body	-11.4034
一枚	-11.4036
spec	-11.4036
秋天	-11.4037
难道	-11.4038
年下半年	-11.4039
END	-11.404
矛盾纠纷	-11.4043
特区	-11.4043
污染物	-11.4045
我省	-11.4045
▁昨日	-11.4046
正处于	-11.4046
千米	-11.4046
影响了	-11.4047
哪个	-11.4049
黑人	-11.405
每人	-11.4052
▁project	-11.4054
突击	-11.4054
二十四	-11.4056
前线	-11.4059
储存	-11.4059
佛教	-11.4061
出自	-11.4061
▁Har	-11.4061
来到了	-11.4067
有待	-11.4069
犹	-11.4071
发行的	-11.4073
有一定的	-11.4073
同类	-11.4073
num	-11.4075
海事	-11.4078
案发	-11.4079
贩	-11.4079
重回	-11.4081
随著	-11.4081
大人	-11.4083
年轻的	-11.4084
上阵	-11.4086
无疑是	-11.4086
));	-11.4089
陈某	-11.4089
大乐透	-11.4099
打车	-11.4101
不算	-11.4102
还有一个	-11.4106
日子	-11.4107
涨超	-11.4107
nn	-11.4107
等一系列	-11.4108
舞台上	-11.4108
国际市场	-11.411
!(	-11.4111
借此	-11.4112
在海外	-11.4114
签订了	-11.4116
无产阶级	-11.4116
科学研究	-11.4118
的人们	-11.4118
Con	-11.4122
人们对	-11.4122
back	-11.4124
激烈的	-11.4127
青山	-11.4129
诺夫	-11.4129
结构调整	-11.4133
的第一个	-11.4134
时表示	-11.414
的商品	-11.4141
塑	-11.4142
气体	-11.4148
效能	-11.4151
GW	-11.4152
高标准	-11.4153
使用了	-11.4153
ator	-11.4157
大米	-11.4159
幸福感	-11.416
point	-11.4163
溶	-11.4164
国防部	-11.4166
联网	-11.4169
祸	-11.4169
的方针	-11.417
丈	-11.4172
为中心	-11.4173
辣	-11.4173
曰	-11.4173
寂	-11.4174
彻	-11.4174
蓉	-11.4174
慌	-11.4174
豆瓣	-11.4174
冯小刚	-11.4174
о	-11.4174
征求意见稿	-11.4174
步骤	-11.4174
嘱	-11.4174
ク	-11.4174
工作机制	-11.4174
黏	-11.4175
壶	-11.4175
倾斜	-11.4175
▁develop	-11.4175
奕	-11.4175
谜	-11.4175
新西兰	-11.4175
扔	-11.4175
巍	-11.4175
失踪	-11.4175
question	-11.4175
塑料	-11.4175
甲醛	-11.4175
tar	-11.4175
脖子	-11.4175
私域	-11.4176
服饰	-11.4176
视察	-11.4176
扭转	-11.4177
战绩	-11.4177
弱势	-11.4177
口腔	-11.4177
▁young	-11.4178
称之为	-11.4178
钻石	-11.4179
收视	-11.4179
以北	-11.418
获批	-11.4182
录制	-11.4183
复活	-11.4183
不再是	-11.4184
的年轻人	-11.4186
▁..	-11.4186
贴近	-11.4186
酒吧	-11.4186
应用场景	-11.4187
深入推进	-11.4189
头脑	-11.4189
十字	-11.4189
▁looked	-11.4189
防空	-11.4189
另一种	-11.4189
严格落实	-11.419
更低	-11.4193
组件	-11.4194
第三届	-11.4194
的认识	-11.4195
纪录片	-11.4195
▁imp	-11.4195
顺应	-11.4195
几十年	-11.4195
不合格	-11.4196
unk	-11.4196
本质	-11.4198
神奇	-11.4198
球季	-11.4199
款项	-11.4199
ple	-11.42
Fi	-11.4201
热带	-11.4202
深处	-11.4203
饱	-11.4203
商业银行	-11.4204
间接	-11.4204
顺序	-11.4205
水域	-11.4205
月起	-11.4206
德拉	-11.4206
▁Th	-11.4207
不当	-11.4208
劳工	-11.4208
大棚	-11.421
包头	-11.4211
店内	-11.4211
管理和	-11.4212
既要	-11.4213
矿业	-11.4215
跟进	-11.4216
埃尔	-11.4216
市中心	-11.4218
ory	-11.4218
车展	-11.4221
科技公司	-11.4221
感兴趣	-11.4222
í	-11.4222
车厢	-11.4222
在场	-11.4224
他将	-11.4225
全过程	-11.4225
培训机构	-11.4226
承接	-11.4227
▁Then	-11.4227
结合起来	-11.4227
类似于	-11.4228
性别	-11.4231
原文	-11.4234
送给	-11.4234
城县	-11.4235
均已	-11.4239
但她	-11.4242
range	-11.4244
在第	-11.4245
AB	-11.4247
地形	-11.4247
重点领域	-11.4248
经济学	-11.4248
上榜	-11.4249
经济体	-11.4255
村民们	-11.4256
一家人	-11.4258
了他的	-11.426
日后	-11.4262
四周	-11.4263
Ar	-11.4264
graph	-11.4265
头发	-11.4266
TH	-11.4266
host	-11.4268
vis	-11.4269
的挑战	-11.4271
足以	-11.4272
▁World	-11.4272
将有	-11.4274
温州	-11.4278
在台湾	-11.4278
这样做	-11.4279
OP	-11.4284
ound	-11.4288
归来	-11.4293
爷	-11.4298
日内	-11.4301
执法人员	-11.4302
理工大学	-11.4302
git	-11.4308
发表声明	-11.4309
配方	-11.4309
cul	-11.4309
verse	-11.4311
主题教育	-11.4311
赶上	-11.4312
max	-11.4316
reg	-11.4317
的股票	-11.4318
body	-11.4318
当成	-11.4321
好处	-11.4322
日从	-11.4323
▁罗伦斯	-11.4324
沈阳市	-11.4327
td	-11.4327
军方	-11.4327
在一定程度上	-11.4328
世界各地	-11.433
电厂	-11.4334
▁order	-11.4337
的主题	-11.4338
社保	-11.4339
user	-11.4342
单车	-11.4347
各国人民	-11.4347
概要	-11.4348
给你	-11.4349
中央委员会	-11.435
夸	-11.4351
经营权	-11.4353
mar	-11.4356
明确的	-11.4357
公司将	-11.4357
电价	-11.4358
sina	-11.4361
从去年	-11.4363
小小的	-11.4364
不断地	-11.4366
辟	-11.4366
卸	-11.4367
有多少	-11.4367
蜀	-11.4368
拘	-11.4368
棕	-11.4369
给出的	-11.4369
艰苦	-11.4369
浸	-11.437
植保无人机	-11.437
栽培	-11.437
氨	-11.437
塞尔维亚	-11.437
卑	-11.437
猜	-11.437
枯	-11.437
专精特新	-11.437
呀	-11.4371
模糊	-11.4371
行政区划	-11.4371
麟	-11.4371
彤	-11.4371
互联互通	-11.4371
▁govern	-11.4371
together	-11.4371
万余	-11.4371
阮	-11.4371
督导	-11.4371
遗迹	-11.4371
怪兽	-11.4371
雕刻	-11.4371
搭档	-11.4372
惠民	-11.4372
援引	-11.4372
挖掘潜力	-11.4372
芝加哥	-11.4372
是日本	-11.4372
施肥	-11.4372
治愈	-11.4373
参照	-11.4373
重磅	-11.4373
批复	-11.4374
竖屏剧	-11.4374
警务	-11.4374
转债	-11.4376
农村公路	-11.4377
pt	-11.4377
预报	-11.4378
首播	-11.4378
百货	-11.4381
变现	-11.4382
全域	-11.4383
东北部	-11.4383
西瓜	-11.4383
ized	-11.4385
迫使	-11.4385
阶段的	-11.4386
商圈	-11.4387
比去年	-11.4387
高新区	-11.4387
存款利率	-11.4389
第二季	-11.4389
崇高	-11.439
第二轮	-11.439
做过	-11.4392
选民	-11.4392
新京报	-11.4393
调整为	-11.4395
东北地区	-11.44
办学	-11.44
商会	-11.44
我自己	-11.4401
前三季度	-11.4402
已经被	-11.4402
休闲农业	-11.4404
等服务	-11.4406
节省	-11.4406
Mo	-11.4409
事业发展	-11.4409
EP	-11.441
战机	-11.4412
米兰	-11.4412
的文章	-11.4412
电站	-11.4413
传授	-11.4414
▁dr	-11.4417
德里	-11.4418
上课	-11.4421
海外市场	-11.4422
包围	-11.4425
金钱	-11.4433
:"	-11.4434
基本农田	-11.4434
CM	-11.4434
排污	-11.4435
几家	-11.4435
each	-11.4436
ye	-11.4436
有限的	-11.4437
行业内	-11.4438
异地	-11.4439
还款	-11.4443
这套	-11.4443
的唯一	-11.4443
入场	-11.4446
甚至是	-11.4448
急救	-11.4449
呼声	-11.4453
海报	-11.4454
优化营商环境	-11.4456
▁kind	-11.446
集团军	-11.446
看待	-11.4461
的场景	-11.4462
所有人	-11.4464
并不会	-11.4464
晚报	-11.4464
名片	-11.4466
cat	-11.4466
之声	-11.4466
tory	-11.4466
相关政策	-11.4466
工匠	-11.448
一句话	-11.4482
环境中	-11.4484
战略合作	-11.4485
服务平台	-11.4486
head	-11.4488
小吃	-11.4488
年增长	-11.4489
决定了	-11.4491
大涨	-11.4495
蓄	-11.4496
我们都	-11.4497
广阔	-11.4499
台上	-11.45
珍贵	-11.45
人受伤	-11.45
曲目	-11.4502
选区	-11.4503
约占	-11.4504
者们	-11.4505
走低	-11.4505
并向	-11.4507
他曾	-11.4509
air	-11.4513
气质	-11.4515
降到	-11.4515
的因素	-11.4516
上台	-11.4516
买到	-11.4519
厢	-11.4521
驾驶人	-11.4525
培训班	-11.4536
记者表示	-11.4537
ack	-11.4539
两倍	-11.4541
市镇	-11.4541
我希望	-11.4544
为主题的	-11.4544
相连	-11.4546
个项目	-11.4549
余家	-11.4551
▁include	-11.4552
内政	-11.4552
提起	-11.4557
▁宋	-11.4559
三家	-11.4559
水源	-11.4559
的一大	-11.4559
通过了	-11.456
打了	-11.456
英镑	-11.4562
衔	-11.4563
的动作	-11.4564
其间	-11.4565
轨迹	-11.4565
徐州	-11.4565
扰	-11.4566
栖	-11.4567
的影响力	-11.4567
消费需求	-11.4568
枫	-11.4569
▁final	-11.4569
吻	-11.4569
生活在	-11.4569
摧毁	-11.4569
渊	-11.4569
彬	-11.457
恭	-11.457
鞭	-11.457
中国式现代化	-11.457
蜥	-11.457
安哥拉	-11.457
乘用车	-11.457
华钰矿业	-11.457
н	-11.4571
大额存单	-11.4571
没收	-11.4571
▁Japan	-11.4571
瓶颈	-11.4571
实际控制人	-11.4571
熬	-11.4571
二维码	-11.4571
摩洛哥	-11.4571
缪	-11.4571
丧失	-11.4571
生产能力	-11.4571
温柔	-11.4572
定居	-11.4572
金麒麟	-11.4572
食材	-11.4573
尸体	-11.4573
体现在	-11.4573
议题	-11.4573
筹集	-11.4573
共产党员	-11.4573
顶尖	-11.4573
搏	-11.4573
逃离	-11.4574
Car	-11.4574
典型的	-11.4574
肥料	-11.4574
主要集中在	-11.4574
堪称	-11.4574
fer	-11.4575
那天	-11.4575
传闻	-11.4575
Ma	-11.4576
体操	-11.4576
▁turned	-11.4576
飙升	-11.4576
news	-11.4577
催化	-11.4577
发布公告称	-11.4579
清醒	-11.4579
BA	-11.458
住房公积金	-11.458
意味	-11.458
最先	-11.4581
盆地	-11.4583
所说的	-11.4584
mail	-11.4584
持续提升	-11.4585
指令	-11.4585
备战	-11.4586
作词	-11.4587
缺点	-11.4588
支流	-11.4589
不久前	-11.459
注意力	-11.4591
厂房	-11.4596
公告称	-11.4596
表情	-11.4596
和创新	-11.4596
莲花	-11.4597
耗	-11.4597
清算	-11.4597
穿过	-11.4598
是一座	-11.4598
改变了	-11.4599
和美国	-11.46
不应该	-11.4601
胡同	-11.4601
快速增长	-11.4601
接力	-11.4602
悬挂	-11.4602
”......	-11.4602
也因此	-11.4602
墓地	-11.4605
停靠	-11.4605
总资产	-11.4607
省区	-11.4607
有趣	-11.4609
募资	-11.461
SA	-11.461
的威胁	-11.4611
二期	-11.4615
▁剧情	-11.4615
黑暗	-11.4615
少数民族	-11.462
收到了	-11.4621
自有	-11.4622
投入使用	-11.4623
未必	-11.4623
懂得	-11.4625
庄园	-11.4629
春晚	-11.4632
修理	-11.4633
的样子	-11.4633
▁另一方面	-11.4634
之女	-11.4634
好奇	-11.4635
中国国家	-11.4635
次日	-11.4636
出游	-11.4638
善于	-11.4641
高频	-11.4641
蓝天	-11.4645
雷军	-11.4646
被列入	-11.4647
我们可以	-11.465
[]	-11.4651
也可能	-11.4652
HK	-11.4654
民用	-11.4656
可以用	-11.4658
创业者	-11.4661
批次	-11.4664
进化	-11.4665
的优秀	-11.4665
为重点	-11.4666
press	-11.4668
不动	-11.4672
交流合作	-11.4673
分管	-11.4675
的形象	-11.4676
榜首	-11.4676
爱好	-11.4678
味道	-11.4679
DD	-11.468
对我	-11.468
宝贵	-11.4687
发文	-11.469
奥斯	-11.4691
责任感	-11.4692
VI	-11.4693
社交平台	-11.4696
的理论	-11.4698
妆	-11.4698
Ja	-11.4699
预估	-11.4699
常委	-11.4702
则为	-11.4704
荆	-11.4708
石家庄	-11.4712
gar	-11.4712
达人	-11.4712
['	-11.4714
大海	-11.4717
克拉	-11.4717
主办方	-11.4722
为契机	-11.4723
对该	-11.473
首先是	-11.4734
难得	-11.4735
研讨	-11.4736
被发现	-11.4737
▁Ex	-11.4737
集团公司	-11.4738
于此	-11.4744
社会责任	-11.4746
存放	-11.4746
据报道	-11.4751
刚需	-11.4752
杏	-11.4754
物管	-11.476
▁plan	-11.4761
针对性	-11.4761
学区	-11.4765
都没	-11.4765
撰	-11.4766
持平	-11.4766
蔚	-11.4766
了一下	-11.4767
扭	-11.477
漂	-11.4771
Build	-11.4772
宰	-11.4773
大气污染	-11.4773
邪	-11.4773
勋	-11.4773
谣	-11.4773
嫩	-11.4774
郝	-11.4774
殷墟	-11.4774
纺	-11.4774
辱	-11.4774
痕	-11.4774
竣工	-11.4774
е	-11.4774
詹	-11.4775
厄	-11.4775
愉快	-11.4775
晃	-11.4775
嗣	-11.4775
共享电单车	-11.4775
傻	-11.4775
巴拿马	-11.4775
▁percent	-11.4775
婷	-11.4775
菁	-11.4775
国家统计局	-11.4775
薪酬	-11.4775
爱奇艺	-11.4775
珠三角	-11.4775
From	-11.4775
榄	-11.4775
猜测	-11.4775
枣	-11.4775
富裕	-11.4775
无人驾驶	-11.4775
悲剧	-11.4775
违纪	-11.4775
临床试验	-11.4776
吟	-11.4776
邮箱	-11.4776
方言	-11.4776
board	-11.4776
雷达	-11.4776
马拉松	-11.4776
褪黑素	-11.4776
伊斯兰	-11.4776
菲尔德	-11.4777
报案	-11.4777
动荡	-11.4777
▁据外媒	-11.4777
client	-11.4778
推测	-11.4778
宣言	-11.4778
助您	-11.4778
Open	-11.4779
收紧	-11.478
亲密	-11.478
旅馆	-11.478
急剧	-11.478
元旦	-11.478
+”	-11.4781
极致	-11.4781
还得	-11.4781
短板	-11.4782
缺口	-11.4782
打赢	-11.4783
起源	-11.4783
普惠	-11.4783
改良	-11.4784
不惜	-11.4784
保养	-11.4785
托管	-11.4785
智库	-11.4785
收视率	-11.4785
一贯	-11.4786
无锡	-11.4786
Text	-11.4786
受访者	-11.4786
DS	-11.4787
工作时间	-11.4787
加码	-11.4787
发育	-11.4787
不仅如此	-11.4787
卫生部	-11.4788
思政课	-11.4788
问界	-11.4788
红旗	-11.479
真实的	-11.4791
失信	-11.4791
积极探索	-11.4792
走出去	-11.4794
本书	-11.4795
化肥	-11.4797
影院	-11.4798
眼光	-11.4799
var	-11.48
第二届	-11.4803
绘制	-11.4803
给人	-11.4805
庞大	-11.4805
Int	-11.4805
疫苗接种	-11.4805
亚太	-11.4805
为自己	-11.4805
关节	-11.4806
不已	-11.4807
路易	-11.4808
致使	-11.4809
▁keep	-11.4809
▁thing	-11.481
沪深	-11.4812
为全球	-11.4814
▁Ne	-11.4816
所致	-11.4817
作文	-11.482
房源	-11.482
日晚上	-11.4822
车载	-11.4824
下沉	-11.4826
出境	-11.4828
买家	-11.4828
体量	-11.4829
SC	-11.4832
漳州	-11.4832
消灭	-11.4838
五千	-11.484
输送	-11.484
▁far	-11.484
公共交通	-11.4841
个月的	-11.4842
不乏	-11.4844
translat	-11.4845
一夜	-11.4854
ped	-11.4857
西南部	-11.4857
='	-11.4858
我们就	-11.4858
主人公	-11.4859
ax	-11.486
勇气	-11.4861
意思	-11.4862
仓储	-11.4865
动手	-11.4867
这边	-11.4869
小店	-11.487
杀人	-11.4871
入金	-11.4872
就连	-11.4877
开会	-11.4878
▁object	-11.4879
万历	-11.4879
驾车	-11.4879
');	-11.488
疾控中心	-11.4883
身后	-11.4883
▁System	-11.4884
等内容	-11.4884
北极	-11.4888
组长	-11.4888
Ba	-11.4894
▁Sch	-11.4896
话说	-11.4897
研学	-11.4897
不稳定	-11.49
ability	-11.4901
的职业	-11.4901
总共	-11.4902
他又	-11.4905
未来将	-11.4906
资产管理	-11.4907
该党	-11.4907
让群众	-11.4907
亿人	-11.491
拍摄的	-11.4911
机组	-11.4913
会造成	-11.4914
仍处于	-11.4919
ink	-11.492
做到了	-11.492
迹象	-11.4922
发展规划	-11.4922
卖给	-11.4922
▁change	-11.4923
oy	-11.4923
互补	-11.4924
委员会主席	-11.4925
▁作者	-11.4927
的理解	-11.4927
']	-11.4932
停放	-11.4933
市场对	-11.4934
再一次	-11.4935
但对于	-11.4936
装机	-11.4938
▁build	-11.4939
Be	-11.494
▁With	-11.494
日本政府	-11.4941
for	-11.4942
等形式	-11.4942
同名	-11.4943
book	-11.4945
但是在	-11.4946
的照片	-11.4947
下单	-11.4947
音乐节	-11.4951
好事	-11.4952
定点	-11.4952
field	-11.4952
成品	-11.4953
赞成	-11.4954
少了	-11.4956
教育工作	-11.4959
thing	-11.4963
厦	-11.4964
申请人	-11.4964
第一名	-11.4971
地名	-11.4971
创业板指	-11.4972
流感	-11.4972
气候变化	-11.4973
每当	-11.4975
判处	-11.4976
ett	-11.4976
拐	-11.4978
PL	-11.4979
腐	-11.4979
阶级	-11.4979
挣	-11.498
捉	-11.498
屡	-11.498
该地区	-11.498
泊	-11.498
颁奖	-11.4981
眠	-11.4982
刮	-11.4982
驱逐舰	-11.4982
集成电路	-11.4982
马其顿	-11.4982
中断	-11.4983
削弱	-11.4983
嫂	-11.4983
市盈率	-11.4983
璇	-11.4983
叶盛兰	-11.4983
佑	-11.4983
天后	-11.4983
迈克尔	-11.4983
捍卫	-11.4983
同花顺	-11.4983
^	-11.4983
release	-11.4983
▁half	-11.4983
れ	-11.4983
概况	-11.4983
履职	-11.4983
召集	-11.4983
钙	-11.4984
习俗	-11.4984
精确	-11.4984
工信部	-11.4984
gi	-11.4985
▁moment	-11.4985
岚图	-11.4985
知情人士	-11.4985
奋力	-11.4986
奥斯卡	-11.4986
扩建	-11.4986
▁won	-11.4987
强迫	-11.4987
基辅	-11.4987
恐龙	-11.4987
实效	-11.4987
road	-11.4987
植入	-11.4988
谢谢	-11.4988
下发	-11.4988
野猪	-11.4988
韧性	-11.4988
依然是	-11.4989
极具	-11.4989
万余元	-11.4989
屋顶	-11.4989
NAME	-11.4992
繁华	-11.4993
人民日报	-11.4994
南通	-11.4995
花样	-11.4995
前途	-11.4995
四月	-11.4995
体育馆	-11.4995
社会各界	-11.4995
反思	-11.4996
主编	-11.4996
布鲁	-11.4996
压制	-11.4996
民企	-11.4996
数额	-11.4997
按规定	-11.5002
轻型	-11.5002
意为	-11.5002
死亡病例	-11.5003
日举行	-11.5005
%)。	-11.5005
car	-11.5006
对立	-11.5006
lit	-11.5007
获利	-11.5007
MV	-11.5007
的音乐	-11.5008
公款	-11.5008
GE	-11.501
出局	-11.501
一些地方	-11.5011
开工建设	-11.5013
电影节	-11.5013
油田	-11.5014
半数	-11.5019
让孩子	-11.5021
管理制度	-11.5021
同时也是	-11.5021
移交	-11.5022
国营	-11.5023
▁book	-11.5023
外交部长	-11.5024
▁今日	-11.5025
双双	-11.5025
建交	-11.5028
▁method	-11.5029
▁area	-11.5029
心态	-11.503
坚持以	-11.503
约合	-11.5034
打造了	-11.5034
就是要	-11.5034
ado	-11.5035
▁system	-11.5035
重型	-11.5035
童年	-11.5035
走过	-11.5036
研究会	-11.5036
稍微	-11.5036
非凡	-11.5038
突出问题	-11.5038
上报	-11.504
\-	-11.504
住户	-11.5041
庞大的	-11.5041
参与了	-11.5046
pri	-11.5046
时装	-11.505
受益于	-11.5051
其他地区	-11.5053
各区	-11.5053
uff	-11.5054
为核心	-11.5054
rd	-11.5056
▁ten	-11.5056
▁wait	-11.5057
ile	-11.5058
所说	-11.506
OB	-11.5061
option	-11.5067
十多	-11.5069
岛上	-11.5073
du	-11.5075
房地产开发	-11.5076
救人	-11.5076
而对于	-11.5083
▁Inter	-11.5083
等功能	-11.5083
河道	-11.5084
传来	-11.5085
评分	-11.5086
新冠	-11.5088
会同	-11.5088
▁exp	-11.509
终结	-11.5092
raw	-11.5094
相比于	-11.5096
ele	-11.5101
▁trans	-11.5103
的转变	-11.5107
一则	-11.5112
run	-11.5114
田间	-11.5114
到处	-11.5115
酒精	-11.5116
在深圳	-11.5116
成熟的	-11.5118
跨省	-11.5121
不顾	-11.5127
的主要原因	-11.5132
相对于	-11.5132
行长	-11.5133
大风	-11.5134
股指	-11.5146
联手	-11.5147
受限	-11.5147
前所未有的	-11.5147
Don	-11.5148
政策和	-11.515
他就	-11.5152
必须在	-11.5152
的一个重要	-11.5153
南京市	-11.5153
名下	-11.5158
居住在	-11.5158
马拉	-11.5159
影业	-11.5159
无可	-11.5159
马力	-11.5161
color	-11.5162
中医	-11.5162
笔记	-11.5164
行使	-11.5165
让自己	-11.5166
泉州	-11.5168
蓝球	-11.5168
parent	-11.5168
存在的问题	-11.5174
木材	-11.5175
的美好	-11.5177
的经历	-11.5178
服务贸易	-11.5179
说到	-11.5179
他指出	-11.5179
华能	-11.518
但如果	-11.5181
走高	-11.5182
本国	-11.5183
了一批	-11.5186
契	-11.5188
sha	-11.519
疫情期间	-11.519
we	-11.519
女足	-11.5191
的矛盾	-11.5191
岁以下	-11.5192
暑	-11.5192
脏	-11.5192
绑	-11.5192
迫切	-11.5192
押	-11.5193
邢	-11.5194
穴	-11.5194
斋	-11.5195
锚	-11.5195
邓小平	-11.5195
丁苯橡胶	-11.5196
小红书	-11.5196
抑郁	-11.5196
翅	-11.5196
ü	-11.5196
stock	-11.5196
ら	-11.5196
衫	-11.5196
用人单位	-11.5196
哦	-11.5196
流行病学	-11.5196
东方雨虹	-11.5196
service	-11.5196
▁voice	-11.5196
⁄	-11.5196
泄漏	-11.5196
激光雷达	-11.5196
搜狐	-11.5196
杠杆	-11.5196
遥远	-11.5196
肥胖	-11.5196
央企	-11.5196
Class	-11.5196
自民党	-11.5197
威尔士	-11.5197
迁移	-11.5197
管委会	-11.5197
注销	-11.5197
绿色低碳	-11.5197
净流入	-11.5197
曙光	-11.5197
申购	-11.5198
英国王室	-11.5198
演示	-11.5198
资管	-11.5198
习近平主席	-11.5198
身亡	-11.5198
筛查	-11.5198
边际	-11.5199
撞击	-11.5199
疑问	-11.5199
头衔	-11.5199
股权转让	-11.5199
田径	-11.5199
寒冷	-11.52
反响	-11.52
片中	-11.52
一副	-11.52
棒球	-11.52
兼职	-11.5201
海口	-11.5201
label	-11.5201
滥用	-11.5201
农历	-11.5202
接管	-11.5202
轻易	-11.5203
符号	-11.5203
难免	-11.5204
戏曲	-11.5204
画质	-11.5205
▁:=	-11.5205
真诚	-11.5205
清洗	-11.5206
拉升	-11.5206
电流	-11.5206
投降	-11.5206
社会体制改革	-11.5207
就诊	-11.5207
▁##	-11.5208
宽带	-11.5209
行走	-11.521
作曲家	-11.521
会影响	-11.521
不堪	-11.521
大夫	-11.5211
良种	-11.5213
政治人物	-11.5213
系列活动	-11.5213
新业态	-11.5214
隆重	-11.5214
乘车	-11.5215
不准	-11.5215
在我国	-11.5215
东区	-11.5217
灾区	-11.5217
出手	-11.5218
水准	-11.5218
育人	-11.5219
管理工作	-11.5219
多么	-11.522
深入开展	-11.5221
我说	-11.5221
国旗	-11.5223
云端	-11.5225
block	-11.5226
国足	-11.5227
生态保护	-11.5227
野生动物	-11.5228
面对面	-11.5228
许多人	-11.5229
第三代	-11.5229
李剑	-11.523
期内	-11.523
经营活动	-11.5231
党建	-11.5231
居住于	-11.5232
日渐	-11.5234
优点	-11.5234
自营	-11.5234
卡拉	-11.5235
到访	-11.5236
标志性	-11.5237
一小	-11.5238
支球队	-11.5239
its	-11.524
降落	-11.5242
竞争优势	-11.5245
交谈	-11.5245
公开赛	-11.5245
研究成果	-11.5248
世界各国	-11.5249
深远	-11.5251
越高	-11.5252
格式	-11.5252
鲁能	-11.5253
访华	-11.5254
和完善	-11.5255
新设	-11.5256
Sc	-11.5257
网红	-11.5259
▁VR	-11.5259
北侧	-11.5259
如果是	-11.5261
退市	-11.5262
活性	-11.5262
向往	-11.5265
信息披露	-11.5268
达标	-11.5269
上下游	-11.5269
四处	-11.5271
ml	-11.5271
风口	-11.5277
入手	-11.5278
骑兵	-11.528
▁game	-11.5282
社会保障	-11.5283
剧团	-11.5286
周二	-11.5286
刘某	-11.5287
▁Po	-11.5287
等诸多	-11.5288
第一大	-11.5291
的人口	-11.5292
的探索	-11.5292
文化与	-11.5295
增大	-11.5295
局副局长	-11.5296
两国人民	-11.5298
界的	-11.5299
村落	-11.53
▁less	-11.5302
▁past	-11.5304
win	-11.5305
ned	-11.5306
相关规定	-11.5311
言论	-11.5313
尚书	-11.5314
疗法	-11.5314
县公安局	-11.5319
▁One	-11.532
的一座	-11.532
角度看	-11.532
+=	-11.5324
一口	-11.5325
▁su	-11.5338
饮	-11.534
打好	-11.5342
确定的	-11.5343
III	-11.5343
部副部长	-11.5343
高等	-11.5344
衍	-11.5345
税务局	-11.5346
委员会委员	-11.5346
占到	-11.535
ji	-11.5352
牧场	-11.5352
相差	-11.5353
文中	-11.5356
场合	-11.5356
了大量	-11.5357
还可	-11.536
颇有	-11.536
周转	-11.5363
他自己	-11.5364
归还	-11.5365
给我们	-11.5368
因其	-11.5369
揭	-11.5372
受众	-11.5374
抱着	-11.5375
Am	-11.5376
是香港	-11.538
Max	-11.5381
What	-11.5383
回调	-11.5385
在这次	-11.5386
首席执行官	-11.5387
新春	-11.5388
不含	-11.5388
各自的	-11.5389
ama	-11.5389
格拉	-11.5389
State	-11.5392
即时	-11.5392
通过对	-11.5392
余个	-11.5394
top	-11.54
的话题	-11.5401
始于	-11.5402
慰	-11.5407
中信	-11.5407
禁令	-11.5408
牠	-11.541
不安	-11.541
斥	-11.541
曝	-11.541
za	-11.541
为目标	-11.541
岚	-11.541
抖	-11.5411
的评价	-11.5411
奢侈品	-11.5412
劣	-11.5412
垣	-11.5413
维多利亚	-11.5413
蛙	-11.5413
文摘报	-11.5413
深交所	-11.5413
中华读书报	-11.5413
始建于	-11.5413
〜	-11.5413
博览群书	-11.5413
gmrb	-11.5413
cluding	-11.5413
众议院	-11.5413
炳	-11.5413
▁believe	-11.5413
く	-11.5413
å	-11.5413
‧	-11.5413
酯	-11.5413
迄今为止	-11.5413
](#)	-11.5413
这片	-11.5414
▁新京报讯	-11.5414
Image	-11.5414
玫瑰	-11.5414
锂电池	-11.5414
督察	-11.5414
莫里斯	-11.5414
扫码	-11.5415
访谈	-11.5415
缺席	-11.5415
操控	-11.5415
解答	-11.5415
夺取	-11.5415
悲观	-11.5415
收窄	-11.5415
反腐败	-11.5416
汽车行业	-11.5417
核准	-11.5417
护航	-11.5417
贫困人口	-11.5417
打包	-11.5417
书摘	-11.5418
但他们	-11.5419
相比之下	-11.5419
答应	-11.5419
相遇	-11.542
副教授	-11.542
▁His	-11.542
观望	-11.542
金融危机	-11.5421
贵阳	-11.5422
standing	-11.5422
▁值得注意的是	-11.5422
太郎	-11.5423
亚冠	-11.5423
东莞	-11.5425
封装	-11.5425
教材	-11.5426
攻打	-11.5426
▁My	-11.5428
一汽	-11.5429
有多	-11.543
狮子	-11.543
余万元	-11.5431
签名	-11.5431
升温	-11.5432
为推动	-11.5432
arm	-11.5433
会继续	-11.5434
多达	-11.5435
鱼类	-11.5436
银河	-11.5437
杀害	-11.5438
售后	-11.5438
细化	-11.5438
果然	-11.5439
▁says	-11.544
陈列	-11.5441
跨国	-11.5442
父子	-11.5443
学士	-11.5443
看重	-11.5444
加装	-11.5445
cy	-11.5445
正式启动	-11.5446
负责任	-11.5447
四方	-11.5447
ference	-11.5447
但对	-11.5449
每天都	-11.5451
推特	-11.5451
那边	-11.5452
北平	-11.5452
泰达	-11.5453
减产	-11.5453
常年	-11.5456
丰田	-11.5456
ual	-11.5457
绿化	-11.5457
一一	-11.5457
▁CO	-11.5457
规范化	-11.5457
时长	-11.5457
▁color	-11.5459
只不过	-11.546
目前已经	-11.546
后又	-11.546
已进入	-11.5462
花钱	-11.5462
店里	-11.5463
金融市场	-11.5463
看不到	-11.5464
日发布	-11.5466
面貌	-11.5468
冠名	-11.5468
的特征	-11.5468
}{	-11.547
牛市	-11.5472
实际上是	-11.5472
之夜	-11.5472
各县	-11.5473
祖国的	-11.5474
分发	-11.5475
▁close	-11.548
script	-11.5484
国债	-11.5484
碳排放	-11.5485
lie	-11.5486
在整个	-11.5488
小宋	-11.5489
▁assert	-11.549
道具	-11.549
▁hope	-11.549
页面	-11.549
被列为	-11.5491
开口	-11.5492
人民检察院	-11.5494
Set	-11.5495
特种	-11.5496
第一代	-11.5497
拿地	-11.5498
着手	-11.5499
大运河	-11.5499
必须要	-11.55
红线	-11.5501
市人民政府	-11.5502
天天	-11.5504
▁though	-11.5506
后市	-11.5508
制作人	-11.5508
ates	-11.5509
你是	-11.5509
NT	-11.5509
所得	-11.5509
市场中	-11.551
二十七	-11.551
尼斯	-11.5511
是全球	-11.5511
警力	-11.5512
tag	-11.5514
对照	-11.5516
民营经济	-11.5516
动车	-11.5517
周四	-11.552
py	-11.5522
母公司	-11.5523
温和	-11.5523
je	-11.5524
高额	-11.5524
重要作用	-11.5531
商用	-11.5535
摔	-11.5537
同心	-11.5538
基督	-11.5538
多亩	-11.5538
秘书	-11.5541
发展有限公司	-11.5543
EV	-11.5544
生理	-11.5549
rem	-11.5553
一个小	-11.5553
不允许	-11.5554
遇到了	-11.5554
有些人	-11.5555
目前正在	-11.5555
的和平	-11.5558
值为	-11.5559
ray	-11.556
▁light	-11.5561
藏品	-11.5562
中心主任	-11.5564
▁write	-11.5565
什么是	-11.5569
阳台	-11.5571
So	-11.5571
股市场	-11.5573
推动了	-11.5574
情景	-11.5577
湖州	-11.5579
政治家	-11.558
更改	-11.558
DO	-11.5581
比例为	-11.5582
IE	-11.5587
星星	-11.5591
送上	-11.5596
不下	-11.5599
香山	-11.5603
rc	-11.5605
序列	-11.5606
战队	-11.5606
由美国	-11.5608
孩	-11.561
菏泽	-11.5612
分支	-11.5613
光电	-11.5615
布雷	-11.5616
被判	-11.5617
全天	-11.5618
老婆	-11.5618
悔	-11.5619
大股东	-11.5621
县政府	-11.5623
ank	-11.5624
估	-11.5625
歌声	-11.5629
冶	-11.563
▁String	-11.5631
悟	-11.5632
捞	-11.5632
妥	-11.5633
誓	-11.5633
妥善	-11.5634
仇	-11.5634
腊	-11.5634
框	-11.5634
釉	-11.5634
允	-11.5634
喉	-11.5635
具有重要意义	-11.5635
勿	-11.5635
震撼	-11.5635
筑牢	-11.5635
娇	-11.5635
烹	-11.5635
乌鲁木齐	-11.5635
耻	-11.5635
娟	-11.5635
脑机接口	-11.5635
天花板	-11.5635
颁奖典礼	-11.5635
肿	-11.5635
ö	-11.5635
中概股	-11.5635
剪辑	-11.5635
脂肪	-11.5635
▁family	-11.5636
芸	-11.5636
ち	-11.5636
捕捉	-11.5636
抱怨	-11.5636
温馨	-11.5636
▁knew	-11.5636
あ	-11.5636
冢	-11.5636
富士康	-11.5636
筹措	-11.5636
发酵	-11.5636
全家	-11.5636
延迟	-11.5637
惩罚	-11.5637
执勤	-11.5637
热搜	-11.5637
饱满	-11.5637
防晒	-11.5637
default	-11.5638
男篮	-11.5638
姐妹	-11.5638
材质	-11.5638
患病	-11.5638
抽查	-11.5639
激光	-11.5639
应邀	-11.564
爆款	-11.564
新时代证券	-11.564
是位于	-11.564
精灵	-11.564
热议	-11.5641
扎根	-11.5641
灾难	-11.5641
东风汽车	-11.5641
建材	-11.5642
黎明	-11.5642
聘请	-11.5642
▁Ra	-11.5642
▁taken	-11.5642
胜负	-11.5642
tw	-11.5643
顺丰	-11.5643
论证	-11.5643
想象力	-11.5643
嘉兴	-11.5644
相邻	-11.5644
点燃	-11.5644
招标	-11.5645
直言	-11.5646
不予	-11.5646
define	-11.5646
山脉	-11.5647
实质性	-11.5647
桂林	-11.5647
越野	-11.5648
北魏	-11.5648
&#	-11.5649
涉事	-11.5649
动工	-11.5649
岩石	-11.565
context	-11.5651
表述	-11.5652
射手	-11.5652
iOS	-11.5652
明确规定	-11.5653
的费用	-11.5654
招待会	-11.5655
打印	-11.5655
以外的	-11.5655
新中国	-11.5656
乐园	-11.5657
回应称	-11.5657
抗日	-11.5662
基数	-11.5662
DR	-11.5663
Meta	-11.5664
强行	-11.5665
利用率	-11.5667
社会主义现代化	-11.5667
孔子	-11.5667
搬迁	-11.5669
下乡	-11.5669
影响到	-11.5671
加工厂	-11.5671
男生	-11.5672
殖民地	-11.5673
明朝	-11.5673
用水	-11.5675
年全年	-11.5675
生鲜电商	-11.5676
就已	-11.5678
els	-11.5681
众人	-11.5681
利斯	-11.5683
往返	-11.5683
补给	-11.5684
首尔	-11.5685
的各项	-11.5687
写下	-11.5689
养生	-11.5691
西北部	-11.5691
Mark	-11.5692
第二季度	-11.5694
契机	-11.5694
过高	-11.5695
加快建设	-11.5696
双打	-11.5698
两会	-11.5698
预计将	-11.57
万物	-11.57
校车	-11.57
世界第一	-11.5703
视频号	-11.5704
患有	-11.5706
一举	-11.571
为主要	-11.5712
▁land	-11.5713
▁others	-11.5714
底层	-11.5714
继承人	-11.5714
京都	-11.5715
三明	-11.5716
长沙市	-11.5719
我们希望	-11.572
之余	-11.5721
ium	-11.5722
dd	-11.5723
研发投入	-11.5724
原先	-11.5724
整齐	-11.5724
扬州	-11.5724
ology	-11.5725
进一步提高	-11.5725
ties	-11.5726
教宗	-11.5728
的销量	-11.5728
▁support	-11.5731
外科	-11.5732
总决赛	-11.5736
▁size	-11.5738
流水	-11.5742
军工	-11.5745
给出了	-11.5746
元左右	-11.5747
在意	-11.5747
调查研究	-11.5749
水车	-11.5749
Can	-11.5749
▁target	-11.5749
ko	-11.575
安娜	-11.5752
的立场	-11.5753
天文	-11.5755
▁char	-11.5755
制度和	-11.5756
高山	-11.5759
遇难	-11.5759
以南	-11.576
导致了	-11.576
仅仅是	-11.5765
三方	-11.5765
马里	-11.5767
每个人都	-11.5767
职员	-11.5768
享受到	-11.5768
▁para	-11.5772
GO	-11.578
流入	-11.5785
▁Ga	-11.5786
等国	-11.5787
东京都	-11.5788
内蒙古自治区	-11.579
办好	-11.5791
封建	-11.5792
大雨	-11.5796
更快	-11.5799
旨	-11.58
▁新浪	-11.58
”!	-11.5801
中场	-11.5803
他于	-11.5804
一间	-11.5806
DC	-11.5812
的理由	-11.5813
熟悉的	-11.5818
▁北京时间	-11.5819
务实	-11.5819
中欧	-11.582
鄂	-11.5824
的传播	-11.5826
又要	-11.5826
间隔	-11.5831
公证	-11.5831
新冠疫苗	-11.5831
型企业	-11.5832
类别	-11.5832
电器	-11.5832
农资	-11.5833
成为一个	-11.5834
彼	-11.5835
演变	-11.5835
将由	-11.5837
绩	-11.5837
工作组	-11.5838
做一个	-11.5838
从业	-11.5841
value	-11.5843
花了	-11.5843
埔	-11.5844
实现营业收入	-11.5848
年期间	-11.5848
auto	-11.5848
后卫	-11.5852
▁-----	-11.5852
主义者	-11.5853
析	-11.5853
Ca	-11.5853
很快就	-11.5854
工作群	-11.5854
▁experi	-11.5856
喀	-11.5858
首先要	-11.5858
蜂	-11.586
伤亡	-11.586
鳞	-11.5861
帐	-11.5861
顾虑	-11.5861
医疗器械	-11.5861
掠	-11.5862
桓	-11.5862
拼搏	-11.5862
提倡	-11.5862
甫	-11.5862
庚	-11.5862
杉	-11.5862
DNA	-11.5862
狭	-11.5862
TYPE	-11.5863
从根本上	-11.5863
衬	-11.5863
爱德华	-11.5863
阜	-11.5863
カ	-11.5863
司司长	-11.5863
政府工作报告	-11.5863
finished	-11.5863
section	-11.5863
ジ	-11.5863
联储	-11.5863
稀缺	-11.5863
供暖	-11.5863
で	-11.5863
民法典	-11.5863
查尔斯	-11.5863
唐人街	-11.5863
谢冕	-11.5863
碳中和	-11.5863
移植	-11.5863
构筑	-11.5863
大阪	-11.5863
构造	-11.5863
抄袭	-11.5864
增值税	-11.5864
领导班子	-11.5864
消毒剂	-11.5864
薪资	-11.5864
农作物	-11.5864
奔赴	-11.5864
分拣	-11.5865
典范	-11.5865
接替	-11.5865
CMAKE	-11.5866
那就	-11.5866
尺度	-11.5866
壁画	-11.5866
官方微博	-11.5866
这句话	-11.5866
减免	-11.5866
缺失	-11.5866
consider	-11.5867
学界	-11.5867
国家发改委	-11.5867
离开了	-11.5867
征信	-11.5868
帆船	-11.5868
赞赏	-11.5868
预案	-11.5869
快递员	-11.587
▁rule	-11.587
财物	-11.587
等行业	-11.5871
▁Or	-11.5871
偶尔	-11.5871
光学	-11.5874
分析认为	-11.5874
候鸟	-11.5874
编组	-11.5874
南沙	-11.5875
烟台	-11.5875
奖章	-11.5876
唐朝	-11.5876
Event	-11.5877
文创	-11.5877
室外	-11.5879
晚期	-11.588
一个是	-11.5882
延安	-11.5882
贫困地区	-11.5882
前一天	-11.5883
考量	-11.5885
lk	-11.5887
降级	-11.5888
cri	-11.589
本领	-11.5892
总人口	-11.5892
克里斯	-11.5894
细则	-11.5894
ced	-11.5895
共同努力	-11.5895
第一届	-11.5897
期指	-11.5899
传出	-11.59
起初	-11.5901
▁Du	-11.5901
RT	-11.5901
新时代中国	-11.5901
大哥	-11.5903
万桶	-11.5904
安居	-11.5905
互联	-11.5906
举例	-11.5906
Or	-11.5906
首轮	-11.591
部件	-11.591
一书	-11.5911
排名第	-11.5912
▁real	-11.5913
不仅要	-11.5913
▁Com	-11.5914
记者王	-11.5914
正值	-11.5914
比上年	-11.5915
高涨	-11.5917
CI	-11.5918
▁●	-11.5925
讲师	-11.5925
山路	-11.5927
按时	-11.593
油画	-11.5933
登山	-11.5933
执行董事	-11.5935
发生变化	-11.5937
▁require	-11.5938
往往是	-11.5938
一案	-11.5942
或者是	-11.5943
查明	-11.5944
的股权	-11.5945
▁Na	-11.5946
core	-11.5947
见证了	-11.5948
改建	-11.5948
动摇	-11.5949
▁command	-11.5949
首要	-11.5951
风采	-11.5952
专业人士	-11.5957
园林	-11.5957
题为	-11.5959
德清	-11.5959
人格	-11.5962
▁product	-11.5966
省市	-11.5966
draw	-11.5967
原则上	-11.5967
▁side	-11.5967
摆在	-11.5968
刚性	-11.5972
此案	-11.5981
▁/**	-11.5982
仅在	-11.5982
政法	-11.5984
主体责任	-11.5984
收盘价	-11.5987
做什么	-11.5987
二月	-11.5988
亦是	-11.599
可怕	-11.5992
同样是	-11.5993
死了	-11.5993
RS	-11.5993
高昂	-11.5994
本片	-11.5995
领军	-11.5996
我们还	-11.5999
的记忆	-11.6
arg	-11.6001
三亚	-11.6004
}"	-11.6004
的现实	-11.6006
就地	-11.6009
更要	-11.6009
几位	-11.6012
▁pr	-11.6017
不像	-11.6017
▁Wi	-11.6019
nes	-11.6021
中俄	-11.6021
北海	-11.6026
与社会	-11.6028
的军事	-11.6029
行列	-11.6031
并表示	-11.6033
不一定	-11.6034
cp	-11.6039
政策措施	-11.6041
各省	-11.6041
干线	-11.6044
九龙	-11.6044
ala	-11.6047
央	-11.6048
CX	-11.6049
么	-11.6049
电报	-11.605
带走	-11.605
因子	-11.6052
套房	-11.6052
men	-11.6055
沧	-11.6055
xi	-11.6056
的梦想	-11.6056
foot	-11.6056
▁Pa	-11.6057
要从	-11.6058
两场	-11.6059
一心	-11.606
总之	-11.6061
保持着	-11.6062
影响力的	-11.6062
关键技术	-11.6062
Po	-11.6063
两级	-11.6063
保持了	-11.6066
停车位	-11.6067
留下了	-11.6071
旦	-11.6073
增加到	-11.6073
责任制	-11.6075
贯	-11.6075
星系	-11.6076
犹太	-11.6077
得好	-11.6078
ike	-11.608
这里是	-11.6081
新星	-11.6082
中南	-11.6082
打动	-11.6082
一头	-11.6085
历年	-11.6086
百亿	-11.6087
滥	-11.6088
▁turn	-11.6089
纠	-11.6089
year	-11.609
▁res	-11.609
也希望	-11.609
昏	-11.6091
叙	-11.6092
晕	-11.6092
西游记	-11.6093
糕	-11.6094
默克尔	-11.6094
惹	-11.6094
双边	-11.6094
雄安新区	-11.6094
损坏	-11.6094
旬	-11.6095
缠	-11.6095
淄博	-11.6095
笛	-11.6095
邮储银行	-11.6095
摄氏度	-11.6095
奔驰	-11.6095
鲸	-11.6095
и	-11.6095
拖累	-11.6095
人道主义	-11.6095
child	-11.6095
ッ	-11.6095
奖学金	-11.6095
扯	-11.6095
蜘蛛	-11.6095
レ	-11.6095
反诈	-11.6095
group	-11.6095
date	-11.6095
呆	-11.6095
シ	-11.6095
恐惧	-11.6095
禹	-11.6095
裁决	-11.6096
剩下的	-11.6096
招募	-11.6096
模仿	-11.6096
疲劳	-11.6096
义大利	-11.6096
技艺	-11.6096
点击查看	-11.6096
岛屿	-11.6096
▁nothing	-11.6096
洞察	-11.6096
粉碎	-11.6096
副秘书长	-11.6097
徒步	-11.6097
尊敬	-11.6097
捐款	-11.6097
妨碍	-11.6097
诠释	-11.6097
盛宴	-11.6097
刹车	-11.6098
南斯拉夫	-11.6098
激进	-11.6098
典礼	-11.6098
严禁	-11.6099
司令部	-11.61
核酸	-11.61
财报显示	-11.61
武术	-11.6101
实物	-11.6101
全国政协委员	-11.6101
邻近	-11.6101
▁went	-11.6101
越多	-11.6101
净资产	-11.6101
捷克	-11.6101
赠送	-11.6101
切断	-11.6101
首映	-11.6102
动力电池	-11.6102
制订	-11.6102
现今	-11.6103
一门	-11.6103
招牌	-11.6103
漫长	-11.6105
普京	-11.6105
正能量	-11.6106
迎战	-11.6106
生命的	-11.6106
公务	-11.6107
之道	-11.6107
的军队	-11.6107
加紧	-11.6108
准则	-11.6108
多层次	-11.6109
▁called	-11.611
早盘	-11.611
创新成果	-11.6111
仍将	-11.6111
角逐	-11.6111
每小时	-11.6112
开播	-11.6112
报导	-11.6112
格林	-11.6113
组成部分	-11.6114
船员	-11.6114
抢占	-11.6114
平凡	-11.6114
个县	-11.6115
不利于	-11.6116
核心竞争力	-11.6116
李女士	-11.6116
util	-11.6117
万件	-11.6117
太阳能	-11.6117
工业互联网	-11.6119
五一	-11.612
结局	-11.612
淡水	-11.6121
白宫	-11.6121
早期的	-11.6121
以其	-11.6122
card	-11.6123
行动计划	-11.6124
音乐人	-11.6124
失业	-11.6124
清朝	-11.6124
养老服务	-11.6125
每一次	-11.6127
这块	-11.6129
JR	-11.6129
紧跟	-11.6129
搞好	-11.613
杀手	-11.613
榜单	-11.613
出击	-11.613
条规定	-11.6131
加班	-11.6132
今年年初	-11.6133
被认为	-11.6134
入股	-11.6135
平均水平	-11.6135
就必须	-11.6135
全面推进	-11.6137
辽阳	-11.6137
概率	-11.614
这起	-11.614
受到影响	-11.6141
民兵	-11.6141
体型	-11.6144
开局	-11.6144
福特	-11.6146
巴斯	-11.6146
的名义	-11.6146
分解	-11.6146
已达到	-11.6147
亲子	-11.6149
最主要的	-11.6149
我家	-11.6149
两周	-11.6151
nor	-11.6152
落成	-11.6153
将棋	-11.6153
中标	-11.6155
在同一	-11.6155
berg	-11.6157
却不	-11.6157
记者注意到	-11.6157
频次	-11.6158
▁express	-11.6159
正在进行	-11.616
连线	-11.6161
▁cr	-11.6162
净利润为	-11.6162
对面	-11.6163
active	-11.6165
work	-11.6166
AND	-11.6167
岭南	-11.6167
▁relat	-11.6168
畔	-11.6169
之名	-11.617
现存	-11.617
尼克	-11.6171
尤为	-11.6173
可观	-11.6175
不具备	-11.618
主线	-11.6182
▁course	-11.6184
▁window	-11.6184
带你	-11.6185
wn	-11.6186
出院	-11.6187
紧盯	-11.6188
该厂	-11.6189
启动仪式	-11.6191
unt	-11.6192
所以我	-11.6193
iz	-11.6195
主要有	-11.6195
政府军	-11.6195
违反了	-11.6197
形容	-11.6199
一职	-11.6201
层级	-11.6201
dec	-11.6201
拉开	-11.6202
heat	-11.6203
要注意	-11.6204
▁err	-11.6204
产品质量	-11.6204
见过	-11.6207
全面提升	-11.621
公司股份	-11.6211
长子	-11.6212
证明了	-11.6213
四次	-11.6214
场内	-11.6214
侵	-11.6216
团长	-11.6217
小心	-11.622
教室	-11.6221
处处	-11.6225
now	-11.6226
常务委员会	-11.623
高压	-11.623
后台	-11.6231
NG	-11.6234
相结合的	-11.6234
发展到	-11.6238
不懂	-11.6239
油气	-11.6239
还需	-11.6241
新兴市场	-11.6243
人情	-11.6243
中铁	-11.6243
套路	-11.6244
发展壮大	-11.6248
地主	-11.6248
▁law	-11.6252
UN	-11.6252
和值	-11.6255
安定	-11.6255
星光	-11.6255
这三个	-11.6255
unit	-11.6257
为实现	-11.6258
pin	-11.626
参与到	-11.6261
两部	-11.6263
拉克	-11.6264
大区	-11.6265
四百	-11.6266
分析人士	-11.6267
个季度	-11.6269
▁main	-11.6274
三类	-11.6274
手动	-11.6276
的难题	-11.6276
lock	-11.6277
RO	-11.6283
的估值	-11.6286
持续推进	-11.6286
})	-11.6293
▁sign	-11.6294
采访时表示	-11.6301
近距离	-11.6302
之心	-11.6302
今晚	-11.6304
日记	-11.6307
我们看到	-11.6308
often	-11.6309
非常大	-11.6312
一再	-11.6312
这是因为	-11.6317
ada	-11.6319
美景	-11.632
防水	-11.632
一身	-11.632
剩	-11.6322
蕴	-11.6322
隶属	-11.6323
高地	-11.6323
值得注意的是	-11.6323
店主	-11.6324
意识和	-11.6325
Add	-11.6328
首创	-11.6328
婴	-11.633
ino	-11.633
揽	-11.6331
涝	-11.6331
吵	-11.6331
法西斯	-11.6331
咒	-11.6332
两个人	-11.6332
谨	-11.6332
罕	-11.6332
馨	-11.6332
蹲	-11.6332
翟	-11.6332
骄傲	-11.6332
绒	-11.6332
宵	-11.6333
炫	-11.6333
犹豫	-11.6333
讴歌	-11.6333
拥护	-11.6333
沙漠	-11.6333
保加利亚	-11.6333
爸	-11.6333
さ	-11.6333
business	-11.6333
▁woman	-11.6333
CONFIG	-11.6333
烷	-11.6333
仑	-11.6334
▁saw	-11.6334
郁美净	-11.6334
违背	-11.6334
巅峰	-11.6334
possible	-11.6334
沿途	-11.6334
估算	-11.6334
马自达	-11.6334
顽强	-11.6334
こ	-11.6334
▁bar	-11.6334
昆虫	-11.6334
东史郎	-11.6334
峡谷	-11.6334
周五	-11.6334
发展模式	-11.6334
解析	-11.6335
沿岸	-11.6335
蛋白质	-11.6335
轰炸机	-11.6335
攻势	-11.6335
四种	-11.6336
决胜	-11.6336
炸弹	-11.6336
虚假宣传	-11.6337
观致汽车	-11.6337
冰箱	-11.6338
签字	-11.6338
雅虎	-11.6338
▁along	-11.6339
▁five	-11.6339
注册资本	-11.6339
观影	-11.6339
双碳	-11.6339
函数	-11.634
核桃	-11.634
▁实际上	-11.634
求职	-11.634
涌入	-11.6341
fu	-11.6341
布朗	-11.6341
登顶	-11.6341
血管	-11.6342
VS	-11.6342
经由	-11.6342
最受欢迎	-11.6344
维密	-11.6344
ets	-11.6345
资料显示	-11.6345
省政府	-11.6346
总市值	-11.6348
生物医药	-11.6349
体力	-11.635
交接	-11.635
多样性	-11.6351
全流程	-11.6353
元帅	-11.6353
新征程	-11.6354
福岛	-11.6354
阁下	-11.6354
军官	-11.6356
自发	-11.6356
arch	-11.6357
一件事	-11.6359
的状况	-11.636
楼房	-11.636
商品房	-11.6362
优美	-11.6363
宁县	-11.6363
密切相关	-11.6363
报送	-11.6363
特别是在	-11.6364
改名为	-11.6364
再现	-11.6366
的最后一	-11.6367
▁曾祖	-11.6367
▁example	-11.6368
▁What	-11.6369
宝石	-11.637
清代	-11.637
西欧	-11.637
ood	-11.6372
每股	-11.6373
德美	-11.6374
一架	-11.6376
显示出	-11.6377
state	-11.6379
文化遗产	-11.638
兰花	-11.638
如果没有	-11.638
这一切	-11.6383
商事	-11.6383
泰勒	-11.6383
以至于	-11.6383
后勤	-11.6386
时说	-11.6387
她也	-11.6387
居住的	-11.6387
近百	-11.6388
最长	-11.639
一栋	-11.639
ene	-11.6392
地板	-11.6392
美妆	-11.6393
三角	-11.6394
电机	-11.6395
下达	-11.6398
▁walk	-11.6399
之情	-11.6399
权限	-11.64
阿斯	-11.6401
毒性	-11.6402
船上	-11.6404
率达	-11.6405
折扣	-11.6406
但目前	-11.6406
保护区	-11.6407
▁War	-11.6409
uan	-11.641
入局	-11.641
不然	-11.6411
▁center	-11.6411
企业发展	-11.6414
的情形	-11.6416
FF	-11.6417
在德国	-11.6417
一些人	-11.6418
身材	-11.6418
的游客	-11.6421
");	-11.6423
American	-11.6425
百余	-11.6427
中签	-11.6428
ien	-11.6428
全球经济	-11.6429
▁air	-11.6429
周三	-11.6429
Wi	-11.6433
奥迪	-11.6434
▁最佳	-11.6434
剧组	-11.6435
echo	-11.6435
希尔	-11.6437
base	-11.6437
input	-11.644
该书	-11.6444
布里	-11.6444
恰恰	-11.6444
握	-11.6444
▁Sa	-11.6445
单价	-11.6447
超预期	-11.645
省内	-11.645
TA	-11.645
世界级	-11.6452
宴会	-11.6455
的使命	-11.6456
晚会	-11.6458
三项	-11.6461
报记者	-11.6462
为什么要	-11.6462
中国梦	-11.6465
▁void	-11.6468
美丽的	-11.6468
命中	-11.6468
不怕	-11.6469
收回	-11.647
CS	-11.6471
▁ever	-11.6471
白人	-11.6472
的背景	-11.6473
▁care	-11.6474
会产生	-11.648
在哪里	-11.6482
转变为	-11.6483
▁Mu	-11.6484
将领	-11.6485
rav	-11.6486
时常	-11.6486
势必	-11.6489
▁ac	-11.6489
▁####	-11.649
oss	-11.649
引来	-11.6491
后代	-11.6492
出路	-11.6492
遇上	-11.6493
▁table	-11.6498
意思是	-11.6499
etc	-11.6504
的成就	-11.6504
内有	-11.6504
API	-11.6506
平行	-11.6506
不去	-11.6506
片段	-11.6508
========	-11.6509
是一项	-11.6512
安全风险	-11.6513
sch	-11.6514
会会长	-11.6514
市场竞争	-11.6517
发展战略	-11.6518
驻地	-11.6519
死者	-11.652
就把	-11.6525
调查显示	-11.6525
燃油车	-11.6526
地下水	-11.6528
rag	-11.6528
新兴产业	-11.6529
动漫	-11.6529
上浮	-11.6535
做成	-11.6535
朝鲜人民	-11.6539
▁Tr	-11.6539
老公	-11.6544
用力	-11.6545
其他人	-11.6547
变得更	-11.6547
深厚的	-11.6548
无所	-11.6551
就近	-11.6554
create	-11.6555
▁continu	-11.6559
类产品	-11.656
俗称	-11.656
向东	-11.6561
ella	-11.6562
Ex	-11.6563
世界经济	-11.6568
类型的	-11.6571
产销	-11.6571
薇	-11.6572
因为它	-11.6572
碧桂园	-11.6575
绣	-11.6575
产学研	-11.6575
SM	-11.6575
烦	-11.6576
豫	-11.6576
熏	-11.6576
胖	-11.6576
浑	-11.6576
绩效	-11.6576
林徽因	-11.6576
有期徒刑	-11.6577
甸	-11.6577
厝	-11.6577
国资委	-11.6577
集装箱	-11.6577
祭祀	-11.6577
裴	-11.6577
隐瞒	-11.6577
黄鹤楼	-11.6577
直隶	-11.6577
顾香兰	-11.6577
农副产品	-11.6577
混凝土	-11.6577
沛	-11.6577
霖	-11.6577
专栏	-11.6577
▁behind	-11.6577
タ	-11.6577
▁black	-11.6577
周恩来总理	-11.6577
掩盖	-11.6577
"/>	-11.6577
世锦赛	-11.6577
滴滴	-11.6577
棍	-11.6577
液流电池	-11.6577
with	-11.6577
▁visit	-11.6578
▁short	-11.6578
FILE	-11.6578
二氧化碳	-11.6578
车路协同	-11.6578
寅	-11.6578
严厉打击	-11.6578
比起	-11.6578
直播带货	-11.6578
流浪	-11.6578
孕育	-11.6578
恐怖主义	-11.6578
暗示	-11.6578
头盔	-11.6578
毛泽东思想	-11.6578
日内瓦	-11.6578
▁hold	-11.6579
繁忙	-11.6579
累积	-11.6579
浦东新区	-11.6579
AIGC	-11.6579
骑士	-11.6579
追逐	-11.6579
轮胎	-11.6579
掌控	-11.6579
震惊	-11.6579
叙事	-11.658
功效	-11.658
明代	-11.658
拨款	-11.6581
那时候	-11.6581
经济社会	-11.6582
窗户	-11.6582
高血压	-11.6582
马德里	-11.6582
冲刺	-11.6582
光绪	-11.6583
优异	-11.6583
推翻	-11.6584
▁本报北京	-11.6584
指挥官	-11.6585
裁军	-11.6585
填写	-11.6585
德意志	-11.6585
字样	-11.6585
ks	-11.6587
外国人	-11.6587
经济全球化	-11.6588
调剂	-11.6588
可追溯	-11.6588
ify	-11.6588
处以	-11.6589
航空航天	-11.6589
债权人	-11.6589
票价	-11.659
七八	-11.659
不该	-11.6591
或许是	-11.6592
▁col	-11.6592
▁($	-11.6592
的特殊	-11.6592
立案调查	-11.6592
武威	-11.6592
▁done	-11.6594
本作	-11.6594
完了	-11.6594
依次	-11.6595
译本	-11.6595
尾气	-11.6595
器件	-11.6596
报考	-11.6597
意义上	-11.6597
总部位于	-11.6597
中华文化	-11.6598
pct	-11.6599
方向盘	-11.6599
交代	-11.66
全产业链	-11.6603
可控	-11.6603
无线电视	-11.6605
连胜	-11.6605
服务体系	-11.6606
战舰	-11.6606
空气污染	-11.6606
哈尔	-11.6607
宝贵的	-11.6607
▁另据	-11.6607
usr	-11.6608
白菜	-11.6608
内衣	-11.6609
参会	-11.661
选股	-11.6613
让步	-11.6613
▁post	-11.6614
回合	-11.6614
单身	-11.6615
一二	-11.6615
细分市场	-11.6615
小鹏	-11.6616
否	-11.6616
%~	-11.6617
分左右	-11.6619
县域	-11.6619
实现营收	-11.662
▁files	-11.662
手表	-11.6621
Not	-11.6622
跳水	-11.6622
视觉中国	-11.6623
安保	-11.6625
前置	-11.6629
Box	-11.663
定为	-11.6633
总局	-11.6635
title	-11.6636
不到位	-11.6636
摆放	-11.6636
要让	-11.6637
了一系列	-11.6638
学子	-11.6638
同业	-11.6638
勇于	-11.6639
充实	-11.664
当年的	-11.664
没什么	-11.6641
Hi	-11.6642
生产商	-11.6642
涌现	-11.6644
进场	-11.6644
▁记者从	-11.6644
自此	-11.6646
日本人	-11.6646
越大	-11.6647
玛丽	-11.6648
八一	-11.6649
工程建设	-11.6649
仍需	-11.665
该平台	-11.6652
中国足球	-11.6653
sub	-11.6654
搬到	-11.6654
集会	-11.6657
广阔的	-11.6659
又一次	-11.6663
交出	-11.6665
行业协会	-11.6665
展区	-11.6666
很强	-11.6666
聚落	-11.6666
领导下	-11.6667
▁By	-11.6672
tes	-11.6672
现在已经	-11.6676
两只	-11.6677
达尔	-11.6679
▁-------	-11.6691
英里	-11.6692
该项	-11.6693
Base	-11.6695
rap	-11.6696
▁实习生	-11.6699
二千	-11.6701
宣传活动	-11.6703
不适	-11.6703
api	-11.6704
十年来	-11.6706
二十一	-11.6706
没办法	-11.6707
right	-11.6708
xception	-11.6709
acc	-11.6711
死于	-11.6712
一角	-11.6713
两家公司	-11.672
大户	-11.672
影视剧	-11.6721
波尔	-11.6723
理事	-11.6724
电量	-11.6725
一倍	-11.6726
克雷	-11.6726
Is	-11.6727
看得	-11.6728
ants	-11.6729
很简单	-11.6729
岁以上	-11.6729
尤其是在	-11.673
列出	-11.6732
中医药	-11.6734
青岛市	-11.6735
内存	-11.6735
促成	-11.6738
流畅	-11.674
ese	-11.6742
明治	-11.6742
夕	-11.6744
▁"$	-11.6746
的损失	-11.6747
人流	-11.6748
单日	-11.6748
先是	-11.675
不忘	-11.6754
Tech	-11.6756
国人	-11.6758
纯电	-11.6761
新动能	-11.6761
乡村旅游	-11.6765
拉姆	-11.6765
GT	-11.6765
公认	-11.6767
大字	-11.6771
曾于	-11.6773
的情感	-11.6773
谓	-11.6776
治理体系	-11.6779
ole	-11.678
▁Se	-11.6781
使人	-11.6782
大理	-11.6786
信息安全	-11.6787
画作	-11.6788
连队	-11.6789
▁error	-11.6789
质效	-11.679
发热	-11.679
扩大了	-11.679
已超过	-11.6791
床上	-11.6792
警报	-11.6793
格里	-11.6795
颈	-11.6795
慎	-11.6797
天狮集团	-11.6797
大幅度	-11.6801
Code	-11.6802
都需要	-11.6802
></	-11.6802
要去	-11.6802
Time	-11.6803
经济学家	-11.6803
铁路局	-11.6805
主办的	-11.6805
波特	-11.681
周围的	-11.681
两款	-11.681
不让	-11.6812
创造力	-11.6813
座位	-11.6816
点多	-11.6818
cket	-11.6819
检察	-11.6819
自然资源	-11.6821
凑	-11.6821
辨	-11.6822
卫健委	-11.6822
帖	-11.6824
文化旅游	-11.6825
纬	-11.6825
市委书记	-11.6825
垃圾分类	-11.6826
碟	-11.6827
><	-11.6827
全力以赴	-11.6827
仅次于	-11.6827
阵亡	-11.6827
匪	-11.6827
菲利普	-11.6827
航站楼	-11.6827
苯	-11.6827
敦促	-11.6827
党和国家	-11.6827
咽	-11.6827
利物浦	-11.6827
香格里拉	-11.6827
很大程度上	-11.6827
キ	-11.6827
纳斯达克	-11.6827
长津湖	-11.6827
FREE	-11.6827
github	-11.6827
中新经纬	-11.6827
膏	-11.6827
凿	-11.6827
腺	-11.6827
Team	-11.6827
▁girl	-11.6827
Request	-11.6827
▁school	-11.6827
Google	-11.6827
Message	-11.6827
参议院	-11.6827
呼和浩特	-11.6827
▁cause	-11.6827
▁July	-11.6827
荫	-11.6827
BUILDDIR	-11.6827
唇	-11.6827
导盲犬	-11.6827
里程碑	-11.6827
归属于上市公司	-11.6827
办事处	-11.6828
基带芯片	-11.6828
煜	-11.6828
贫穷	-11.6828
连日来	-11.6828
糟糕	-11.6828
下半场	-11.6828
包裹	-11.6828
不动产登记	-11.6828
韦尔股份	-11.6828
胺	-11.6828
化合物	-11.6828
辩论	-11.6828
雅典	-11.6828
▁words	-11.6828
▁mind	-11.6828
预制菜	-11.6828
贩卖	-11.6828
sky	-11.6828
股东的净利润	-11.6829
衷心	-11.6829
邺城	-11.6829
sis	-11.6829
荣耀	-11.683
副市长	-11.683
欲望	-11.683
品尝	-11.683
▁held	-11.6831
早晨	-11.6831
桌面	-11.6831
昱	-11.6831
简易	-11.6831
环绕	-11.6831
本期预计	-11.6831
手续费	-11.6832
并不意味着	-11.6832
看上去	-11.6832
筹建	-11.6832
参谋长	-11.6832
社保基金	-11.6833
阻力	-11.6833
▁cup	-11.6834
沉没	-11.6834
蓬勃发展	-11.6834
催生	-11.6834
一根	-11.6835
达成了	-11.6835
恒星	-11.6835
电堆	-11.6835
生产队	-11.6836
贩子	-11.6836
当你	-11.6836
男朋友	-11.6836
评奖	-11.6837
光谱	-11.6838
陆先生	-11.6838
轻微	-11.6838
绿色食品	-11.6838
纳税人	-11.6839
走私	-11.6839
共鸣	-11.6839
output	-11.684
赞同	-11.684
山市	-11.6841
欧阳	-11.6841
选秀	-11.6842
网购	-11.6842
营地	-11.6843
伤病	-11.6843
城镇化	-11.6843
购入	-11.6844
景气	-11.6844
称呼	-11.6844
query	-11.6844
唐代	-11.6845
弟子	-11.6846
趋于	-11.6847
奖牌	-11.6847
第一家	-11.6848
眼球	-11.6848
二手房	-11.6849
产物	-11.685
衍生	-11.6851
主题曲	-11.6852
家住	-11.6853
官司	-11.6853
病房	-11.6854
领队	-11.6855
▁force	-11.6855
公里处	-11.6855
大幅提升	-11.6858
低保	-11.6861
港澳	-11.6861
安县	-11.6861
有关负责人	-11.6862
bar	-11.6864
齐全	-11.6865
东营	-11.6865
出货	-11.6865
hot	-11.6866
金额为	-11.6867
哈利	-11.6872
大火	-11.6875
野心	-11.6875
▁hands	-11.6876
一遍	-11.6876
购房者	-11.6878
新浪	-11.6878
亚种	-11.6879
绝大部分	-11.6881
燃油	-11.6882
六百	-11.6885
较长	-11.6887
下同	-11.6887
姿态	-11.6892
东欧	-11.6893
对标	-11.6893
论坛上	-11.6894
里程	-11.6894
送达	-11.6894
比价	-11.6896
波斯	-11.6898
一定程度上	-11.6901
ged	-11.6902
管理系统	-11.6903
赛前	-11.6905
纳米	-11.6905
社长	-11.6906
惠及	-11.6907
对这些	-11.6907
证件	-11.6908
一脸	-11.6908
错过	-11.6909
三分	-11.691
总台记者	-11.6912
就需要	-11.6912
带队	-11.6913
进一步完善	-11.6914
音频	-11.6919
▁exist	-11.6923
作为一种	-11.6924
递交	-11.6924
口味	-11.6925
创造性	-11.6927
亿吨	-11.6932
动机	-11.6933
新政	-11.6935
重重	-11.6935
越剧	-11.6936
Port	-11.6936
重大项目	-11.6938
的难度	-11.6938
▁idea	-11.694
开花	-11.6941
到场	-11.6946
上帝	-11.6946
▁event	-11.6947
支持率	-11.6957
反向	-11.6958
不仅可以	-11.6958
同为	-11.696
多万元	-11.6963
大同	-11.6967
▁techn	-11.697
投资项目	-11.6971
haracter	-11.6971
▁try	-11.6976
早早	-11.6977
▁direct	-11.6979
歌舞	-11.6979
社会治理	-11.698
生日	-11.6983
▁Sub	-11.6985
给大家	-11.6985
可能性	-11.6986
EE	-11.6987
的强大	-11.6992
不动产	-11.6995
在当时	-11.6996
年仅	-11.6997
意义上的	-11.6997
无关	-11.6999
二十三	-11.7001
All	-11.7001
阴谋	-11.7001
低温	-11.7001
南阳	-11.7005
师资	-11.7006
特大	-11.7008
预定	-11.7009
耶夫	-11.701
how	-11.701
▁path	-11.7014
一定程度	-11.7015
不胜	-11.7018
rum	-11.7019
中小微企业	-11.7019
后备	-11.702
不确定	-11.7022
粤剧	-11.7022
▁Dr	-11.7023
▁ground	-11.7024
Val	-11.7024
site	-11.7024
送来	-11.7025
我知道	-11.7025
++	-11.7026
成年人	-11.7027
TT	-11.7029
果实	-11.703
清华	-11.7035
就有了	-11.7036
推送	-11.7037
始终保持	-11.7039
town	-11.7039
社会发展	-11.7039
俄军	-11.704
海底	-11.7042
分校	-11.7045
的差异	-11.7046
姥姥	-11.7047
":	-11.7048
新任	-11.7053
这批	-11.7058
机动	-11.7059
合适	-11.7059
则会	-11.7061
加重	-11.7062
近年	-11.7063
诞	-11.7064
▁Mon	-11.7068
资源优势	-11.7069
▁Is	-11.7071
生物学	-11.7071
意见建议	-11.7072
草地	-11.7073
彰	-11.7074
长途	-11.7074
是基于	-11.7075
匠	-11.7075
躺	-11.7078
发改委	-11.7078
等项目	-11.7079
纤	-11.7079
的心情	-11.708
该如何	-11.7081
循	-11.7082
肤	-11.7082
钩	-11.7082
€	-11.7082
刃	-11.7082
屠	-11.7082
愤	-11.7082
一九七	-11.7082
蜡	-11.7083
一小撮	-11.7083
帐篷	-11.7083
迄今	-11.7083
坟	-11.7083
钉	-11.7083
默默	-11.7083
笃	-11.7083
祀	-11.7083
诱惑	-11.7083
驹	-11.7083
渗	-11.7083
不法分子	-11.7083
情侣	-11.7083
钠	-11.7084
则表示	-11.7084
卡马乔	-11.7084
籽	-11.7084
Rivian	-11.7084
▁After	-11.7084
▁License	-11.7084
▁above	-11.7084
▁father	-11.7084
喔	-11.7084
钥匙	-11.7084
密切接触者	-11.7084
泡沫	-11.7084
卡塔尔	-11.7084
维也纳	-11.7084
を	-11.7084
愤怒	-11.7084
玮	-11.7084
can	-11.7084
前身是	-11.7084
顶层设计	-11.7084
寓意	-11.7084
Peter	-11.7084
均匀	-11.7084
网格员	-11.7084
location	-11.7085
预告	-11.7085
大运会	-11.7085
博士学位	-11.7085
Up	-11.7085
▁least	-11.7085
损伤	-11.7085
泾	-11.7085
▁near	-11.7085
骁龙	-11.7085
雇主	-11.7085
▁himself	-11.7085
抚养	-11.7085
横琴	-11.7086
优酷	-11.7086
襄阳	-11.7086
拖欠	-11.7086
老龄化	-11.7086
倒闭	-11.7087
封锁	-11.7087
就这样	-11.7087
java	-11.7087
剔除	-11.7087
谋杀	-11.7087
冲锋	-11.7087
声誉	-11.7088
火锅	-11.7088
display	-11.7088
晟	-11.7088
赞扬	-11.7088
搬运	-11.7089
集中隔离	-11.7089
亲戚	-11.7089
吸纳	-11.7089
金色	-11.709
货架	-11.709
User	-11.709
TVB	-11.709
▁none	-11.709
台阶	-11.7091
圆形	-11.7091
副总理	-11.7091
俄国	-11.7091
有序推进	-11.7091
商铺	-11.7091
等信息	-11.7092
逼近	-11.7092
彩礼	-11.7092
知晓	-11.7092
▁big	-11.7093
▁sure	-11.7095
故居	-11.7095
呼吸道	-11.7095
特色社会主义思想	-11.7095
▁toward	-11.7096
礼包	-11.7096
注定	-11.7097
▁Add	-11.7097
实施了	-11.7097
热血	-11.7098
显卡	-11.7099
主要为	-11.7099
在这方面	-11.71
加仓	-11.7101
表现为	-11.7101
史诗	-11.7103
Ho	-11.7103
cha	-11.7103
旋转	-11.7104
女演员	-11.7104
ept	-11.7105
效力于	-11.7105
反动	-11.7106
一线城市	-11.7106
另一位	-11.7106
电极	-11.7106
先生说	-11.7107
不断扩大	-11.7108
parse	-11.7108
老虎	-11.7109
▁SF	-11.711
党组	-11.711
看法	-11.7111
忙着	-11.7111
复原	-11.7112
提供更多	-11.7112
冬奥会	-11.7113
名录	-11.7114
谈起	-11.7115
伯特	-11.7115
▁fn	-11.7116
前锋	-11.7117
oil	-11.7117
网站消息	-11.7118
的认知	-11.7119
华夏	-11.7119
基石	-11.7122
让大家	-11.7122
四位	-11.7122
▁top	-11.7123
身处	-11.7123
副院长	-11.7124
辞去	-11.7125
▁become	-11.7125
ists	-11.7125
ban	-11.7125
投行	-11.7126
共治	-11.7126
两市	-11.7127
被盗	-11.7127
编写	-11.7127
安宁	-11.7128
▁"/	-11.7129
将通过	-11.7129
救出	-11.713
宁波市	-11.7132
投手	-11.7132
停火	-11.7132
偏好	-11.7134
短视频平台	-11.7134
天府	-11.7134
在广州	-11.7134
战线	-11.7135
外形	-11.7138
bre	-11.7138
亚非	-11.7139
警车	-11.714
红十字会	-11.714
移送	-11.714
创新性	-11.7141
打着	-11.7144
▁||	-11.7145
晚年	-11.7147
人民网	-11.7152
SF	-11.7152
对策	-11.7153
第一天	-11.7153
迈进	-11.7154
军民	-11.7154
ura	-11.7156
分流	-11.7156
第一轮	-11.7157
节假日	-11.7159
具体来看	-11.716
点半	-11.7161
英文名	-11.7161
天才	-11.7162
Tu	-11.7162
天堂	-11.7164
得主	-11.7165
My	-11.7166
tmp	-11.7166
二手	-11.7167
▁mu	-11.717
眼里	-11.717
没错	-11.7173
农家	-11.7173
国内市场	-11.7173
扩大到	-11.7175
短时间内	-11.7176
准备工作	-11.7177
几千	-11.7178
切入	-11.718
header	-11.7182
吃了	-11.7184
班子	-11.7186
并称	-11.7187
爱国主义教育	-11.7188
ball	-11.7191
GC	-11.7193
高层次	-11.7193
机枪	-11.7195
点球	-11.7196
▁source	-11.7197
文化艺术	-11.7198
之星	-11.7199
县人民法院	-11.7199
较强的	-11.72
两年后	-11.7202
Shi	-11.7202
停留在	-11.7203
精密	-11.7203
分别在	-11.7204
的重视	-11.7209
▁Not	-11.7209
root	-11.7209
山口	-11.721
二级市场	-11.721
焕	-11.7213
▁Fa	-11.7214
来自中国	-11.7214
不会对	-11.7215
经贸合作	-11.7215
▁Jo	-11.7216
等措施	-11.7217
带给	-11.7218
平方米的	-11.7223
等环节	-11.7226
投资公司	-11.7228
队员们	-11.7231
也是一个	-11.7232
两座	-11.7233
Sta	-11.7233
龙门	-11.7235
出色的	-11.7238
选用	-11.7239
▁新京报	-11.7241
确定了	-11.7242
联邦政府	-11.7244
▁Bu	-11.7247
去年底	-11.725
来进行	-11.7251
全国性	-11.7253
有信心	-11.7253
▁met	-11.7254
爱国主义	-11.7254
帮助企业	-11.7259
▁God	-11.7262
但它	-11.7264
海港	-11.7266
村村民	-11.7267
因为我	-11.7267
的担忧	-11.7268
政策支持	-11.7273
zo	-11.7274
总队	-11.7274
▁En	-11.7281
▁Per	-11.7281
abs	-11.7282
自由主义	-11.7285
目标是	-11.7286
楚国	-11.7293
的利润	-11.7296
▁view	-11.7297
其中一个	-11.7297
万公里	-11.7299
厕所	-11.73
不同的是	-11.7302
预付	-11.7307
平板	-11.7308
事儿	-11.7309
了吧	-11.731
用心	-11.731
变异	-11.731
这条路	-11.731
古人	-11.731
已经达到	-11.7311
Cap	-11.7311
法语	-11.7312
圆满	-11.7316
已开始	-11.7318
夏日	-11.732
麓	-11.7321
也已经	-11.7322
By	-11.7327
日举行的	-11.7329
高产	-11.7329
棵	-11.7333
峡	-11.7333
奋	-11.7333
商贸	-11.7334
年世界杯	-11.7338
入市	-11.7338
Su	-11.7342
喻	-11.7342
所有权	-11.7343
GL	-11.7343
的营收	-11.7344
磅	-11.7344
施行	-11.7344
锌	-11.7344
山地	-11.7345
滇	-11.7345
一九六	-11.7345
惧	-11.7345
濑	-11.7345
艰苦奋斗	-11.7345
警戒	-11.7346
杖	-11.7346
谎	-11.7346
疯	-11.7346
缸	-11.7346
乔金芝	-11.7346
痕迹	-11.7347
退役军人	-11.7347
桦	-11.7347
р	-11.7347
直辖市	-11.7347
窦	-11.7347
お	-11.7347
Service	-11.7347
抑郁症	-11.7347
▁South	-11.7347
大气污染防治	-11.7347
bottom	-11.7347
痴呆	-11.7347
亿纬锂能	-11.7347
多米尼加	-11.7347
炼焦煤	-11.7347
迁徙	-11.7347
▁early	-11.7347
幽默	-11.7347
檐	-11.7347
チ	-11.7347
泗	-11.7347
孕妇	-11.7347
▁effect	-11.7347
座椅	-11.7347
李克强	-11.7347
公务用车	-11.7347
empty	-11.7347
压迫	-11.7347
渭	-11.7347
梓	-11.7347
牢记	-11.7347
参议员	-11.7347
复仇	-11.7348
湖泊	-11.7348
▁common	-11.7348
英尺	-11.7348
View	-11.7348
干燥	-11.7348
藻	-11.7348
公租房	-11.7348
曹操	-11.7348
冲绳	-11.7348
下列	-11.7348
纪念碑	-11.7348
直径	-11.7349
昂贵	-11.7349
公立医院	-11.7349
劳务	-11.7349
示威	-11.735
切尔西	-11.735
心中的	-11.735
撤退	-11.735
推销	-11.735
莱斯	-11.735
募集资金	-11.7351
font	-11.7351
德比	-11.7351
年年底	-11.7351
达成协议	-11.7351
竞价	-11.7352
管理有限公司	-11.7352
预留	-11.7352
途经	-11.7352
检讨	-11.7353
杜绝	-11.7353
全国人大代表	-11.7353
▁throw	-11.7355
曼谷	-11.7355
生态文明	-11.7355
▁remain	-11.7355
滞后	-11.7355
置换	-11.7356
▁------	-11.7356
城际	-11.7356
尽早	-11.7356
环卫	-11.7356
年前的	-11.7356
南路	-11.7357
所长	-11.7357
放宽	-11.7357
反击	-11.7357
交汇	-11.7358
商报	-11.7358
创新型	-11.7358
答复	-11.7358
被捕	-11.7358
说出	-11.7359
安检	-11.7359
游玩	-11.7359
平凉	-11.736
体现出	-11.7361
代谢	-11.7361
开庭	-11.7361
缩水	-11.7362
亲情	-11.7362
▁前区	-11.7362
鼻子	-11.7363
薄弱	-11.7363
加热	-11.7365
回流	-11.7365
侧面	-11.7365
综合治理	-11.7366
截至今年	-11.7366
试制	-11.7367
人大代表	-11.7368
体质	-11.7369
空前	-11.737
女职工	-11.737
个多月	-11.737
报复	-11.7371
flag	-11.7372
Key	-11.7372
专场	-11.7372
构成了	-11.7373
法律责任	-11.7374
▁almo	-11.7375
Hz	-11.7376
:[	-11.7376
视力	-11.7377
resource	-11.7378
大雪	-11.7378
横向	-11.7378
地中海	-11.7379
的职责	-11.7379
有著	-11.738
行程	-11.738
进取	-11.738
江湖	-11.7382
Read	-11.7382
流向	-11.7382
曼城	-11.7383
还是要	-11.7386
平常	-11.7386
想着	-11.7387
▁fr	-11.7388
超高	-11.7391
原著	-11.7391
第一款	-11.7392
此处	-11.7392
发电量	-11.7395
运力	-11.7395
的命运	-11.7396
几乎所有	-11.7397
小偷	-11.7398
移动互联网	-11.7398
跑路	-11.7398
▁cook	-11.7401
适当的	-11.7403
网格	-11.7404
都已	-11.7404
中超联赛	-11.7404
青年学生	-11.7404
法令	-11.7406
▁lib	-11.7406
合并为	-11.7408
建制	-11.7411
东路	-11.7411
总数的	-11.7415
还有很多	-11.7416
纳德	-11.7417
因为他	-11.7418
为中心的	-11.7419
幼儿	-11.7419
严重影响	-11.7419
南县	-11.7422
要及时	-11.7423
风波	-11.7423
批量	-11.7423
当选为	-11.7424
卡特	-11.7425
来回	-11.7425
的迹象	-11.7426
join	-11.7429
却没有	-11.7429
媳妇	-11.7433
▁""	-11.7433
门外	-11.7434
erry	-11.744
▁pain	-11.744
全国人民	-11.7442
Air	-11.7442
借款人	-11.7443
dom	-11.7447
具体情况	-11.7448
为准	-11.745
微笑	-11.7453
置业	-11.7456
ished	-11.7457
电路	-11.7462
八个	-11.7462
积极开展	-11.7463
也已	-11.7464
摇滚	-11.7464
带来更多	-11.7465
▁James	-11.7475
ora	-11.7479
具有一定	-11.748
老大	-11.748
开来	-11.7482
欧洲国家	-11.7482
打法	-11.7483
ular	-11.7484
等多家	-11.7485
几乎是	-11.7485
听了	-11.7486
厂里	-11.7487
美国国家	-11.7487
太过	-11.7487
比尔	-11.7488
主要包括	-11.7489
高尔夫	-11.7489
有力的	-11.749
▁base	-11.7491
定向	-11.7491
至少有	-11.7494
专项资金	-11.7495
错误的	-11.7501
车位	-11.7501
发声	-11.7501
山顶	-11.7502
有保障	-11.7502
停留	-11.7504
果蔬	-11.7506
不排除	-11.7508
价差	-11.7508
▁rest	-11.7508
然后再	-11.7512
墙上	-11.7512
lf	-11.7515
不仅仅	-11.7517
贡献了	-11.7517
都知道	-11.7518
该省	-11.752
上路	-11.7522
讲话中	-11.7523
ij	-11.7525
SO	-11.7529
上千	-11.7529
半小时	-11.753
俄中	-11.7531
▁wor	-11.7532
就得	-11.7534
研究机构	-11.7539
农业发展	-11.7543
在纽约	-11.7544
跌至	-11.7544
cert	-11.7548
此地	-11.755
更多人	-11.7552
裁员	-11.7552
科夫	-11.7554
转身	-11.7555
OK	-11.7556
分手	-11.7558
uri	-11.7562
cker	-11.7562
道路交通安全	-11.7563
OW	-11.7564
外包	-11.7566
做大	-11.7568
镇区	-11.757
pre	-11.7579
而且还	-11.7582
写着	-11.7583
不宜	-11.7584
OC	-11.7585
简化	-11.7585
OT	-11.7587
有害	-11.7589
灭火	-11.7591
日中午	-11.7593
负责人表示	-11.7595
掌握了	-11.7596
李安	-11.7597
国际贸易	-11.7598
年终	-11.7598
El	-11.7598
因为他们	-11.7599
该院	-11.76
▁Go	-11.76
球星	-11.7603
有人认为	-11.7605
ata	-11.7605
该局	-11.7606
栗	-11.7609
▁dark	-11.7609
周岁	-11.761
戚	-11.7611
可以根据	-11.7611
年至今	-11.7612
拢	-11.7613
盼	-11.7613
翰	-11.7613
障	-11.7613
溯源	-11.7614
轰	-11.7615
惯	-11.7615
孕	-11.7616
党委副书记	-11.7616
秉	-11.7616
毗邻	-11.7616
熄	-11.7616
秃	-11.7616
朝鲜半岛	-11.7616
幢	-11.7617
实事求是	-11.7617
竖	-11.7617
溜	-11.7617
自贸试验区	-11.7617
葱	-11.7617
温晓东	-11.7617
汶	-11.7617
芙	-11.7617
埠	-11.7617
穆罕默德	-11.7617
托马斯	-11.7617
缆	-11.7617
コ	-11.7617
花卉	-11.7617
市中级人民法院	-11.7617
▁London	-11.7617
▁floor	-11.7617
т	-11.7617
▁feet	-11.7617
唤醒	-11.7617
て	-11.7617
李金元	-11.7617
祐	-11.7617
贪污	-11.7617
フ	-11.7617
两轮电动车	-11.7617
弧	-11.7617
祁	-11.7617
丰富多彩的	-11.7617
贬值	-11.7617
到目前为止	-11.7617
▁mother	-11.7618
呗	-11.7618
蕴含	-11.7618
陇	-11.7618
研究所所长	-11.7618
甜蜜	-11.7618
length	-11.7618
劳模	-11.7618
路比为	-11.7618
▁why	-11.7618
▁kill	-11.7618
又能	-11.7619
掘金	-11.762
火柴	-11.762
异议	-11.762
铃木	-11.762
布政使	-11.762
监视	-11.762
赶到现场	-11.7621
党和人民	-11.7621
办公厅	-11.7621
消杀	-11.7621
宜居	-11.7622
综艺节目	-11.7622
负面影响	-11.7622
▁THE	-11.7622
▁stop	-11.7622
富豪	-11.7622
受访	-11.7622
欧冠	-11.7622
旅游市场	-11.7623
分辨率	-11.7623
足球俱乐部	-11.7623
」「	-11.7623
▁asked	-11.7623
遇见	-11.7623
失控	-11.7624
近来	-11.7624
立项	-11.7625
抖音电商	-11.7626
金银	-11.7626
▁upon	-11.7626
精致	-11.7626
机械师	-11.7628
小组赛	-11.7628
处处长	-11.7629
综合体	-11.7629
气势	-11.7631
▁wanted	-11.7632
水电	-11.7634
乐章	-11.7634
相亲	-11.7634
君主	-11.7634
数码	-11.7634
兼任	-11.7635
副校长	-11.7635
邻里	-11.7635
比拼	-11.7636
蓝图	-11.7637
科研人员	-11.7637
首秀	-11.7637
真理	-11.7639
北宋	-11.764
这两年	-11.764
不断增强	-11.764
John	-11.7642
阵线	-11.7642
手上	-11.7643
农牧	-11.7643
建设项目	-11.7645
带回	-11.7645
df	-11.7647
评比	-11.7648
党史	-11.7648
缴费	-11.7648
高通胀	-11.7648
经济损失	-11.765
每一位	-11.7652
入户	-11.7652
桃园	-11.7653
散文	-11.7655
自制	-11.7656
足球运动员	-11.7659
小朋友	-11.7659
余某	-11.7659
钱包	-11.766
时节	-11.7661
丽江	-11.7661
八月	-11.7662
并不能	-11.7662
企业提供	-11.7663
观摩	-11.7663
你说	-11.7664
七个	-11.7665
的订单	-11.7665
制图	-11.7667
优越	-11.767
外表	-11.7678
tri	-11.7678
发明专利	-11.7679
远方	-11.7679
但我们	-11.768
转入	-11.7681
数目	-11.7682
韩国队	-11.7687
远高于	-11.7688
各单位	-11.7689
比较高	-11.7691
赶来	-11.7692
▁user	-11.7695
长治	-11.7697
▁appear	-11.7701
只有一个	-11.7702
得奖	-11.7702
▁Ber	-11.7702
col	-11.7703
tree	-11.7703
成品油	-11.7703
年三月	-11.7704
▁push	-11.7706
才发现	-11.7706
ica	-11.7706
曾被	-11.7707
纳斯	-11.7708
包含了	-11.7709
▁rec	-11.7709
汛	-11.771
的目标是	-11.7711
一杯	-11.7711
需求量	-11.7712
李娜	-11.7713
电解	-11.7714
委副书记	-11.7714
的房子	-11.7715
多个国家	-11.7715
有所不同	-11.7721
系统中	-11.7722
我区	-11.7723
大规模的	-11.7725
教育资源	-11.7726
时间表	-11.7727
发挥了	-11.7727
还存在	-11.7729
分开	-11.7732
这对于	-11.7734
instance	-11.7735
的讲话	-11.7735
政策性	-11.7736
});	-11.7737
服用	-11.7737
法师	-11.7737
族人	-11.7739
比上年同期	-11.7739
千人	-11.774
▁Set	-11.7744
不会有	-11.7746
强有力的	-11.7747
上来看	-11.7749
这些都是	-11.7752
汽车市场	-11.7753
三名	-11.7753
主要由	-11.7754
最后一个	-11.7759
▁war	-11.7761
可能导致	-11.7761
bon	-11.7761
斗争中	-11.7762
研究者	-11.7762
低成本	-11.7763
领导小组	-11.7766
调查发现	-11.7767
ths	-11.7773
改编自	-11.7773
使他	-11.7774
副总	-11.7774
等一批	-11.7774
农业科技	-11.7775
这一问题	-11.7775
克莱	-11.7778
唐山	-11.7779
乌斯	-11.7782
日期间	-11.7784
告诉我	-11.7786
▁Ko	-11.7788
日发布的	-11.7791
不肯	-11.7793
出入	-11.7794
sz	-11.7796
xy	-11.78
改名	-11.7803
披露的	-11.7804
人工智能技术	-11.7806
礼仪	-11.7807
精细	-11.781
tel	-11.7811
殖民	-11.7814
还有一些	-11.7816
新药	-11.7817
ita	-11.7817
工作方案	-11.7822
假日	-11.7823
人造	-11.7824
地标	-11.7825
大范围	-11.7827
是怎么	-11.7831
▁late	-11.7832
要继续	-11.7833
义务教育	-11.7834
作为中国	-11.7838
旅游局	-11.784
机电	-11.7851
结束时	-11.7854
XX	-11.7855
ari	-11.7855
一个国家	-11.7855
柳州	-11.786
store	-11.786
并不多	-11.786
变形	-11.7863
初级	-11.7864
尼尔	-11.7866
▁human	-11.7868
精度	-11.7869
平民	-11.7873
手持	-11.7875
sol	-11.7879
非常高	-11.7881
询	-11.7885
interest	-11.7888
肚	-11.7888
漠	-11.789
殊	-11.789
mental	-11.7891
巡洋舰	-11.7891
扁	-11.7891
根据地	-11.7891
灿	-11.7891
ization	-11.7892
冶炼	-11.7893
削	-11.7893
逐渐成为	-11.7893
奥林匹克	-11.7893
辑	-11.7893
扰动	-11.7894
颗粒	-11.7894
战俘	-11.7894
概括	-11.7894
沼	-11.7894
聂	-11.7894
嫌	-11.7894
愧	-11.7894
曦	-11.7894
堰	-11.7894
全资子公司	-11.7894
驱逐	-11.7894
friend	-11.7894
在这种情况下	-11.7895
艰巨	-11.7895
中央经济工作会议	-11.7895
乾	-11.7895
俏	-11.7895
檀	-11.7895
阻挡	-11.7895
维生素	-11.7895
爪	-11.7895
第一次世界大战	-11.7895
中国社会科学院	-11.7895
周杰伦	-11.7895
行政复议	-11.7895
document	-11.7895
赛力斯	-11.7895
с	-11.7895
▁reason	-11.7895
十大金股	-11.7895
SOHO	-11.7895
党的十八大以来	-11.7895
初衷	-11.7895
人民大会堂	-11.7895
茎	-11.7895
夏威夷	-11.7895
柄	-11.7895
PATH	-11.7895
一会儿	-11.7895
green	-11.7895
规避	-11.7895
が	-11.7895
倒塌	-11.7895
德约科维奇	-11.7895
睡觉	-11.7896
屠杀	-11.7896
抵御	-11.7896
叙述	-11.7896
谎言	-11.7896
功耗	-11.7896
动车组	-11.7896
在此基础上	-11.7896
境外输入	-11.7896
朴素	-11.7896
符合条件的	-11.7896
自来水	-11.7897
替补	-11.7897
秘鲁	-11.7897
CP	-11.7897
牛奶	-11.7897
高校毕业生	-11.7897
契合	-11.7897
园艺	-11.7897
审讯	-11.7897
民政	-11.7897
放射性	-11.7897
心脏病	-11.7897
的指导下	-11.7897
拜访	-11.7897
不妨	-11.7897
探险	-11.7897
孤立	-11.7898
TCL	-11.7898
漠河	-11.7898
顺畅	-11.7898
幻想	-11.7898
承压	-11.7898
IoT	-11.7898
预备	-11.7899
表决	-11.7899
客串	-11.7899
▁SET	-11.7899
交割	-11.7899
语文	-11.7899
北海道	-11.7899
▁given	-11.79
投稿	-11.79
罪行	-11.79
vip	-11.79
军用	-11.79
御史	-11.79
生意社	-11.79
仿真	-11.79
淋	-11.7901
腾讯音乐	-11.7901
嘉庆	-11.7902
忍受	-11.7902
让用户	-11.7902
旁听	-11.7902
划定	-11.7902
震动	-11.7902
观鸟	-11.7903
粮油	-11.7903
琼斯	-11.7903
院内	-11.7903
解散	-11.7904
华裔	-11.7904
枪支	-11.7904
触发	-11.7905
天赋	-11.7906
校友	-11.7906
藤原	-11.7906
中国石化	-11.7906
剑桥	-11.7906
沈某	-11.7907
茶叶	-11.7908
监督检查	-11.7908
漂亮	-11.7909
▁seen	-11.7909
更像是	-11.791
ient	-11.791
取证	-11.7911
无障碍	-11.7911
说服	-11.7912
带宽	-11.7912
▁inside	-11.7912
深夜	-11.7912
搜救	-11.7913
腹部	-11.7913
▁report	-11.7914
中枢	-11.7914
皇马	-11.7914
贴心	-11.7914
之类的	-11.7915
要实现	-11.7916
ney	-11.7916
增加值	-11.7916
桌上	-11.7917
较去年同期	-11.7917
女主角	-11.7918
这座城市	-11.7918
工委	-11.7918
avi	-11.7918
中国女足	-11.7918
底气	-11.7919
▁bring	-11.7919
人性	-11.792
极度	-11.7921
采取措施	-11.7921
大多是	-11.7921
本网	-11.7922
宝宝	-11.7922
第十四	-11.7922
有关规定	-11.7923
自救	-11.7923
复式	-11.7923
涉外	-11.7924
树林	-11.7925
过境	-11.7925
ender	-11.7925
乐器	-11.7926
普遍认为	-11.7926
接口	-11.7927
发货	-11.7928
精美	-11.7931
东南部	-11.7932
进程中	-11.7933
的比重	-11.7933
事关	-11.7934
▁star	-11.7935
第一季	-11.7935
奥尔	-11.7935
集团董事长	-11.7936
ship	-11.7936
期刊	-11.7937
朱某	-11.7938
关键时刻	-11.7938
搭乘	-11.7938
这首	-11.794
▁func	-11.794
开封	-11.794
▁Some	-11.7941
月度	-11.7942
白俄罗斯	-11.7942
的现状	-11.7942
急性	-11.7943
一下子	-11.7944
在路上	-11.7944
直达	-11.7945
篇文章	-11.7946
element	-11.7947
同一个	-11.7947
有自己的	-11.7949
第二代	-11.7949
生产企业	-11.795
不论是	-11.795
活动现场	-11.795
doc	-11.7954
事先	-11.7955
▁perform	-11.7956
美学	-11.7956
保证金	-11.7956
Mac	-11.7957
沙特	-11.7957
Control	-11.7958
ches	-11.7959
较差	-11.796
人权	-11.7963
卧室	-11.7963
热心	-11.7964
福德	-11.7965
名将	-11.7967
德胜	-11.7967
为导向	-11.7968
诊断为	-11.7971
合作关系	-11.7971
的首个	-11.7971
安全管理	-11.7972
小女孩	-11.7974
几种	-11.7974
直属	-11.7974
已连续	-11.7974
夜市	-11.7974
二十八	-11.7975
已然	-11.7977
小林	-11.7978
environ	-11.7982
一定是	-11.7984
河镇	-11.7984
中立	-11.7989
超大	-11.799
投融资	-11.7991
牌子	-11.7991
风力	-11.7993
小众	-11.7994
关注度	-11.7996
比如说	-11.7998
净利	-11.7999
步兵	-11.7999
高风险	-11.8
文体	-11.8
丹东	-11.8001
mod	-11.8005
代表了	-11.8008
生产生活	-11.8008
对外贸易	-11.8009
南朝鲜	-11.801
强力	-11.801
据此	-11.8011
州府	-11.8012
全村	-11.8017
分钟后	-11.8019
升高	-11.8021
嫌疑	-11.8022
而行	-11.8022
农业部	-11.8023
涵盖了	-11.8024
即使是	-11.8026
▁Vi	-11.8027
▁company	-11.8029
雨水	-11.8031
山上	-11.8032
三地	-11.8036
图文	-11.8037
线条	-11.8039
中国内地	-11.8039
"]	-11.8041
mix	-11.8041
但现在	-11.8041
孙子	-11.805
市政协	-11.8051
可以让	-11.8053
Table	-11.8054
学院教授	-11.8055
格雷	-11.8058
缓和	-11.8059
一楼	-11.8059
撤出	-11.8061
原定	-11.8063
AY	-11.8063
内卷	-11.8064
大联盟	-11.8065
的领导下	-11.8068
他强调	-11.8073
使者	-11.8074
有更多	-11.8075
即便是	-11.8082
也应	-11.8083
def	-11.8083
成果转化	-11.8083
二十六	-11.8084
共产党人	-11.8084
二十九	-11.8086
统计数据	-11.8087
门将	-11.8087
回到了	-11.8087
王建	-11.8088
四五	-11.809
如果不	-11.8092
冠军赛	-11.8093
判定	-11.8094
部作品	-11.8094
十一月	-11.8096
ico	-11.8097
支队伍	-11.8101
ida	-11.8102
▁match	-11.8103
迪亚	-11.8105
不力	-11.8107
大树	-11.8108
庙会	-11.8111
越来越大	-11.8114
这么说	-11.812
ML	-11.8121
temp	-11.8122
市场监督管理局	-11.8123
全队	-11.8126
Exp	-11.8128
洛夫	-11.813
击中	-11.813
提出要	-11.8132
支持下	-11.8132
小龙	-11.8132
全面发展	-11.8134
机型	-11.8134
国家标准	-11.8134
仪式上	-11.8134
体彩	-11.8135
李先生	-11.8135
家用	-11.8136
或其他	-11.8137
▁har	-11.8141
出版社出版	-11.8144
委任	-11.8145
他们将	-11.8147
了下来	-11.8148
要强化	-11.8149
不服	-11.8149
多国	-11.815
启动了	-11.8152
发病	-11.8152
滤	-11.8155
两岸关系	-11.8156
目光	-11.8158
start	-11.8158
tp	-11.816
深港	-11.8164
十一年	-11.8164
智力	-11.8165
我们必须	-11.8166
平县	-11.8168
下周	-11.8169
武警	-11.817
班次	-11.8171
肇	-11.8172
拾	-11.8176
勉	-11.8177
蒸汽	-11.8178
诈	-11.8178
圣诞	-11.8178
窟	-11.8179
荐	-11.8179
倚	-11.8179
葵	-11.8179
糊	-11.8179
旷	-11.8179
羞	-11.818
傲	-11.818
瘤	-11.818
文物保护单位	-11.818
恐慌	-11.818
中国工程院院士	-11.818
凹	-11.818
ó	-11.818
世卫组织	-11.818
媚	-11.818
分辨	-11.818
狐	-11.818
经济技术开发区	-11.818
干部任用条例	-11.8181
媛	-11.8181
华尔街	-11.8181
大满贯	-11.8181
昕	-11.8181
资产负债表	-11.8181
大小比为	-11.8181
George	-11.8181
尼日利亚	-11.8181
茜	-11.8181
ISBN	-11.8181
ο	-11.8181
ccording	-11.8181
鳍	-11.8181
耸	-11.8181
傍晚	-11.8181
羌	-11.8181
バ	-11.8181
ttention	-11.8181
挣扎	-11.8181
海南椰岛	-11.8181
季后赛	-11.8181
犀	-11.8181
秉持	-11.8181
▁minutes	-11.8181
近些年	-11.8181
は	-11.8181
娃娃	-11.8181
挂钩	-11.8181
炮弹	-11.8181
抢劫	-11.8181
肺炎	-11.8181
媒介	-11.8181
赞誉	-11.8181
约合人民币	-11.8181
▁leave	-11.8181
蛋糕	-11.8181
扣非净利润	-11.8182
人口普查	-11.8182
自然保护区	-11.8182
纽约时报	-11.8182
拆迁	-11.8182
反动派	-11.8182
收拾	-11.8182
▁week	-11.8182
印象深刻	-11.8182
参演	-11.8182
驻华大使	-11.8182
重点文物保护单位	-11.8183
魔术	-11.8183
万亿美元	-11.8183
误导	-11.8183
▁nil	-11.8183
农业合作社	-11.8183
爆料	-11.8183
▁yet	-11.8184
▁pull	-11.8184
寒冬	-11.8184
对记者说	-11.8184
旧址	-11.8184
褐色	-11.8184
怀念	-11.8184
误解	-11.8184
David	-11.8184
解禁	-11.8184
演艺	-11.8184
朝廷	-11.8184
新华基金	-11.8184
感冒	-11.8184
凭证	-11.8185
妇女儿童	-11.8185
加油站	-11.8185
游击队	-11.8185
逃跑	-11.8185
食品药品	-11.8185
渔民	-11.8186
深挖	-11.8186
左侧	-11.8186
同比增速	-11.8186
gui	-11.8186
开源社区	-11.8187
兼具	-11.8187
钢材	-11.8187
问责	-11.8187
编造	-11.8187
返乡	-11.8187
驻扎	-11.8188
基准	-11.8188
密切关注	-11.8188
示范基地	-11.8188
代餐	-11.8188
滨江	-11.8189
生前	-11.8189
切换	-11.8189
中亚	-11.819
辛巴	-11.819
广泛关注	-11.819
整形	-11.819
大力推进	-11.8191
联军	-11.8191
高峰期	-11.8191
银牌	-11.8192
严格按照	-11.8192
保密	-11.8192
直营	-11.8194
二十年	-11.8194
关停	-11.8194
帽子	-11.8194
半个月	-11.8195
▁known	-11.8195
创始	-11.8196
称自己	-11.8196
打败	-11.8196
Item	-11.8197
养老金	-11.8197
UR	-11.8197
反对派	-11.8197
借口	-11.8198
尾巴	-11.8198
服务保障	-11.8199
录像	-11.8199
既定	-11.82
政变	-11.82
案情	-11.8202
收支	-11.8202
犹太人	-11.8202
FC	-11.8204
这一天	-11.8204
▁State	-11.8204
领事	-11.8205
▁imm	-11.8207
外围	-11.8207
总产量	-11.8208
Un	-11.8209
工作情况	-11.8209
▁whole	-11.8209
当今	-11.8209
神圣	-11.8209
VC	-11.8209
通话	-11.8209
在国外	-11.821
平静	-11.8211
代言人	-11.8211
任意	-11.8212
乌拉	-11.8213
短线	-11.8213
修正	-11.8213
tract	-11.8214
根本不	-11.8214
Sun	-11.8214
星火	-11.8215
经历过	-11.8216
明清	-11.8217
被骗	-11.8218
TER	-11.8219
海峡两岸	-11.8221
可知	-11.8222
round	-11.8223
的目光	-11.8223
客机	-11.8224
Ju	-11.8224
国家和地区	-11.8225
所带来的	-11.8225
house	-11.8225
rb	-11.8225
暴跌	-11.8226
的信任	-11.8227
无形	-11.8227
▁中新网北京	-11.8228
button	-11.8229
中转	-11.823
占地面积	-11.8231
南宋	-11.8232
金秋	-11.8237
风景区	-11.8238
首度	-11.8238
起草	-11.8238
任教	-11.8239
使用者	-11.8239
入球	-11.824
越是	-11.8243
虽说	-11.8244
来看看	-11.8245
热力	-11.8245
巴克	-11.8246
那段	-11.8246
可以从	-11.8246
万达集团	-11.8249
真心	-11.8249
持续增长	-11.8249
十万	-11.825
通州	-11.8253
货船	-11.8253
积极推动	-11.8253
下架	-11.8255
退税	-11.8255
海边	-11.8256
大连人	-11.8258
记者来到	-11.8259
IB	-11.826
最少	-11.8261
听见	-11.8261
伯格	-11.8262
国情	-11.8262
改称	-11.8263
flow	-11.8263
机甲	-11.8265
景德镇	-11.8268
门前	-11.8269
感觉到	-11.8271
这笔	-11.8271
协同发展	-11.8272
▁person	-11.8272
stat	-11.8273
记者李	-11.8273
之称	-11.8274
副部长	-11.8276
美国经济	-11.8277
查获	-11.8278
盘点	-11.8278
为核心的	-11.8279
大爷	-11.8284
战争中	-11.8284
推向	-11.8284
多云	-11.8286
场次	-11.8287
的步伐	-11.8288
世纪初	-11.8288
▁mod	-11.8291
ius	-11.8291
哈佛大学	-11.8291
不难	-11.8292
知情	-11.8292
当他	-11.8292
蓝光	-11.8293
是否存在	-11.8293
call	-11.8294
的一面	-11.8294
家伙	-11.8294
put	-11.8296
决不	-11.8298
需求端	-11.8298
对未来	-11.8299
放弃了	-11.8299
特有的	-11.83
记者张	-11.83
光线	-11.8302
经济合作	-11.8306
金融风险	-11.8307
龙华	-11.8308
直接影响	-11.8308
款车型	-11.831
点左右	-11.8311
不断发展	-11.8316
rep	-11.8317
▁ask	-11.8319
▁heart	-11.832
欺凌	-11.8321
▁special	-11.8321
共同发展	-11.8323
露天	-11.833
就像是	-11.8332
\\	-11.8332
的生存	-11.8333
用工	-11.8333
Star	-11.8333
复出	-11.8337
副局长	-11.8339
数次	-11.834
世界上最	-11.834
撑	-11.8345
大连市	-11.8345
电视节目	-11.8347
田博	-11.8347
沟村	-11.8348
frame	-11.8348
▁hear	-11.8351
流出	-11.8355
tab	-11.8356
代表着	-11.8357
▁cut	-11.8358
大学教授	-11.8363
BR	-11.8364
rac	-11.8366
万套	-11.8368
resident	-11.8368
亲人	-11.837
主营	-11.8371
战车	-11.8372
找出	-11.8374
辆车	-11.8374
的概率	-11.8375
眼神	-11.8375
指挥中心	-11.8376
条的规定	-11.8376
各行业	-11.8377
中国移动	-11.8379
我很	-11.838
整整	-11.838
expected	-11.8382
腕	-11.8382
灭绝	-11.8384
nna	-11.8388
海水	-11.8388
班组	-11.8391
▁rel	-11.8392
等单位	-11.8396
时速	-11.8396
中提到	-11.8396
位于中国	-11.84
ía	-11.8403
有能力	-11.8406
继续保持	-11.8407
里斯	-11.8408
足球联赛	-11.8409
SL	-11.841
科技大学	-11.8411
了一场	-11.8412
最受	-11.8413
毛利	-11.8415
赵某	-11.8415
▁version	-11.8417
城门	-11.8418
ara	-11.8421
对自己的	-11.8421
人寿	-11.8425
还是会	-11.8425
Mi	-11.8428
杯冠军	-11.8429
坏了	-11.8432
istic	-11.8434
就在于	-11.8436
search	-11.8439
确实是	-11.8439
明确提出	-11.8439
感兴趣的	-11.8441
拥堵	-11.8445
政府部门	-11.8446
多款	-11.8447
通风	-11.8447
地里	-11.845
服务水平	-11.8452
在伦敦	-11.8453
pack	-11.8457
涉及到	-11.8457
response	-11.8458
产品研发	-11.8459
指向	-11.8459
候选	-11.8461
一方面是	-11.8461
负责同志	-11.8463
的受访者	-11.8464
▁Cor	-11.8468
ified	-11.8469
之美	-11.8472
岂	-11.8472
争吵	-11.8472
领导者	-11.8473
哉	-11.8473
坚定不移	-11.8474
舜	-11.8474
做大做强	-11.8474
袖	-11.8474
矣	-11.8474
细腻	-11.8474
虞	-11.8474
狠抓	-11.8474
中国女排	-11.8474
兜	-11.8474
崇拜	-11.8474
崩溃	-11.8474
汲取	-11.8474
纳米比亚	-11.8474
伽	-11.8474
糟	-11.8474
姊妹	-11.8474
乞	-11.8474
挨	-11.8475
福祉	-11.8475
违法违规	-11.8475
进博会	-11.8475
陡	-11.8475
ε	-11.8475
Robert	-11.8475
language	-11.8475
▁certain	-11.8475
▁several	-11.8475
▁better	-11.8475
振奋	-11.8475
ا	-11.8475
▁matter	-11.8475
テ	-11.8475
伊丽莎白二世	-11.8475
五菱宏光	-11.8475
沾	-11.8475
欧菲光	-11.8475
名创优品	-11.8475
明朝政治人物	-11.8475
攒	-11.8475
▁account	-11.8475
跪	-11.8475
厉害	-11.8475
一等奖	-11.8475
锅炉	-11.8475
市面上	-11.8475
瘫	-11.8475
焊接	-11.8475
瀑布	-11.8475
湘潭	-11.8475
廉洁	-11.8475
HA	-11.8475
阿姨	-11.8475
折叠	-11.8476
长效机制	-11.8476
▁border	-11.8476
中信证券	-11.8476
津贴	-11.8476
视障	-11.8476
舰艇	-11.8476
圆桌	-11.8476
奋进	-11.8477
消防救援	-11.8477
市委常委	-11.8477
携程	-11.8477
棋牌	-11.8478
遥感	-11.8478
常识	-11.8478
改制为	-11.8478
死刑	-11.8478
奇幻	-11.8478
谋求	-11.8479
选址	-11.8479
编译	-11.8479
下挫	-11.8479
▁create	-11.8479
决策部署	-11.8479
先驱	-11.8479
集训	-11.8479
▁<<	-11.848
武装部队	-11.848
安慰	-11.848
贯彻执行	-11.848
过剩	-11.848
鲜活	-11.848
切实维护	-11.848
从来没有	-11.8481
Windows	-11.8481
整顿	-11.8481
挪用	-11.8481
液体	-11.8481
寻常	-11.8481
MINI	-11.8481
核武器	-11.8482
样品	-11.8482
接送	-11.8482
最后一公里	-11.8482
近乎	-11.8482
栗子	-11.8482
日韩	-11.8482
喝酒	-11.8482
车祸	-11.8482
▁grow	-11.8482
标记	-11.8483
补助资金	-11.8483
烧伤	-11.8483
手机厂商	-11.8484
便可	-11.8485
专家学者	-11.8485
互信	-11.8485
模特	-11.8486
果园	-11.8486
master	-11.8486
拿到了	-11.8486
打响	-11.8486
集采	-11.8486
在此期间	-11.8486
变得更加	-11.8487
的日常	-11.8487
紫光	-11.8487
反抗	-11.8488
应付	-11.8489
反正	-11.8489
只个股	-11.8489
标语	-11.8489
厚度	-11.849
体会到	-11.8491
根源	-11.8492
anything	-11.8493
一出	-11.8496
鱼雷	-11.8496
就读于	-11.8496
季节性	-11.8496
通知书	-11.8497
四国	-11.8497
水晶	-11.8498
历史同期	-11.8498
主创	-11.8499
选项	-11.8499
社群	-11.85
查验	-11.8503
风尚	-11.8503
一对一	-11.8504
等各种	-11.8505
执着	-11.8505
ication	-11.8505
▁Ben	-11.8506
立交	-11.8506
主板	-11.8506
世界纪录	-11.8506
支付方式	-11.8507
封面	-11.8509
小事	-11.8509
两轮	-11.8509
这个时候	-11.8509
基调	-11.851
恶性	-11.8511
▁clean	-11.8511
▁photo	-11.8512
星空	-11.8513
报网	-11.8513
之争	-11.8513
▁sal	-11.8513
阵阵	-11.8514
伙伴关系	-11.8515
村子	-11.8515
机械工业	-11.8515
大厂	-11.8515
太太	-11.8515
社会组织	-11.8515
梅花	-11.8516
不少于	-11.8516
▁double	-11.8517
长短	-11.8518
淮河	-11.8519
这个词	-11.8521
战斗力	-11.8521
▁copy	-11.8521
首例	-11.8523
公立	-11.8523
一侧	-11.8523
安全保障	-11.8524
忠实	-11.8524
中美洲	-11.8525
积极推进	-11.8526
强降雨	-11.8526
市场行情	-11.8526
愿望	-11.8528
这使得	-11.8529
酿酒	-11.853
▁sent	-11.8532
物业公司	-11.8532
▁Store	-11.8533
民福利	-11.8533
dia	-11.8535
手环	-11.8536
具有重要	-11.8537
记者发现	-11.8538
每位	-11.8539
▁cont	-11.8539
▁control	-11.854
三四	-11.8541
美国海军	-11.8541
专家认为	-11.8544
issue	-11.8544
valid	-11.8544
改正	-11.8546
管理体系	-11.8548
rich	-11.8549
颇为	-11.8549
两端	-11.8549
岳阳	-11.8549
金曲	-11.8552
成长为	-11.8552
城里	-11.8553
究竟是	-11.8555
每亩	-11.8556
行政区	-11.8557
里克	-11.8559
陆地	-11.8559
安全感	-11.8559
用户体验	-11.856
Work	-11.856
Com	-11.856
日公布	-11.8564
再去	-11.8564
里奥	-11.8566
▁expect	-11.8568
水量	-11.8569
车子	-11.857
跑到	-11.857
该男子	-11.857
占了	-11.8571
opyright	-11.8572
管理条例	-11.8573
▁white	-11.8573
盛会	-11.8574
PP	-11.8574
不合理	-11.8576
长期来看	-11.8577
作为一名	-11.8579
part	-11.858
水分	-11.858
来往	-11.8583
厂长	-11.8586
where	-11.8587
也非常	-11.8588
件事	-11.8589
高低	-11.8592
内战	-11.8594
马车	-11.8596
为大家	-11.8596
上岗	-11.8597
保证了	-11.8598
海滩	-11.8598
gran	-11.8599
Wa	-11.8601
不远	-11.8603
克劳	-11.8603
▁train	-11.8604
心理健康	-11.8606
万岁	-11.8606
一字	-11.8607
国防部长	-11.8608
正是因为	-11.8609
▁Group	-11.861
开场	-11.8611
觉得自己	-11.8612
On	-11.8618
order	-11.8619
DB	-11.8619
没有出现	-11.862
限定	-11.8621
如果我们	-11.8621
同比增加	-11.8622
务工	-11.8623
电费	-11.8624
情况看	-11.8624
带动了	-11.8624
宝山	-11.8626
ef	-11.8626
旅游景区	-11.8627
看过	-11.8627
敞	-11.8627
西路	-11.8631
负有	-11.8632
场赛事	-11.8634
维持在	-11.8635
支持力度	-11.8635
以西	-11.8635
本来就	-11.8636
ically	-11.8636
哈德	-11.8636
创新中心	-11.8637
均超过	-11.8637
疫情防控工作	-11.8638
瓷器	-11.8642
年一季度	-11.8642
管理中心	-11.8644
郡王	-11.8645
▁claim	-11.8645
加分	-11.8647
经济形势	-11.865
更多地	-11.865
市场监管局	-11.865
索尼	-11.865
月亮	-11.8651
设在	-11.8657
第三个	-11.8657
只需要	-11.8661
唱歌	-11.8661
往前	-11.8664
小微	-11.8667
数据安全	-11.8669
全文	-11.8671
我们现在	-11.8676
记者采访	-11.8679
真的是	-11.8679
两队	-11.8681
一直没有	-11.8682
▁hav	-11.8688
后才	-11.8691
pu	-11.8692
▁page	-11.8692
漳	-11.8692
名单中	-11.8695
无意	-11.8696
让观众	-11.8701
她还	-11.8701
pen	-11.8702
不强	-11.8706
偏高	-11.8707
的丈夫	-11.8707
AV	-11.871
东汉	-11.8711
应有的	-11.8714
重点工作	-11.8716
也同样	-11.8716
现车	-11.8716
种业	-11.8716
相较	-11.8717
送去	-11.8722
上升到	-11.8723
着眼	-11.8725
连续剧	-11.8725
之力	-11.8726
char	-11.8727
跟我	-11.8727
▁ret	-11.8727
这其中	-11.8727
史学	-11.8728
洼	-11.873
信赖	-11.873
ister	-11.873
ola	-11.873
全球最大	-11.8731
所做的	-11.8733
Ne	-11.8736
很有可能	-11.8737
全国政协	-11.8737
她表示	-11.874
散发	-11.8741
刚开始	-11.8742
分享了	-11.8743
hr	-11.8743
一户	-11.8745
▁ship	-11.8746
均未	-11.8747
我相信	-11.8748
奠定	-11.8748
现代农业	-11.8748
第二位	-11.8748
OUT	-11.875
▁Art	-11.8751
加大了	-11.8752
好消息	-11.8753
为主体	-11.8754
的典型	-11.8754
上轮	-11.8754
残疾	-11.8754
肃	-11.8754
芒	-11.8756
恋人	-11.8758
工党	-11.8761
经销	-11.8762
也随之	-11.8763
明亮	-11.8764
发现问题	-11.8764
赛车	-11.8765
因涉嫌	-11.8768
只见	-11.8768
所能	-11.877
Lu	-11.8771
频发	-11.8772
继任	-11.8772
但最终	-11.8772
这些人	-11.8772
刹	-11.8773
个案	-11.8773
侦	-11.8774
遵	-11.8774
菱	-11.8775
隋	-11.8775
橙	-11.8775
▁contain	-11.8776
寡	-11.8776
雇佣	-11.8776
淫	-11.8776
▁generat	-11.8776
垮	-11.8776
有偿补课	-11.8776
泵	-11.8776
冒充	-11.8776
矩	-11.8776
荔	-11.8777
德宗	-11.8777
独角兽	-11.8777
铎	-11.8777
狭窄	-11.8777
煎	-11.8777
茅草房	-11.8777
江泽民	-11.8777
被任命为	-11.8777
新三板	-11.8777
黛	-11.8777
魄	-11.8777
默契	-11.8777
肩膀	-11.8777
雕塑	-11.8777
拉丁美洲	-11.8777
北向资金	-11.8778
斯洛伐克	-11.8778
皂	-11.8778
叔叔	-11.8778
昆都士	-11.8778
〔	-11.8778
貂蝉	-11.8778
〕	-11.8778
エ	-11.8778
李继业	-11.8778
▁necess	-11.8778
Result	-11.8778
科威特	-11.8778
窥	-11.8778
First	-11.8778
橘	-11.8778
▁static	-11.8778
李道洲	-11.8778
迪士尼	-11.8778
三盛教育	-11.8778
margin	-11.8778
中轴线	-11.8778
新四军	-11.8778
讷	-11.8778
钧	-11.8778
▁United	-11.8778
困惑	-11.8778
亚细亚	-11.8778
MINIEV	-11.8778
逗	-11.8778
昼夜	-11.8778
绑架	-11.8778
狂欢	-11.8779
▁making	-11.8779
扩充	-11.8779
追捧	-11.8779
诱导	-11.8779
本期看好	-11.8779
实控人	-11.8779
晚间	-11.8779
戴口罩	-11.8779
堵塞	-11.8779
筹码	-11.8779
开玩笑	-11.8779
艾娃	-11.8779
公开资料显示	-11.878
泰坦尼克号	-11.878
舒服	-11.878
利率决议	-11.878
测绘	-11.878
规章	-11.878
刊登	-11.878
争执	-11.878
▁Park	-11.878
采样	-11.878
新规	-11.878
▁Paul	-11.8781
居委会	-11.8781
人民代表大会	-11.8781
阴影	-11.8781
围攻	-11.8781
纽带	-11.8781
支柱	-11.8781
微观	-11.8781
偏弱	-11.8782
交织	-11.8782
ODM	-11.8782
粤语	-11.8782
阵雨	-11.8782
揭晓	-11.8782
植保	-11.8782
通讯社	-11.8782
软银	-11.8782
最高人民法院	-11.8782
以此为	-11.8782
重构	-11.8783
抗日战争	-11.8783
宜昌	-11.8783
▁really	-11.8783
乔丹	-11.8783
乱象	-11.8783
国家文物局	-11.8783
游击	-11.8783
降准	-11.8783
放映	-11.8783
思念	-11.8784
▁fall	-11.8784
灿烂	-11.8784
Write	-11.8784
在微博	-11.8785
司职	-11.8785
备受关注	-11.8785
掌声	-11.8785
严查	-11.8785
几名	-11.8785
火电	-11.8785
真凉	-11.8786
岩松	-11.8786
回访	-11.8787
[...]
