<unk>	0
<s>	0
</s>	0
<pad>	0
__USER__	0
__BOT__	0
😀	0
😃	0
😄	0
😅	0
😂	0
😗	0
😙	0
😚	0
😊	0
🙃	0
🙂	0
😑	0
😐	0
🫢	0
🤭	0
🥱	0
🤗	0
🫣	0
😱	0
🤨	0
🧐	0
😒	0
😧	0
😟	0
🙄	0
😥	0
😦	0
😮‍💨	0
😢	0
😮	0
😤	0
☹️	0
😯	0
😠	0
🙁	0
😲	0
😡	0
🫤	0
😳	0
🤬	0
😕	0
🤯	0
🥵	0
🤢	0
🤮	0
😖	0
😣	0
😰	0
😨	0
😞	0
😓	0
❤️	0
✌️	0
🫲	0
🫱	0
💪	0
👏	0
👍	0
👎	0
🤜	0
🤛	0
✊	0
👊	0
🥰	0
😍	0
🤪	0
🤓	0
<0x00>	0
<0x01>	0
<0x02>	0
<0x03>	0
<0x04>	0
<0x05>	0
<0x06>	0
<0x07>	0
<0x08>	0
<0x09>	0
<0x0A>	0
<0x0B>	0
<0x0C>	0
<0x0D>	0
<0x0E>	0
<0x0F>	0
<0x10>	0
<0x11>	0
<0x12>	0
<0x13>	0
<0x14>	0
<0x15>	0
<0x16>	0
<0x17>	0
<0x18>	0
<0x19>	0
<0x1A>	0
<0x1B>	0
<0x1C>	0
<0x1D>	0
<0x1E>	0
<0x1F>	0
<0x20>	0
<0x21>	0
<0x22>	0
<0x23>	0
<0x24>	0
<0x25>	0
<0x26>	0
<0x27>	0
<0x28>	0
<0x29>	0
<0x2A>	0
<0x2B>	0
<0x2C>	0
<0x2D>	0
<0x2E>	0
<0x2F>	0
<0x30>	0
<0x31>	0
<0x32>	0
<0x33>	0
<0x34>	0
<0x35>	0
<0x36>	0
<0x37>	0
<0x38>	0
<0x39>	0
<0x3A>	0
<0x3B>	0
<0x3C>	0
<0x3D>	0
<0x3E>	0
<0x3F>	0
<0x40>	0
<0x41>	0
<0x42>	0
<0x43>	0
<0x44>	0
<0x45>	0
<0x46>	0
<0x47>	0
<0x48>	0
<0x49>	0
<0x4A>	0
<0x4B>	0
<0x4C>	0
<0x4D>	0
<0x4E>	0
<0x4F>	0
<0x50>	0
<0x51>	0
<0x52>	0
<0x53>	0
<0x54>	0
<0x55>	0
<0x56>	0
<0x57>	0
<0x58>	0
<0x59>	0
<0x5A>	0
<0x5B>	0
<0x5C>	0
<0x5D>	0
<0x5E>	0
<0x5F>	0
<0x60>	0
<0x61>	0
<0x62>	0
<0x63>	0
<0x64>	0
<0x65>	0
<0x66>	0
<0x67>	0
<0x68>	0
<0x69>	0
<0x6A>	0
<0x6B>	0
<0x6C>	0
<0x6D>	0
<0x6E>	0
<0x6F>	0
<0x70>	0
<0x71>	0
<0x72>	0
<0x73>	0
<0x74>	0
<0x75>	0
<0x76>	0
<0x77>	0
<0x78>	0
<0x79>	0
<0x7A>	0
<0x7B>	0
<0x7C>	0
<0x7D>	0
<0x7E>	0
<0x7F>	0
<0x80>	0
<0x81>	0
<0x82>	0
<0x83>	0
<0x84>	0
<0x85>	0
<0x86>	0
<0x87>	0
<0x88>	0
<0x89>	0
<0x8A>	0
<0x8B>	0
<0x8C>	0
<0x8D>	0
<0x8E>	0
<0x8F>	0
<0x90>	0
<0x91>	0
<0x92>	0
<0x93>	0
<0x94>	0
<0x95>	0
<0x96>	0
<0x97>	0
<0x98>	0
<0x99>	0
<0x9A>	0
<0x9B>	0
<0x9C>	0
<0x9D>	0
<0x9E>	0
<0x9F>	0
<0xA0>	0
<0xA1>	0
<0xA2>	0
<0xA3>	0
<0xA4>	0
<0xA5>	0
<0xA6>	0
<0xA7>	0
<0xA8>	0
<0xA9>	0
<0xAA>	0
<0xAB>	0
<0xAC>	0
<0xAD>	0
<0xAE>	0
<0xAF>	0
<0xB0>	0
<0xB1>	0
<0xB2>	0
<0xB3>	0
<0xB4>	0
<0xB5>	0
<0xB6>	0
<0xB7>	0
<0xB8>	0
<0xB9>	0
<0xBA>	0
<0xBB>	0
<0xBC>	0
<0xBD>	0
<0xBE>	0
<0xBF>	0
<0xC0>	0
<0xC1>	0
<0xC2>	0
<0xC3>	0
<0xC4>	0
<0xC5>	0
<0xC6>	0
<0xC7>	0
<0xC8>	0
<0xC9>	0
<0xCA>	0
<0xCB>	0
<0xCC>	0
<0xCD>	0
<0xCE>	0
<0xCF>	0
<0xD0>	0
<0xD1>	0
<0xD2>	0
<0xD3>	0
<0xD4>	0
<0xD5>	0
<0xD6>	0
<0xD7>	0
<0xD8>	0
<0xD9>	0
<0xDA>	0
<0xDB>	0
<0xDC>	0
<0xDD>	0
<0xDE>	0
<0xDF>	0
<0xE0>	0
<0xE1>	0
<0xE2>	0
<0xE3>	0
<0xE4>	0
<0xE5>	0
<0xE6>	0
<0xE7>	0
<0xE8>	0
<0xE9>	0
<0xEA>	0
<0xEB>	0
<0xEC>	0
<0xED>	0
<0xEE>	0
<0xEF>	0
<0xF0>	0
<0xF1>	0
<0xF2>	0
<0xF3>	0
<0xF4>	0
<0xF5>	0
<0xF6>	0
<0xF7>	0
<0xF8>	0
<0xF9>	0
<0xFA>	0
<0xFB>	0
<0xFC>	0
<0xFD>	0
<0xFE>	0
<0xFF>	0
..	-0
:“	-1
。”	-2
▁“	-3
一个	-4
....	-5
没有	-6
什么	-7
!”	-8
我们	-9
自己	-10
?”	-11
他们	-12
了一	-13
知道	-14
不是	-15
这个	-16
可以	-17
......	-18
已经	-19
他的	-20
▁我	-21
就是	-22
到了	-23
这样	-24
现在	-25
的人	-26
时候	-27
起来	-28
我的	-29
怎么	-30
人的	-31
也不	-32
因为	-33
可是	-34
出来	-35
如果	-36
还是	-37
所以	-38
但是	-39
——	-40
不过	-41
,“	-42
的一	-43
之后	-44
这种	-45
可能	-46
你们	-47
自己的	-48
是一	-49
上的	-50
这一	-51
那么	-52
这些	-53
这里	-54
的事	-55
不能	-56
的时候	-57
时间	-58
那个	-59
十分	-60
只是	-61
▁t	-62
不会	-63
原振	-64
原振侠	-65
虽然	-66
一样	-67
下来	-68
有一	-69
这么	-70
**	-71
开始	-72
她的	-73
两个	-74
he	-75
的话	-76
大的	-77
中的	-78
看到	-79
而且	-80
你的	-81
问题	-82
东西	-83
一定	-84
看着	-85
当然	-86
声音	-87
的是	-88
不知道	-89
都是	-90
来的	-91
还有	-92
那些	-93
林极	-94
自然	-95
觉得	-96
这是	-97
发现	-98
......”	-99
应该	-100
一下	-101
有些	-102
地方	-103
出了	-104
明白	-105
也是	-106
▁他	-107
一直	-108
所有	-109
在一	-110
突然	-111
之中	-112
工作	-113
--	-114
只有	-115
事情	-116
▁the	-117
之间	-118
如此	-119
然后	-120
为了	-121
▁a	-122
白素	-123
去了	-124
完全	-125
先生	-126
想到	-127
第一	-128
说道	-129
一点	-130
公司	-131
女人	-132
为什么	-133
发生	-134
根本	-135
孩子	-136
任何	-137
不到	-138
这样的	-139
”,	-140
最后	-141
感觉	-142
告诉	-143
无法	-144
几个	-145
过来	-146
这时	-147
了起来	-148
不要	-149
世界	-150
真的	-151
成了	-152
是一个	-153
眼睛	-154
的大	-155
也没有	-156
。“	-157
▁在	-158
感到	-159
心中	-160
来了	-161
需要	-162
了一下	-163
▁一	-164
电话	-165
出现	-166
的情	-167
中国	-168
能够	-169
甚至	-170
不知	-171
一个人	-172
离开	-173
看来	-174
▁那	-175
进行	-176
准备	-177
有点	-178
是在	-179
过去	-180
身上	-181
那里	-182
太史	-183
身体	-184
实在	-185
下去	-186
只要	-187
他们的	-188
▁原振侠	-189
太史慈	-190
意思	-191
心里	-192
如何	-193
▁o	-194
口气	-195
点头	-196
相信	-197
一声	-198
生活	-199
并不	-200
一些	-201
许多	-202
大家	-203
同时	-204
我说	-205
两人	-206
的那	-207
住了	-208
上了	-209
有人	-210
对于	-211
正在	-212
似乎	-213
朋友	-214
地说	-215
有什么	-216
er	-217
就在	-218
in	-219
我不	-220
以为	-221
由于	-222
真是	-223
认为	-224
当时	-225
喜欢	-226
****	-227
▁w	-228
走了	-229
第二	-230
其实	-231
回答	-232
甚么	-233
刚才	-234
非常	-235
面的	-236
了一个	-237
整个	-238
关系	-239
以后	-240
不同	-241
希望	-242
好的	-243
的手	-244
几乎	-245
很多	-246
那样	-247
今天	-248
一起	-249
的声音	-250
的小	-251
一种	-252
生命	-253
一次	-254
胖子	-255
不可	-256
是不是	-257
说话	-258
力量	-259
出去	-260
听到	-261
终于	-262
男人	-263
清楚	-264
的事情	-265
我就	-266
面前	-267
回来	-268
不得	-269
多少	-270
像是	-271
那是	-272
继续	-273
样子	-274
必须	-275
▁这	-276
直接	-277
来说	-278
我想	-279
好了	-280
过了	-281
机会	-282
我们的	-283
机甲	-284
竟然	-285
下的	-286
得到	-287
肯定	-288
色的	-289
它们	-290
我也	-291
里的	-292
并没有	-293
一切	-294
我是	-295
起了	-296
个人	-297
结果	-298
问道	-299
神情	-300
不住	-301
nd	-302
士兵	-303
身边	-304
看看	-305
立刻	-306
一般	-307
重要	-308
有了	-309
之前	-310
不了	-311
就会	-312
于是	-313
将军	-314
办法	-315
笑道	-316
子的	-317
句话	-318
只能	-319
着一	-320
地球	-321
决定	-322
给我	-323
成为	-324
是什么	-325
此时	-326
发出	-327
人类	-328
re	-329
▁of	-330
她们	-331
就算	-332
仍然	-333
父亲	-334
对方	-335
一面	-336
看见	-337
脸上	-338
研究	-339
眼前	-340
都不	-341
本来	-342
忽然	-343
后来	-344
地上	-345
要是	-346
而是	-347
站在	-348
特别	-349
那种	-350
看了	-351
除了	-352
的地方	-353
能力	-354
真正	-355
下了	-356
风逸	-357
他说	-358
行动	-359
▁她	-360
不好	-361
部分	-362
开了	-363
一边	-364
在这	-365
摇头	-366
,”	-367
情况	-368
故事	-369
进入	-370
或者	-371
正是	-372
其他	-373
战斗	-374
身子	-375
我和	-376
坐在	-377
经过	-378
了下来	-379
容易	-380
立即	-381
哪里	-382
地道	-383
控制	-384
ed	-385
不出	-386
全部	-387
显然	-388
部队	-389
存在	-390
你是	-391
”。	-392
en	-393
人家	-394
原来	-395
▁第	-396
企业	-397
好像	-398
接着	-399
了一声	-400
让我	-401
样的	-402
望着	-403
件事	-404
出一	-405
▁s	-406
也许	-407
别人	-408
二十	-409
注意	-410
你说	-411
带着	-412
绝对	-413
难道	-414
相当	-415
这次	-416
很快	-417
人们	-418
方面	-419
来到	-420
一眼	-421
因此	-422
居然	-423
里面	-424
精神	-425
出来的	-426
年轻	-427
要求	-428
见到	-429
在一起	-430
清华	-431
就不	-432
在这里	-433
▁h	-434
组织	-435
变得	-436
敌人	-437
军队	-438
----	-439
作为	-440
说了	-441
人都	-442
三个	-443
有的	-444
是个	-445
一凡	-446
is	-447
让他	-448
林清华	-449
消息	-450
上去	-451
进了	-452
管理	-453
简单	-454
不断	-455
到底	-456
小时	-457
那一	-458
的东西	-459
攻击	-460
on	-461
成功	-462
原因	-463
高兴	-464
名字	-465
回去	-466
目光	-467
还要	-468
一会	-469
我在	-470
以前	-471
其中	-472
通过	-473
市场	-474
马上	-475
一阵	-476
才能	-477
es	-478
解释	-479
国家	-480
身后	-481
社会	-482
命令	-483
他在	-484
母亲	-485
一步	-486
不起	-487
儿子	-488
空间	-489
发展	-490
有一个	-491
众人	-492
的心	-493
了一口气	-494
▁b	-495
长的	-496
an	-497
他是	-498
找到	-499
还不	-500
既然	-501
笑着	-502
愿意	-503
打开	-504
死了	-505
认识	-506
小姐	-507
还没有	-508
双手	-509
回到	-510
表示	-511
医生	-512
反应	-513
人员	-514
至少	-515
方法	-516
想要	-517
是不	-518
晚上	-519
放在	-520
会有	-521
目的	-522
还在	-523
说的	-524
美国	-525
就像	-526
之下	-527
家伙	-528
只好	-529
我要	-530
▁白素	-531
指挥	-532
情形	-533
计划	-534
at	-535
之外	-536
毕竟	-537
接受	-538
向前	-539
这一点	-540
都没有	-541
并不是	-542
有着	-543
▁c	-544
选择	-545
衣服	-546
然而	-547
▁而	-548
得很	-549
事实	-550
若是	-551
的时间	-552
不敢	-553
日本	-554
声道	-555
倾城	-556
房间	-557
各种	-558
温宝	-559
的女	-560
就可以	-561
兄弟	-562
温宝裕	-563
任务	-564
总是	-565
不少	-566
产生	-567
▁and	-568
奇怪	-569
尔斯	-570
它的	-571
影响	-572
了几	-573
在他	-574
普通	-575
从来	-576
我知道	-577
门口	-578
比较	-579
让人	-580
or	-581
富贵	-582
不想	-583
就要	-584
也没	-585
越来	-586
博士	-587
慢慢	-588
给你	-589
也有	-590
使用	-591
在我	-592
子里	-593
了解	-594
速度	-595
进去	-596
越来越	-597
武器	-598
哈哈	-599
至于	-600
多的	-601
只不过	-602
是一种	-603
轻轻	-604
咱们	-605
活动	-606
目标	-607
▁f	-608
黄绢	-609
军的	-610
变成	-611
消失	-612
曾经	-613
所有的	-614
面对	-615
跟着	-616
这位	-617
战士	-618
──	-619
担心	-620
分钟	-621
不见	-622
难以	-623
无论	-624
▁当	-625
一只	-626
究竟	-627
帝国	-628
说着	-629
说是	-630
也就	-631
it	-632
的样子	-633
ar	-634
多了	-635
另外	-636
进来	-637
不可能	-638
考虑	-639
如今	-640
如同	-641
了我	-642
满了	-643
迅速	-644
方向	-645
青州	-646
********	-647
行为	-648
不再	-649
不管	-650
▁m	-651
答应	-652
点了	-653
海特	-654
改变	-655
后面	-656
年的	-657
见过	-658
大人	-659
不由	-660
ou	-661
小心	-662
刚刚	-663
医院	-664
系统	-665
有关	-666
实际	-667
说不	-668
秘密	-669
了他	-670
出的	-671
笑了	-672
看到了	-673
仿佛	-674
伸手	-675
了个	-676
说完	-677
动作	-678
令人	-679
成的	-680
直到	-681
小的	-682
却是	-683
手中	-684
天下	-685
三十	-686
▁小	-687
一条	-688
一片	-689
你不	-690
▁一凡	-691
是我	-692
怎么样	-693
领导	-694
给他	-695
或许	-696
▁to	-697
似的	-698
李富贵	-699
玛仙	-700
上面	-701
两个人	-702
简直	-703
历史	-704
的一个	-705
第一次	-706
早就	-707
几天	-708
日子	-709
随着	-710
变化	-711
▁p	-712
的地	-713
永远	-714
的确	-715
政府	-716
又是	-717
不错	-718
老板	-719
一看	-720
神秘	-721
帮助	-722
受到	-723
技术	-724
上来	-725
在了	-726
方式	-727
说什么	-728
妈妈	-729
危险	-730
安全	-731
更加	-732
听得	-733
了出来	-734
王千	-735
更是	-736
le	-737
可怕	-738
以及	-739
而已	-740
城市	-741
的情况	-742
没有人	-743
这才	-744
思想	-745
的情形	-746
紧张	-747
并且	-748
打算	-749
表情	-750
战争	-751
都在	-752
作用	-753
舰队	-754
心的	-755
负责	-756
想法	-757
家的	-758
即使	-759
姑娘	-760
太平	-761
的眼	-762
老大	-763
走到	-764
一时	-765
也不会	-766
都有	-767
生的	-768
实力	-769
我看	-770
再次	-771
办公	-772
as	-773
身份	-774
生物	-775
上一	-776
脸色	-777
新的	-778
立时	-779
自由	-780
算是	-781
不在	-782
他也	-783
还没	-784
想起	-785
报告	-786
距离	-787
能量	-788
痛苦	-789
意识	-790
太阳	-791
旁边	-792
之一	-793
外面	-794
和我	-795
大声	-796
另一	-797
听说	-798
不用	-799
缓缓	-800
兴趣	-801
她说	-802
利用	-803
转身	-804
怎样	-805
▁可是	-806
别的	-807
在那	-808
程度	-809
一下子	-810
所谓	-811
家里	-812
他就	-813
你就	-814
位置	-815
努力	-816
转过	-817
一天	-818
点了点头	-819
科学	-820
▁(	-821
om	-822
ll	-823
的感觉	-824
正常	-825
教授	-826
经历	-827
到这里	-828
头上	-829
安排	-830
夫人	-831
向我	-832
早已	-833
果然	-834
▁d	-835
北京	-836
经济	-837
毫无	-838
重新	-839
我会	-840
一把	-841
面上	-842
蔡风	-843
过程	-844
一定要	-845
出现在	-846
不禁	-847
老师	-848
美丽	-849
对我	-850
回事	-851
记得	-852
菲儿	-853
的一切	-854
性的	-855
巨大的	-856
同样	-857
分析	-858
便是	-859
解决	-860
路上	-861
子上	-862
我还	-863
表现	-864
把他	-865
这件事	-866
这个人	-867
大了	-868
学生	-869
看起来	-870
脑袋	-871
司马	-872
王千军	-873
都会	-874
不仅	-875
——”	-876
参加	-877
放心	-878
红绫	-879
的神情	-880
好好	-881
和他	-882
训练	-883
兴奋	-884
前面	-885
代表	-886
也就是	-887
再说	-888
了一会	-889
空中	-890
==	-891
感情	-892
死亡	-893
地看着	-894
手中的	-895
只见	-896
的主	-897
怀疑	-898
麻烦	-899
▁王	-900
显得	-901
的问题	-902
▁李	-903
女孩	-904
处理	-905
属于	-906
结束	-907
你要	-908
骑兵	-909
一笑	-910
根据	-911
来自	-912
保护	-913
对付	-914
唯一	-915
渐渐	-916
生产	-917
盯着	-918
理解	-919
莫菲儿	-920
女儿	-921
发生了	-922
ic	-923
听了	-924
回头	-925
什么事	-926
过的	-927
说明	-928
你怎么	-929
吴为	-930
不多	-931
尽管	-932
完成	-933
家族	-934
电脑	-935
。"	-936
我一	-937
经理	-938
地的	-939
平静	-940
没想到	-941
我又	-942
之际	-943
证明	-944
▁in	-945
开口	-946
▁T	-947
之极	-948
每天	-949
让你	-950
不停	-951
资料	-952
定的	-953
不但	-954
无比	-955
左右	-956
在他的	-957
出手	-958
干什么	-959
也不是	-960
也会	-961
首先	-962
恐怕	-963
否则	-964
▁大	-965
皇帝	-966
倒是	-967
忍不住	-968
的高	-969
是否	-970
休息	-971
的神	-972
了一眼	-973
ad	-974
的老	-975
走去	-976
回家	-977
着的	-978
周围	-979
年前	-980
也不知道	-981
力的	-982
说得	-983
联系	-984
对着	-985
人在	-986
明白了	-987
明显	-988
时代	-989
重的	-990
国的	-991
之上	-992
传来	-993
用的	-994
范围	-995
飞机	-996
着头	-997
那时	-998
全是	-999
道理	-1000
灵魂	-1001
仔细	-1002
他又	-1003
确实	-1004
害怕	-1005
不动	-1006
微微	-1007
在那里	-1008
▁老	-1009
来看	-1010
同意	-1011
▁不过	-1012
习惯	-1013
车子	-1014
小子	-1015
恢复	-1016
瞬间	-1017
附近	-1018
ing	-1019
者的	-1020
有一种	-1021
头发	-1022
去找	-1023
在这个	-1024
激动	-1025
连忙	-1026
意见	-1027
不必	-1028
介绍	-1029
沉默	-1030
办公室	-1031
明天	-1032
另一个	-1033
随后	-1034
我已经	-1035
条件	-1036
那就	-1037
不对	-1038
告诉我	-1039
苦笑	-1040
加上	-1041
很有	-1042
保持	-1043
想不到	-1044
得了	-1045
尤其	-1046
是谁	-1047
太太	-1048
是因为	-1049
目前	-1050
▁这时	-1051
看得	-1052
大学	-1053
理由	-1054
烈的	-1055
很难	-1056
凌云	-1057
姐姐	-1058
也可以	-1059
让她	-1060
包括	-1061
他一	-1062
把我	-1063
),	-1064
宇宙	-1065
电视	-1066
意外	-1067
用力	-1068
飞船	-1069
十二	-1070
对他	-1071
完了	-1072
态度	-1073
犹豫	-1074
手下	-1075
想象	-1076
状态	-1077
基本	-1078
信息	-1079
军官	-1080
当年	-1081
死的	-1082
变成了	-1083
是的	-1084
没有什么	-1085
放弃	-1086
环境	-1087
学校	-1088
一定会	-1089
产品	-1090
▁白	-1091
指着	-1092
等待	-1093
起身	-1094
在地	-1095
▁但是	-1096
知道了	-1097
了一些	-1098
留下	-1099
制造	-1100
支持	-1101
下面	-1102
意义	-1103
爱情	-1104
不上	-1105
也不能	-1106
心情	-1107
未曾	-1108
那人	-1109
不然	-1110
复杂	-1111
还能	-1112
吸了一口气	-1113
极其	-1114
尸体	-1115
寻找	-1116
▁陈	-1117
高的	-1118
必然	-1119
真正的	-1120
一旦	-1121
不行	-1122
接近	-1123
不如	-1124
中心	-1125
一会儿	-1126
天的	-1127
的脸	-1128
无数	-1129
段时间	-1130
等到	-1131
青书	-1132
这一次	-1133
之间的	-1134
星人	-1135
法则	-1136
▁”	-1137
深深	-1138
进攻	-1139
向他	-1140
被人	-1141
知识	-1142
反而	-1143
掌握	-1144
了两	-1145
胡秉	-1146
什么时候	-1147
达到	-1148
父母	-1149
女子	-1150
很好	-1151
文化	-1152
第三	-1153
计算	-1154
笑容	-1155
的光	-1156
▁我们	-1157
熟悉	-1158
现在的	-1159
漂亮	-1160
观察	-1161
看了看	-1162
古怪	-1163
黑暗	-1164
服务	-1165
经常	-1166
投资	-1167
后的	-1168
不及	-1169
政治	-1170
彻底	-1171
警察	-1172
▁th	-1173
按照	-1174
的好	-1175
原本	-1176
是他	-1177
胡秉宸	-1178
入了	-1179
多年	-1180
学习	-1181
对手	-1182
定了	-1183
幸福	-1184
实在是	-1185
心理	-1186
全身	-1187
▁刘	-1188
你在	-1189
反正	-1190
爆炸	-1191
就能	-1192
做的	-1193
实际上	-1194
那就是	-1195
五十	-1196
头来	-1197
怎么办	-1198
作战	-1199
那边	-1200
给了	-1201
奥曼	-1202
大量	-1203
战场	-1204
销售	-1205
困难	-1206
人物	-1207
厉害	-1208
的力量	-1209
吃饭	-1210
上海	-1211
▁张	-1212
你想	-1213
主要	-1214
这就是	-1215
的女人	-1216
惊讶	-1217
只怕	-1218
一块	-1219
了过来	-1220
有个	-1221
我才	-1222
做了	-1223
去的	-1224
这两	-1225
莫名	-1226
了一句	-1227
关于	-1228
孔太平	-1229
此刻	-1230
在地上	-1231
接触	-1232
保证	-1233
经验	-1234
提供	-1235
百姓	-1236
你也	-1237
中间	-1238
了吧	-1239
方的	-1240
一名	-1241
那位	-1242
ent	-1243
遇到	-1244
▁be	-1245
紧紧	-1246
明的	-1247
最好	-1248
’,	-1249
宋青书	-1250
意的	-1251
一脸	-1252
想着	-1253
特殊	-1254
床上	-1255
却又	-1256
▁n	-1257
的气	-1258
对不起	-1259
四个	-1260
设计	-1261
多么	-1262
小雨	-1263
纷纷	-1264
忘记	-1265
才是	-1266
战舰	-1267
点点头	-1268
远处	-1269
责任	-1270
集中	-1271
听见	-1272
使得	-1273
片刻	-1274
都要	-1275
我没有	-1276
结婚	-1277
▁l	-1278
手里	-1279
怪物	-1280
了吗	-1281
生气	-1282
了半	-1283
必要	-1284
足够	-1285
▁"	-1286
他不	-1287
认真	-1288
记忆	-1289
队长	-1290
手指	-1291
估计	-1292
等着	-1293
可惜	-1294
这一切	-1295
抓住	-1296
理论	-1297
就把	-1298
妻子	-1299
我可以	-1300
合作	-1301
全都	-1302
汽车	-1303
革命	-1304
大哥	-1305
叹了一声	-1306
一位	-1307
露出	-1308
▁所以	-1309
大军	-1310
依然	-1311
一张	-1312
每一个	-1313
可能是	-1314
al	-1315
的机会	-1316
大多	-1317
大笑	-1318
本身	-1319
最终	-1320
电子	-1321
队伍	-1322
地问	-1323
是怎么	-1324
上校	-1325
第二天	-1326
双眼	-1327
机器	-1328
康维	-1329
摇了	-1330
些什么	-1331
同学	-1332
一道	-1333
赶紧	-1334
显示	-1335
事实上	-1336
无可	-1337
就这样	-1338
▁太史慈	-1339
一听	-1340
失败	-1341
关键	-1342
驾驶	-1343
我去	-1344
亲自	-1345
坚持	-1346
我有	-1347
基地	-1348
但他	-1349
也要	-1350
你还	-1351
承认	-1352
▁他们	-1353
让他们	-1354
哥哥	-1355
多久	-1356
十年	-1357
房子	-1358
来到了	-1359
内的	-1360
不明白	-1361
离开了	-1362
的那个	-1363
有所	-1364
建立	-1365
阳光	-1366
价值	-1367
中央	-1368
主任	-1369
的天	-1370
的说	-1371
又道	-1372
值得	-1373
军事	-1374
抬头	-1375
无奈	-1376
联络	-1377
放下	-1378
金属	-1379
这时候	-1380
他对	-1381
男子	-1382
动了	-1383
英雄	-1384
检查	-1385
东方	-1386
行的	-1387
辈子	-1388
的意思	-1389
st	-1390
抬起	-1391
打电话	-1392
增加	-1393
度的	-1394
不久	-1395
我对	-1396
正好	-1397
千万	-1398
也在	-1399
▁A	-1400
水平	-1401
一定是	-1402
头的	-1403
提出	-1404
价格	-1405
讨论	-1406
一件	-1407
在大	-1408
▁从	-1409
--------	-1410
狠狠	-1411
四周	-1412
公主	-1413
不同的	-1414
大概	-1415
忘了	-1416
公司的	-1417
▁wh	-1418
掉了	-1419
▁如果	-1420
年轻人	-1421
叫声	-1422
疑惑	-1423
那天	-1424
▁阿	-1425
部的	-1426
我却	-1427
会议	-1428
丈夫	-1429
朝廷	-1430
之处	-1431
充满了	-1432
毫不	-1433
身上的	-1434
中年	-1435
青年	-1436
有时	-1437
脚步	-1438
▁但	-1439
这些人	-1440
听到了	-1441
你看	-1442
轻松	-1443
所在	-1444
当然是	-1445
斯理	-1446
:"	-1447
三人	-1448
这个问题	-1449
着他	-1450
严重	-1451
大约	-1452
最近	-1453
引起	-1454
具有	-1455
暂时	-1456
破坏	-1457
动的	-1458
她是	-1459
应该是	-1460
怎么会	-1461
提高	-1462
▁林清华	-1463
现实	-1464
▁g	-1465
人民	-1466
拒绝	-1467
两位	-1468
错了	-1469
随便	-1470
夭夭	-1471
摇了摇头	-1472
才会	-1473
这样说	-1474
的了	-1475
手上	-1476
等人	-1477
等等	-1478
不得不	-1479
照片	-1480
每个	-1481
少女	-1482
建筑	-1483
下来的	-1484
边的	-1485
那只	-1486
不清	-1487
陡然	-1488
双方	-1489
一直在	-1490
因为他	-1491
往往	-1492
空气	-1493
一动	-1494
你知道	-1495
跟我	-1496
冷冷	-1497
体的	-1498
名的	-1499
笑了起来	-1500
也很	-1501
这个时候	-1502
调查	-1503
就没有	-1504
快乐	-1505
你们的	-1506
还有一	-1507
就有	-1508
想了	-1509
不论	-1510
下一	-1511
了口气	-1512
看出	-1513
到达	-1514
游戏	-1515
超过	-1516
来得	-1517
单位	-1518
满意	-1519
卫斯理	-1520
青州军	-1521
停止	-1522
感觉到	-1523
有没有	-1524
集团	-1525
拥有	-1526
告诉你	-1527
谢谢	-1528
般的	-1529
自主	-1530
某种	-1531
形成	-1532
才道	-1533
自从	-1534
语言	-1535
自然是	-1536
▁天	-1537
地区	-1538
我觉得	-1539
实验	-1540
哪儿	-1541
好几	-1542
见面	-1543
处于	-1544
互相	-1545
客气	-1546
右手	-1547
动物	-1548
把她	-1549
真实	-1550
我现在	-1551
机械	-1552
我不知道	-1553
你能	-1554
主动	-1555
主人	-1556
约翰	-1557
外的	-1558
到的	-1559
都没	-1560
穿着	-1561
爸爸	-1562
主义	-1563
那么多	-1564
随时	-1565
常常	-1566
淡淡	-1567
不安	-1568
玻璃	-1569
股票	-1570
获得	-1571
随即	-1572
以来	-1573
主意	-1574
不足	-1575
在她	-1576
▁I	-1577
而去	-1578
子弹	-1579
始终	-1580
的身	-1581
吸引	-1582
的原因	-1583
美女	-1584
伤害	-1585
最大的	-1586
ur	-1587
断了	-1588
可怜	-1589
在一个	-1590
口中	-1591
吃惊	-1592
找到了	-1593
想到了	-1594
一年	-1595
通知	-1596
玩笑	-1597
叫道	-1598
向着	-1599
不成	-1600
给她	-1601
背后	-1602
蓝丝	-1603
?!	-1604
不懂	-1605
一百	-1606
最高	-1607
ir	-1608
现代	-1609
民族	-1610
拿着	-1611
是你	-1612
极为	-1613
内容	-1614
眼中	-1615
静静	-1616
抱着	-1617
记者	-1618
和你	-1619
当中	-1620
没什么	-1621
比如	-1622
在我的	-1623
飞行	-1624
是有	-1625
第一个	-1626
把自己	-1627
走进	-1628
出了一	-1629
微笑	-1630
四十	-1631
挥手	-1632
失去了	-1633
一来	-1634
性格	-1635
经营	-1636
已经被	-1637
的目光	-1638
书记	-1639
恐惧	-1640
一家	-1641
老头	-1642
▁e	-1643
响起	-1644
当初	-1645
世纪	-1646
远远	-1647
移动	-1648
混乱	-1649
她在	-1650
并非	-1651
详细	-1652
使他	-1653
疯狂	-1654
▁温宝裕	-1655
站了起来	-1656
拉拉	-1657
la	-1658
参谋	-1659
更多	-1660
相同	-1661
世界上	-1662
故意	-1663
关心	-1664
没有任何	-1665
出来了	-1666
教育	-1667
利益	-1668
视着	-1669
爱的	-1670
今日	-1671
情报	-1672
失去	-1673
命运	-1674
生意	-1675
或是	-1676
我还是	-1677
现象	-1678
错误	-1679
吩咐	-1680
就被	-1681
呵呵	-1682
司令	-1683
所说	-1684
着手	-1685
规模	-1686
老婆	-1687
去看	-1688
的眼睛	-1689
你这	-1690
说过	-1691
还会	-1692
我把	-1693
一人	-1694
一场	-1695
对了	-1696
部门	-1697
▁虽然	-1698
都可以	-1699
地一声	-1700
好奇	-1701
就算是	-1702
愤怒	-1703
站起来	-1704
▁于	-1705
地位	-1706
很大	-1707
怪异	-1708
昨天	-1709
每次	-1710
进一步	-1711
语气	-1712
兰花	-1713
见了	-1714
回来了	-1715
▁马	-1716
每一	-1717
活着	-1718
重要的	-1719
我这	-1720
联邦	-1721
确定	-1722
如果你	-1723
苏杭	-1724
发现了	-1725
耳朵	-1726
了出去	-1727
一样的	-1728
沙漠	-1729
反对	-1730
呼吸	-1731
时刻	-1732
老人	-1733
胜利	-1734
转过身	-1735
走出	-1736
疑问	-1737
三天	-1738
▁had	-1739
开来	-1740
最好的	-1741
没事	-1742
很少	-1743
不着	-1744
文字	-1745
做出	-1746
顿时	-1747
通讯	-1748
之内	-1749
嘴里	-1750
做什么	-1751
提醒	-1752
骑士	-1753
当他	-1754
令得	-1755
却没有	-1756
聪明	-1757
了过去	-1758
▁黄	-1759
不断地	-1760
得意	-1761
弗冈	-1762
剩下	-1763
舒服	-1764
不说	-1765
把这	-1766
他已经	-1767
的工作	-1768
说不定	-1769
竹缨	-1770
都被	-1771
几年	-1772
安慰	-1773
重重	-1774
满足	-1775
形式	-1776
就这么	-1777
家庭	-1778
拿起	-1779
充满	-1780
防御	-1781
而不是	-1782
下午	-1783
上次	-1784
屋子	-1785
ld	-1786
地球人	-1787
曹操	-1788
上前	-1789
▁就在	-1790
的水	-1791
阻止	-1792
你去	-1793
挣扎	-1794
为什么要	-1795
ion	-1796
交给	-1797
时的	-1798
脖子	-1799
何况	-1800
势力	-1801
跑到	-1802
来找	-1803
其他的	-1804
的不	-1805
出声	-1806
竹子	-1807
▁我道	-1808
出现了	-1809
再也	-1810
判断	-1811
之所以	-1812
动手	-1813
ut	-1814
半个	-1815
损失	-1816
而出	-1817
一个小	-1818
:「	-1819
失望	-1820
他要	-1821
答案	-1822
眼泪	-1823
这句话	-1824
ver	-1825
老子	-1826
是为了	-1827
工程	-1828
到处	-1829
眼里	-1830
已经是	-1831
各自	-1832
一句	-1833
高翼	-1834
▁was	-1835
柳絮	-1836
交易	-1837
想像	-1838
石头	-1839
恐怖	-1840
专家	-1841
其它	-1842
。」	-1843
他和	-1844
又有	-1845
的对	-1846
听着	-1847
差不多	-1848
形容	-1849
人了	-1850
效果	-1851
意味	-1852
之时	-1853
受了	-1854
我只	-1855
太空	-1856
一头	-1857
员工	-1858
专门	-1859
手机	-1860
很久	-1861
望去	-1862
阿拉	-1863
异常	-1864
件事情	-1865
留在	-1866
请你	-1867
的一种	-1868
时期	-1869
杀了	-1870
得多	-1871
把它	-1872
海棠	-1873
失踪	-1874
新闻	-1875
ot	-1876
他自己	-1877
云青	-1878
行了	-1879
太多	-1880
十三	-1881
▁The	-1882
魔法	-1883
很是	-1884
十五	-1885
怀里	-1886
情绪	-1887
竞争	-1888
问我	-1889
此时的	-1890
那张	-1891
星球	-1892
造成	-1893
ce	-1894
招呼	-1895
带来	-1896
意料	-1897
的头	-1898
大大	-1899
草原	-1900
香港	-1901
几个人	-1902
心头	-1903
这事	-1904
眼神	-1905
红色	-1906
他想	-1907
不肯	-1908
高级	-1909
你可以	-1910
的长	-1911
肚子	-1912
上下	-1913
用来	-1914
记录	-1915
大多数	-1916
印象	-1917
的生活	-1918
是以	-1919
两只	-1920
照顾	-1921
平时	-1922
打击	-1923
离去	-1924
你可	-1925
老旦	-1926
再加上	-1927
传说	-1928
用手	-1929
门外	-1930
不去	-1931
一股	-1932
说出	-1933
为何	-1934
正确	-1935
是啊	-1936
齐白	-1937
商量	-1938
通道	-1939
一口	-1940
屏幕	-1941
无所	-1942
是从	-1943
勒雷	-1944
而来	-1945
你了	-1946
▁这个	-1947
得到了	-1948
前的	-1949
队员	-1950
欧阳	-1951
女人的	-1952
电影	-1953
地下	-1954
生存	-1955
躺在	-1956
的方法	-1957
我只是	-1958
大部分	-1959
他才	-1960
白老大	-1961
酒店	-1962
他会	-1963
我相信	-1964
创造	-1965
发动	-1966
同志	-1967
后退	-1968
吕布	-1969
天空	-1970
巨大	-1971
他还	-1972
台上	-1973
ow	-1974
国际	-1975
威胁	-1976
肩膀	-1977
运动	-1978
这两个	-1979
地面	-1980
发射	-1981
杀人	-1982
从来没有	-1983
▁正	-1984
小说	-1985
我都	-1986
前进	-1987
鼻子	-1988
找不到	-1989
装甲	-1990
元首	-1991
笑了笑	-1992
机构	-1993
不容易	-1994
标准	-1995
动着	-1996
想想	-1997
的面	-1998
监狱	-1999
的结果	-2000
悄悄	-2001
吃了	-2002
沙发	-2003
妹妹	-2004
食物	-2005
哪个	-2006
心想	-2007
女士	-2008
突破	-2009
的身体	-2010
将来	-2011
看去	-2012
事件	-2013
ww	-2014
我自己	-2015
设想	-2016
内心	-2017
地向	-2018
的成	-2019
他知道	-2020
起的	-2021
做到	-2022
安心	-2023
一大	-2024
发挥	-2025
一丝	-2026
建议	-2027
少年	-2028
落在	-2029
这儿	-2030
压力	-2031
。)	-2032
黑色	-2033
我不是	-2034
实现	-2035
鲜血	-2036
数据	-2037
身的	-2038
我也不	-2039
执行	-2040
而不	-2041
皇上	-2042
分别	-2043
文件	-2044
是要	-2045
se	-2046
不由得	-2047
自动	-2048
方面的	-2049
人生	-2050
星期	-2051
罢了	-2052
====	-2053
城的	-2054
配合	-2055
尤其是	-2056
数量	-2057
没人	-2058
他却	-2059
打量	-2060
大家都	-2061
国人	-2062
什么地方	-2063
公子	-2064
我很	-2065
拼命	-2066
设备	-2067
在一旁	-2068
我问	-2069
这条	-2070
也好	-2071
共同	-2072
毕业	-2073
老爷	-2074
他们在	-2075
数字	-2076
不会有	-2077
)。	-2078
你有	-2079
大叫	-2080
我来	-2081
鬼子	-2082
你会	-2083
好处	-2084
木兰花	-2085
等于	-2086
依旧	-2087
仅仅	-2088
卡尔斯	-2089
不大	-2090
喝酒	-2091
一团	-2092
内部	-2093
的战	-2094
士官	-2095
将会	-2096
收拾	-2097
但却	-2098
长时间	-2099
事的	-2100
▁he	-2101
差点	-2102
结构	-2103
假设	-2104
送到	-2105
现出	-2106
尴尬	-2107
专业	-2108
男女	-2109
叙述	-2110
干部	-2111
着我	-2112
?!”	-2113
了的	-2114
美景	-2115
江南	-2116
这场	-2117
地在	-2118
南京	-2119
银行	-2120
▁苏	-2121
说到	-2122
然道	-2123
▁黄绢	-2124
中国人	-2125
一句话	-2126
工具	-2127
高手	-2128
一开始	-2129
根本没有	-2130
身旁	-2131
▁re	-2132
神经	-2133
林极的	-2134
有可能	-2135
眼前的	-2136
快速	-2137
一番	-2138
中了	-2139
的关系	-2140
睡觉	-2141
的火	-2142
坐下	-2143
闻言	-2144
大师	-2145
向上	-2146
顺利	-2147
了一口	-2148
和她	-2149
你别	-2150
急忙	-2151
的道	-2152
可以说	-2153
一副	-2154
笑声	-2155
叫我	-2156
尽量	-2157
▁林	-2158
采取	-2159
起来了	-2160
而言	-2161
艺术	-2162
▁一个	-2163
实在太	-2164
出发	-2165
视线	-2166
一路	-2167
一支	-2168
声响	-2169
官员	-2170
干净	-2171
板上	-2172
了许多	-2173
ig	-2174
味道	-2175
的海	-2176
主上	-2177
》,	-2178
客户	-2179
享受	-2180
信心	-2181
这种情形	-2182
土地	-2183
基础	-2184
股价	-2185
才好	-2186
好象	-2187
慢慢地	-2188
则是	-2189
秒钟	-2190
接下来	-2191
年龄	-2192
权力	-2193
的男人	-2194
一时之间	-2195
就连	-2196
打了	-2197
轻易	-2198
喃喃	-2199
胳膊	-2200
这话	-2201
的速度	-2202
手臂	-2203
老实	-2204
传统	-2205
未来	-2206
信任	-2207
公里	-2208
长安	-2209
有几	-2210
消灭	-2211
▁当然	-2212
回了	-2213
黄金	-2214
好吧	-2215
屁股	-2216
用了	-2217
模样	-2218
任何人	-2219
因为我	-2220
不停地	-2221
维持	-2222
艾米	-2223
方便	-2224
说不出	-2225
水荭	-2226
职业	-2227
跟你	-2228
不由自主	-2229
具体	-2230
不开	-2231
局长	-2232
的门	-2233
▁对于	-2234
法律	-2235
足以	-2236
不像	-2237
不太	-2238
补充	-2239
后悔	-2240
之人	-2241
眉头	-2242
把你	-2243
报纸	-2244
年纪	-2245
桌子	-2246
这么多	-2247
相互	-2248
光芒	-2249
化身	-2250
▁第二	-2251
刹那	-2252
牺牲	-2253
信号	-2254
的表情	-2255
级的	-2256
忙道	-2257
如果不是	-2258
。”“	-2259
▁看着	-2260
过去了	-2261
之至	-2262
理想	-2263
严肃	-2264
文章	-2265
一个个	-2266
手段	-2267
念头	-2268
派人	-2269
年来	-2270
听来	-2271
不愿意	-2272
台湾	-2273
强的	-2274
特种	-2275
箱子	-2276
这样做	-2277
把握	-2278
取得	-2279
▁「	-2280
的那种	-2281
使我	-2282
了他的	-2283
▁现在	-2284
适合	-2285
使人	-2286
有效	-2287
的白	-2288
丝毫	-2289
会的	-2290
操作	-2291
不好意思	-2292
左手	-2293
其妙	-2294
海鹰	-2295
良辰	-2296
的风	-2297
连连	-2298
三个人	-2299
▁我和	-2300
弟弟	-2301
装置	-2302
安石	-2303
op	-2304
有过	-2305
低声	-2306
司机	-2307
欢迎	-2308
全力	-2309
这就	-2310
那时候	-2311
从此	-2312
的一些	-2313
你不是	-2314
叫着	-2315
干脆	-2316
▁杨	-2317
浑身	-2318
学家	-2319
自我	-2320
回到了	-2321
他把	-2322
默默	-2323
王的	-2324
每个人	-2325
两天	-2326
了好	-2327
解放	-2328
文明	-2329
同样的	-2330
的人物	-2331
让我们	-2332
出一个	-2333
不够	-2334
...	-2335
仪器	-2336
有一天	-2337
开门	-2338
说到这里	-2339
心中的	-2340
的就是	-2341
颜色	-2342
事业	-2343
谢竹缨	-2344
拉着	-2345
但我	-2346
的士兵	-2347
ly	-2348
有许多	-2349
向外	-2350
国民	-2351
很不	-2352
成立	-2353
▁方	-2354
何以	-2355
怜儿	-2356
思考	-2357
▁C	-2358
▁胡	-2359
大门	-2360
有多	-2361
王子	-2362
im	-2363
强烈	-2364
很大的	-2365
那云青	-2366
所说的	-2367
没有了	-2368
走向	-2369
冷笑	-2370
相反	-2371
莫名其妙	-2372
▁这一	-2373
可不是	-2374
et	-2375
们的	-2376
出口	-2377
客人	-2378
避免	-2379
了一会儿	-2380
优势	-2381
勉强	-2382
..“	-2383
也知道	-2384
我们就	-2385
联合	-2386
低头	-2387
是这样	-2388
士官长	-2389
▁B	-2390
的人都	-2391
ve	-2392
那儿	-2393
有一些	-2394
白的	-2395
喊道	-2396
相对	-2397
匆匆	-2398
地球上	-2399
敌人的	-2400
猛地	-2401
资金	-2402
大厅	-2403
只不过是	-2404
一辆	-2405
当我	-2406
最大	-2407
原则	-2408
地图	-2409
艾米莉	-2410
穿过	-2411
我能	-2412
天保	-2413
月亮	-2414
刺激	-2415
了一阵	-2416
决心	-2417
无人	-2418
▁u	-2419
▁林极	-2420
嘴唇	-2421
所能	-2422
正式	-2423
音乐	-2424
而在	-2425
上帝	-2426
还真	-2427
百分	-2428
射击	-2429
胡子	-2430
气的	-2431
一想	-2432
跟他	-2433
感受	-2434
接过	-2435
灯光	-2436
这边	-2437
可见	-2438
江悦	-2439
我们在	-2440
理会	-2441
外星人	-2442
半天	-2443
当地	-2444
型的	-2445
得太	-2446
船上	-2447
追求	-2448
十四	-2449
各个	-2450
陌生	-2451
这不是	-2452
am	-2453
将他	-2454
说法	-2455
也就是说	-2456
长老	-2457
颤抖	-2458
江湖	-2459
大队	-2460
不可思	-2461
丰富	-2462
又说	-2463
那你	-2464
会儿	-2465
人类的	-2466
强大的	-2467
没有想到	-2468
顺着	-2469
不出来	-2470
的故事	-2471
七八	-2472
十八	-2473
十几	-2474
冷静	-2475
小小的	-2476
示意	-2477
区域	-2478
种种	-2479
以外	-2480
杀手	-2481
他的话	-2482
之类	-2483
妩音	-2484
自信	-2485
我没	-2486
大汉	-2487
间的	-2488
了一遍	-2489
更多的	-2490
地说道	-2491
的名字	-2492
还可以	-2493
要知道	-2494
武装	-2495
吓得	-2496
模糊	-2497
玫瑰	-2498
根本就	-2499
特别是	-2500
回忆	-2501
在海	-2502
了她	-2503
网络	-2504
业务	-2505
也能	-2506
受伤	-2507
停了下来	-2508
只是一	-2509
郭嘉	-2510
美的	-2511
她就	-2512
相比	-2513
而又	-2514
的能力	-2515
矛盾	-2516
长期	-2517
别人的	-2518
伊登	-2519
逐渐	-2520
包围	-2521
材料	-2522
奈何	-2523
告诉他	-2524
确然	-2525
结论	-2526
所以我	-2527
一惊	-2528
着一个	-2529
功夫	-2530
阿哥	-2531
合适	-2532
ch	-2533
泪水	-2534
电梯	-2535
诸葛	-2536
这里的	-2537
热情	-2538
▁因为	-2539
小郭	-2540
震动	-2541
————	-2542
▁for	-2543
兵力	-2544
轻轻地	-2545
三年	-2546
深处	-2547
帮忙	-2548
秀珍	-2549
在他们	-2550
一生	-2551
全然	-2552
清晰	-2553
纳尔	-2554
▁奥曼	-2555
我们要	-2556
询问	-2557
其他人	-2558
场的	-2559
监视	-2560
觉得自己	-2561
同伴	-2562
因素	-2563
都能	-2564
为止	-2565
▁然而	-2566
车上	-2567
几十	-2568
去做	-2569
某些	-2570
满脸	-2571
拉斯	-2572
有很多	-2573
也被	-2574
形的	-2575
一见	-2576
允许	-2577
温柔	-2578
谈话	-2579
利的	-2580
智慧	-2581
不可思议	-2582
警官	-2583
不时	-2584
回过	-2585
日军	-2586
神色	-2587
对自己	-2588
不满	-2589
独立	-2590
妈的	-2591
力气	-2592
糊涂	-2593
遭遇	-2594
对她	-2595
▁安	-2596
宿舍	-2597
▁胖子	-2598
脸上的	-2599
先是	-2600
叹了口气	-2601
赶到	-2602
▁his	-2603
我可	-2604
阶段	-2605
地把	-2606
投降	-2607
注意到	-2608
叶莲	-2609
桌上	-2610
得知	-2611
角度	-2612
千慧	-2613
这支	-2614
女孩子	-2615
开的	-2616
步兵	-2617
所以他	-2618
的消息	-2619
一半	-2620
不下	-2621
加入	-2622
他们是	-2623
id	-2624
称为	-2625
ter	-2626
彼此	-2627
了下去	-2628
天地	-2629
▁S	-2630
了一种	-2631
清醒	-2632
我怎么	-2633
我再	-2634
特务	-2635
算了	-2636
却不	-2637
商业	-2638
通常	-2639
的山	-2640
你自己	-2641
伤口	-2642
变了	-2643
地望着	-2644
话来	-2645
长青	-2646
说出来	-2647
到现在	-2648
会不会	-2649
机关	-2650
打着	-2651
脾气	-2652
转移	-2653
底下	-2654
看不到	-2655
董事	-2656
▁这是	-2657
摇摇头	-2658
星系	-2659
状况	-2660
说他	-2661
书房	-2662
粮食	-2663
成本	-2664
有两	-2665
想了想	-2666
劳动	-2667
反倒	-2668
看了一眼	-2669
城里	-2670
的两	-2671
打开了	-2672
为人	-2673
弄得	-2674
投入	-2675
原来的	-2676
:‘	-2677
闪电	-2678
绝不	-2679
热闹	-2680
只有一	-2681
不堪	-2682
向了	-2683
年代	-2684
安静	-2685
参与	-2686
▁P	-2687
嘴巴	-2688
宣布	-2689
军团	-2690
背上	-2691
命的	-2692
的脸上	-2693
是最	-2694
▁不	-2695
成员	-2696
降头	-2697
制度	-2698
▁H	-2699
都知道	-2700
太子	-2701
宇文	-2702
欣赏	-2703
总统	-2704
四处	-2705
带领	-2706
乃是	-2707
几次	-2708
一切都	-2709
放过	-2710
的一声	-2711
白起	-2712
没了	-2713
表达	-2714
准确	-2715
重复	-2716
有多少	-2717
封信	-2718
工厂	-2719
、“	-2720
男孩	-2721
精英	-2722
由此	-2723
不过是	-2724
的后	-2725
爷爷	-2726
当作	-2727
百万	-2728
勇气	-2729
荆州	-2730
感激	-2731
对我说	-2732
~~	-2733
手的	-2734
点儿	-2735
这么说	-2736
不怕	-2737
十分钟	-2738
装备	-2739
无声	-2740
着了	-2741
向下	-2742
人和	-2743
大事	-2744
一向	-2745
植物	-2746
海盗	-2747
快地	-2748
住在	-2749
大有	-2750
学院	-2751
自杀	-2752
为此	-2753
▁y	-2754
总督	-2755
讲话	-2756
本事	-2757
陶启	-2758
很快就	-2759
▁更	-2760
有时候	-2761
起来的	-2762
着脸	-2763
东方朔	-2764
怎么说	-2765
坐着	-2766
帮我	-2767
计算机	-2768
意识到	-2769
即便	-2770
我不能	-2771
等我	-2772
▁E	-2773
我的话	-2774
........	-2775
形势	-2776
除非	-2777
靠近	-2778
陶启泉	-2779
机场	-2780
古代	-2781
对你	-2782
杀死	-2783
武功	-2784
的位置	-2785
以上	-2786
叫了起来	-2787
二人	-2788
师傅	-2789
不解	-2790
真的是	-2791
总算	-2792
就已经	-2793
站着	-2794
不觉	-2795
十九	-2796
长官	-2797
被他	-2798
那个人	-2799
咖啡	-2800
提起	-2801
导致	-2802
皮肤	-2803
接到	-2804
收入	-2805
化的	-2806
太过	-2807
也不敢	-2808
睁开	-2809
试图	-2810
物质	-2811
直升	-2812
走的	-2813
德拉	-2814
五个	-2815
拿出	-2816
走廊	-2817
你现在	-2818
充分	-2819
西北	-2820
可怕的	-2821
家人	-2822
身边的	-2823
醒来	-2824
叫做	-2825
发出了	-2826
街上	-2827
世上	-2828
厚的	-2829
讨厌	-2830
同情	-2831
过来的	-2832
儿的	-2833
手势	-2834
他没有	-2835
能不能	-2836
中午	-2837
我所	-2838
举起	-2839
队的	-2840
就知道	-2841
开玩笑	-2842
怎么了	-2843
的眼神	-2844
便宜	-2845
克斯	-2846
伤心	-2847
亮的	-2848
我道	-2849
在我们	-2850
开始了	-2851
尔朱	-2852
过程中	-2853
▁金	-2854
感动	-2855
消失了	-2856
转头	-2857
所有人	-2858
天天	-2859
秘书	-2860
十六	-2861
我看到	-2862
想起了	-2863
才知道	-2864
早上	-2865
回来的	-2866
局面	-2867
到我	-2868
影子	-2869
从小	-2870
政策	-2871
也无法	-2872
在她的	-2873
的神色	-2874
ro	-2875
欧洲	-2876
的下	-2877
贺苏杭	-2878
得更	-2879
强烈的	-2880
大小	-2881
一根	-2882
一颗	-2883
▁玛仙	-2884
这样一个	-2885
坚决	-2886
突击	-2887
地问道	-2888
一群	-2889
为他	-2890
我们是	-2891
生命的	-2892
一段	-2893
看法	-2894
▁我说	-2895
蒙古	-2896
看上去	-2897
不已	-2898
持续	-2899
会在	-2900
袭击	-2901
叫人	-2902
程序	-2903
什么都	-2904
情况下	-2905
杰克	-2906
上升	-2907
南方	-2908
打得	-2909
也是一	-2910
叶莲子	-2911
角落	-2912
进入了	-2913
本书	-2914
凤凰	-2915
总之	-2916
这般	-2917
镇定	-2918
警方	-2919
分明	-2920
形象	-2921
威力	-2922
白色	-2923
生死	-2924
师的	-2925
着她	-2926
当成	-2927
丫头	-2928
塞尔	-2929
长得	-2930
马车	-2931
已是	-2932
特的	-2933
例子	-2934
已然	-2935
尼亚	-2936
健康	-2937
岁的	-2938
心思	-2939
保险	-2940
ich	-2941
代价	-2942
将那	-2943
还好	-2944
不相信	-2945
的情况下	-2946
我们可以	-2947
▁他的	-2948
什么人	-2949
一手	-2950
制的	-2951
ri	-2952
一个月	-2953
椅子	-2954
看的	-2955
那样的	-2956
道的	-2957
方案	-2958
土匪	-2959
日的	-2960
分子	-2961
com	-2962
男人的	-2963
红色的	-2964
一点也不	-2965
广告	-2966
海伦	-2967
优秀	-2968
强大	-2969
发的	-2970
叹了一口气	-2971
开心	-2972
到来	-2973
墙上	-2974
问他	-2975
进步	-2976
远的	-2977
规定	-2978
无限	-2979
一回事	-2980
两人的	-2981
精灵	-2982
▁st	-2983
一闪	-2984
在哪里	-2985
对方的	-2986
望了一眼	-2987
适应	-2988
我了	-2989
带来的	-2990
只会	-2991
生化	-2992
圣约	-2993
期间	-2994
毁灭	-2995
的名	-2996
一顿	-2997
偷偷	-2998
迟疑	-2999
了一点	-3000
自然而	-3001
全国	-3002
?”“	-3003
感谢	-3004
叹息	-3005
茂生	-3006
那两个	-3007
,‘	-3008
他有	-3009
思绪	-3010
不明	-3011
着急	-3012
这人	-3013
不一样	-3014
站起身	-3015
看不见	-3016
之地	-3017
拳头	-3018
万元	-3019
什么东西	-3020
思索	-3021
她也	-3022
前来	-3023
说起	-3024
望向	-3025
同事	-3026
奇伟	-3027
莱恩	-3028
都很	-3029
▁高	-3030
了一大	-3031
ere	-3032
学会	-3033
密的	-3034
这件事情	-3035
坏了	-3036
懂得	-3037
谁知道	-3038
要去	-3039
调整	-3040
▁徐	-3041
好笑	-3042
破了	-3043
主持	-3044
农民	-3045
万人	-3046
逃跑	-3047
阵地	-3048
院长	-3049
工资	-3050
面色	-3051
▁由于	-3052
例如	-3053
ill	-3054
的血	-3055
他还是	-3056
绝望	-3057
偏偏	-3058
伸出	-3059
怎么可能	-3060
火车	-3061
今晚	-3062
实话	-3063
耳边	-3064
话题	-3065
得上	-3066
团长	-3067
是想	-3068
什么样的	-3069
叔叔	-3070
无论如何	-3071
il	-3072
从未	-3073
离婚	-3074
司马光	-3075
呆了一	-3076
知道的	-3077
项目	-3078
▁于是	-3079
难怪	-3080
但是却	-3081
委屈	-3082
自然而然	-3083
云天	-3084
出门	-3085
胡说	-3086
屋里	-3087
郑森	-3088
应付	-3089
连续	-3090
的那些	-3091
史阿	-3092
各位	-3093
道德	-3094
资格	-3095
你和	-3096
的外	-3097
震惊	-3098
人群	-3099
普通的	-3100
英国	-3101
冒险	-3102
直升机	-3103
所有人都	-3104
佩服	-3105
对面	-3106
脚下	-3107
推开	-3108
的前	-3109
ht	-3110
共产	-3111
ay	-3112
她又	-3113
现场	-3114
▁宋青书	-3115
来回	-3116
走吧	-3117
抓住了	-3118
体内	-3119
奶奶	-3120
▁众人	-3121
资源	-3122
发了	-3123
无可奈何	-3124
胸口	-3125
ct	-3126
对此	-3127
侦察	-3128
脑部	-3129
还有什么	-3130
就说	-3131
还不是	-3132
难得	-3133
女郎	-3134
把他们	-3135
来不及	-3136
▁三	-3137
夜里	-3138
神的	-3139
与他	-3140
陷入	-3141
统一	-3142
这也是	-3143
艾山	-3144
不自	-3145
我就是	-3146
早已经	-3147
万一	-3148
最后的	-3149
也都	-3150
我不想	-3151
即将	-3152
her	-3153
艾山江	-3154
沿着	-3155
独自	-3156
是我的	-3157
可爱	-3158
沟通	-3159
眼光	-3160
自语	-3161
一般的	-3162
沉声道	-3163
浪费	-3164
观念	-3165
积极	-3166
``	-3167
一辈子	-3168
了不少	-3169
得不	-3170
一份	-3171
把手	-3172
了一顿	-3173
为自己	-3174
河南	-3175
工业	-3176
身形	-3177
沉重	-3178
盒子	-3179
窗外	-3180
的心情	-3181
隐藏	-3182
整整	-3183
只剩下	-3184
大地	-3185
闭上	-3186
八爷	-3187
?“	-3188
剩下的	-3189
暖暖	-3190
运输	-3191
?"	-3192
火焰	-3193
想过	-3194
知道自己	-3195
不让	-3196
所以才	-3197
”、“	-3198
中年人	-3199
其余	-3200
云天梦	-3201
它们的	-3202
▁M	-3203
养猪	-3204
红了	-3205
全世界	-3206
三百	-3207
五百	-3208
式的	-3209
上班	-3210
交流	-3211
巫术	-3212
据说	-3213
简单的	-3214
愉快	-3215
他那	-3216
公尺	-3217
松涛	-3218
显然是	-3219
耐烦	-3220
出乎	-3221
最多	-3222
我不会	-3223
王安石	-3224
西方	-3225
中国的	-3226
呆了一呆	-3227
一个大	-3228
在这种	-3229
有一点	-3230
几步	-3231
场上	-3232
ith	-3233
▁田	-3234
展开	-3235
焦急	-3236
一遍	-3237
观点	-3238
凌通	-3239
我真	-3240
我真的	-3241
明明	-3242
赵云	-3243
的日子	-3244
意味着	-3245
室里	-3246
想的	-3247
门前	-3248
人是	-3249
收到	-3250
鲁斯	-3251
节目	-3252
给人	-3253
行业	-3254
赶快	-3255
▁their	-3256
水月	-3257
更为	-3258
气氛	-3259
泰山	-3260
?」	-3261
主席	-3262
婚姻	-3263
有趣	-3264
女性	-3265
船长	-3266
开去	-3267
意思是	-3268
冲击	-3269
而起	-3270
大陆	-3271
情的	-3272
苏轼	-3273
交谈	-3274
发表	-3275
块钱	-3276
一千	-3277
何必	-3278
决策	-3279
身材	-3280
李固	-3281
无疑	-3282
给他们	-3283
我心里	-3284
人心	-3285
云峰	-3286
还想	-3287
!!	-3288
不是很	-3289
白色的	-3290
头去	-3291
脑子	-3292
可以说是	-3293
整理	-3294
停下	-3295
哪怕	-3296
唯一的	-3297
头顶	-3298
隐隐	-3299
不算	-3300
无力	-3301
出于	-3302
肌肉	-3303
几句	-3304
不幸	-3305
记载	-3306
坐了下来	-3307
贵族	-3308
黑色的	-3309
别说	-3310
转向	-3311
了你	-3312
两名	-3313
的新	-3314
▁as	-3315
基本上	-3316
在下	-3317
尼密	-3318
克隆	-3319
把自己的	-3320
▁吴	-3321
酒吧	-3322
的态度	-3323
是对	-3324
他的手	-3325
的那一	-3326
是一件	-3327
场面	-3328
秋水	-3329
汇报	-3330
到时候	-3331
无关	-3332
就像是	-3333
资本	-3334
冲锋	-3335
国内	-3336
明确	-3337
答道	-3338
统治	-3339
街道	-3340
迅速地	-3341
客厅	-3342
撤退	-3343
工人	-3344
类似	-3345
门的	-3346
百分之	-3347
的生命	-3348
某个	-3349
跑了	-3350
玉霞	-3351
元帅	-3352
地点	-3353
美人	-3354
购买	-3355
一致	-3356
深深地	-3357
利润	-3358
笑着说	-3359
在此	-3360
成交	-3361
返回	-3362
上午	-3363
的看着	-3364
良辰美景	-3365
做好	-3366
呆了	-3367
比我	-3368
行星	-3369
那名	-3370
树林	-3371
他现在	-3372
us	-3373
反复	-3374
指示	-3375
科学家	-3376
东北	-3377
不止	-3378
作出	-3379
跟在	-3380
叫他	-3381
费用	-3382
小亮	-3383
番话	-3384
办事	-3385
不愿	-3386
时机	-3387
科技	-3388
人才	-3389
功能	-3390
车的	-3391
一口气	-3392
他道	-3393
方晓	-3394
看到的	-3395
下令	-3396
成就	-3397
出生	-3398
娘子	-3399
苍白	-3400
警告	-3401
未必	-3402
极大的	-3403
把那	-3404
感兴趣	-3405
画面	-3406
表明	-3407
要不	-3408
辛苦	-3409
关注	-3410
燃烧	-3411
爱神	-3412
病人	-3413
给我们	-3414
发觉	-3415
闪烁	-3416
表面	-3417
数十	-3418
小声	-3419
斯特	-3420
嘿嘿	-3421
手枪	-3422
没错	-3423
可能会	-3424
挑战	-3425
静静地	-3426
我和白素	-3427
红的	-3428
est	-3429
军人	-3430
去吧	-3431
巴达	-3432
至今	-3433
忍受	-3434
本人	-3435
证券	-3436
重视	-3437
的行动	-3438
握着	-3439
白豆	-3440
各种各	-3441
的动作	-3442
原谅	-3443
是很	-3444
假如	-3445
的最	-3446
▁两人	-3447
整天	-3448
过后	-3449
为我	-3450
▁第一	-3451
还有一个	-3452
你先	-3453
▁that	-3454
你这个	-3455
只有一个	-3456
中原	-3457
比赛	-3458
想来	-3459
一共	-3460
再一次	-3461
你好	-3462
手术	-3463
稳定	-3464
他所	-3465
笑了一下	-3466
减少	-3467
合理	-3468
斐扬	-3469
运用	-3470
根本不	-3471
可以肯定	-3472
又在	-3473
抵抗	-3474
哈哈大笑	-3475
益州	-3476
行健	-3477
你不要	-3478
几位	-3479
安琪	-3480
不计	-3481
吃的	-3482
▁这种	-3483
我们都	-3484
真相	-3485
还未	-3486
▁G	-3487
我从	-3488
的行为	-3489
及时	-3490
商人	-3491
您的	-3492
玉秀	-3493
走来	-3494
了半天	-3495
成熟	-3496
学的	-3497
这么一	-3498
炮弹	-3499
只觉得	-3500
美元	-3501
跟踪	-3502
半年	-3503
培养	-3504
孩子们	-3505
过于	-3506
阁下	-3507
墙壁	-3508
两次	-3509
你来	-3510
ol	-3511
率领	-3512
的军队	-3513
委员	-3514
向后	-3515
等他	-3516
第四	-3517
介石	-3518
布置	-3519
令我	-3520
俘虏	-3521
是什么人	-3522
但在	-3523
▁were	-3524
▁康维	-3525
在于	-3526
好事	-3527
and	-3528
诸葛亮	-3529
嘴角	-3530
你以为	-3531
你还是	-3532
怀中	-3533
不能再	-3534
有机会	-3535
紧紧地	-3536
蒋介石	-3537
临时	-3538
地狱	-3539
消费	-3540
的方式	-3541
卡尔	-3542
▁那人	-3543
望了	-3544
组成	-3545
提到	-3546
为什么不	-3547
▁which	-3548
对象	-3549
地一	-3550
我的手	-3551
恰好	-3552
得到的	-3553
平均	-3554
极点	-3555
要不是	-3556
这家伙	-3557
帮你	-3558
那块	-3559
大声道	-3560
为之	-3561
走在	-3562
今年	-3563
国王	-3564
汉子	-3565
见他	-3566
老杨	-3567
向她	-3568
权利	-3569
这座	-3570
人口	-3571
寻常	-3572
对待	-3573
拍了	-3574
▁然后	-3575
法国	-3576
▁R	-3577
导弹	-3578
山的	-3579
写的	-3580
日后	-3581
齐王	-3582
领域	-3583
两条	-3584
规矩	-3585
可知	-3586
概念	-3587
碰到	-3588
漆黑	-3589
在天	-3590
打断	-3591
这点	-3592
喝道	-3593
的来	-3594
神话	-3595
的家伙	-3596
走着	-3597
水中	-3598
快点	-3599
依靠	-3600
公开	-3601
恢复了	-3602
往下	-3603
我一直	-3604
反抗	-3605
在你	-3606
沙发上	-3607
顾客	-3608
成绩	-3609
猛然	-3610
我便	-3611
误会	-3612
山洞	-3613
纳尔逊	-3614
▁who	-3615
边缘	-3616
卫先生	-3617
军统	-3618
死人	-3619
帕尔斯	-3620
战略	-3621
!」	-3622
哼了一声	-3623
不信	-3624
严格	-3625
你又	-3626
??	-3627
慕阳	-3628
极度	-3629
花园	-3630
我心中	-3631
绝不会	-3632
圣约人	-3633
ap	-3634
冰冷	-3635
跳跃	-3636
雷斯	-3637
关上	-3638
我已	-3639
才一	-3640
窗户	-3641
▁叶	-3642
从事	-3643
半晌	-3644
咬牙	-3645
正如	-3646
护士	-3647
一座	-3648
的黑	-3649
这是一个	-3650
两年	-3651
老者	-3652
大战	-3653
无聊	-3654
吃了一	-3655
完整	-3656
了上去	-3657
▁其实	-3658
艰难	-3659
可是他	-3660
狠狠地	-3661
印度	-3662
欢呼	-3663
眼镜	-3664
这份	-3665
世家	-3666
十多	-3667
大量的	-3668
作了一个	-3669
厨房	-3670
是由	-3671
缘故	-3672
有一次	-3673
令他	-3674
暴露	-3675
诡异	-3676
十一	-3677
请求	-3678
不顾	-3679
的方向	-3680
重要的是	-3681
偶尔	-3682
温暖	-3683
下手	-3684
难过	-3685
▁罗	-3686
我将	-3687
在自己	-3688
工作的	-3689
成功的	-3690
弟子	-3691
那条	-3692
面子	-3693
这小子	-3694
伙子	-3695
处境	-3696
恐龙	-3697
要把	-3698
不通	-3699
公路	-3700
前方	-3701
发抖	-3702
大夫	-3703
实验室	-3704
成长	-3705
是她	-3706
一双	-3707
财富	-3708
中华	-3709
司马懿	-3710
事先	-3711
尽快	-3712
公安	-3713
奴隶	-3714
聚集	-3715
这是一	-3716
结合	-3717
自行	-3718
倒在	-3719
心地	-3720
是甚么	-3721
部下	-3722
很容易	-3723
的反应	-3724
形状	-3725
斗争	-3726
姿势	-3727
女的	-3728
楼梯	-3729
脑中	-3730
几乎是	-3731
水的	-3732
行事	-3733
对我们	-3734
例外	-3735
水晶	-3736
他们都	-3737
历史上	-3738
给自己	-3739
密码	-3740
而来的	-3741
作品	-3742
刘备	-3743
承受	-3744
指导	-3745
换了	-3746
匪军	-3747
是如此	-3748
从而	-3749
这个故事	-3750
滋味	-3751
完成了	-3752
原始	-3753
着他的	-3754
性命	-3755
观众	-3756
说我	-3757
每一个人	-3758
广州	-3759
胸前	-3760
和我们	-3761
千里	-3762
笑笑	-3763
肩头	-3764
匕首	-3765
后面的	-3766
因而	-3767
再也没有	-3768
一脚	-3769
山虎	-3770
建设	-3771
闪过	-3772
一个人的	-3773
为甚么	-3774
证据	-3775
的笑容	-3776
以致	-3777
意志	-3778
对他的	-3779
争取	-3780
大姐	-3781
本章	-3782
联军	-3783
的想法	-3784
抬起头来	-3785
一连	-3786
缓慢	-3787
透过	-3788
在外	-3789
大发	-3790
一段时间	-3791
冲动	-3792
贾诩	-3793
了一跳	-3794
主力	-3795
偶然	-3796
共产党	-3797
此事	-3798
要我	-3799
随意	-3800
吴雪	-3801
中有	-3802
正面	-3803
病毒	-3804
看我	-3805
一齐	-3806
心灵	-3807
没办法	-3808
深刻	-3809
茫然	-3810
的家	-3811
采访	-3812
难受	-3813
想到这里	-3814
四面	-3815
又是一	-3816
摇晃	-3817
▁这时候	-3818
▁当时	-3819
我们现在	-3820
他将	-3821
作了	-3822
消耗	-3823
和他的	-3824
处的	-3825
小人	-3826
想去	-3827
为难	-3828
见到了	-3829
又要	-3830
皱眉	-3831
陛下	-3832
看向	-3833
▁an	-3834
的情景	-3835
发现自己	-3836
奖励	-3837
字数	-3838
文学	-3839
ul	-3840
交通	-3841
顾秋水	-3842
气息	-3843
背景	-3844
北方	-3845
乱的	-3846
日本人	-3847
。』	-3848
晓得	-3849
见识	-3850
读书	-3851
了一想	-3852
夫妻	-3853
路线	-3854
那些人	-3855
三角	-3856
卓群	-3857
是被	-3858
见的	-3859
号码	-3860
治疗	-3861
还得	-3862
点头道	-3863
极度的	-3864
派出	-3865
第二次	-3866
在想	-3867
身前	-3868
缺乏	-3869
深入	-3870
要想	-3871
得出	-3872
期待	-3873
丽莎	-3874
十七	-3875
反映	-3876
提议	-3877
若文	-3878
▁第二天	-3879
城墙	-3880
▁红绫	-3881
一愣	-3882
完全没有	-3883
▁with	-3884
听说过	-3885
占领	-3886
宋坚	-3887
他从	-3888
担任	-3889
能在	-3890
超级	-3891
我认为	-3892
叹道	-3893
好一会	-3894
的存在	-3895
群众	-3896
▁they	-3897
边上	-3898
可以看到	-3899
低下	-3900
口袋	-3901
极了	-3902
白天	-3903
记住	-3904
不该	-3905
加强	-3906
向那	-3907
是大	-3908
渠道	-3909
身后的	-3910
危机	-3911
▁这些	-3912
人人	-3913
幸运	-3914
事后	-3915
区别	-3916
但是他	-3917
限制	-3918
其中的	-3919
房门	-3920
西亚	-3921
不见了	-3922
前面的	-3923
都不会	-3924
猜测	-3925
美丽的	-3926
动力	-3927
单独	-3928
小孩	-3929
岩石	-3930
承担	-3931
ain	-3932
与我	-3933
问题的	-3934
冲突	-3935
就开始	-3936
逻辑	-3937
忘记了	-3938
兵的	-3939
我叫	-3940
蓝色	-3941
都是一	-3942
伸出手	-3943
再去	-3944
口水	-3945
平衡	-3946
看他	-3947
说你	-3948
已被	-3949
结束了	-3950
亚尔斯	-3951
的光芒	-3952
金钱	-3953
的眼光	-3954
吓了一跳	-3955
亚尔斯兰	-3956
战马	-3957
愿望	-3958
感到了	-3959
脱离	-3960
那是一	-3961
气得	-3962
龙之	-3963
只是一个	-3964
但她	-3965
无意	-3966
皱着	-3967
舰船	-3968
有两个	-3969
陈长青	-3970
一艘	-3971
何夕	-3972
角色	-3973
邀请	-3974
况且	-3975
od	-3976
何处	-3977
痕迹	-3978
提升	-3979
▁于海鹰	-3980
大是	-3981
说来	-3982
领袖	-3983
多次	-3984
机体	-3985
的回答	-3986
表演	-3987
运气	-3988
▁二	-3989
真有	-3990
事情的	-3991
企业的	-3992
的那样	-3993
干的	-3994
细节	-3995
▁更新	-3996
ear	-3997
的是什么	-3998
再来	-3999
师父	-4000
献帝	-4001
不喜欢	-4002
长长的	-4003
找个	-4004
此人	-4005
各地	-4006
▁此时	-4007
你应该	-4008
▁更新时间	-4009
不死	-4010
▁第三	-4011
iv	-4012
▁F	-4013
开发	-4014
所谓的	-4015
在内	-4016
应当	-4017
保留	-4018
▁而且	-4019
举动	-4020
不住了	-4021
了很多	-4022
停下来	-4023
已经在	-4024
绝对不会	-4025
查克	-4026
也得	-4027
推进	-4028
暗暗	-4029
笑话	-4030
不清楚	-4031
实的	-4032
是没有	-4033
来得及	-4034
境界	-4035
斯的	-4036
大海	-4037
少数	-4038
六个	-4039
区的	-4040
录音	-4041
死去	-4042
着眼	-4043
身为	-4044
十万	-4045
恋爱	-4046
把这个	-4047
惊呼	-4048
▁on	-4049
本能	-4050
舌头	-4051
先进	-4052
宣传	-4053
更有	-4054
本章字数	-4055
满是	-4056
着气	-4057
这只	-4058
是我们	-4059
戈壁	-4060
笑得	-4061
色彩	-4062
发生的	-4063
紧急	-4064
了些	-4065
钥匙	-4066
汉献帝	-4067
光的	-4068
思维	-4069
ess	-4070
摇头道	-4071
的女孩	-4072
盔甲	-4073
到了一	-4074
虫族	-4075
鬼魂	-4076
苦笑了一下	-4077
总会	-4078
永达	-4079
全面	-4080
销商	-4081
什么的	-4082
这么做	-4083
什么事情	-4084
好吗	-4085
越是	-4086
打了个	-4087
手下的	-4088
自己在	-4089
尊重	-4090
不应该	-4091
了我的	-4092
产生的	-4093
是什么意思	-4094
够了	-4095
怎么能	-4096
法子	-4097
很简单	-4098
徐德	-4099
有限	-4100
森林	-4101
我先	-4102
机枪	-4103
人也	-4104
出现的	-4105
却被	-4106
早晨	-4107
对话	-4108
最后一	-4109
会被	-4110
感慨	-4111
的马	-4112
贵的	-4113
柯拉	-4114
爆发	-4115
即便是	-4116
出了一个	-4117
宝石	-4118
蔡伤	-4119
规律	-4120
你是不是	-4121
需求	-4122
走过去	-4123
孤独	-4124
为你	-4125
遗憾	-4126
姐妹	-4127
战士们	-4128
吃了一惊	-4129
干扰	-4130
注意力	-4131
东南	-4132
半点	-4133
──”	-4134
人人都	-4135
奇迹	-4136
犯罪	-4137
看清	-4138
镇虏	-4139
将领	-4140
里面的	-4141
沉思	-4142
而过	-4143
对他们	-4144
可不	-4145
顿了一顿	-4146
了三	-4147
坦克	-4148
鼓励	-4149
慕容	-4150
长长	-4151
在山	-4152
开林	-4153
不定	-4154
保安	-4155
摆脱	-4156
改革	-4157
房间里	-4158
打断了	-4159
细胞	-4160
高大	-4161
地说着	-4162
诱惑	-4163
转过身来	-4164
阶级	-4165
对抗	-4166
却在	-4167
自己是	-4168
大口	-4169
打仗	-4170
ies	-4171
了上来	-4172
不耐烦	-4173
一一	-4174
卓尔	-4175
图书	-4176
步枪	-4177
ant	-4178
夜晚	-4179
弟兄	-4180
人之	-4181
质量	-4182
董事长	-4183
下降	-4184
▁小郭	-4185
辛开林	-4186
以便	-4187
要说	-4188
重大	-4189
生活的	-4190
快要	-4191
原振侠的	-4192
他只是	-4193
成了一	-4194
开车	-4195
椅子上	-4196
后果	-4197
指挥官	-4198
就是一个	-4199
免费	-4200
和平	-4201
急促	-4202
百里	-4203
折磨	-4204
管宁	-4205
辛格	-4206
醒了	-4207
克丽	-4208
转眼	-4209
这也	-4210
世界的	-4211
让自己	-4212
增长	-4213
斯蒂	-4214
无论是	-4215
下车	-4216
欲望	-4217
规则	-4218
弗雷	-4219
欺负	-4220
一只手	-4221
达到了	-4222
半夜	-4223
月的	-4224
洋洋	-4225
用于	-4226
送给	-4227
公平	-4228
她和	-4229
一时间	-4230
物的	-4231
出身	-4232
掩饰	-4233
走过来	-4234
渴望	-4235
防线	-4236
跟前	-4237
根本就不	-4238
这样的人	-4239
卫兵	-4240
▁``	-4241
老人家	-4242
妇女	-4243
进化	-4244
不屑	-4245
少爷	-4246
索菲	-4247
整个人	-4248
楚国	-4249
葫芦	-4250
递给	-4251
加以	-4252
地里	-4253
勒曼	-4254
谈判	-4255
鲁迅	-4256
长大	-4257
看见了	-4258
加速	-4259
心底	-4260
原来是	-4261
▁莫菲儿	-4262
军中	-4263
的特	-4264
脑海	-4265
▁我在	-4266
的说道	-4267
怎么回事	-4268
开放	-4269
教训	-4270
▁r	-4271
所长	-4272
all	-4273
www	-4274
斯巴达	-4275
情人	-4276
上有	-4277
声中	-4278
读者	-4279
穆秀珍	-4280
伟大的	-4281
笼罩	-4282
投资者	-4283
殿下	-4284
又一次	-4285
发出的	-4286
扩大	-4287
话说	-4288
技巧	-4289
跑去	-4290
几句话	-4291
龙之介	-4292
之事	-4293
使劲	-4294
放松	-4295
料到	-4296
西门	-4297
天气	-4298
方天	-4299
火力	-4300
袁绍	-4301
的战斗	-4302
分配	-4303
只得	-4304
身影	-4305
报仇	-4306
ore	-4307
一直到	-4308
和尚	-4309
遭到	-4310
简直是	-4311
多半	-4312
夸张	-4313
残酷	-4314
的上	-4315
:”	-4316
翼翼	-4317
股市	-4318
自身	-4319
机器人	-4320
出版	-4321
在空中	-4322
发着	-4323
查林	-4324
青春	-4325
主要是	-4326
如果是	-4327
动静	-4328
分手	-4329
干了	-4330
做梦	-4331
凌嘉	-4332
完毕	-4333
想办法	-4334
想知道	-4335
一身	-4336
银子	-4337
到哪里	-4338
再度	-4339
但也	-4340
意料之外	-4341
管理人员	-4342
像个	-4343
不远处	-4344
并未	-4345
而我	-4346
加查林	-4347
将她	-4348
得好	-4349
旋转	-4350
昏迷	-4351
五千	-4352
哭了	-4353
发出了一下	-4354
聊天	-4355
嘻嘻	-4356
宗教	-4357
活的	-4358
议论	-4359
高速	-4360
塔娜	-4361
一方面	-4362
的同时	-4363
农村	-4364
前往	-4365
射出	-4366
组合	-4367
在这儿	-4368
他用	-4369
惩罚	-4370
瑞琪	-4371
更何况	-4372
查克纳	-4373
有事	-4374
可以在	-4375
供应	-4376
到时	-4377
小组	-4378
在意	-4379
勒曼医院	-4380
看过	-4381
面临	-4382
都已经	-4383
打扮	-4384
的身上	-4385
小心翼翼	-4386
带上	-4387
提前	-4388
来人	-4389
ers	-4390
买卖	-4391
本领	-4392
考验	-4393
有甚么	-4394
紧接着	-4395
发生的事	-4396
模式	-4397
但是我	-4398
启动	-4399
在乎	-4400
神仙	-4401
他们也	-4402
科塔娜	-4403
天上	-4404
帐篷	-4405
最为	-4406
胡克	-4407
不知所	-4408
之感	-4409
几百	-4410
敏感	-4411
王大	-4412
的可能	-4413
''	-4414
就象	-4415
激光	-4416
难看	-4417
没有再	-4418
传来了	-4419
的命令	-4420
的第一	-4421
。	-4422
凌嘉瑞	-4423
造成的	-4424
好不容易	-4425
▁史	-4426
复制	-4427
景象	-4428
犹如	-4429
疼痛	-4430
望远	-4431
要在	-4432
国家的	-4433
奇异	-4434
长江	-4435
当的	-4436
甚至连	-4437
玉米	-4438
的朋友	-4439
礼物	-4440
放弃了	-4441
掩护	-4442
还算	-4443
着自己的	-4444
几名	-4445
呆呆	-4446
进行了	-4447
倒了	-4448
大厦	-4449
婴儿	-4450
一旁	-4451
血液	-4452
▁de	-4453
下去了	-4454
山虎上校	-4455
寂静	-4456
摆手	-4457
足够的	-4458
发生了什么事	-4459
见我	-4460
制作	-4461
干嘛	-4462
斯坦	-4463
酒杯	-4464
强调	-4465
抚摸	-4466
不来	-4467
双臂	-4468
名叫	-4469
悲哀	-4470
第二个	-4471
岛上	-4472
路的	-4473
座位	-4474
很可能	-4475
还真是	-4476
做法	-4477
杨帆	-4478
然大	-4479
大楼	-4480
他能	-4481
尊敬	-4482
好像是	-4483
抬起头	-4484
三千	-4485
的说法	-4486
▁白老大	-4487
ge	-4488
平原	-4489
呻吟	-4490
部长	-4491
交往	-4492
骨头	-4493
不相	-4494
住的	-4495
偷袭	-4496
纠缠	-4497
情愿	-4498
在自己的	-4499
家中	-4500
的人们	-4501
阿拉伯	-4502
一带	-4503
我当然	-4504
▁铁	-4505
地对	-4506
刚好	-4507
卫生	-4508
重点	-4509
为什么会	-4510
平常	-4511
谨慎	-4512
不准	-4513
有这样的	-4514
支撑	-4515
风吹	-4516
她的手	-4517
想了一想	-4518
处长	-4519
弱的	-4520
老的	-4521
格外	-4522
和一个	-4523
官兵	-4524
毛病	-4525
▁听到	-4526
又问	-4527
完全是	-4528
对我的	-4529
索菲娅	-4530
惊恐	-4531
拍了拍	-4532
报道	-4533
线索	-4534
绿色	-4535
企图	-4536
时分	-4537
推测	-4538
有利	-4539
诸侯	-4540
好不好	-4541
个子	-4542
暗中	-4543
▁孙	-4544
丛林	-4545
大石	-4546
宝贝	-4547
往前	-4548
老鼠	-4549
一点儿	-4550
的车	-4551
等候	-4552
会上	-4553
改造	-4554
的信	-4555
▁海特	-4556
女生	-4557
是吗	-4558
病房	-4559
着眼睛	-4560
就走	-4561
的攻击	-4562
和他们	-4563
精力	-4564
迷惑	-4565
的事实	-4566
逸仇	-4567
骄傲	-4568
使者	-4569
称呼	-4570
那两	-4571
普通人	-4572
她想	-4573
牛顿	-4574
躲在	-4575
了一条	-4576
__	-4577
媳妇	-4578
风险	-4579
看着我	-4580
城门	-4581
有意	-4582
国民党	-4583
物品	-4584
高度	-4585
在这一	-4586
从前	-4587
毕竟是	-4588
祝永达	-4589
天使	-4590
首领	-4591
搜索	-4592
▁四	-4593
留下来	-4594
看不出	-4595
可就	-4596
幸好	-4597
碎片	-4598
评论	-4599
分之一	-4600
的任务	-4601
的影响	-4602
那次	-4603
人间	-4604
我倒	-4605
▁by	-4606
望远镜	-4607
但这	-4608
借口	-4609
口呆	-4610
垃圾	-4611
▁倾城	-4612
一个是	-4613
得十分	-4614
头脑	-4615
镜子	-4616
城内	-4617
探测	-4618
阴谋	-4619
了指	-4620
做过	-4621
咬着	-4622
师长	-4623
他们就	-4624
th	-4625
气势	-4626
绝不是	-4627
前后	-4628
和小	-4629
▁『	-4630
可笑	-4631
私人	-4632
试验	-4633
地带	-4634
明亮	-4635
之心	-4636
仍是	-4637
它是	-4638
一部分	-4639
在心里	-4640
个个	-4641
外星	-4642
建造	-4643
枪声	-4644
好气	-4645
成波	-4646
我跟	-4647
▁对	-4648
背影	-4649
这回	-4650
▁赵	-4651
惊人	-4652
受到了	-4653
到他	-4654
当了	-4655
疯子	-4656
这张	-4657
的主要	-4658
一分	-4659
尔撒	-4660
有林	-4661
听听	-4662
完美	-4663
的手中	-4664
有什么事	-4665
将其	-4666
机的	-4667
没有办法	-4668
少了	-4669
白帆	-4670
的美	-4671
克隆人	-4672
禁不住	-4673
坚定	-4674
巴巴	-4675
行人	-4676
激情	-4677
被打	-4678
一杯	-4679
的目的	-4680
快的	-4681
护卫	-4682
轻声	-4683
心脏	-4684
也许是	-4685
升起	-4686
的三	-4687
走近	-4688
金刚	-4689
别墅	-4690
格丽	-4691
▁有	-4692
干掉	-4693
我家	-4694
▁W	-4695
庞统	-4696
符合	-4697
折腾	-4698
只知道	-4699
翻译	-4700
去年	-4701
夫妇	-4702
武士	-4703
死在	-4704
落地	-4705
▁拉拉	-4706
不需要	-4707
又不是	-4708
实施	-4709
了进去	-4710
ab	-4711
将我	-4712
倒霉	-4713
帽子	-4714
的情绪	-4715
占据	-4716
律师	-4717
落到	-4718
落的	-4719
礼貌	-4720
追问	-4721
地回答	-4722
留下的	-4723
旅行	-4724
采用	-4725
莫不计	-4726
就此	-4727
战场上	-4728
心上	-4729
一层	-4730
老虎	-4731
探险	-4732
更好	-4733
给我的	-4734
若不是	-4735
一夜	-4736
和那	-4737
等你	-4738
可是却	-4739
有人在	-4740
十个	-4741
面前的	-4742
形态	-4743
表面上	-4744
很多人	-4745
手上的	-4746
便会	-4747
激烈	-4748
这块	-4749
急速	-4750
感染	-4751
昨晚	-4752
火箭	-4753
背叛	-4754
这类	-4755
发起	-4756
喉咙	-4757
我以为	-4758
脚步声	-4759
交代	-4760
白痴	-4761
号的	-4762
▁你	-4763
▁杜	-4764
多人	-4765
大炮	-4766
魔兽	-4767
格斗	-4768
的吗	-4769
远了	-4770
死神	-4771
一下子就	-4772
三多	-4773
要找	-4774
设法	-4775
的脸色	-4776
月光	-4777
ist	-4778
田行健	-4779
大亨	-4780
的孩子	-4781
姜灿	-4782
整齐	-4783
也只有	-4784
邪恶	-4785
注视着	-4786
牙齿	-4787
瞄准	-4788
的电话	-4789
不许	-4790
陷阱	-4791
付出	-4792
几个月	-4793
而且还	-4794
城外	-4795
普遍	-4796
在这样的	-4797
打扰	-4798
文义	-4799
▁it	-4800
汤有林	-4801
面目	-4802
威尔	-4803
趋势	-4804
高高	-4805
一起去	-4806
的变化	-4807
这个小	-4808
跳了起来	-4809
有钱	-4810
就不会	-4811
无比的	-4812
的目标	-4813
白奇伟	-4814
水灵	-4815
守卫	-4816
还不知道	-4817
========	-4818
古托	-4819
忙碌	-4820
讲到这里	-4821
▁乔	-4822
卧室	-4823
晚了	-4824
氏家族	-4825
着自己	-4826
总部	-4827
核心	-4828
说说	-4829
走过	-4830
是不会	-4831
狐狸	-4832
要做	-4833
或者是	-4834
山上	-4835
眼的	-4836
离子	-4837
而知	-4838
就是这样	-4839
居民	-4840
挂在	-4841
高层	-4842
上市	-4843
伟大	-4844
勇敢	-4845
物资	-4846
以下	-4847
她会	-4848
描述	-4849
的口	-4850
摇着头	-4851
响了	-4852
尽头	-4853
每年	-4854
答应了	-4855
必定	-4856
是不可能	-4857
于雷	-4858
长叹	-4859
从他	-4860
分开	-4861
清伶	-4862
了片刻	-4863
的女子	-4864
这东西	-4865
▁k	-4866
服装	-4867
灾难	-4868
微笑道	-4869
里头	-4870
一日	-4871
发明	-4872
这个世界	-4873
事了	-4874
作家	-4875
俊影	-4876
化为	-4877
潜艇	-4878
正经	-4879
相处	-4880
主管	-4881
奇怪的	-4882
if	-4883
红红	-4884
之中的	-4885
这些东西	-4886
停止了	-4887
交换	-4888
裤子	-4889
进门	-4890
的敌人	-4891
▁我的	-4892
额头	-4893
的女儿	-4894
▁su	-4895
的情报	-4896
阿尔	-4897
产生了	-4898
芙兰	-4899
▁可	-4900
大胆	-4901
的要求	-4902
各种各样的	-4903
大王	-4904
探索	-4905
冬天	-4906
协助	-4907
在半	-4908
伯爵	-4909
奇特	-4910
少校	-4911
尼斯	-4912
学员	-4913
接收	-4914
完全可以	-4915
。(	-4916
尽了	-4917
当场	-4918
坐下来	-4919
加快	-4920
尾巴	-4921
惊喜	-4922
▁not	-4923
星域	-4924
机甲的	-4925
也不想	-4926
寂寞	-4927
覆盖	-4928
女朋友	-4929
如果他	-4930
就没	-4931
▁接着	-4932
体会	-4933
暗示	-4934
短暂	-4935
阿弥	-4936
该如何	-4937
而他	-4938
清楚地	-4939
大伙	-4940
幻想	-4941
打听	-4942
竟是	-4943
野心	-4944
屏幕上	-4945
的身份	-4946
固定	-4947
流派	-4948
她已经	-4949
清楚了	-4950
又不	-4951
最初	-4952
联想	-4953
操纵	-4954
自己也	-4955
后者	-4956
孙策	-4957
标志	-4958
就行了	-4959
改变了	-4960
也不可能	-4961
毫无疑问	-4962
三位	-4963
这种事	-4964
打了一个	-4965
拉塞尔	-4966
作为一个	-4967
程东	-4968
向你	-4969
广场	-4970
正要	-4971
疯了	-4972
用处	-4973
放到	-4974
天晚上	-4975
你已经	-4976
因为他们	-4977
骇然	-4978
小队	-4979
尽力	-4980
广荣	-4981
若干	-4982
指了指	-4983
将近	-4984
的军	-4985
身穿	-4986
猴子	-4987
就好	-4988
逃走	-4989
也不知	-4990
的精神	-4991
对自己的	-4992
就去	-4993
德国	-4994
是好	-4995
可是我	-4996
",	-4997
评价	-4998
▁蔡风	-4999
如果我	-5000
与其	-5001
存在的	-5002
中最	-5003
回应	-5004
奉飞	-5005
虚拟	-5006
迎接	-5007
人数	-5008
只是在	-5009
都不知道	-5010
姿态	-5011
的作用	-5012
君子	-5013
着那	-5014
障碍	-5015
靠在	-5016
地从	-5017
与此	-5018
试试	-5019
春江	-5020
一万	-5021
两眼	-5022
共和	-5023
笑意	-5024
若璇	-5025
言不	-5026
这几天	-5027
光线	-5028
重重地	-5029
起码	-5030
外面的	-5031
满面	-5032
被我	-5033
哼一声	-5034
以往	-5035
说服	-5036
一同	-5037
听起来	-5038
em	-5039
才有	-5040
生日	-5041
的尸体	-5042
一对	-5043
大喊	-5044
安然	-5045
服从	-5046
警卫	-5047
仍在	-5048
十足	-5049
▁后来	-5050
的钱	-5051
穿了	-5052
鲁西	-5053
万良	-5054
变的	-5055
感叹	-5056
糟糕	-5057
贡献	-5058
伙伴	-5059
目瞪	-5060
盾牌	-5061
策略	-5062
说的话	-5063
还不如	-5064
怎能	-5065
这个样子	-5066
自然也	-5067
指标	-5068
▁到了	-5069
不就是	-5070
四个人	-5071
超越	-5072
▁雷	-5073
神奇	-5074
地球人的	-5075
并不知道	-5076
口的	-5077
巡逻	-5078
无穷	-5079
五分钟	-5080
的发展	-5081
停在	-5082
下来了	-5083
望着我	-5084
诗音	-5085
已经完全	-5086
小孩子	-5087
位于	-5088
的死	-5089
▁ne	-5090
像是在	-5091
着她的	-5092
太后	-5093
是他的	-5094
副官	-5095
落下	-5096
我也是	-5097
所有的人	-5098
点的	-5099
用心	-5100
收获	-5101
在那个	-5102
不经	-5103
剧烈	-5104
忙着	-5105
有几个	-5106
资产	-5107
引起了	-5108
长了	-5109
长剑	-5110
our	-5111
星星	-5112
▁艾	-5113
裴奉飞	-5114
什么意思	-5115
无一	-5116
相关	-5117
破烂	-5118
老百姓	-5119
遇到了	-5120
两种	-5121
崩溃	-5122
嗓子	-5123
五年	-5124
是由于	-5125
的面前	-5126
鲁西达	-5127
否认	-5128
花了	-5129
沉重的	-5130
▁白素道	-5131
累了	-5132
受不了	-5133
大为	-5134
天王	-5135
微笑着	-5136
成为了	-5137
光了	-5138
成都	-5139
尔撒斯	-5140
抱住	-5141
梦中	-5142
▁我又	-5143
鲁西达尼亚	-5144
打个	-5145
海军	-5146
ian	-5147
上面的	-5148
不小心	-5149
好久	-5150
留意	-5151
等待着	-5152
深的	-5153
这片	-5154
了一次	-5155
但是在	-5156
士兵们	-5157
教师	-5158
证实	-5159
物体	-5160
的世界	-5161
两百	-5162
何时	-5163
干吗	-5164
关八爷	-5165
海水	-5166
皇宫	-5167
老夫	-5168
青龙	-5169
经过了	-5170
他人	-5171
▁至于	-5172
耸肩	-5173
这是我	-5174
上车	-5175
秀禾	-5176
道路	-5177
有三	-5178
▁齐白	-5179
足足	-5180
特殊的	-5181
未能	-5182
灿烂	-5183
白白	-5184
▁为了	-5185
疲惫	-5186
工程师	-5187
的身影	-5188
那不是	-5189
实在是太	-5190
产业	-5191
他妈	-5192
生怕	-5193
记述	-5194
当下	-5195
这段	-5196
透了	-5197
过去的	-5198
了几下	-5199
你放心	-5200
疲倦	-5201
请问	-5202
谢谢你	-5203
一直没有	-5204
之意	-5205
公共	-5206
有些不	-5207
上门	-5208
手一	-5209
身分	-5210
了不起	-5211
南宫	-5212
一到	-5213
宣宣	-5214
广东	-5215
我军	-5216
你就是	-5217
你再	-5218
农业	-5219
是一片	-5220
目瞪口呆	-5221
也无	-5222
大惊	-5223
的父亲	-5224
天才	-5225
一本	-5226
严厉	-5227
特意	-5228
要他	-5229
眼看	-5230
透明	-5231
▁弗冈	-5232
根本无法	-5233
柔软	-5234
追击	-5235
我的心	-5236
知道他	-5237
单煜	-5238
失了	-5239
棉花	-5240
毛泽	-5241
很高兴	-5242
正确的	-5243
椅上	-5244
的计划	-5245
的机甲	-5246
确认	-5247
吸收	-5248
媒体	-5249
相似	-5250
▁been	-5251
二百	-5252
奔跑	-5253
强行	-5254
沉吟	-5255
reat	-5256
车门	-5257
借着	-5258
▁本来	-5259
尚未	-5260
告诉她	-5261
下次	-5262
戒指	-5263
下意识	-5264
qu	-5265
毛泽东	-5266
大脑	-5267
爱你	-5268
谁能	-5269
脑子里	-5270
开着	-5271
数百	-5272
新鲜	-5273
▁最后	-5274
人士	-5275
喝了	-5276
什么呢	-5277
首长	-5278
反驳	-5279
过分	-5280
学者	-5281
的地位	-5282
炮火	-5283
▁year	-5284
▁O	-5285
之力	-5286
收集	-5287
桌子上	-5288
现在是	-5289
你真	-5290
活佛	-5291
灵活	-5292
蓝色的	-5293
天寿	-5294
帝都	-5295
不利	-5296
兵器	-5297
拿到	-5298
故此	-5299
▁随着	-5300
带到	-5301
带来了	-5302
从中	-5303
拍拍	-5304
问她	-5305
倒在地	-5306
不绝	-5307
夏天	-5308
诧异	-5309
当时的	-5310
》。	-5311
好看	-5312
战役	-5313
玛尔斯	-5314
道上	-5315
寇逸仇	-5316
田广荣	-5317
这样一来	-5318
根本就没有	-5319
地将	-5320
挂着	-5321
放着	-5322
稍微	-5323
肩上	-5324
▁那个	-5325
我们也	-5326
这段时间	-5327
具备	-5328
唯有	-5329
藏在	-5330
反击	-5331
并无	-5332
系列	-5333
我希望	-5334
▁黑	-5335
闪闪	-5336
拥抱	-5337
身在	-5338
通了	-5339
你要是	-5340
就直接	-5341
婚礼	-5342
民兵	-5343
我感到	-5344
冷冷地道	-5345
肯定是	-5346
一间	-5347
都不是	-5348
站起身来	-5349
冷汗	-5350
沮丧	-5351
神态	-5352
职工	-5353
转动	-5354
不在乎	-5355
之为	-5356
战术	-5357
他可以	-5358
击中	-5359
怎会	-5360
那小	-5361
手来	-5362
继承	-5363
释放	-5364
如果没有	-5365
战的	-5366
拉克	-5367
餐厅	-5368
根本就是	-5369
流的	-5370
羡慕	-5371
考试	-5372
▁何	-5373
团队	-5374
尽的	-5375
手脚	-5376
跟她	-5377
发生过	-5378
著名的	-5379
我们已经	-5380
世的	-5381
实行	-5382
善良	-5383
巨人	-5384
理智	-5385
凌能	-5386
了回来	-5387
要塞	-5388
▁all	-5389
其中一个	-5390
现在已经	-5391
他了	-5392
心神	-5393
假的	-5394
出租	-5395
福克	-5396
米的	-5397
今后	-5398
引擎	-5399
是人	-5400
黑暗中	-5401
失落	-5402
摧毁	-5403
营长	-5404
提出了	-5405
开枪	-5406
一举	-5407
六十	-5408
结局	-5409
旁边的	-5410
丽的	-5411
魔鬼	-5412
叫什么	-5413
支援	-5414
参谋长	-5415
蜥蜴	-5416
赞同	-5417
走出了	-5418
镇虏军	-5419
另一方面	-5420
场合	-5421
做事	-5422
得罪	-5423
拉住	-5424
你刚才	-5425
未来的	-5426
批评	-5427
通信	-5428
黄堂	-5429
▁说着	-5430
意图	-5431
庞大的	-5432
身体的	-5433
子仪	-5434
星的	-5435
短短	-5436
考察	-5437
震撼	-5438
顶上	-5439
不受	-5440
这么大	-5441
戈壁沙漠	-5442
!......	-5443
讲述	-5444
说她	-5445
受过	-5446
嫣然	-5447
期望	-5448
楼上	-5449
也想	-5450
看样子	-5451
一的	-5452
又能	-5453
走上	-5454
ous	-5455
而下	-5456
隐约	-5457
ac	-5458
又把	-5459
放开	-5460
ation	-5461
下达	-5462
苦涩	-5463
中的一	-5464
奇妙	-5465
好啊	-5466
攻城	-5467
浪漫	-5468
素质	-5469
他很	-5470
基因	-5471
的行	-5472
葛荣	-5473
他们两人	-5474
叫你	-5475
叶子	-5476
子弟	-5477
眼色	-5478
给予	-5479
英语	-5480
在外面	-5481
有那么	-5482
体力	-5483
体系	-5484
大臣	-5485
新娘	-5486
温度	-5487
那辆	-5488
不可以	-5489
不要再	-5490
nt	-5491
一再	-5492
乖乖	-5493
我一定	-5494
解释道	-5495
崇拜	-5496
改芸	-5497
暗自	-5498
one	-5499
真理	-5500
千年	-5501
小型	-5502
村里	-5503
点燃	-5504
一转	-5505
机舱	-5506
▁韩	-5507
顺手	-5508
找我	-5509
留下了	-5510
闭上眼睛	-5511
天色	-5512
▁原来	-5513
不语	-5514
得像	-5515
他觉得	-5516
狼狈	-5517
好几次	-5518
的味道	-5519
中尉	-5520
掌柜	-5521
▁又	-5522
了大	-5523
制服	-5524
明知	-5525
发布	-5526
心事	-5527
恭敬	-5528
起伏	-5529
这可是	-5530
局势	-5531
职务	-5532
要有	-5533
同时也	-5534
的身子	-5535
属下	-5536
外人	-5537
都不能	-5538
单纯	-5539
她却	-5540
撞击	-5541
。’	-5542
再见	-5543
对准	-5544
之色	-5545
点钟	-5546
另一种	-5547
的确是	-5548
▁月	-5549
切的	-5550
肉体	-5551
▁周	-5552
住所	-5553
直奔	-5554
财产	-5555
因为她	-5556
还以为	-5557
狙击	-5558
骂道	-5559
▁只见	-5560
作者	-5561
我到	-5562
如此之	-5563
过来了	-5564
窗口	-5565
亮了	-5566
压制	-5567
成果	-5568
不断的	-5569
天生	-5570
无线	-5571
花的	-5572
人马	-5573
男朋友	-5574
▁wor	-5575
▁两	-5576
是用	-5577
过我	-5578
的身边	-5579
仓库	-5580
无名	-5581
防止	-5582
rom	-5583
不免	-5584
伤亡	-5585
大吃	-5586
悲伤	-5587
低着头	-5588
总经理	-5589
不理	-5590
若无	-5591
莱茵	-5592
▁or	-5593
了一步	-5594
的衣服	-5595
如果我们	-5596
为主	-5597
开火	-5598
想必	-5599
我喜欢	-5600
师兄	-5601
日记	-5602
!!”	-5603
写着	-5604
心动	-5605
欺骗	-5606
克丽丝	-5607
久了	-5608
在场	-5609
难免	-5610
继续道	-5611
空白	-5612
想一想	-5613
当然不是	-5614
▁D	-5615
个月	-5616
一面说	-5617
入口	-5618
全体	-5619
穿上	-5620
ight	-5621
,"	-5622
一号	-5623
一趟	-5624
席尔	-5625
王晨	-5626
挥了	-5627
钱的	-5628
的研究	-5629
原地	-5630
品牌	-5631
正想	-5632
这帮	-5633
雷达	-5634
在那一	-5635
经销商	-5636
指出	-5637
痛快	-5638
言语	-5639
走到了	-5640
那是一个	-5641
张大了	-5642
本来就	-5643
问了	-5644
张开	-5645
组织的	-5646
娃娃	-5647
梦想	-5648
要么	-5649
不知不觉	-5650
讯号	-5651
的心理	-5652
▁水	-5653
的办法	-5654
主张	-5655
差不	-5656
巴图	-5657
房里	-5658
管家	-5659
代替	-5660
埃及	-5661
急了	-5662
退出	-5663
年轻的	-5664
线的	-5665
想起来	-5666
争论	-5667
宁愿	-5668
那我	-5669
对这个	-5670
异样的	-5671
婉清	-5672
徐朗	-5673
!"	-5674
下载	-5675
假装	-5676
情感	-5677
琳娜	-5678
▁“......	-5679
太大	-5680
神来	-5681
性质	-5682
法宝	-5683
空的	-5684
变异	-5685
就更	-5686
航行	-5687
一无所	-5688
如果不	-5689
▁木兰花	-5690
吃过	-5691
成交量	-5692
直接就	-5693
承诺	-5694
车厢	-5695
hen	-5696
你没有	-5697
的程度	-5698
室的	-5699
才发现	-5700
马上就	-5701
何等	-5702
自言	-5703
跑来	-5704
院子	-5705
台的	-5706
哈特	-5707
有不少	-5708
的儿子	-5709
的地步	-5710
人说	-5711
众多	-5712
西安	-5713
总裁	-5714
校长	-5715
他妈的	-5716
岂不是	-5717
一动不动	-5718
了自己的	-5719
培育	-5720
找出	-5721
他就是	-5722
做得	-5723
财务	-5724
任何一个	-5725
的情形下	-5726
抱怨	-5727
抱歉	-5728
晚饭	-5729
看你	-5730
也已经	-5731
睡着了	-5732
给你们	-5733
飞快地	-5734
地步	-5735
精锐	-5736
谁也	-5737
▁哈	-5738
在最	-5739
平日	-5740
意地	-5741
祝娟	-5742
降低	-5743
一是	-5744
他只	-5745
试探	-5746
趁机	-5747
饭店	-5748
严重的	-5749
出去了	-5750
把我们	-5751
把这些	-5752
人头	-5753
间谍	-5754
了半晌	-5755
看着他	-5756
码头	-5757
这下	-5758
当她	-5759
肯定会	-5760
一处	-5761
苏醒	-5762
拉开	-5763
有好	-5764
▁突然	-5765
似地	-5766
呼延	-5767
那东西	-5768
陆涛	-5769
不说话	-5770
穷人	-5771
陡地	-5772
洛阳	-5773
领着	-5774
个人的	-5775
了一半	-5776
神秘的	-5777
得住	-5778
登陆	-5779
的亲	-5780
遗传	-5781
是真的	-5782
四人	-5783
族的	-5784
杂志	-5785
但还是	-5786
王爷	-5787
石菊	-5788
降落	-5789
低声道	-5790
我听	-5791
接待	-5792
创新	-5793
在小	-5794
惊奇	-5795
了进来	-5796
吕蒙	-5797
极端	-5798
民众	-5799
然的	-5800
更大的	-5801
》、	-5802
温谷	-5803
屋子里	-5804
很好的	-5805
未免	-5806
船的	-5807
不同意	-5808
HE	-5809
不等	-5810
谁知	-5811
的内容	-5812
▁人	-5813
委托	-5814
师妹	-5815
地上的	-5816
亲眼	-5817
莫非	-5818
先生的	-5819
自言自语	-5820
那头	-5821
针对	-5822
扬起	-5823
知的	-5824
米兰	-5825
鲁肃	-5826
召唤	-5827
时光	-5828
我发现	-5829
入侵	-5830
好人	-5831
我怕	-5832
单煜薰	-5833
大型	-5834
打的	-5835
星子	-5836
通红	-5837
顺便	-5838
当然不会	-5839
从容	-5840
唱歌	-5841
隐瞒	-5842
***	-5843
助手	-5844
山庄	-5845
生猪	-5846
ave	-5847
需要的	-5848
外国	-5849
措施	-5850
眼珠	-5851
呼延鹏	-5852
着我的	-5853
露出了	-5854
县长	-5855
杀掉	-5856
没能	-5857
部队的	-5858
松了一口气	-5859
一刀	-5860
兴致	-5861
压抑	-5862
情形下	-5863
他便	-5864
同一	-5865
和张	-5866
向他们	-5867
商品	-5868
善于	-5869
罗斯	-5870
万岁	-5871
下巴	-5872
买了	-5873
厕所	-5874
双腿	-5875
招待	-5876
他们会	-5877
报复	-5878
等级	-5879
了一怔	-5880
从头	-5881
取出	-5882
远征	-5883
马腾	-5884
是如何	-5885
啤酒	-5886
幻觉	-5887
的红	-5888
这群	-5889
喊着	-5890
豪华	-5891
!“	-5892
四季	-5893
婠婠	-5894
望来	-5895
民主	-5896
即使是	-5897
一击	-5898
带走	-5899
法师	-5900
也只能	-5901
今天的	-5902
▁N	-5903
免得	-5904
又被	-5905
着大	-5906
胆子	-5907
陈阵	-5908
几分钟	-5909
压低	-5910
在水	-5911
尖叫	-5912
一挥手	-5913
你呢	-5914
楼下	-5915
龙的	-5916
▁她的	-5917
班奈	-5918
▁正文	-5919
▁this	-5920
恼怒	-5921
此外	-5922
电报	-5923
职员	-5924
卫星	-5925
整体	-5926
正义	-5927
炸弹	-5928
考古	-5929
▁《	-5930
为她	-5931
组成的	-5932
开会	-5933
比他	-5934
汉中	-5935
高声	-5936
一出	-5937
遇上	-5938
用不着	-5939
第五	-5940
他不是	-5941
阿尼密	-5942
怔了一怔	-5943
一说	-5944
弓箭	-5945
得起	-5946
战机	-5947
才对	-5948
敲门	-5949
老了	-5950
近乎	-5951
随手	-5952
太好了	-5953
看她	-5954
尼克	-5955
才行	-5956
集合	-5957
你到底	-5958
这里是	-5959
没有一个	-5960
八十	-5961
▁我心中	-5962
到了极点	-5963
极大	-5964
终究	-5965
他甚至	-5966
密集	-5967
警惕	-5968
讲完	-5969
有点儿	-5970
许多人	-5971
说下去	-5972
你没	-5973
看守	-5974
很想	-5975
我们会	-5976
虽然没有	-5977
也不禁	-5978
的语气	-5979
’。	-5980
万分	-5981
分成	-5982
非要	-5983
战斗力	-5984
拿出来	-5985
目的地	-5986
反应过来	-5987
带有	-5988
玉珍	-5989
就是在	-5990
认出	-5991
成了一个	-5992
技能	-5993
提及	-5994
▁果然	-5995
惊人的	-5996
知道我	-5997
干活	-5998
急急	-5999
一套	-6000
阴影	-6001
风雨	-6002
一字	-6003
远离	-6004
回去了	-6005
的对象	-6006
已有	-6007
比例	-6008
小时候	-6009
使她	-6010
就从	-6011
戴笠	-6012
无能	-6013
进展	-6014
▁上	-6015
朝着	-6016
尽可能	-6017
你对	-6018
我妈	-6019
父亲的	-6020
苑韵	-6021
问题是	-6022
关闭	-6023
小如	-6024
比起	-6025
像是一	-6026
基辛格	-6027
正常的	-6028
乱了	-6029
往外	-6030
掠过	-6031
民间	-6032
之类的	-6033
妇人	-6034
情景	-6035
感受到	-6036
闭上了	-6037
废话	-6038
也不过	-6039
就好了	-6040
os	-6041
两千	-6042
光明	-6043
周瑜	-6044
帮他	-6045
无常	-6046
平安	-6047
是那么	-6048
特别的	-6049
的人群	-6050
劲儿	-6051
地人	-6052
玩意	-6053
的手段	-6054
各国	-6055
头部	-6056
而易	-6057
以上的	-6058
周围的	-6059
登上	-6060
神圣	-6061
下一个	-6062
她要	-6063
如健	-6064
权威	-6065
来历	-6066
死死	-6067
岁月	-6068
当当	-6069
无不	-6070
着嘴	-6071
下面的	-6072
再也不	-6073
联盟	-6074
集体	-6075
裴如健	-6076
个性	-6077
也算	-6078
咳嗽	-6079
家乡	-6080
期的	-6081
众人的	-6082
电波	-6083
能否	-6084
tx	-6085
海上	-6086
苏斯	-6087
邦妮	-6088
附近的	-6089
法院	-6090
玄武	-6091
的金	-6092
铁生	-6093
挥舞	-6094
食品	-6095
扫描	-6096
抵达	-6097
推荐	-6098
这对	-6099
res	-6100
喘着气	-6101
布莱恩	-6102
▁宋	-6103
佣兵	-6104
握手	-6105
的过程	-6106
特种精英	-6107
这个名字	-6108
工夫	-6109
师弟	-6110
郁闷	-6111
不起来	-6112
厌恶	-6113
水师	-6114
没关系	-6115
笑起来	-6116
不忍	-6117
的铁	-6118
是可以	-6119
▁con	-6120
又有什么	-6121
是怎么回事	-6122
这不	-6123
了自己	-6124
哆嗦	-6125
村民	-6126
支队	-6127
火光	-6128
烦恼	-6129
我当时	-6130
缓缓地	-6131
说不出话来	-6132
弥漫	-6133
懒得	-6134
注视	-6135
火星	-6136
融合	-6137
▁蓝丝	-6138
保存	-6139
恨不得	-6140
头痛	-6141
她把	-6142
感应	-6143
营地	-6144
就在这时	-6145
▁郑	-6146
举行	-6147
ast	-6148
如果有	-6149
其事	-6150
愚蠢	-6151
帝国的	-6152
我一个人	-6153
异能	-6154
提着	-6155
老公	-6156
他们已经	-6157
哪有	-6158
女神	-6159
申请	-6160
的剑	-6161
这艘	-6162
太史慈的	-6163
这么一个	-6164
我曾	-6165
very	-6166
旅馆	-6167
阻挡	-6168
风暴	-6169
一点点	-6170
与之	-6171
分散	-6172
放下了	-6173
一等	-6174
来双	-6175
道歉	-6176
▁pe	-6177
你不会	-6178
时间的	-6179
重伤	-6180
▁man	-6181
亮声	-6182
安德	-6183
热的	-6184
我刚才	-6185
有一股	-6186
电子书	-6187
ould	-6188
狼群	-6189
黄色	-6190
什么样	-6191
在中国	-6192
培训	-6193
好在	-6194
客观	-6195
察觉	-6196
每人	-6197
游牧	-6198
生长	-6199
传出	-6200
冷漠	-6201
县城	-6202
告辞	-6203
微的	-6204
我向	-6205
我用	-6206
竭力	-6207
西克	-6208
刹那间	-6209
伤感	-6210
制止	-6211
生生	-6212
如其	-6213
面相	-6214
他是一个	-6215
朝鲜	-6216
梦雁	-6217
耀西	-6218
苏宁	-6219
你真的	-6220
掌握了	-6221
光屏	-6222
得以	-6223
旅游	-6224
细细	-6225
可靠	-6226
早在	-6227
混合	-6228
玲珑	-6229
运作	-6230
都说	-6231
不出声	-6232
选择了	-6233
也没有什么	-6234
惊慌	-6235
打架	-6236
的路	-6237
了开来	-6238
皱着眉	-6239
成为一个	-6240
中校	-6241
连长	-6242
不知所措	-6243
有何	-6244
老天	-6245
两边	-6246
河水	-6247
走后	-6248
量的	-6249
靠着	-6250
一个女人	-6251
但那	-6252
朦胧	-6253
一定有	-6254
指挥部	-6255
一拳	-6256
京都	-6257
出卖	-6258
心跳	-6259
出现在了	-6260
不远	-6261
绳子	-6262
虽然是	-6263
低沉	-6264
四川	-6265
帝王	-6266
不停的	-6267
去看看	-6268
只要你	-6269
▁我和白素	-6270
人来	-6271
还说	-6272
▁两个	-6273
▁过了	-6274
两侧	-6275
之情	-6276
土王	-6277
旁观	-6278
讯息	-6279
这名	-6280
然后再	-6281
▁will	-6282
潜水	-6283
行李	-6284
ame	-6285
的一点	-6286
um	-6287
事儿	-6288
无辜	-6289
虽说	-6290
跟随	-6291
无所谓	-6292
▁龙	-6293
她对	-6294
也十分	-6295
保云	-6296
老是	-6297
荡荡	-6298
事务	-6299
希腊	-6300
成一	-6301
玛格丽	-6302
七叔	-6303
不听	-6304
不平	-6305
几分	-6306
眨眼	-6307
谈谈	-6308
过得	-6309
不仅仅	-6310
钻石	-6311
默默地	-6312
性能	-6313
宇文静	-6314
很高	-6315
了一丝	-6316
传送	-6317
小宝	-6318
市长	-6319
ate	-6320
协调	-6321
大会	-6322
我实在	-6323
把他的	-6324
不舍	-6325
发言	-6326
抛弃	-6327
谈论	-6328
了我一眼	-6329
冒着	-6330
去见	-6331
就得	-6332
的理由	-6333
游击	-6334
目中	-6335
就不能	-6336
皇甫	-6337
风格	-6338
这样的话	-6339
化了	-6340
怒火	-6341
的书	-6342
绝无	-6343
没见过	-6344
▁我也	-6345
凌能丽	-6346
同一个	-6347
还是要	-6348
停留	-6349
多个	-6350
荣誉	-6351
三个月	-6352
地盯着	-6353
的人生	-6354
▁说	-6355
前途	-6356
反射	-6357
特点	-6358
已经有	-6359
代的	-6360
解开	-6361
辉煌	-6362
建筑物	-6363
仇恨	-6364
调动	-6365
不甘	-6366
长枪	-6367
问你	-6368
握住了	-6369
相当的	-6370
之声	-6371
猛烈	-6372
蓝熙	-6373
每一次	-6374
点什么	-6375
目的是	-6376
混蛋	-6377
不会再	-6378
利亚	-6379
只剩	-6380
大喜	-6381
将它	-6382
白化	-6383
运行	-6384
保持着	-6385
不妨	-6386
说了一句	-6387
巫师	-6388
巡洋	-6389
扬眉	-6390
了一只	-6391
心疼	-6392
杰彭	-6393
气质	-6394
这项	-6395
挥了挥手	-6396
和大	-6397
摊手	-6398
来源	-6399
绿色的	-6400
代理	-6401
喘息	-6402
杀气	-6403
纯粹	-6404
了一张	-6405
认真地	-6406
操控	-6407
下一步	-6408
不舒服	-6409
世家大	-6410
凡是	-6411
走路	-6412
什么叫	-6413
打招呼	-6414
跟我说	-6415
久的	-6416
走进了	-6417
变法	-6418
皇后	-6419
也有些	-6420
本来就是	-6421
王允	-6422
信仰	-6423
夜色	-6424
液体	-6425
维护	-6426
了声音	-6427
巡洋舰	-6428
指点	-6429
明了	-6430
在家	-6431
心惊	-6432
负担	-6433
金书	-6434
鸡蛋	-6435
接受了	-6436
她那	-6437
我得	-6438
有余	-6439
生了	-6440
发誓	-6441
老头子	-6442
团的	-6443
太多的	-6444
作了一个手势	-6445
▁秦	-6446
到最后	-6447
亲人	-6448
军师	-6449
局的	-6450
著名	-6451
迎面	-6452
该怎么办	-6453
了下	-6454
躲避	-6455
是一位	-6456
朱槿	-6457
她自己	-6458
自然会	-6459
这么快	-6460
都无法	-6461
多数	-6462
那好	-6463
莱茵哈特	-6464
也曾	-6465
流氓	-6466
物理	-6467
我只好	-6468
一件事	-6469
也算是	-6470
索性	-6471
▁等到	-6472
我这个	-6473
给他的	-6474
外表	-6475
了一把	-6476
合同	-6477
泥土	-6478
他向	-6479
他来	-6480
打破	-6481
有力	-6482
访问	-6483
骷髅	-6484
▁江悦	-6485
在一凡	-6486
动人	-6487
一笑道	-6488
大吃一惊	-6489
站在那里	-6490
这个消息	-6491
大气	-6492
被子	-6493
这小	-6494
与此同时	-6495
他已	-6496
发作	-6497
大不	-6498
恍惚	-6499
法的	-6500
半小时	-6501
叫了一声	-6502
士气	-6503
戴着	-6504
扭曲	-6505
映雪	-6506
称之为	-6507
我也不知道	-6508
dz	-6509
征服	-6510
指责	-6511
进来的	-6512
同类	-6513
▁凌云	-6514
发生在	-6515
笔记	-6516
梅斯	-6517
达龙	-6518
dzs	-6519
txdzs	-6520
一亮	-6521
就想	-6522
掏出	-6523
树枝	-6524
每当	-6525
▁见	-6526
往事	-6527
黑衣	-6528
好朋友	-6529
消失在	-6530
不容	-6531
圣上	-6532
巨响	-6533
把人	-6534
象征	-6535
睁开眼	-6536
▁等	-6537
而上	-6538
有兴趣	-6539
来找我	-6540
的气氛	-6541
他去	-6542
愕然	-6543
把头	-6544
此次	-6545
她没有	-6546
十来	-6547
急于	-6548
海洋	-6549
第六	-6550
腰间	-6551
》、《	-6552
使用的	-6553
风的	-6554
养殖	-6555
哪一个	-6556
挣扎着	-6557
离开这里	-6558
不服	-6559
▁约翰	-6560
我必须	-6561
渐渐地	-6562
要不然	-6563
方才	-6564
日常	-6565
自称	-6566
黑影	-6567
弄清楚	-6568
走了出来	-6569
亲手	-6570
功力	-6571
得要	-6572
让它	-6573
又开始	-6574
甲板上	-6575
的经历	-6576
一问	-6577
却见	-6578
发呆	-6579
好多	-6580
真诚	-6581
克里	-6582
又会	-6583
山坡	-6584
英明	-6585
志娟	-6586
清军	-6587
血的	-6588
一路上	-6589
卡罗	-6590
宝物	-6591
站立	-6592
蒙牛	-6593
是自己	-6594
美国人	-6595
人们的	-6596
大规模	-6597
看到他	-6598
柔和	-6599
不过他	-6600
土耳	-6601
恶魔	-6602
抗日	-6603
收回	-6604
黄河	-6605
使自己	-6606
居住	-6607
抗拒	-6608
和自己	-6609
▁此时的	-6610
凌晨	-6611
清晨	-6612
的范围	-6613
的资料	-6614
那几个	-6615
不知如何	-6616
军营	-6617
太监	-6618
以为然	-6619
说的是	-6620
黄色的	-6621
天堂	-6622
▁se	-6623
翻身	-6624
迹象	-6625
Ala	-6626
保密	-6627
呼啸	-6628
扭头	-6629
纵横	-6630
土耳其	-6631
参观	-6632
哪些	-6633
吃完	-6634
挑选	-6635
火山	-6636
委员会	-6637
三山	-6638
冲着	-6639
发达	-6640
埋伏	-6641
般地	-6642
有任何	-6643
一事	-6644
毛毛	-6645
的爱	-6646
的花	-6647
里去	-6648
他认为	-6649
怎么样了	-6650
你把	-6651
早点	-6652
淡梅	-6653
遥远	-6654
镜头	-6655
▁v	-6656
温和	-6657
百年	-6658
传来的	-6659
的母亲	-6660
随之	-6661
到底是	-6662
就必须	-6663
争夺	-6664
尝试	-6665
带的	-6666
ust	-6667
不能够	-6668
于海鹰	-6669
过了一会	-6670
青州军的	-6671
她不	-6672
最少	-6673
贝尔	-6674
透露	-6675
小狼	-6676
捕捉	-6677
多大的	-6678
就如同	-6679
的手下	-6680
品质	-6681
思路	-6682
明显的	-6683
▁L	-6684
尖锐	-6685
我突然	-6686
是怎么一回事	-6687
打死	-6688
驱逐	-6689
形成的	-6690
活下去	-6691
淡淡的	-6692
的实力	-6693
院子里	-6694
王千军的	-6695
以此	-6696
安南	-6697
职位	-6698
▁说完	-6699
哭泣	-6700
地主	-6701
寒冷	-6702
手腕	-6703
缺口	-6704
▁我想	-6705
赶来	-6706
这等	-6707
另外一个	-6708
从不	-6709
另有	-6710
怪事	-6711
树上	-6712
野兽	-6713
内心的	-6714
欧阳婉	-6715
她还	-6716
往后	-6717
翅膀	-6718
耐心	-6719
落后	-6720
降临	-6721
向我们	-6722
那个小	-6723
▁再	-6724
忠诚	-6725
的余	-6726
图书馆	-6727
他问	-6728
呆在	-6729
杜宇	-6730
她知道	-6731
ak	-6732
搞得	-6733
直觉	-6734
该死的	-6735
双脚	-6736
摩托	-6737
沉沉	-6738
蚂蚁	-6739
门上	-6740
淡然道	-6741
良久	-6742
听的	-6743
缺少	-6744
ard	-6745
甲板	-6746
身处	-6747
途中	-6748
短的时间	-6749
吉利	-6750
声明	-6751
室中	-6752
玛格丽特	-6753
容器	-6754
▁ch	-6755
装的	-6756
预料	-6757
他突然	-6758
这么多年	-6759
▁丁	-6760
伊斯	-6761
写信	-6762
乎乎	-6763
开启	-6764
的刀	-6765
笑脸	-6766
达尔	-6767
但现在	-6768
刚才的	-6769
▁洪	-6770
头大	-6771
头盔	-6772
快步	-6773
指令	-6774
来往	-6775
欢喜	-6776
不得了	-6777
本来是	-6778
的手势	-6779
下班	-6780
司空	-6781
而后	-6782
荷兰	-6783
你不能	-6784
凝重	-6785
绕着	-6786
隐蔽	-6787
八个	-6788
康熙	-6789
这三	-6790
的一部分	-6791
▁鲁	-6792
倾向	-6793
了他们	-6794
克莱	-6795
的船	-6796
因为在	-6797
做了一个	-6798
陆战	-6799
你说的	-6800
要不要	-6801
▁THE	-6802
这种事情	-6803
亚洲	-6804
地想	-6805
悠悠	-6806
▁at	-6807
微微一笑	-6808
又一	-6809
小小	-6810
当即	-6811
还有些	-6812
传奇	-6813
包裹	-6814
本质	-6815
两个月	-6816
紊乱	-6817
什么是	-6818
他心中	-6819
两淮	-6820
你快	-6821
她才	-6822
置信	-6823
太多了	-6824
宋金书	-6825
麻木	-6826
芙兰西亚	-6827
世间	-6828
姓名	-6829
州的	-6830
幸亏	-6831
软件	-6832
了一番	-6833
邦殊	-6834
▁ex	-6835
下落	-6836
年了	-6837
你这是	-6838
只听得	-6839
固执	-6840
维修	-6841
赵顼	-6842
避开	-6843
写了	-6844
台阶	-6845
有种	-6846
的重要	-6847
根本不知道	-6848
凶手	-6849
宁静	-6850
小事	-6851
苦笑道	-6852
走出来	-6853
▁我知道	-6854
哎呀	-6855
秩序	-6856
亲爱的	-6857
漂亮的	-6858
现出了	-6859
相识	-6860
香槟	-6861
不了解	-6862
烈火	-6863
认定	-6864
山谷	-6865
连串	-6866
他一直	-6867
在说	-6868
效率	-6869
教徒	-6870
最有	-6871
疫苗	-6872
喜悦	-6873
是一只	-6874
亲戚	-6875
回报	-6876
慕敏	-6877
杨天	-6878
没法	-6879
注定	-6880
邱小	-6881
了回去	-6882
俱乐	-6883
多拉	-6884
极限	-6885
越发	-6886
转变	-6887
传递	-6888
罗马	-6889
冷笑道	-6890
的秘密	-6891
工作人员	-6892
他被	-6893
盘旋	-6894
身躯	-6895
重庆	-6896
城中	-6897
真想	-6898
讲了	-6899
社会的	-6900
涉及	-6901
睡了	-6902
▁is	-6903
或者说	-6904
林文义	-6905
SS	-6906
一方	-6907
人体	-6908
教的	-6909
警员	-6910
好好地	-6911
我甚至	-6912
是多么	-6913
的一样	-6914
邱小贞	-6915
?......	-6916
兔子	-6917
原先	-6918
智能	-6919
成一团	-6920
那我们	-6921
冲到	-6922
诸位	-6923
你认为	-6924
停车	-6925
翻了	-6926
▁sh	-6927
并不能	-6928
没问题	-6929
王汗	-6930
电筒	-6931
在一边	-6932
我应该	-6933
▁from	-6934
借助	-6935
冲进	-6936
忽略	-6937
钻进	-6938
犯了	-6939
飞去	-6940
黑的	-6941
我给你	-6942
手里的	-6943
是他们	-6944
发泄	-6945
拿来	-6946
石块	-6947
art	-6948
ome	-6949
审判	-6950
对外	-6951
清理	-6952
赶忙	-6953
非但	-6954
二十四	-6955
做一个	-6956
先后	-6957
洞口	-6958
之后的	-6959
也不要	-6960
了一切	-6961
可是在	-6962
有这种	-6963
你不知道	-6964
;“	-6965
们都	-6966
傍晚	-6967
分辨	-6968
宾馆	-6969
强迫	-6970
詹姆	-6971
使他们	-6972
在那儿	-6973
你为什么	-6974
这么大的	-6975
两者	-6976
担忧	-6977
这可	-6978
金龙	-6979
时代的	-6980
深深的	-6981
突然之间	-6982
什么也没有	-6983
上天	-6984
不合	-6985
自顾	-6986
轨道	-6987
黑夜	-6988
配额	-6989
的空间	-6990
平台	-6991
贸易	-6992
亲切	-6993
实践	-6994
手掌	-6995
着说	-6996
看着她	-6997
这个女人	-6998
快艇	-6999
替他	-7000
要比	-7001
▁He	-7002
不认识	-7003
战胜	-7004
亲兵	-7005
守护	-7006
路边	-7007
阿姨	-7008
都不敢	-7009
伙计	-7010
凌音	-7011
层的	-7012
扇门	-7013
仍然是	-7014
双目	-7015
名为	-7016
封锁	-7017
波动	-7018
流行	-7019
航空	-7020
陪着	-7021
马超	-7022
其实是	-7023
的大门	-7024
的模样	-7025
一项	-7026
回复	-7027
构成	-7028
▁看到	-7029
正因为	-7030
大喝	-7031
但他们	-7032
怎样的	-7033
降头术	-7034
优雅	-7035
夕阳	-7036
用途	-7037
谁都	-7038
▁go	-7039
不高兴	-7040
了一圈	-7041
短时间	-7042
毫不犹豫	-7043
co	-7044
可想	-7045
多大	-7046
无耻	-7047
精确	-7048
莫测	-7049
原医生	-7050
市场的	-7051
非常的	-7052
告别	-7053
恶劣	-7054
无言	-7055
讲的	-7056
黄昏	-7057
各人	-7058
茫茫	-7059
▁第四	-7060
ople	-7061
合金	-7062
子和	-7063
皇家	-7064
舰长	-7065
骑马	-7066
只需要	-7067
高大的	-7068
史奈	-7069
就让	-7070
差别	-7071
施展	-7072
red	-7073
对面的	-7074
怎么做	-7075
氏兄弟	-7076
的手指	-7077
出色的	-7078
已经开始	-7079
前线	-7080
部落	-7081
总觉得	-7082
听过	-7083
嗡嗡	-7084
攻势	-7085
看不	-7086
一看到	-7087
负责人	-7088
姐夫	-7089
明镜	-7090
一刻	-7091
会计	-7092
完善	-7093
怀玉	-7094
的枪	-7095
胸膛	-7096
讲究	-7097
自然不会	-7098
协议	-7099
急着	-7100
抓起	-7101
流动	-7102
倒也	-7103
便可以	-7104
这里面	-7105
我们必须	-7106
ik	-7107
咆哮	-7108
最低	-7109
气愤	-7110
讶异	-7111
恶心	-7112
打过	-7113
狭窄	-7114
通话	-7115
▁水荭	-7116
的一凡	-7117
的部队	-7118
交道	-7119
惊异	-7120
已经到了	-7121
走了进来	-7122
公园	-7123
其次	-7124
展示	-7125
握住	-7126
紧了	-7127
老蔡	-7128
这让	-7129
复杂的	-7130
大眼睛	-7131
就是要	-7132
着什么	-7133
最后一个	-7134
纳尔逊先生	-7135
赚钱	-7136
▁直到	-7137
当他们	-7138
我不禁	-7139
的手臂	-7140
程度上	-7141
尔的	-7142
慌乱	-7143
景德	-7144
死后	-7145
罪犯	-7146
!”“	-7147
从来不	-7148
丢了	-7149
和人	-7150
杀的	-7151
海底	-7152
等了	-7153
语调	-7154
黎明	-7155
尼克松	-7156
不是什么	-7157
协会	-7158
很远	-7159
我心	-7160
商店	-7161
就将	-7162
怒吼	-7163
拉娜	-7164
凯斯	-7165
异样	-7166
性子	-7167
教堂	-7168
瞪着	-7169
两个字	-7170
僵硬	-7171
洗澡	-7172
翻滚	-7173
那年	-7174
孩子的	-7175
简直就是	-7176
//	-7177
天花	-7178
想说	-7179
潘多拉	-7180
陷入了	-7181
躺在床上	-7182
哈尔	-7183
神鹰	-7184
苔丝	-7185
ong	-7186
做的事	-7187
分裂	-7188
彼得	-7189
迟早	-7190
林极他们	-7191
▁‘	-7192
▁也	-7193
傻瓜	-7194
架子	-7195
血腥	-7196
ity	-7197
▁他在	-7198
脖子上	-7199
听出	-7200
的重	-7201
约定	-7202
多年的	-7203
仪式	-7204
停了	-7205
美神	-7206
面上的	-7207
脑部活动	-7208
这种情况	-7209
全无	-7210
狮子	-7211
真心	-7212
节奏	-7213
就可以了	-7214
天南	-7215
平民	-7216
放了	-7217
欣喜	-7218
ne	-7219
大批	-7220
幽灵	-7221
往上	-7222
面面相	-7223
流水	-7224
的木	-7225
缺点	-7226
罪恶	-7227
行政	-7228
觉察	-7229
还是在	-7230
fe	-7231
与你	-7232
乌云	-7233
美娟	-7234
这笔	-7235
ort	-7236
名义	-7237
惨叫	-7238
温泉	-7239
综合	-7240
所未	-7241
时辰	-7242
网上	-7243
见你	-7244
雪姬	-7245
他也不	-7246
熟悉的	-7247
一模	-7248
孙子	-7249
追踪	-7250
tp	-7251
杯酒	-7252
男性	-7253
▁于雷	-7254
布莱恩特	-7255
就成了	-7256
拖着	-7257
挡住	-7258
的王	-7259
立在	-7260
▁没有	-7261
也就不	-7262
共和国	-7263
算什么	-7264
舍不得	-7265
最重要的	-7266
多谢	-7267
活了	-7268
从他的	-7269
。‘	-7270
但又	-7271
公孙	-7272
十天	-7273
卑鄙	-7274
多月	-7275
讽刺	-7276
这家	-7277
得不到	-7278
竟然是	-7279
一指	-7280
上级	-7281
按钮	-7282
秀兰	-7283
运兵	-7284
我开始	-7285
更好的	-7286
父子	-7287
也开始	-7288
贾玉珍	-7289
露出一	-7290
在什么地方	-7291
仍旧	-7292
医学	-7293
依据	-7294
叔孙	-7295
嘴上	-7296
总结	-7297
湖广	-7298
花蕾	-7299
行情	-7300
了一场	-7301
回答道	-7302
长叹一声	-7303
山东	-7304
抽烟	-7305
立场	-7306
尔朱荣	-7307
万万	-7308
下跌	-7309
匹马	-7310
去过	-7311
第七	-7312
钢铁	-7313
://	-7314
坦尼斯	-7315
的状态	-7316
待遇	-7317
急得	-7318
她们的	-7319
一笔	-7320
大步	-7321
寒意	-7322
将之	-7323
的问	-7324
我早就	-7325
转过头	-7326
也太	-7327
交待	-7328
文静	-7329
杀伤	-7330
猪场	-7331
皱了	-7332
职能	-7333
胸脯	-7334
▁so	-7335
刹那之间	-7336
与人	-7337
多余	-7338
张望	-7339
循环	-7340
长根	-7341
▁玉霞	-7342
了多少	-7343
做不到	-7344
箫映雪	-7345
一九	-7346
当真	-7347
比你	-7348
阅读	-7349
战斗机	-7350
但是我却	-7351
曲线	-7352
▁up	-7353
服务员	-7354
▁肖	-7355
医疗	-7356
国外	-7357
树下	-7358
熟练	-7359
魔王	-7360
小伙子	-7361
倒在地上	-7362
出城	-7363
就越	-7364
悲剧	-7365
杯子	-7366
大小姐	-7367
一部	-7368
他都	-7369
滑稽	-7370
闪着	-7371
就好像	-7372
超过了	-7373
卡尔斯将军	-7374
▁伊	-7375
后方	-7376
听完	-7377
摄影	-7378
登时	-7379
这件	-7380
决不会	-7381
李宣宣	-7382
▁许	-7383
会是	-7384
巴掌	-7385
我被	-7386
生活在	-7387
绝大多数	-7388
吉普	-7389
模拟	-7390
秀萍	-7391
几十年	-7392
可怜的	-7393
春天	-7394
狡猾	-7395
也未曾	-7396
解决了	-7397
制定	-7398
散了	-7399
香烟	-7400
他看到	-7401
在这时	-7402
毛主席	-7403
痛苦的	-7404
一回	-7405
党校	-7406
山下	-7407
应用	-7408
邻居	-7409
军队的	-7410
再多	-7411
十字	-7412
莫杰	-7413
闷哼了一声	-7414
从那	-7415
喇嘛	-7416
一跃	-7417
出击	-7418
占了	-7419
眼皮	-7420
精彩	-7421
魅力	-7422
上了一	-7423
之大	-7424
他曾	-7425
坚强	-7426
有用	-7427
树木	-7428
消除	-7429
火的	-7430
绝不能	-7431
走了过来	-7432
他俩	-7433
掉的	-7434
接连	-7435
输了	-7436
那份	-7437
▁But	-7438
他的声音	-7439
幽幽	-7440
汗水	-7441
稍稍	-7442
看得出	-7443
接下来的	-7444
▁They	-7445
录像	-7446
无形	-7447
白了	-7448
站起	-7449
危险的	-7450
的人类	-7451
玉华	-7452
大不了	-7453
为一	-7454
弹药	-7455
心意	-7456
苏联	-7457
进屋	-7458
然后又	-7459
之久	-7460
喝着	-7461
富有	-7462
瑞克	-7463
诚恳	-7464
所有人的	-7465
上学	-7466
弱点	-7467
的能量	-7468
全军	-7469
留着	-7470
凭借	-7471
声色	-7472
似乎是	-7473
每个人都	-7474
那个时候	-7475
上课	-7476
游泳	-7477
逃避	-7478
到一个	-7479
生活中	-7480
纪嫣然	-7481
那尔撒斯	-7482
替我	-7483
要用	-7484
阿英	-7485
的缘故	-7486
张大了口	-7487
她道	-7488
陕西	-7489
面面相觑	-7490
更大	-7491
炸药	-7492
说起来	-7493
到这里来	-7494
一怔	-7495
午夜	-7496
残忍	-7497
然地	-7498
眉毛	-7499
麻子	-7500
也跟着	-7501
并没有什么	-7502
就行	-7503
深夜	-7504
碎了	-7505
自然知道	-7506
人所	-7507
营业	-7508
轻轻的	-7509
反问	-7510
纪念	-7511
锻炼	-7512
首都	-7513
伤了	-7514
倒下	-7515
妮维	-7516
星际	-7517
装饰	-7518
说吧	-7519
通向	-7520
却发现	-7521
妮维雅	-7522
不吃	-7523
以免	-7524
容耀	-7525
当日	-7526
潜伏	-7527
颇为	-7528
也只是	-7529
总不能	-7530
相应	-7531
千万别	-7532
这种人	-7533
无瑕	-7534
滚滚	-7535
眼下	-7536
趴在	-7537
成功了	-7538
程度的	-7539
还需要	-7540
听他	-7541
斯卡尔	-7542
生化兽	-7543
的意见	-7544
美国的	-7545
一拍	-7546
保镖	-7547
叹气	-7548
打败	-7549
普罗	-7550
阴阳	-7551
不再是	-7552
地时候	-7553
这个机会	-7554
星体	-7555
可能性	-7556
形成了	-7557
进行的	-7558
图案	-7559
地去	-7560
守军	-7561
防守	-7562
以为是	-7563
头上的	-7564
好好的	-7565
一批	-7566
导师	-7567
导演	-7568
最先	-7569
就是为了	-7570
上空	-7571
到大	-7572
特征	-7573
▁海棠	-7574
南极	-7575
引导	-7576
杰西	-7577
自已	-7578
一分钟	-7579
乔治	-7580
庆幸	-7581
移民	-7582
要的	-7583
难以形容	-7584
团体	-7585
想把	-7586
犹豫了一下	-7587
▁女	-7588
大致	-7589
隔着	-7590
在一张	-7591
找一个	-7592
只管	-7593
召集	-7594
将要	-7595
幅画	-7596
背着	-7597
面积	-7598
▁小亮	-7599
出租车	-7600
将自己	-7601
林极就	-7602
▁海	-7603
▁看	-7604
出兵	-7605
发疯	-7606
室内	-7607
面具	-7608
可以用	-7609
格拉斯	-7610
楚国公	-7611
腿上	-7612
以前的	-7613
系统的	-7614
吁了一口气	-7615
摸摸	-7616
你这样	-7617
老太太	-7618
一心	-7619
是十分	-7620
,《	-7621
ok	-7622
三次	-7623
体验	-7624
歌声	-7625
上来的	-7626
凭什么	-7627
亲王	-7628
写作	-7629
末日	-7630
深渊	-7631
粮草	-7632
在里面	-7633
上万	-7634
会发生	-7635
可恶	-7636
指望	-7637
的事了	-7638
传志	-7639
心急	-7640
思雅	-7641
抑制	-7642
鹿儿	-7643
带着一	-7644
柳传志	-7645
"。	-7646
收藏	-7647
王越	-7648
祈祷	-7649
进城	-7650
习惯了	-7651
的高手	-7652
有一个人	-7653
乐观	-7654
▁费	-7655
抽出	-7656
来讲	-7657
不要说	-7658
的话题	-7659
马克	-7660
的主人	-7661
还有一些	-7662
化妆	-7663
大吼	-7664
类的	-7665
她的话	-7666
我终于	-7667
国军	-7668
密切	-7669
已经很	-7670
所在的	-7671
地球上的	-7672
▁是	-7673
会员	-7674
判官	-7675
器的	-7676
改兴	-7677
火烧	-7678
自私	-7679
连接	-7680
那双	-7681
除此	-7682
已经不	-7683
那人的	-7684
力道	-7685
固然	-7686
惟一	-7687
方舟	-7688
棺材	-7689
王妃	-7690
花样	-7691
▁le	-7692
恍然大	-7693
这正是	-7694
和原振侠	-7695
之道	-7696
跳舞	-7697
闪耀	-7698
不会是	-7699
▁卓	-7700
得一	-7701
情地	-7702
有理	-7703
越南	-7704
边境	-7705
存在着	-7706
▁great	-7707
只在	-7708
和陈	-7709
归于	-7710
找你	-7711
斐盟	-7712
像一个	-7713
便被	-7714
突如其	-7715
她了	-7716
扶着	-7717
排列	-7718
的呢	-7719
看似	-7720
营销	-7721
眼看着	-7722
对我来说	-7723
出色	-7724
必需	-7725
怒气	-7726
远方	-7727
阮耀	-7728
怎么也	-7729
提出的	-7730
攻打	-7731
的眼中	-7732
有一定的	-7733
中学	-7734
出奇	-7735
大爷	-7736
那座	-7737
陆军	-7738
随口	-7739
下属	-7740
介意	-7741
及其	-7742
埋怨	-7743
很小	-7744
良好的	-7745
▁孔太平	-7746
世家大族	-7747
不妙	-7748
人事	-7749
少将	-7750
真人	-7751
老家	-7752
一想到	-7753
研究所	-7754
pe	-7755
位的	-7756
升降	-7757
摊了	-7758
如果说	-7759
在电话	-7760
转过头来	-7761
前辈	-7762
化学	-7763
嫉妒	-7764
忧郁	-7765
手续	-7766
招手	-7767
有的是	-7768
▁阿尼密	-7769
不变	-7770
洛林	-7771
预测	-7772
力量的	-7773
对他说	-7774
恍然大悟	-7775
震动了一下	-7776
催促	-7777
外界	-7778
我最	-7779
拿了	-7780
相貌	-7781
知觉	-7782
袁术	-7783
鳄人	-7784
把我的	-7785
这一天	-7786
可说	-7787
你是说	-7788
醒过来	-7789
这是什么	-7790
一架	-7791
强化	-7792
何婉清	-7793
古怪的	-7794
我爸	-7795
统帅	-7796
天开	-7797
我国	-7798
虽然在	-7799
不一会儿	-7800
可是现在	-7801
再看	-7802
许久	-7803
对不对	-7804
沈曼	-7805
不是一个	-7806
娱乐	-7807
法庭	-7808
这几	-7809
是一条	-7810
用一种	-7811
至少有	-7812
到过	-7813
外围	-7814
雷烽	-7815
我们又	-7816
清楚楚	-7817
坚硬	-7818
悬崖	-7819
跳动	-7820
决定了	-7821
多多	-7822
年后	-7823
柯蓝	-7824
逃亡	-7825
在这时候	-7826
走了出去	-7827
两声	-7828
主的	-7829
价钱	-7830
观看	-7831
责备	-7832
风云	-7833
男的	-7834
一堆	-7835
灭了	-7836
出去的	-7837
将他们	-7838
我们去	-7839
看出了	-7840
生命配额	-7841
别再	-7842
离了	-7843
风景	-7844
有的人	-7845
这一刻	-7846
也没什么	-7847
▁被	-7848
平方	-7849
扬了	-7850
流浪	-7851
灰色	-7852
看在	-7853
聚会	-7854
苹果	-7855
铁路	-7856
他一定	-7857
在这些	-7858
得那么	-7859
互望了一眼	-7860
大哭	-7861
岳涛	-7862
根生	-7863
问问	-7864
还记得	-7865
发出来的	-7866
ry	-7867
全球	-7868
早有	-7869
海中	-7870
运转	-7871
不住地	-7872
清清楚楚	-7873
报酬	-7874
水手	-7875
自豪	-7876
致生	-7877
良心	-7878
胖子的	-7879
▁士官长	-7880
会有什么	-7881
当然知道	-7882
却也	-7883
琢磨	-7884
婷婷	-7885
着小	-7886
而同	-7887
飞扬	-7888
▁风逸	-7889
困惑	-7890
烟雾	-7891
猜想	-7892
突出	-7893
请他	-7894
了一件	-7895
跳起来	-7896
一行	-7897
港口	-7898
醉了	-7899
里有	-7900
锁定	-7901
呆住了	-7902
天下午	-7903
激烈的	-7904
两个人的	-7905
席尔梅斯	-7906
嘲笑	-7907
天津	-7908
我吗	-7909
最快	-7910
大学生	-7911
就应该	-7912
我无法	-7913
用什么	-7914
了呢	-7915
和李	-7916
哈马	-7917
河边	-7918
在他们的	-7919
的女孩子	-7920
传播	-7921
当天	-7922
批准	-7923
沸腾	-7924
演员	-7925
过他	-7926
阵阵	-7927
弗雷德	-7928
▁陶启泉	-7929
水面	-7930
该死	-7931
接着说	-7932
的距离	-7933
一震	-7934
四肢	-7935
拜访	-7936
无话	-7937
无语	-7938
松开	-7939
犯人	-7940
米洛	-7941
来这里	-7942
他不知道	-7943
下马	-7944
南下	-7945
抵挡	-7946
船舱	-7947
营养	-7948
颇有	-7949
▁——	-7950
▁这样	-7951
匪徒	-7952
在高	-7953
躺着	-7954
听不懂	-7955
公众	-7956
圆形	-7957
推门	-7958
旋即	-7959
耸了	-7960
多少钱	-7961
拯救	-7962
理所	-7963
趁着	-7964
隔壁	-7965
不是我	-7966
他感到	-7967
拿出一	-7968
的房间	-7969
而且是	-7970
谁也不	-7971
找了	-7972
族人	-7973
汉奸	-7974
能把	-7975
试着	-7976
退休	-7977
▁大家	-7978
扬州	-7979
紫色	-7980
行驶	-7981
▁小雨	-7982
几乎没有	-7983
无心	-7984
杨明	-7985
舒适	-7986
通往	-7987
ree	-7988
想到的	-7989
我立即	-7990
的气息	-7991
上官	-7992
九天	-7993
围着	-7994
是指	-7995
杀戮	-7996
面孔	-7997
德拉寇	-7998
打量着	-7999
加度	-8000
向往	-8001
呼唤	-8002
天禄	-8003
当局	-8004
房屋	-8005
旁的	-8006
你必须	-8007
你觉得	-8008
放在心上	-8009
在这个时候	-8010
%,	-8011
职责	-8012
这辆	-8013
也应该	-8014
所以在	-8015
是你的	-8016
从我	-8017
枪的	-8018
频道	-8019
一样地	-8020
但我们	-8021
凝视着	-8022
还未曾	-8023
ag	-8024
实地	-8025
都快	-8026
相同的	-8027
德拉寇拉斯	-8028
▁people	-8029
▁以	-8030
个小	-8031
云南	-8032
发问	-8033
叫她	-8034
幻影	-8035
正当	-8036
▁看来	-8037
el	-8038
传达	-8039
全息	-8040
大富	-8041
总要	-8042
美洲	-8043
连声	-8044
这番话	-8045
剑波	-8046
只想	-8047
流血	-8048
追杀	-8049
正准备	-8050
自觉	-8051
当年的	-8052
停顿	-8053
无处	-8054
药物	-8055
了一样	-8056
ci	-8057
▁的	-8058
阿米	-8059
不管是	-8060
十几个	-8061
差距	-8062
庞大	-8063
思念	-8064
自在	-8065
ish	-8066
显得很	-8067
楼的	-8068
清脆	-8069
脆弱	-8070
落入	-8071
身于	-8072
ng	-8073
猎物	-8074
让你们	-8075
陌生人	-8076
已经有了	-8077
保守	-8078
卫视	-8079
听话	-8080
无事	-8081
机密	-8082
林佳	-8083
见她	-8084
最后一次	-8085
像我	-8086
分为	-8087
眼角	-8088
说要	-8089
回答说	-8090
船上的	-8091
差不多了	-8092
去想	-8093
地笑	-8094
手持	-8095
自尊	-8096
自有	-8097
两步	-8098
之势	-8099
出事	-8100
的所有	-8101
皇太后	-8102
元素	-8103
公社	-8104
种子	-8105
编辑	-8106
了几句	-8107
的一次	-8108
老大的	-8109
也是一个	-8110
傻了	-8111
儿童	-8112
带了	-8113
引弟	-8114
气味	-8115
练习	-8116
张口	-8117
给了我	-8118
那么大	-8119
上千	-8120
指向	-8121
规范	-8122
了这个	-8123
一早	-8124
所思	-8125
炮兵	-8126
称赞	-8127
路军	-8128
的环境	-8129
事物	-8130
团结	-8131
大营	-8132
数学	-8133
曲折	-8134
谁会	-8135
厚厚的	-8136
说实话	-8137
远远地	-8138
处在	-8139
头绪	-8140
死者	-8141
脱了	-8142
雷婷	-8143
仅仅是	-8144
我看见	-8145
究竟是	-8146
中所	-8147
转了	-8148
儿子的	-8149
因为那	-8150
现在就	-8151
刺耳	-8152
变形	-8153
燕芬	-8154
而至	-8155
看出来	-8156
半个小时	-8157
去向	-8158
英俊	-8159
大小的	-8160
疯狂的	-8161
四年	-8162
赵雅	-8163
对他来说	-8164
这种感觉	-8165
人不	-8166
出自	-8167
名单	-8168
难题	-8169
优秀的	-8170
我们有	-8171
的事儿	-8172
连连点头	-8173
在马	-8174
▁天保	-8175
可以使	-8176
你有什么	-8177
皇帝赵顼	-8178
保卫	-8179
盛远	-8180
酋长	-8181
低下头	-8182
桌上的	-8183
当着	-8184
她还是	-8185
那我就	-8186
不敢相信	-8187
▁和	-8188
东京	-8189
之多	-8190
安装	-8191
徐州	-8192
时空	-8193
摊了摊手	-8194
好似	-8195
血肉	-8196
不胜	-8197
为首	-8198
怒道	-8199
的石	-8200
英文	-8201
我们应该	-8202
保障	-8203
厅长	-8204
哈山	-8205
正规	-8206
▁It	-8207
爬起来	-8208
的神态	-8209
▁you	-8210
▁爱	-8211
天子	-8212
执政	-8213
把门	-8214
不一会	-8215
好东西	-8216
那是一种	-8217
体育	-8218
侯爷	-8219
考虑到	-8220
准备好了	-8221
敏锐	-8222
汪淼	-8223
派的	-8224
相遇	-8225
碰上	-8226
请教	-8227
▁尽管	-8228
不及待	-8229
不错的	-8230
是不能	-8231
那家伙	-8232
就是因为	-8233
一代	-8234
已在	-8235
找他	-8236
案件	-8237
还用	-8238
的一面	-8239
空气中	-8240
▁与	-8241
再不	-8242
惊骇	-8243
拍摄	-8244
策划	-8245
纪律	-8246
你一定	-8247
哥们	-8248
逼近	-8249
还不够	-8250
▁,	-8251
广大	-8252
欢乐	-8253
算计	-8254
听不到	-8255
说话的	-8256
出面	-8257
呼呼	-8258
天官	-8259
强悍	-8260
轿车	-8261
阔的	-8262
必然会	-8263
所作	-8264
透明的	-8265
而那	-8266
预感	-8267
▁这次	-8268
也一样	-8269
德西克	-8270
切齿	-8271
取消	-8272
火把	-8273
肌肤	-8274
身手	-8275
我并不	-8276
侍卫	-8277
做个	-8278
山区	-8279
广播	-8280
为我们	-8281
这是一种	-8282
下身	-8283
之故	-8284
尘土	-8285
广泛	-8286
战车	-8287
牢牢	-8288
的一天	-8289
这三个	-8290
像是一个	-8291
眼前这个	-8292
睁开眼睛	-8293
商议	-8294
慷慨	-8295
测试	-8296
飞的	-8297
你给我	-8298
半个月	-8299
甚至是	-8300
的解释	-8301
葫芦生	-8302
不快	-8303
病的	-8304
耳光	-8305
仍然在	-8306
小女孩	-8307
在人	-8308
屠杀	-8309
智力	-8310
爱好	-8311
足了	-8312
落到了	-8313
▁冯	-8314
作响	-8315
定会	-8316
忽地	-8317
抽屉	-8318
胡乱	-8319
貂蝉	-8320
遭受	-8321
他心里	-8322
可真	-8323
含糊	-8324
救命	-8325
粉碎	-8326
辐射	-8327
你得	-8328
同行	-8329
头了	-8330
▁黄堂	-8331
斯蒂芬	-8332
这几个	-8333
如此一来	-8334
精致	-8335
闪光	-8336
什么也	-8337
以至于	-8338
究竟是什么	-8339
买的	-8340
很长	-8341
文姬	-8342
船只	-8343
好奇心	-8344
那女人	-8345
所有的人都	-8346
一变	-8347
推演	-8348
是天	-8349
要到	-8350
来双扬	-8351
自行车	-8352
中的一个	-8353
两道	-8354
格格	-8355
灿灿	-8356
约会	-8357
在家里	-8358
没好气	-8359
一小	-8360
他与	-8361
复兴	-8362
用意	-8363
的中	-8364
花费	-8365
起床	-8366
凤凰卫视	-8367
冲出	-8368
在前	-8369
强度	-8370
行走	-8371
那艘	-8372
▁经过	-8373
而现在	-8374
还不能	-8375
这个人的	-8376
作业	-8377
侦探	-8378
月球	-8379
确切	-8380
车站	-8381
七八糟	-8382
公里的	-8383
死亡的	-8384
约而同	-8385
美好的	-8386
响了起来	-8387
”!	-8388
上百	-8389
呜呜	-8390
纸上	-8391
脑筋	-8392
ble	-8393
他不会	-8394
在门口	-8395
我今天	-8396
睡不着	-8397
老朋友	-8398
安蕾	-8399
潇洒	-8400
俱乐部	-8401
无数的	-8402
降头师	-8403
交战	-8404
家干	-8405
相见	-8406
警戒	-8407
食堂	-8408
不要紧	-8409
消费者	-8410
驾驶员	-8411
峡谷	-8412
怀孕	-8413
案子	-8414
越过	-8415
坐到	-8416
它在	-8417
心道	-8418
来做	-8419
装着	-8420
部位	-8421
伪装	-8422
天真	-8423
所为	-8424
非同	-8425
我需要	-8426
光束	-8427
公元	-8428
勃勃	-8429
头子	-8430
密密	-8431
放大	-8432
筷子	-8433
我曾经	-8434
控制的	-8435
时之间	-8436
母亲的	-8437
已经没有	-8438
原理	-8439
滩上	-8440
耽误	-8441
那股	-8442
那般	-8443
长久	-8444
!’	-8445
强壮	-8446
敌军	-8447
服的	-8448
生理	-8449
难民	-8450
挥着手	-8451
舰队的	-8452
列舰	-8453
可否	-8454
就跑	-8455
搜寻	-8456
机师	-8457
脸的	-8458
电视台	-8459
的一只	-8460
蔡文姬	-8461
七个	-8462
分离	-8463
巴黎	-8464
木头	-8465
他的心	-8466
国防	-8467
就跟	-8468
流泪	-8469
赞叹	-8470
香味	-8471
▁正在	-8472
很明显	-8473
奋斗	-8474
小学	-8475
有一条	-8476
老爷子	-8477
向前走去	-8478
图像	-8479
得的	-8480
我刚	-8481
院里	-8482
实实在	-8483
才能够	-8484
变态	-8485
结了	-8486
葡萄	-8487
▁那么	-8488
很快便	-8489
有些人	-8490
所说的话	-8491
功劳	-8492
地址	-8493
美好	-8494
赵烈	-8495
马三多	-8496
▁最	-8497
先前	-8498
?』	-8499
包里	-8500
答复	-8501
驾车	-8502
人工	-8503
使命	-8504
族长	-8505
桓范	-8506
纽约	-8507
而行	-8508
转换	-8509
自然的	-8510
外来	-8511
水里	-8512
汹涌	-8513
骆驼	-8514
的脑袋	-8515
亨利	-8516
光滑	-8517
卫队	-8518
底部	-8519
指数	-8520
江苏	-8521
我只能	-8522
等离子	-8523
而是在	-8524
这些话	-8525
你说什么	-8526
不就	-8527
你所	-8528
几声	-8529
抗议	-8530
剧烈的	-8531
是一名	-8532
的时刻	-8533
不易	-8534
先把	-8535
的他	-8536
就不是	-8537
中去	-8538
了开去	-8539
的一片	-8540
的信息	-8541
越来越多	-8542
立体	-8543
难度	-8544
的人了	-8545
这孩子	-8546
听到这里	-8547
咬牙切齿	-8548
根本不是	-8549
圣人	-8550
天波	-8551
尔德	-8552
左边	-8553
无从	-8554
含着	-8555
幸存	-8556
榴弹	-8557
湖南	-8558
上说	-8559
不休	-8560
的控制	-8561
罗拉娜	-8562
▁此	-8563
个大	-8564
结实	-8565
ope	-8566
悄悄地	-8567
真是太	-8568
了他一眼	-8569
全家	-8570
校园	-8571
淡然	-8572
男生	-8573
不能不	-8574
发展的	-8575
很奇怪	-8576
或许是	-8577
沈思雅	-8578
相当于	-8579
没有回答	-8580
众神	-8581
大片	-8582
计较	-8583
走私	-8584
那帮	-8585
顾忌	-8586
几下	-8587
巨型	-8588
之极的	-8589
交给了	-8590
沐天波	-8591
三郎	-8592
埃尔	-8593
笨蛋	-8594
阴沉	-8595
”——	-8596
就是他	-8597
感觉到了	-8598
仕鹏	-8599
自愿	-8600
致命	-8601
菩萨	-8602
不得已	-8603
我明白	-8604
ia	-8605
修行	-8606
几人	-8607
古董	-8608
她一	-8609
来过	-8610
满的	-8611
长发	-8612
不自禁	-8613
在上面	-8614
失败了	-8615
第一时间	-8616
▁五	-8617
世祖	-8618
我给	-8619
毛巾	-8620
泰丰	-8621
白衣	-8622
走动	-8623
长矛	-8624
你也不	-8625
又没有	-8626
▁pro	-8627
主教	-8628
白面	-8629
我记得	-8630
乱七八糟	-8631
亚力	-8632
实质	-8633
汉烈	-8634
科长	-8635
货物	-8636
告诉了	-8637
什么都不	-8638
我们两人	-8639
交叉	-8640
光是	-8641
救了	-8642
视为	-8643
口袋里	-8644
自顾自	-8645
装甲师	-8646
业绩	-8647
亡灵	-8648
充足	-8649
故作	-8650
饥饿	-8651
ost	-8652
了一片	-8653
地球的	-8654
急切	-8655
闪动	-8656
防备	-8657
城市的	-8658
有问题	-8659
从来没	-8660
使我们	-8661
可以把	-8662
▁曹	-8663
学术	-8664
荒唐	-8665
怪不得	-8666
可谓	-8667
在手	-8668
字塔	-8669
影像	-8670
总管	-8671
战友	-8672
教官	-8673
不做	-8674
权的	-8675
股份	-8676
▁柳絮	-8677
只要有	-8678
主宰	-8679
单是	-8680
团团	-8681
路通	-8682
高达	-8683
仔细地	-8684
夫人的	-8685
我一眼	-8686
的感情	-8687
的这个	-8688
响声	-8689
流星	-8690
紧闭	-8691
被迫	-8692
变得十分	-8693
▁好	-8694
临死	-8695
催眠	-8696
幽默	-8697
生出	-8698
停了一	-8699
向前走	-8700
没有一点	-8701
pt	-8702
悲惨	-8703
黑了	-8704
不至于	-8705
大半	-8706
巴日	-8707
时事	-8708
正中	-8709
膝盖	-8710
闭上了眼睛	-8711
刺客	-8712
勇士	-8713
叫了	-8714
唐纳	-8715
母猪	-8716
而这	-8717
输入	-8718
做好了	-8719
梅丽莎	-8720
看不清	-8721
延伸	-8722
有此	-8723
望著	-8724
落了	-8725
虽然他	-8726
认真的	-8727
”(	-8728
五六	-8729
又想	-8730
大街	-8731
市区	-8732
放出	-8733
清了	-8734
舅舅	-8735
财政	-8736
军统局	-8737
巴日丹	-8738
威风	-8739
徐天	-8740
改善	-8741
火药	-8742
福建	-8743
那群	-8744
的一条	-8745
上涨	-8746
五万	-8747
卡拉	-8748
平淡	-8749
四判官	-8750
望了望	-8751
勒雷联邦	-8752
体现	-8753
回避	-8754
尊严	-8755
岗位	-8756
譬如	-8757
的价格	-8758
下山	-8759
公分	-8760
去世	-8761
应对	-8762
斗士	-8763
神通	-8764
花钱	-8765
这间	-8766
战争的	-8767
战列舰	-8768
神话军团	-8769
争吵	-8770
击败	-8771
南北	-8772
当你	-8773
郑重	-8774
▁In	-8775
就只有	-8776
心中暗	-8777
二是	-8778
住处	-8779
咕噜	-8780
摸了	-8781
相差	-8782
船员	-8783
追究	-8784
陆续	-8785
魔神	-8786
亚力坤	-8787
无线电	-8788
的女性	-8789
任由	-8790
幻境	-8791
拱手	-8792
海的	-8793
她的脸	-8794
的天空	-8795
到此	-8796
占有	-8797
恰恰	-8798
无踪	-8799
现身	-8800
的向	-8801
在北京	-8802
▁him	-8803
我们还是	-8804
理所当然	-8805
▁我吸了一口气	-8806
兄妹	-8807
庞德	-8808
慌张	-8809
明星	-8810
突围	-8811
那间	-8812
’。”	-8813
这样吧	-8814
丧失	-8815
打工	-8816
的方	-8817
市场上	-8818
表现出	-8819
马秀萍	-8820
可想而知	-8821
是这样的	-8822
深深吸了一口气	-8823
屁孩	-8824
忍着	-8825
是为	-8826
那道	-8827
雅儿	-8828
不惜	-8829
你都	-8830
兵法	-8831
眼见	-8832
行军	-8833
鲜于	-8834
出一副	-8835
获得了	-8836
回过头来	-8837
冲冲	-8838
天文	-8839
直至	-8840
统计	-8841
追逐	-8842
也不再	-8843
古老的	-8844
我不要	-8845
兴章	-8846
哀求	-8847
巨龙	-8848
心了	-8849
惠卿	-8850
最早	-8851
热血	-8852
西南	-8853
视野	-8854
典型的	-8855
口中的	-8856
乡下	-8857
困扰	-8858
容貌	-8859
我好	-8860
深沉	-8861
甜蜜	-8862
送来	-8863
长生	-8864
黑洞	-8865
出入	-8866
微弱	-8867
心态	-8868
打在	-8869
注射	-8870
浓烟	-8871
猎人	-8872
的双	-8873
越好	-8874
默然	-8875
上一个	-8876
▁谢竹缨	-8877
▁一凡看着	-8878
出国	-8879
堂堂	-8880
女巫	-8881
并没	-8882
拍卖	-8883
朝的	-8884
王彦	-8885
了什么	-8886
的一位	-8887
遇上了	-8888
子荣	-8889
警报	-8890
诗人	-8891
贝纳	-8892
了一起	-8893
以一种	-8894
把事情	-8895
的那位	-8896
一无所知	-8897
to	-8898
三分	-8899
匈奴	-8900
吞噬	-8901
坏人	-8902
大骂	-8903
拇指	-8904
无非	-8905
枪口	-8906
线条	-8907
苍蝇	-8908
大声地	-8909
的学生	-8910
▁but	-8911
与她	-8912
大力	-8913
显出	-8914
武汉	-8915
突然间	-8916
几千	-8917
发行	-8918
咯咯	-8919
市民	-8920
穿梭	-8921
达成	-8922
遍了	-8923
比如说	-8924
的一块	-8925
这么一来	-8926
之战	-8927
依赖	-8928
可疑	-8929
对比	-8930
立马	-8931
线上	-8932
郭敖	-8933
说话了	-8934
不放	-8935
惊天	-8936
检测	-8937
蜘蛛	-8938
言之	-8939
与他们	-8940
我是一个	-8941
哲学	-8942
季节	-8943
杭州	-8944
津灵	-8945
▁回到	-8946
地站在	-8947
我自然	-8948
程兴章	-8949
au	-8950
下水	-8951
就叫	-8952
拉到	-8953
认识的	-8954
你该	-8955
信封	-8956
刺杀	-8957
定神	-8958
是说	-8959
而入	-8960
高中	-8961
高举	-8962
轻而易	-8963
还是很	-8964
于此	-8965
优点	-8966
作风	-8967
复活	-8968
外交	-8969
好感	-8970
睡着	-8971
这套	-8972
重力	-8973
从哪里	-8974
专注	-8975
再过	-8976
打到	-8977
散步	-8978
是非	-8979
赤裸	-8980
钢琴	-8981
再说了	-8982
家族的	-8983
我们所	-8984
蜥蜴人	-8985
道格拉斯	-8986
差异	-8987
灯火	-8988
祖父	-8989
穿越	-8990
组长	-8991
脱口	-8992
错的	-8993
你这么	-8994
和其他	-8995
现在我	-8996
的肩膀	-8997
着一张	-8998
那是什么	-8999
不由自主地	-9000
两手	-9001
伤痕	-9002
冒出	-9003
反感	-9004
喊声	-9005
联手	-9006
要走	-9007
完成的	-9008
牟棉花	-9009
的两个	-9010
的一句话	-9011
不爱	-9012
巧儿	-9013
零件	-9014
我和你	-9015
有道理	-9016
孤儿	-9017
王国	-9018
耽搁	-9019
路路通	-9020
▁这一次	-9021
主公	-9022
发光	-9023
废墟	-9024
总理	-9025
残骸	-9026
痛哭	-9027
▁陈长青	-9028
上司	-9029
繁华	-9030
太平洋	-9031
由自主	-9032
的声响	-9033
真的很	-9034
那声音	-9035
围墙	-9036
走得	-9037
违反	-9038
酒瓶	-9039
。”	-9040
这样子	-9041
刹间	-9042
前去	-9043
大树	-9044
山口	-9045
步行	-9046
ell	-9047
发现的	-9048
真是个	-9049
远征军	-9050
轻而易举	-9051
这样的情况	-9052
安德拉寇拉斯	-9053
再问	-9054
极力	-9055
近了	-9056
开始的	-9057
绝对是	-9058
我们一起	-9059
军用	-9060
刘峻	-9061
小了	-9062
梦庚	-9063
最后还是	-9064
倘若	-9065
就见	-9066
毒刃	-9067
玩具	-9068
转世	-9069
ran	-9070
他的身体	-9071
修炼	-9072
冲天	-9073
刻意	-9074
未婚	-9075
法兰	-9076
深圳	-9077
等她	-9078
至缺	-9079
风中	-9080
左梦庚	-9081
他自己的	-9082
义务	-9083
亲热	-9084
道夫	-9085
了一股	-9086
从天	-9087
地盘	-9088
拍着	-9089
朵儿	-9090
电磁	-9091
ine	-9092
因为你	-9093
使你	-9094
值班	-9095
八道	-9096
坏事	-9097
断定	-9098
灌木	-9099
认同	-9100
超市	-9101
韩遂	-9102
▁第五	-9103
他必须	-9104
解放军	-9105
侮辱	-9106
史东	-9107
哼哼	-9108
回国	-9109
坚固	-9110
船队	-9111
观音	-9112
贴在	-9113
赞成	-9114
都想	-9115
青铜	-9116
一言不	-9117
你是谁	-9118
吕惠卿	-9119
那么容易	-9120
公公	-9121
嘻哈	-9122
境地	-9123
学问	-9124
放进	-9125
那颗	-9126
他发现	-9127
再没有	-9128
多少人	-9129
不为	-9130
公正	-9131
动机	-9132
巧手	-9133
真好	-9134
舱门	-9135
我虽然	-9136
用这种	-9137
▁when	-9138
典型	-9139
度过	-9140
挂了	-9141
▁面对	-9142
有这样	-9143
的出现	-9144
奇怪的是	-9145
点点	-9146
一脸的	-9147
夷所思	-9148
日本的	-9149
了口	-9150
出售	-9151
地话	-9152
寻求	-9153
无情	-9154
沃尔	-9155
猪肉	-9156
关系的	-9157
和白素	-9158
公布	-9159
冰凉	-9160
古人	-9161
怪人	-9162
最佳	-9163
一伸手	-9164
望着他	-9165
汉烈米	-9166
耸了耸肩	-9167
仆人	-9168
援军	-9169
街头	-9170
请您	-9171
▁除了	-9172
有人说	-9173
看清楚	-9174
右边	-9175
回身	-9176
我做	-9177
病了	-9178
符号	-9179
飞舞	-9180
在后面	-9181
才可以	-9182
该怎么	-9183
匪夷所思	-9184
宫女	-9185
极快	-9186
一具	-9187
上述	-9188
不便	-9189
哭声	-9190
暧昧	-9191
死于	-9192
苦苦	-9193
接到了	-9194
甚么事	-9195
初步	-9196
来临	-9197
大大的	-9198
打交道	-9199
跟他们	-9200
一模一样	-9201
停了一停	-9202
一律	-9203
延续	-9204
张绣	-9205
洗手	-9206
皇埔	-9207
逃生	-9208
量中	-9209
骑着	-9210
你小子	-9211
ound	-9212
告诉我们	-9213
完成任务	-9214
发生的事情	-9215
写字	-9216
流传	-9217
约束	-9218
逐步	-9219
途径	-9220
重量	-9221
▁也许	-9222
你们是	-9223
又如何	-9224
因为这	-9225
小心地	-9226
情不自禁	-9227
中文	-9228
子龙	-9229
无知	-9230
昏暗	-9231
曾在	-9232
被她	-9233
▁因此	-9234
成一个	-9235
散发着	-9236
满意的	-9237
玉娘子	-9238
自己所	-9239
...”	-9240
已经死了	-9241
黑暗之中	-9242
冲去	-9243
博物	-9244
大名	-9245
得过	-9246
收起	-9247
许褚	-9248
希望能	-9249
我们对	-9250
的老人	-9251
否定	-9252
客栈	-9253
护盾	-9254
次的	-9255
熙官	-9256
爬上	-9257
狰狞	-9258
舞台	-9259
十年代	-9260
深深地吸了一口气	-9261
修理	-9262
大使	-9263
时而	-9264
我立刻	-9265
的是一个	-9266
嫁给	-9267
星空	-9268
泰国	-9269
着呢	-9270
着一只	-9271
一幅	-9272
你一	-9273
卡车	-9274
岁了	-9275
游四	-9276
认得	-9277
▁我把	-9278
长长地	-9279
城堡	-9280
巧妙	-9281
熟人	-9282
珠宝	-9283
辞职	-9284
随身	-9285
中的人	-9286
看一看	-9287
以为自己	-9288
与众	-9289
元的	-9290
刀子	-9291
宋维	-9292
由衷	-9293
遵守	-9294
在一块	-9295
小姑娘	-9296
转过身去	-9297
下楼	-9298
其间	-9299
只听	-9300
投影	-9301
不存在	-9302
也觉得	-9303
郑保云	-9304
如果他们	-9305
在后	-9306
怀着	-9307
蝴蝶	-9308
逃脱	-9309
造反	-9310
面包	-9311
下了车	-9312
了一块	-9313
双方的	-9314
弟兄们	-9315
找出来	-9316
认为是	-9317
重大的	-9318
变幻	-9319
哭笑	-9320
牛奶	-9321
现金	-9322
白雪	-9323
营的	-9324
ive	-9325
拿出了	-9326
跟你说	-9327
那地方	-9328
一个问题	-9329
忽然之间	-9330
小弟	-9331
毁了	-9332
气来	-9333
短信	-9334
老马	-9335
目前的	-9336
亲密	-9337
桂王	-9338
汉人	-9339
理念	-9340
电台	-9341
不能让	-9342
ount	-9343
▁com	-9344
你那	-9345
吃亏	-9346
目睹	-9347
破碎	-9348
也同样	-9349
被他们	-9350
为自己的	-9351
来的时候	-9352
来吧	-9353
步堂	-9354
照样	-9355
衡量	-9356
轻视	-9357
似乎在	-9358
同意了	-9359
我们没有	-9360
没有人知道	-9361
av	-9362
▁第六	-9363
万良生	-9364
的对手	-9365
▁李富贵	-9366
在一起的	-9367
友谊	-9368
杨亮	-9369
车里	-9370
十分的	-9371
圣步堂	-9372
ER	-9373
不稳	-9374
吵架	-9375
甘甜	-9376
飞到	-9377
丰富的	-9378
已经把	-9379
很清楚	-9380
她有	-9381
弄到	-9382
患者	-9383
王金	-9384
眸子	-9385
统统	-9386
踪影	-9387
飞快	-9388
不客气	-9389
准备好	-9390
普通教授	-9391
于吉	-9392
冷淡	-9393
奥林	-9394
少尉	-9395
传统的	-9396
抱住了	-9397
狠狠的	-9398
ie	-9399
之以	-9400
人性	-9401
外形	-9402
如花	-9403
心来	-9404
打发	-9405
搜集	-9406
河流	-9407
泰流	-9408
珍惜	-9409
二十多	-9410
盛远天	-9411
能够在	-9412
自己人	-9413
生命形式	-9414
戒备	-9415
损害	-9416
本性	-9417
是一场	-9418
立时道	-9419
我不明白	-9420
那个女人	-9421
:『	-9422
生子	-9423
皇子	-9424
禁止	-9425
端着	-9426
膨胀	-9427
听我说	-9428
有效的	-9429
的不是	-9430
,『	-9431
做饭	-9432
化成	-9433
和马	-9434
教导	-9435
活跃	-9436
轮到	-9437
回去吧	-9438
在怀里	-9439
笑嘻嘻	-9440
说些什么	-9441
也该	-9442
分身	-9443
受的	-9444
指定	-9445
施哲	-9446
设立	-9447
他的脸	-9448
我连忙	-9449
收到了	-9450
静了下来	-9451
▁them	-9452
▁石	-9453
贪婪	-9454
oug	-9455
下去的	-9456
奥林匹	-9457
就是了	-9458
刚一	-9459
创作	-9460
噩梦	-9461
宝藏	-9462
掩盖	-9463
无极	-9464
杀害	-9465
笔直	-9466
第八	-9467
那片	-9468
好消息	-9469
如此的	-9470
千万不要	-9471
▁要	-9472
一柄	-9473
万里	-9474
至此	-9475
的事业	-9476
我带	-9477
具体的	-9478
我可是	-9479
ther	-9480
吉斯卡尔	-9481
昨天晚上	-9482
一跳	-9483
乃至	-9484
大乱	-9485
家门	-9486
心知	-9487
贴着	-9488
集结	-9489
黯然	-9490
司令部	-9491
这事情	-9492
▁艾米莉	-9493
之余	-9494
和谐	-9495
所知	-9496
收购	-9497
要来	-9498
解脱	-9499
ory	-9500
地面上	-9501
喝了一口	-9502
不知道自己	-9503
▁谢	-9504
丛中	-9505
山顶	-9506
果断	-9507
步伐	-9508
苗疆	-9509
跃迁	-9510
这天	-9511
默契	-9512
没有说话	-9513
这个地方	-9514
一点也没有	-9515
两支	-9516
四下	-9517
抽搐	-9518
没完	-9519
直了	-9520
但如果	-9521
我还有	-9522
三子	-9523
十余	-9524
大叔	-9525
径直	-9526
游艇	-9527
脸红	-9528
看不起	-9529
实实在在	-9530
▁良辰美景	-9531
一级	-9532
二位	-9533
却说	-9534
向来	-9535
增强	-9536
就用	-9537
热烈	-9538
禁军	-9539
要紧	-9540
边际	-9541
迷糊	-9542
飞来	-9543
不是说	-9544
得意的	-9545
领导者	-9546
▁就在这时	-9547
冤枉	-9548
悬浮	-9549
话了	-9550
▁ar	-9551
他虽然	-9552
但由于	-9553
盘算	-9554
精明	-9555
设置	-9556
那三	-9557
对她的	-9558
相信我	-9559
集中在	-9560
▁云天梦	-9561
俄国	-9562
敏捷	-9563
车辆	-9564
追赶	-9565
骚扰	-9566
也正是	-9567
他竟然	-9568
发出来	-9569
我们不	-9570
放心吧	-9571
最喜欢	-9572
▁我不禁	-9573
上网	-9574
厅里	-9575
对的	-9576
忠心	-9577
戴上	-9578
生涯	-9579
着实	-9580
阿玛	-9581
给了他	-9582
被称为	-9583
什么也不	-9584
自己的身体	-9585
公爵	-9586
几只	-9587
北部	-9588
大山	-9589
格的	-9590
惨叫声	-9591
▁接下来	-9592
人就	-9593
名词	-9594
拿下	-9595
玛丽	-9596
响起了	-9597
蒙博士	-9598
遭到了	-9599
多长时间	-9600
处处	-9601
来接	-9602
猛的	-9603
▁竹子	-9604
不住的	-9605
到他的	-9606
在美国	-9607
真实的	-9608
都是在	-9609
床边	-9610
德的	-9611
斯科	-9612
水祥	-9613
祖宗	-9614
不可测	-9615
这个词	-9616
想到的是	-9617
突然出现	-9618
哥顿	-9619
遇见	-9620
黄海	-9621
的活动	-9622
除此之外	-9623
主角	-9624
人影	-9625
塑料	-9626
山西	-9627
帮主	-9628
平等	-9629
怀抱	-9630
无敌	-9631
精心	-9632
林若璇	-9633
的准备	-9634
转过头去	-9635
不作	-9636
人多	-9637
伤势	-9638
听从	-9639
往来	-9640
求你	-9641
疾病	-9642
稷下	-9643
窒息	-9644
血迹	-9645
向后退	-9646
推进器	-9647
一无	-9648
任命	-9649
岸边	-9650
思乱	-9651
收益	-9652
百多	-9653
积累	-9654
解除	-9655
中国人的	-9656
乌鸦	-9657
会把	-9658
决斗	-9659
想得	-9660
早晚	-9661
科夫	-9662
能源	-9663
薄的	-9664
轻柔	-9665
骤然	-9666
通讯器	-9667
▁cent	-9668
一圈	-9669
伤的	-9670
回道	-9671
威严	-9672
恩来	-9673
战局	-9674
救援	-9675
老乡	-9676
隆隆	-9677
▁随后	-9678
说自己	-9679
你的意思是	-9680
两头	-9681
他再	-9682
光亮	-9683
日夜	-9684
有心	-9685
沉寂	-9686
赢得	-9687
起飞	-9688
风声	-9689
得很好	-9690
的责任	-9691
眼睛里	-9692
伺候	-9693
刚从	-9694
景皓	-9695
端起	-9696
航道	-9697
苦难	-9698
钞票	-9699
唐纳甘	-9700
我们俩	-9701
确实是	-9702
若有所	-9703
哭笑不得	-9704
契丹	-9705
好友	-9706
得功	-9707
拦住	-9708
提示	-9709
改装	-9710
鲜花	-9711
取得了	-9712
▁J	-9713
▁米	-9714
变故	-9715
座的	-9716
忧虑	-9717
我等	-9718
清澈	-9719
▁no	-9720
我听到	-9721
所以她	-9722
萤光屏	-9723
到底是什么	-9724
各有	-9725
替你	-9726
本想	-9727
杀机	-9728
盐市	-9729
离奇	-9730
▁Ch	-9731
人家的	-9732
大人的	-9733
对一个	-9734
的地点	-9735
AN	-9736
你到	-9737
公民	-9738
子说	-9739
定然	-9740
日益	-9741
旧的	-9742
玉娘	-9743
西约	-9744
见得	-9745
铁尔	-9746
项链	-9747
只有在	-9748
的现象	-9749
贝纳雷斯	-9750
▁梁	-9751
京城	-9752
他正	-9753
会合	-9754
准则	-9755
刚开始	-9756
在哪儿	-9757
有点像	-9758
他为	-9759
安娜	-9760
幅度	-9761
张小	-9762
村长	-9763
目不	-9764
那支	-9765
院的	-9766
飞鸿	-9767
▁终于	-9768
女孩儿	-9769
慢慢的	-9770
有几分	-9771
自己地	-9772
他没	-9773
你我	-9774
刘爽	-9775
又将	-9776
夜空	-9777
尹氏	-9778
晃动	-9779
王八	-9780
空洞	-9781
透透	-9782
着一条	-9783
一女	-9784
一枪	-9785
一试	-9786
凌厉	-9787
大将	-9788
成年	-9789
抓紧	-9790
推销	-9791
摸着	-9792
河北	-9793
激励	-9794
窗帘	-9795
雪灵	-9796
他们对	-9797
成功地	-9798
是一些	-9799
金女士	-9800
金字塔	-9801
▁这样的	-9802
皇埔英明	-9803
上衣	-9804
举止	-9805
奖金	-9806
登记	-9807
踏步	-9808
阿佳	-9809
齐国	-9810
上了车	-9811
在前面	-9812
这样想	-9813
传说中的	-9814
可以知道	-9815
很快就会	-9816
南宗	-9817
处置	-9818
感恩	-9819
摄像	-9820
理性	-9821
能干	-9822
行踪	-9823
▁事情	-9824
了一道	-9825
在一片	-9826
大将军	-9827
甚至于	-9828
致命的	-9829
走上前	-9830
风逸的	-9831
告诉他们	-9832
想到这一点	-9833
两句	-9834
光彩	-9835
冲向	-9836
分了	-9837
非凡	-9838
的人员	-9839
经历过	-9840
冷酷	-9841
出人	-9842
同盟	-9843
嫩玉	-9844
惊醒	-9845
沉浸	-9846
班牙	-9847
眼睁	-9848
他终于	-9849
李小如	-9850
西班牙	-9851
▁事实上	-9852
福克先生	-9853
之间的关系	-9854
动用	-9855
地形	-9856
将在	-9857
星光	-9858
点数	-9859
确是	-9860
地看着我	-9861
吃得	-9862
——“	-9863
地看了	-9864
彻底的	-9865
给你的	-9866
今天晚上	-9867
不走	-9868
绝情	-9869
草原上	-9870
还是没有	-9871
弥补	-9872
特地	-9873
缺陷	-9874
赢了	-9875
陈庆	-9876
继续说	-9877
空间法则	-9878
▁唐	-9879
便将	-9880
无忌	-9881
格林	-9882
的内	-9883
跑得	-9884
黄黄	-9885
幸福的	-9886
苦笑着	-9887
▁白奇伟	-9888
天网	-9889
海边	-9890
能让	-9891
虚弱	-9892
贺羽	-9893
越多	-9894
默菡	-9895
萧天南	-9896
遥远的	-9897
克制	-9898
大方	-9899
抢劫	-9900
牧师	-9901
秦国	-9902
窗子	-9903
腾腾	-9904
行礼	-9905
他忽然	-9906
陌生的	-9907
▁沙	-9908
一枚	-9909
关头	-9910
喇叭	-9911
时常	-9912
津神	-9913
谁是	-9914
赞赏	-9915
▁第七	-9916
前几天	-9917
乐意	-9918
伯特	-9919
斯基	-9920
路过	-9921
不愧	-9922
晶莹	-9923
我忽然	-9924
着身子	-9925
我的朋友	-9926
微型	-9927
所需	-9928
浓雾	-9929
软弱	-9930
雕像	-9931
想象的	-9932
有一位	-9933
生气了	-9934
的人才	-9935
说出了	-9936
长大的	-9937
大不相同	-9938
▁have	-9939
加贝	-9940
天龙	-9941
就和	-9942
抓着	-9943
晶晶	-9944
海岸	-9945
照着	-9946
由我	-9947
一定的	-9948
?’	-9949
不打	-9950
中山	-9951
倒地	-9952
减轻	-9953
奔去	-9954
就来	-9955
旗帜	-9956
村庄	-9957
见鬼	-9958
转到	-9959
的胖子	-9960
笔记本	-9961
胡思乱	-9962
进来了	-9963
毒刃三郎	-9964
▁upon	-9965
在三	-9966
宫里	-9967
文人	-9968
树叶	-9969
爱上	-9970
巧手仙	-9971
我这里	-9972
把它们	-9973
我明白了	-9974
玲珑巧手仙	-9975
▁自	-9976
不留	-9977
义军	-9978
做人	-9979
大腿	-9980
直径	-9981
纸条	-9982
老太	-9983
英里	-9984
也是个	-9985
全都是	-9986
地坐在	-9987
想不出	-9988
瞪大了	-9989
过了一会儿	-9990
国君	-9991
帮她	-9992
略微	-9993
▁苏轼	-9994
了几步	-9995
整件事	-9996
的思想	-9997
看来是	-9998
绝对不是	-9999
万家	-10000
场所	-10001
意愿	-10002
村子	-10003
个小时	-10004
公安局	-10005
叹口气	-10006
必须要	-10007
经历了	-10008
符兵	-10009
虚无	-10010
麻麻	-10011
了很久	-10012
可爱的	-10013
快速地	-10014
的念头	-10015
自身的	-10016
因为我们	-10017
▁·	-10018
克尔	-10019
国度	-10020
环节	-10021
石板	-10022
老汉	-10023
董卓	-10024
话音	-10025
推开了	-10026
这些年	-10027
从她	-10028
反弹	-10029
大都	-10030
孔雀	-10031
早前	-10032
杰弗	-10033
照射	-10034
要你	-10035
黄蝉	-10036
也说不	-10037
的性格	-10038
面对着	-10039
咒语	-10040
子瞻	-10041
的土	-10042
纪录	-10043
胜负	-10044
行进	-10045
金福	-10046
丝毫不	-10047
自己和	-10048
发出一声	-10049
▁蔡	-10050
大河	-10051
我与	-10052
笑的	-10053
这倒	-10054
采购	-10055
金光	-10056
录音带	-10057
我和他	-10058
我父亲	-10059
来自于	-10060
驱逐舰	-10061
分布	-10062
办理	-10063
动弹	-10064
战壕	-10065
极高	-10066
高了	-10067
高翔	-10068
为他们	-10069
主人的	-10070
我也没有	-10071
也罢	-10072
四大	-10073
失声	-10074
头疼	-10075
气了	-10076
淋漓	-10077
王一	-10078
界的	-10079
pla	-10080
就看到	-10081
幽朵儿	-10082
灰色的	-10083
不以为然	-10084
向原振侠	-10085
un	-10086
无缘	-10087
白光	-10088
稀奇	-10089
级别	-10090
花花	-10091
谈到	-10092
▁时间	-10093
地一笑	-10094
有这么	-10095
中人	-10096
争执	-10097
圆柱	-10098
惭愧	-10099
我那	-10100
招聘	-10101
推动	-10102
春节	-10103
象是	-10104
长途	-10105
马路	-10106
▁妩音	-10107
以后的	-10108
茜博士	-10109
到处都是	-10110
久久	-10111
名声	-10112
安妮	-10113
帆船	-10114
教室	-10115
请到	-10116
静止	-10117
了一指	-10118
他们要	-10119
多年来	-10120
呆了半晌	-10121
明白过来	-10122
这两个人	-10123
一滴	-10124
个头	-10125
并在	-10126
粗糙	-10127
ber	-10128
的高级	-10129
青年人	-10130
。......	-10131
不透	-10132
决不	-10133
壁上	-10134
系的	-10135
向白素	-10136
的影子	-10137
高层管理	-10138
力元	-10139
摸索	-10140
股东	-10141
败坏	-10142
▁那些	-10143
政府的	-10144
有能力	-10145
但它	-10146
圈子	-10147
总监	-10148
春秋	-10149
皆非	-10150
这把	-10151
风影	-10152
鲜卑	-10153
也可能	-10154
在没有	-10155
冷冰	-10156
将是	-10157
惊愕	-10158
璧华	-10159
过度	-10160
陆靖	-10161
▁吴为	-10162
▁既然	-10163
之气	-10164
像他	-10165
哑巴	-10166
并肩	-10167
无痕	-10168
永恒	-10169
爱我	-10170
画的	-10171
都已	-10172
一个字	-10173
就有了	-10174
眼睁睁	-10175
那么多的	-10176
一台	-10177
周末	-10178
种族	-10179
胃口	-10180
起到	-10181
per	-10182
▁听了	-10183
从现在	-10184
转眼间	-10185
喃喃自语	-10186
短时间内	-10187
临走	-10188
关切	-10189
多说	-10190
好些	-10191
英尺	-10192
议员	-10193
面无	-10194
我不敢	-10195
爱的人	-10196
可怖	-10197
向东	-10198
平平	-10199
征求	-10200
挥动	-10201
装作	-10202
弄明白	-10203
我更	-10204
牵着	-10205
碰撞	-10206
野人	-10207
他怎么	-10208
动人的	-10209
头也不	-10210
我还要	-10211
比不上	-10212
的一下	-10213
一个人在	-10214
我们不能	-10215
不问	-10216
怪的	-10217
无助	-10218
武术	-10219
祭师	-10220
美妙	-10221
行吗	-10222
不一定	-10223
二十五	-10224
理论上	-10225
▁没	-10226
严密	-10227
外公	-10228
夹杂	-10229
禅月	-10230
金色	-10231
铁军	-10232
打开门	-10233
摸了摸	-10234
你有没有	-10235
我还以为	-10236
小心翼翼地	-10237
周青	-10238
哭着	-10239
奇夫	-10240
庄家	-10241
文的	-10242
踉跄	-10243
飞翔	-10244
▁pr	-10245
丘子仪	-10246
心动魄	-10247
▁辛开林	-10248
一个小时	-10249
胡说八道	-10250
容忍	-10251
戏志	-10252
接口	-10253
什么话	-10254
其它的	-10255
因此而	-10256
向我望来	-10257
乐趣	-10258
军部	-10259
几条	-10260
itt	-10261
的表现	-10262
落下来	-10263
向南	-10264
吸血	-10265
地叫	-10266
失色	-10267
德尔	-10268
手足	-10269
那把	-10270
out	-10271
喃喃道	-10272
就觉得	-10273
这样的事	-10274
力地	-10275
啼笑	-10276
家了	-10277
梦境	-10278
毛杰	-10279
连夜	-10280
阿蛮	-10281
隐秘	-10282
用手指	-10283
赵烈梅	-10284
麻烦了	-10285
力和	-10286
山脉	-10287
敬礼	-10288
潮水	-10289
▁那时	-10290
战斗的	-10291
可以看出	-10292
我一定要	-10293
看了一下	-10294
明日	-10295
死不	-10296
祥善	-10297
罪名	-10298
就是我	-10299
这是个	-10300
▁夜	-10301
停住	-10302
再有	-10303
发颤	-10304
味的	-10305
在上	-10306
我忙	-10307
救国	-10308
监督	-10309
真要	-10310
造的	-10311
中心的	-10312
人的话	-10313
他应该	-10314
保险箱	-10315
的主意	-10316
▁我忙道	-10317
世界大战	-10318
他并没有	-10319
▁听	-10320
军装	-10321
又止	-10322
器官	-10323
婆婆	-10324
巴比	-10325
豆腐	-10326
跳下	-10327
零售	-10328
非洲	-10329
▁只是	-10330
八阿哥	-10331
!......”	-10332
亲近	-10333
他可	-10334
到她	-10335
吃饱	-10336
呼叫	-10337
对视	-10338
总共	-10339
衣袖	-10340
衬衫	-10341
基地的	-10342
果然是	-10343
那小子	-10344
北盟	-10345
含义	-10346
驻扎	-10347
却突然	-10348
哈哈哈	-10349
指了一指	-10350
可供	-10351
我正	-10352
有盼	-10353
法术	-10354
爱人	-10355
的空	-10356
警觉	-10357
铁青	-10358
太大的	-10359
大笑起来	-10360
不离	-10361
之辈	-10362
她很	-10363
总有	-10364
抢先	-10365
浴室	-10366
边说	-10367
防护	-10368
▁在这	-10369
从这里	-10370
任何人都	-10371
在地球上	-10372
不高	-10373
小一	-10374
挣脱	-10375
本是	-10376
的吧	-10377
连锁	-10378
阴森	-10379
风度	-10380
▁高翼	-10381
了她的	-10382
天下的	-10383
火星人	-10384
保住	-10385
先行	-10386
办了	-10387
地震	-10388
忽视	-10389
意大	-10390
田丰	-10391
蓝耳	-10392
题目	-10393
骆致	-10394
田水祥	-10395
肚子里	-10396
也没有了	-10397
由此可知	-10398
威廉	-10399
嫂子	-10400
战线	-10401
拉姆	-10402
的机	-10403
补偿	-10404
飘飘	-10405
▁为什么	-10406
你一定要	-10407
惊心动魄	-10408
丧尸	-10409
叛军	-10410
妓女	-10411
怪我	-10412
瞪了	-10413
莉娜	-10414
齐齐	-10415
了两下	-10416
早知道	-10417
众神空间	-10418
感到自己	-10419
不讲	-10420
后背	-10421
嘱咐	-10422
墙角	-10423
当事	-10424
红光	-10425
纳闷	-10426
过你	-10427
那柄	-10428
博物馆	-10429
家里的	-10430
感到十分	-10431
叮嘱	-10432
没说	-10433
破绽	-10434
缓和	-10435
▁自从	-10436
▁想到这里	-10437
公斤	-10438
又从	-10439
喘气	-10440
壮汉	-10441
武林	-10442
死活	-10443
赌博	-10444
餐馆	-10445
的一张	-10446
草地上	-10447
▁王安石	-10448
七十	-10449
大可	-10450
满怀	-10451
米克	-10452
这股	-10453
我有点	-10454
两下	-10455
出头	-10456
野蛮	-10457
他就会	-10458
他的名字	-10459
古老	-10460
支付	-10461
方位	-10462
有名	-10463
海面	-10464
献忠	-10465
绳索	-10466
躯体	-10467
退了	-10468
我正在	-10469
____	-10470
体积	-10471
家长	-10472
自个	-10473
高明	-10474
鲁炎	-10475
▁me	-10476
他们说	-10477
那句话	-10478
这么一说	-10479
屋顶	-10480
志刚	-10481
绕过	-10482
顾问	-10483
不怎么	-10484
可是她	-10485
圣约人部队	-10486
▁万	-10487
▁元	-10488
上方	-10489
家庄	-10490
封闭	-10491
政权	-10492
疲劳	-10493
个不停	-10494
你看看	-10495
啼笑皆非	-10496
的可能性	-10497
宴会	-10498
我走	-10499
溜溜	-10500
走势	-10501
轰鸣	-10502
这头	-10503
连同	-10504
你是个	-10505
是无法	-10506
的印象	-10507
这几年	-10508
怎么一回事	-10509
▁江	-10510
就到	-10511
无故	-10512
沉闷	-10513
祖先	-10514
那又	-10515
长相	-10516
从一个	-10517
你不用	-10518
战争中	-10519
男一女	-10520
精神病	-10521
那么好	-10522
这个东西	-10523
凶狠	-10524
臧霸	-10525
不知是	-10526
世界法则	-10527
听了之后	-10528
我的名字	-10529
体能	-10530
儿女	-10531
出路	-10532
困境	-10533
围攻	-10534
守着	-10535
开朗	-10536
检验	-10537
灰尘	-10538
里斯	-10539
鬼脸	-10540
又一个	-10541
怎么啦	-10542
惊天动	-10543
等一等	-10544
那女郎	-10545
."	-10546
山峰	-10547
岁亭	-10548
红军	-10549
舞蹈	-10550
苦恼	-10551
ade	-10552
▁很快	-10553
▁怜儿	-10554
他们所	-10555
前所未	-10556
我是在	-10557
鲁大发	-10558
那么简单	-10559
不值	-10560
举手	-10561
氧气	-10562
的反	-10563
--”	-10564
小师妹	-10565
当我们	-10566
有意思	-10567
电视机	-10568
的道理	-10569
足够了	-10570
▁那声音	-10571
无影	-10572
明军	-10573
桑雅	-10574
窗前	-10575
龙珠	-10576
我是个	-10577
世界上最	-10578
所以我们	-10579
甚么地方	-10580
▁就	-10581
之物	-10582
五天	-10583
兵马	-10584
庄稼	-10585
立着	-10586
计策	-10587
都得	-10588
～”	-10589
一般人	-10590
你知道吗	-10591
侥幸	-10592
八方	-10593
和刘	-10594
嘀咕	-10595
廉正	-10596
开关	-10597
早餐	-10598
的很	-10599
脸颊	-10600
突如其来的	-10601
▁years	-10602
也已	-10603
庆祝	-10604
能有	-10605
诚意	-10606
饲料	-10607
不过我	-10608
背后的	-10609
绝对不能	-10610
两口	-10611
交手	-10612
变动	-10613
幼稚	-10614
档案	-10615
猜王	-10616
里安	-10617
▁今天	-10618
他真的	-10619
会议室	-10620
别忘了	-10621
)、	-10622
却有	-10623
嚣张	-10624
大衣	-10625
引发	-10626
瓶子	-10627
逮捕	-10628
预备	-10629
飞奔	-10630
上来了	-10631
戏志才	-10632
那么大的	-10633
一战	-10634
上将	-10635
喷射	-10636
在两	-10637
收了	-10638
来个	-10639
海威	-10640
藏着	-10641
一些人	-10642
就不用	-10643
提出来	-10644
的一名	-10645
伸出手来	-10646
走了进去	-10647
万年	-10648
工商	-10649
某一	-10650
特拉	-10651
看成	-10652
粒子	-10653
▁当我	-10654
▁陆涛	-10655
一下就	-10656
了一天	-10657
文明的	-10658
这都是	-10659
现在我们	-10660
▁very	-10661
取了	-10662
场景	-10663
战船	-10664
部份	-10665
银色	-10666
她现在	-10667
我一个	-10668
沈岁亭	-10669
的心思	-10670
密密麻麻	-10671
进一步的	-10672
>>	-10673
上山	-10674
世人	-10675
乘坐	-10676
快了	-10677
▁同时	-10678
他们又	-10679
只能是	-10680
我决定	-10681
老老实	-10682
专心	-10683
侵略	-10684
设施	-10685
越大	-10686
贺羽瞬	-10687
同胞	-10688
强者	-10689
按下	-10690
流通	-10691
西凉	-10692
hed	-10693
主要的	-10694
也不必	-10695
体内的	-10696
向自己	-10697
的中国	-10698
的心中	-10699
的选择	-10700
冷哼一声	-10701
丢下	-10702
亮光	-10703
求助	-10704
祝周	-10705
胆小	-10706
鸦片	-10707
完整的	-10708
最重要	-10709
下场	-10710
化装	-10711
卡片	-10712
焦虑	-10713
那可	-10714
这会儿	-10715
那里去	-10716
~~~~	-10717
一步一步	-10718
的神情来	-10719
千人	-10720
和王	-10721
对这	-10722
希尔	-10723
本地	-10724
枕头	-10725
潞王	-10726
艰苦	-10727
的办公室	-10728
精英战士	-10729
什么都没有	-10730
动向	-10731
市的	-10732
徘徊	-10733
扮演	-10734
文洁	-10735
相机	-10736
老爸	-10737
话筒	-10738
陪你	-10739
频率	-10740
高尚	-10741
应有的	-10742
玩意儿	-10743
完全不同	-10744
五行	-10745
养的	-10746
包天	-10747
叫作	-10748
安置	-10749
神光	-10750
萝卜	-10751
逃出	-10752
▁en	-10753
塞琳娜	-10754
如果能	-10755
离不开	-10756
我就知道	-10757
外地	-10758
扩张	-10759
欣慰	-10760
炮声	-10761
要和	-10762
要看	-10763
但是他们	-10764
是一样的	-10765
会有这样的	-10766
凯尔	-10767
就打	-10768
手法	-10769
铃声	-10770
雪花	-10771
好几个	-10772
就会被	-10773
的决定	-10774
跟我们	-10775
阿米娜	-10776
却不知道	-10777
▁待	-10778
出动	-10779
我爹	-10780
讨好	-10781
路口	-10782
阶层	-10783
ire	-10784
▁胡秉宸	-10785
▁布	-10786
性和	-10787
晚餐	-10788
清风	-10789
补给	-10790
部署	-10791
风光	-10792
什么了	-10793
一个男人	-10794
▁红	-10795
关羽	-10796
厂长	-10797
暗杀	-10798
点半	-10799
而死	-10800
意义的	-10801
根本没	-10802
没有问题	-10803
一发	-10804
保姆	-10805
刀的	-10806
有空	-10807
木板	-10808
飞出	-10809
全部都	-10810
另一边	-10811
完美的	-10812
的灵魂	-10813
造成了	-10814
▁到	-10815
之路	-10816
愈来	-10817
苏珊	-10818
迟了	-10819
金花	-10820
二十年	-10821
另一个人	-10822
其人	-10823
挖掘	-10824
烦躁	-10825
有这个	-10826
这胖子	-10827
真不知道	-10828
一统	-10829
上看	-10830
声说	-10831
大洋	-10832
天亮	-10833
安定	-10834
总比	-10835
最新	-10836
送你	-10837
金融	-10838
很重要	-10839
的命运	-10840
加工	-10841
动员	-10842
寰城	-10843
得他	-10844
掌声	-10845
柳玉	-10846
泄露	-10847
至极	-10848
踏实	-10849
▁女人	-10850
还不到	-10851
一言不发	-10852
不入	-10853
其后	-10854
别想	-10855
卡姆	-10856
只顾	-10857
局限	-10858
往回	-10859
房中	-10860
才华	-10861
维尔	-10862
裙子	-10863
了一辆	-10864
我马上	-10865
有一只	-10866
立刻就	-10867
这些事情	-10868
光荣	-10869
带回	-10870
平和	-10871
皱纹	-10872
许静	-10873
青山	-10874
风流	-10875
不对劲	-10876
祖天开	-10877
我告诉你	-10878
三大	-10879
上是	-10880
会对	-10881
克服	-10882
小船	-10883
漫天	-10884
私下	-10885
立的	-10886
自泉	-10887
舰艇	-10888
他不能	-10889
号称	-10890
批发	-10891
毒的	-10892
十二章	-10893
的经验	-10894
高高的	-10895
可是这时	-10896
匆忙	-10897
可法	-10898
孙权	-10899
悲痛	-10900
扩散	-10901
热爱	-10902
班子	-10903
突兀	-10904
▁my	-10905
人生的	-10906
在床上	-10907
多小时	-10908
的脸庞	-10909
千军	-10910
我连	-10911
游客	-10912
也不好	-10913
但是她	-10914
知不知道	-10915
一周	-10916
做着	-10917
像你	-10918
想问	-10919
热水	-10920
出现过	-10921
在心中	-10922
每天都	-10923
认出了	-10924
也没有人	-10925
喃喃地道	-10926
白化星人	-10927
若无其事	-10928
!)	-10929
兮兮	-10930
延安	-10931
收买	-10932
饿了	-10933
麦烨	-10934
产品的	-10935
的经过	-10936
当然可以	-10937
每个人的	-10938
储君	-10939
包含	-10940
忧伤	-10941
怔怔	-10942
毒品	-10943
萧萧	-10944
面试	-10945
她只是	-10946
很喜欢	-10947
有多么	-10948
空荡荡	-10949
仍然没有	-10950
很有可能	-10951
一挥	-10952
不分	-10953
之所	-10954
令她	-10955
冰块	-10956
处女	-10957
将士	-10958
希澈	-10959
恐慌	-10960
江山	-10961
▁白豆	-10962
先进的	-10963
几秒钟	-10964
愈来愈	-10965
胡怀玉	-10966
拍了一下	-10967
▁他说到这里	-10968
听懂	-10969
我敢	-10970
格里	-10971
状的	-10972
耀东	-10973
蒙面	-10974
▁另外	-10975
也有点	-10976
大人物	-10977
学会了	-10978
就算了	-10979
疯狂地	-10980
没有必要	-10981
刚要	-10982
推断	-10983
明阳	-10984
是小	-10985
活儿	-10986
演出	-10987
远在	-10988
重了	-10989
▁见到	-10990
俄罗斯	-10991
在你的	-10992
在身上	-10993
我几乎	-10994
第三个	-10995
这本书	-10996
到了一个	-10997
住宅	-10998
后就	-10999
响亮	-11000
宫殿	-11001
我俩	-11002
极少	-11003
要让	-11004
身高	-11005
到我的	-11006
这一个	-11007
大雷	-11008
平息	-11009
弯曲	-11010
恶意	-11011
永刚	-11012
▁刚才	-11013
▁当他	-11014
大伙儿	-11015
存在于	-11016
就是这个	-11017
用自己的	-11018
天黑	-11019
就道	-11020
抱起	-11021
无息	-11022
良好	-11023
谋杀	-11024
也变得	-11025
他自然	-11026
大概是	-11027
那里的	-11028
两淮总督	-11029
说了出来	-11030
事故	-11031
假面	-11032
声势	-11033
妥协	-11034
射程	-11035
忠义	-11036
狂奔	-11037
第九	-11038
认可	-11039
轰然	-11040
长风	-11041
出什么	-11042
并不多	-11043
漫长的	-11044
你却	-11045
多尔	-11046
汗珠	-11047
确信	-11048
长达	-11049
士兵的	-11050
掏出一	-11051
奥林匹斯	-11052
的事情了	-11053
你太	-11054
八九	-11055
外出	-11056
嫌疑	-11057
必有	-11058
惊叫	-11059
挑衅	-11060
走走	-11061
的生物	-11062
看他的	-11063
轻微的	-11064
凯丽	-11065
四号	-11066
市委	-11067
隧道	-11068
他似乎	-11069
公孙瓒	-11070
大家的	-11071
当成了	-11072
有名的	-11073
我的意思	-11074
看得出来	-11075
点了点头道	-11076
▁朱	-11077
俩人	-11078
嗓门	-11079
敏儿	-11080
月纺	-11081
歌舞	-11082
的酒	-11083
age	-11084
他正在	-11085
你说得	-11086
还有人	-11087
留在这里	-11088
小三	-11089
照明	-11090
震荡	-11091
合适的	-11092
的基础	-11093
这是他	-11094
▁我连忙	-11095
松了口气	-11096
倾斜	-11097
再三	-11098
别无	-11099
召开	-11100
君主	-11101
地板	-11102
大公	-11103
妃暄	-11104
小米	-11105
张飞	-11106
拜托	-11107
时日	-11108
活力	-11109
祝福	-11110
荒谬	-11111
冷自泉	-11112
只要能	-11113
类似的	-11114
ence	-11115
迫不及待	-11116
拖延	-11117
排除	-11118
的原	-11119
视觉	-11120
吉普车	-11121
我想起	-11122
两个小时	-11123
wn	-11124
惯了	-11125
肚皮	-11126
进出	-11127
配备	-11128
▁tr	-11129
▁徐朗	-11130
了一支	-11131
引起的	-11132
拥有的	-11133
清楚的	-11134
脑电波	-11135
辆机甲	-11136
进去了	-11137
看的出来	-11138
XX	-11139
伦敦	-11140
元神	-11141
我呢	-11142
所欲	-11143
至多	-11144
车队	-11145
不是在	-11146
他并不	-11147
就是你	-11148
跑过来	-11149
又向	-11150
四方	-11151
帕拉	-11152
要害	-11153
两万	-11154
修罗	-11155
摆了	-11156
架上	-11157
深知	-11158
畏惧	-11159
着你	-11160
饭菜	-11161
明显地	-11162
有一定	-11163
先去	-11164
搏斗	-11165
泛起	-11166
将军的	-11167
▁曾	-11168
不完	-11169
他到	-11170
做爱	-11171
哗啦	-11172
府的	-11173
报社	-11174
换上	-11175
眼花	-11176
路了	-11177
他是在	-11178
台上的	-11179
是非常	-11180
睁大了	-11181
身上下	-11182
▁王千军	-11183
▁凌	-11184
他连	-11185
伽蓝	-11186
兽医	-11187
商场	-11188
回归	-11189
干涉	-11190
汪汪	-11191
流淌	-11192
的字	-11193
翠芳	-11194
这部	-11195
高地	-11196
范围内	-11197
这封信	-11198
那样做	-11199
一提	-11200
会场	-11201
对岸	-11202
小刀	-11203
心痛	-11204
武力	-11205
污染	-11206
沿途	-11207
的发	-11208
精光	-11209
ure	-11210
特有的	-11211
行动的	-11212
长大了	-11213
显得十分	-11214
表示同意	-11215
中等	-11216
被炸	-11217
雷德	-11218
准备的	-11219
想什么	-11220
的一家	-11221
但是现在	-11222
没有人会	-11223
根本不可能	-11224
低低	-11225
改进	-11226
无际	-11227
画家	-11228
胡铁	-11229
自小	-11230
适当	-11231
露面	-11232
▁作为	-11233
他们将	-11234
他是个	-11235
做了个	-11236
参加了	-11237
的记忆	-11238
不小	-11239
暴力	-11240
确保	-11241
说罢	-11242
越想	-11243
跪下	-11244
还给	-11245
镇静	-11246
这些天	-11247
了好一会	-11248
米洛达尔	-11249
斯巴达米克	-11250
一望	-11251
两艘	-11252
各处	-11253
有如	-11254
气地	-11255
知己	-11256
缝隙	-11257
这道	-11258
伸手去	-11259
回过头	-11260
的手机	-11261
说甚么	-11262
听后	-11263
抱鹤	-11264
方香	-11265
田泽	-11266
廉正风	-11267
英国人	-11268
休息一下	-11269
不提	-11270
压迫	-11271
就很	-11272
快到	-11273
谁的	-11274
钱文	-11275
做生意	-11276
公司在	-11277
在手中	-11278
猛烈的	-11279
的情感	-11280
基于	-11281
常人	-11282
每月	-11283
看待	-11284
秦雨	-11285
索伦	-11286
经典	-11287
罗尼	-11288
而她	-11289
跟上	-11290
会出现	-11291
徐德富	-11292
一排	-11293
一线	-11294
基金	-11295
大开	-11296
查看	-11297
还敢	-11298
远程	-11299
不正常	-11300
男孩子	-11301
通过了	-11302
队员们	-11303
游牧骑兵	-11304
的过程中	-11305
不知道为什么	-11306
头儿	-11307
护送	-11308
矮子	-11309
警车	-11310
这首	-11311
错过	-11312
的危险	-11313
的这种	-11314
轻松地	-11315
问了一句	-11316
。《	-11317
一帮	-11318
也将	-11319
侧面	-11320
封建	-11321
属性	-11322
找来	-11323
水生	-11324
眯眯	-11325
雨水	-11326
食指	-11327
些甚么	-11328
喊叫	-11329
嘴边	-11330
山头	-11331
打来	-11332
短期	-11333
绅士	-11334
一点的	-11335
而且在	-11336
还是有	-11337
▁dis	-11338
不被	-11339
伏击	-11340
喜爱	-11341
总得	-11342
抓到	-11343
捉摸	-11344
早早	-11345
火花	-11346
率先	-11347
石棺	-11348
脚印	-11349
起初	-11350
高于	-11351
大军的	-11352
如果在	-11353
脑海里	-11354
▁贝	-11355
他先	-11356
六韩	-11357
失措	-11358
定位	-11359
弯腰	-11360
拉杰	-11361
收缩	-11362
月份	-11363
李豪	-11364
模仿	-11365
用品	-11366
三分钟	-11367
最高的	-11368
自己去	-11369
薛翠芳	-11370
这两人	-11371
▁莫不计	-11372
冀州	-11373
员的	-11374
咒骂	-11375
妹子	-11376
模型	-11377
银河	-11378
阿迪	-11379
yle	-11380
做出了	-11381
无意中	-11382
见过的	-11383
重重的	-11384
塞进	-11385
引人	-11386
摩擦	-11387
火了	-11388
看书	-11389
破解	-11390
被杀	-11391
长刀	-11392
一连串	-11393
不自觉	-11394
了一份	-11395
可是那	-11396
师妃暄	-11397
看到我	-11398
那一天	-11399
▁司马光	-11400
在一瞬间	-11401
她的声音	-11402
放下电话	-11403
伏在	-11404
参考	-11405
呈现	-11406
埋在	-11407
惊惶	-11408
洞中	-11409
班的	-11410
约莫	-11411
纳德	-11412
落魄	-11413
fer	-11414
了几个	-11415
那天晚上	-11416
三名	-11417
人情	-11418
多远	-11419
大意	-11420
委会	-11421
拉起	-11422
擅长	-11423
有不	-11424
老兵	-11425
袖子	-11426
ans	-11427
与我们	-11428
后来的	-11429
张吉利	-11430
比纳尔	-11431
cc	-11432
地是	-11433
工匠	-11434
快去	-11435
惶恐	-11436
憔悴	-11437
更新	-11438
水果	-11439
珍珠	-11440
站住	-11441
这在	-11442
频频	-11443
与自己	-11444
关上了	-11445
容耀华	-11446
指的是	-11447
比我们	-11448
这才是	-11449
地看着他	-11450
下雨	-11451
争辩	-11452
二保	-11453
动摇	-11454
大白	-11455
安抚	-11456
抬手	-11457
捧着	-11458
积雪	-11459
草地	-11460
责怪	-11461
龙头	-11462
▁牛顿	-11463
一小时	-11464
放在了	-11465
的分析	-11466
land	-11467
不约而同	-11468
大摇	-11469
层次	-11470
昨夜	-11471
通报	-11472
伴随着	-11473
还活着	-11474
送到了	-11475
都觉得	-11476
▁我没有	-11477
没有丝毫	-11478
ip	-11479
以求	-11480
年青	-11481
捂住	-11482
还请	-11483
霸王	-11484
▁郭嘉	-11485
勃拉克	-11486
我所知	-11487
有关的	-11488
第三次	-11489
自以为	-11490
这些事	-11491
▁卫斯理	-11492
中国军队	-11493
只是为了	-11494
说不出的	-11495
还是一个	-11496
三号	-11497
将门	-11498
战神	-11499
报应	-11500
指甲	-11501
牌子	-11502
的条件	-11503
等人的	-11504
内心深处	-11505
无声无息	-11506
来到这里	-11507
叫嚷	-11508
宁可	-11509
定是	-11510
拥挤	-11511
流着	-11512
玩的	-11513
腹部	-11514
重型	-11515
下了头	-11516
便已经	-11517
出一条	-11518
却是一	-11519
的安全	-11520
的角度	-11521
街道上	-11522
什么也没	-11523
大叫一声	-11524
一红	-11525
发自	-11526
向西	-11527
妨碍	-11528
当今	-11529
波斯	-11530
留给	-11531
过多	-11532
他开始	-11533
大踏步	-11534
的笑声	-11535
一点都不	-11536
书中	-11537
人手	-11538
修改	-11539
关了	-11540
可有	-11541
开展	-11542
武学	-11543
洪魔	-11544
睡眠	-11545
神会	-11546
秋天	-11547
鞭子	-11548
这一段	-11549
动了一下	-11550
▁这个时候	-11551
不给	-11552
工艺	-11553
成千	-11554
截然	-11555
手雷	-11556
扫射	-11557
断续	-11558
消化	-11559
衣着	-11560
诅咒	-11561
▁一名	-11562
兴高	-11563
出差	-11564
四百	-11565
子女	-11566
宛如	-11567
强劲	-11568
数目	-11569
泰宁	-11570
激怒	-11571
纯洁	-11572
通用	-11573
了一层	-11574
你们都	-11575
运输舰	-11576
那样说	-11577
认为自己	-11578
我吧	-11579
监区	-11580
航母	-11581
马的	-11582
▁那是	-11583
只要一	-11584
的头发	-11585
破六韩	-11586
回过神来	-11587
所以他们	-11588
两大	-11589
俏脸	-11590
名片	-11591
天然	-11592
报警	-11593
水泥	-11594
芙蓉	-11595
了我们	-11596
年前的	-11597
当然也	-11598
有力的	-11599
理解的	-11600
穿着一	-11601
有什么关系	-11602
一二	-11603
交情	-11604
压在	-11605
宝剑	-11606
投向	-11607
指头	-11608
潮湿	-11609
穿的	-11610
辅助	-11611
阴间	-11612
交给我	-11613
的效果	-11614
下意识地	-11615
▁一时之间	-11616
▁云	-11617
名称	-11618
屋中	-11619
张燕	-11620
王朝	-11621
甜甜	-11622
直线	-11623
适宜	-11624
她觉得	-11625
时不时	-11626
▁卡尔斯	-11627
因为他的	-11628
就是那个	-11629
看不出来	-11630
亲吻	-11631
击溃	-11632
同声	-11633
后代	-11634
湖边	-11635
---	-11636
▁第八	-11637
只可惜	-11638
天花板	-11639
我看着	-11640
的威力	-11641
能力的	-11642
角落里	-11643
里加度	-11644
俊野	-11645
信用	-11646
合法	-11647
挫折	-11648
杆子	-11649
格兰	-11650
不是人	-11651
可以有	-11652
微不足	-11653
罗尼卡	-11654
我也不会	-11655
若有所思	-11656
别扭	-11657
大雨	-11658
的多	-11659
▁Th	-11660
▁他说	-11661
座位上	-11662
红了脸	-11663
一般来说	-11664
在他看来	-11665
我一定会	-11666
刺刀	-11667
吞吞	-11668
回想	-11669
圈套	-11670
天虹	-11671
实是	-11672
战中	-11673
特兰	-11674
相片	-11675
黄帝	-11676
不少人	-11677
只留下	-11678
战斗中	-11679
把你的	-11680
看到她	-11681
薇罗尼卡	-11682
ks	-11683
出息	-11684
刚想	-11685
大堂	-11686
大明	-11687
这批	-11688
那几	-11689
只要是	-11690
拿着一	-11691
有多大	-11692
▁向	-11693
了点	-11694
你家	-11695
公事	-11696
可他	-11697
大火	-11698
张坚	-11699
心下	-11700
热气	-11701
缅甸	-11702
美德	-11703
邓石	-11704
一直是	-11705
也不用	-11706
明白的	-11707
蓝耳病	-11708
列车	-11709
洞里	-11710
祖国	-11711
规划	-11712
钦佩	-11713
一面道	-11714
大声说	-11715
这么久	-11716
那一刻	-11717
一如	-11718
不当	-11719
剑气	-11720
小镇	-11721
打扫	-11722
探头	-11723
看完	-11724
迪斯	-11725
风华	-11726
▁un	-11727
▁方天	-11728
的叫声	-11729
你是怎么	-11730
业的	-11731
凝聚	-11732
淹没	-11733
燕国	-11734
组建	-11735
走开	-11736
陪伴	-11737
了几声	-11738
设计的	-11739
到哪里去	-11740
妍妍	-11741
定义	-11742
敏敏	-11743
生机	-11744
罪行	-11745
获取	-11746
阴暗	-11747
陶奎	-11748
顾不得	-11749
叫什么名字	-11750
便又	-11751
傻子	-11752
八年	-11753
出货	-11754
划过	-11755
哽咽	-11756
她从	-11757
宪兵	-11758
每日	-11759
深情	-11760
的和	-11761
站的	-11762
精通	-11763
调到	-11764
逃离	-11765
问起	-11766
sel	-11767
你不必	-11768
的气味	-11769
的道路	-11770
试一试	-11771
闪烁着	-11772
有什么好	-11773
便把	-11774
办的	-11775
半夏	-11776
合约	-11777
怀念	-11778
河的	-11779
湖水	-11780
独特	-11781
铁门	-11782
你的话	-11783
的问道	-11784
对太史慈	-11785
予以	-11786
二楼	-11787
体质	-11788
卡斯	-11789
变为	-11790
皮鞋	-11791
穿透	-11792
蒸汽	-11793
车常	-11794
轰轰	-11795
迷茫	-11796
are	-11797
就是想	-11798
没有一个人	-11799
信念	-11800
分享	-11801
境内	-11802
徐庶	-11803
投机	-11804
死刑	-11805
看重	-11806
五个人	-11807
刘嘻哈	-11808
的高度	-11809
一切都是	-11810
俯身	-11811
则在	-11812
基层	-11813
未知	-11814
浮现	-11815
演讲	-11816
由他	-11817
著作	-11818
还很	-11819
不像是	-11820
兄弟们	-11821
反问道	-11822
我们家	-11823
我愿意	-11824
我要是	-11825
聪明的	-11826
那可是	-11827
越来越大	-11828
这些日子	-11829
你怎么知道	-11830
反常	-11831
古城	-11832
平地	-11833
忍耐	-11834
新人	-11835
有话	-11836
西部	-11837
频繁	-11838
反过来	-11839
各地的	-11840
无奈地	-11841
无尽的	-11842
普罗镇	-11843
愣了一下	-11844
春江飞鸿	-11845
这是我的	-11846
!』	-11847
两旁	-11848
但愿	-11849
前者	-11850
各项	-11851
搂着	-11852
景色	-11853
迷惘	-11854
都将	-11855
dis	-11856
在脸上	-11857
并非是	-11858
的习惯	-11859
两半	-11860
义和	-11861
他叫	-11862
充当	-11863
凤鸣	-11864
思庆	-11865
昨日	-11866
架势	-11867
盘上	-11868
站定	-11869
老三	-11870
荣毅	-11871
透着	-11872
▁母亲	-11873
乔巧儿	-11874
兴高采	-11875
在这种情况下	-11876
▁七	-11877
你很	-11878
异议	-11879
而降	-11880
营救	-11881
西装	-11882
要多	-11883
证件	-11884
也不动	-11885
你今天	-11886
却并不	-11887
天空中	-11888
的面孔	-11889
苏耀西	-11890
大喝一声	-11891
就在这里	-11892
马上就要	-11893
传到	-11894
华丽	-11895
峨嵋	-11896
西原	-11897
较为	-11898
▁老旦	-11899
可现在	-11900
我以前	-11901
日子里	-11902
▁我呆了一呆	-11903
娘的	-11904
家堡	-11905
把脸	-11906
旅客	-11907
疙瘩	-11908
你喜欢	-11909
的余地	-11910
糊涂了	-11911
脑海中	-11912
这只是	-11913
远远的	-11914
他的眼睛	-11915
传了过来	-11916
来不及了	-11917
叶媚	-11918
吉尔	-11919
把小	-11920
直播	-11921
站长	-11922
老弟	-11923
自家	-11924
袭来	-11925
阻拦	-11926
ind	-11927
▁只有	-11928
冷冷地	-11929
却不是	-11930
就能够	-11931
我从来	-11932
李邦殊	-11933
而我们	-11934
放在眼里	-11935
互助	-11936
军方	-11937
包装	-11938
去买	-11939
后勤	-11940
天音	-11941
放声	-11942
昔日	-11943
柏敏	-11944
西藏	-11945
远去	-11946
违背	-11947
追上	-11948
上一次	-11949
可能有	-11950
你们这些	-11951
一棵	-11952
保佑	-11953
她能	-11954
当晚	-11955
当面	-11956
情节	-11957
所得	-11958
晋国	-11959
瀑布	-11960
生动	-11961
议会	-11962
裴思庆	-11963
詹姆士	-11964
留下来的	-11965
┅┅	-11966
妄想	-11967
放手	-11968
纠正	-11969
女子的	-11970
对这些	-11971
这两位	-11972
这个大	-11973
不下去了	-11974
我是不是	-11975
依照	-11976
吃着	-11977
小区	-11978
放的	-11979
村的	-11980
海外	-11981
着想	-11982
肮脏	-11983
费尔	-11984
丁家干	-11985
安全的	-11986
拒绝了	-11987
显示屏	-11988
朋友们	-11989
绝对的	-11990
让林极	-11991
▁马三多	-11992
我并没有	-11993
我的身体	-11994
这方面的	-11995
慌忙	-11996
而被	-11997
论文	-11998
难堪	-11999
一步步	-12000
既然是	-12001
各种各样	-12002
不管怎么说	-12003
子了	-12004
沧吾	-12005
编制	-12006
虔诚	-12007
陪我	-12008
骇人	-12009
ime	-12010
不仅是	-12011
提供的	-12012
错误的	-12013
我还没有	-12014
比纳尔特	-12015
三国	-12016
不识	-12017
你将	-12018
力竭	-12019
午饭	-12020
射向	-12021
换成	-12022
脚的	-12023
警备	-12024
那件	-12025
阻碍	-12026
一边说	-12027
地事情	-12028
失声道	-12029
就是一	-12030
拼命地	-12031
突击队员	-12032
”?	-12033
友好	-12034
向北	-12035
她去	-12036
定要	-12037
尼霸	-12038
引力	-12039
当前	-12040
此言	-12041
盘子	-12042
锋利	-12043
馒头	-12044
麻醉	-12045
ose	-12046
▁we	-12047
便开始	-12048
在整个	-12049
地发现	-12050
▁centur	-12051
上半	-12052
乡亲	-12053
做为	-12054
发怒	-12055
壕沟	-12056
失误	-12057
好心	-12058
屋内	-12059
摇摆	-12060
熊熊	-12061
窝里	-12062
那也	-12063
一个叫	-12064
交给你	-12065
让大家	-12066
ated	-12067
孟德	-12068
快走	-12069
栅栏	-12070
淘汰	-12071
赞美	-12072
之前的	-12073
兴奋地	-12074
却十分	-12075
周恩来	-12076
必要的	-12077
我估计	-12078
死去的	-12079
派出所	-12080
说得很	-12081
那你就	-12082
增援	-12083
小山	-12084
帮着	-12085
底的	-12086
把钱	-12087
携带	-12088
一听到	-12089
在一家	-12090
房间中	-12091
无法再	-12092
ment	-12093
地望着我	-12094
▁霍	-12095
产量	-12096
加尔	-12097
小妹	-12098
强盗	-12099
想出	-12100
手表	-12101
按在	-12102
撇嘴	-12103
波浪	-12104
的公	-12105
皇室	-12106
相视	-12107
苏原	-12108
郑勇	-12109
齐声	-12110
▁黄蝉	-12111
上的人	-12112
的身后	-12113
解释说	-12114
身旁的	-12115
还会有	-12116
那当然	-12117
fore	-12118
的一瞬间	-12119
闷哼一声	-12120
抗战	-12121
敢于	-12122
昆仑	-12123
有大	-12124
没用	-12125
雾气	-12126
他当然	-12127
宇宙中	-12128
庭车常	-12129
当地的	-12130
法国人	-12131
联想到	-12132
陶奎元	-12133
了一句话	-12134
注意到了	-12135
堡垒	-12136
巴枯	-12137
瑞士	-12138
群体	-12139
若非	-12140
蔡惜	-12141
阵的	-12142
鼓舞	-12143
不同了	-12144
的技术	-12145
的爱情	-12146
这辈子	-12147
可是他却	-12148
一队	-12149
丑陋	-12150
助理	-12151
华夏	-12152
在被	-12153
推广	-12154
狗子	-12155
那具	-12156
鞋子	-12157
你难道	-12158
在一次	-12159
这两天	-12160
这些都是	-12161
做到这一点	-12162
八矬	-12163
刀法	-12164
提斯	-12165
由得	-12166
英琼	-12167
他立刻	-12168
地区的	-12169
失落园	-12170
意大利	-12171
已经知道	-12172
这样说的时候	-12173
上床	-12174
侍者	-12175
前些	-12176
只说	-12177
女王	-12178
子孙	-12179
宛若	-12180
法官	-12181
监控	-12182
空军	-12183
而成	-12184
观的	-12185
踏上	-12186
在上海	-12187
少剑波	-12188
还是不	-12189
到了这里	-12190
我也知道	-12191
知识分子	-12192
剩余	-12193
可人	-12194
圆圆	-12195
斯克	-12196
机士	-12197
灭亡	-12198
玉檀	-12199
王府	-12200
黑白	-12201
▁一切	-12202
可是又	-12203
当真是	-12204
接着道	-12205
活动的	-12206
的局面	-12207
阳光下	-12208
ud	-12209
上楼	-12210
从从	-12211
古墓	-12212
各大	-12213
徒弟	-12214
浓浓	-12215
的真	-12216
预言	-12217
高贵	-12218
得多了	-12219
柳玉蓉	-12220
在地上的	-12221
没有发现	-12222
站在门口	-12223
▁into	-12224
▁门	-12225
分队	-12226
命中	-12227
往常	-12228
王誉	-12229
四个字	-12230
在这样	-12231
看电视	-12232
身子一	-12233
送来的	-12234
二十四小时	-12235
万物	-12236
听我	-12237
就问	-12238
表哥	-12239
les	-12240
医院的	-12241
只是想	-12242
控制了	-12243
来形容	-12244
轻轻一	-12245
这一步	-12246
都十分	-12247
也不例外	-12248
之徒	-12249
关照	-12250
对其	-12251
气喘	-12252
猛哥	-12253
蔓延	-12254
指导员	-12255
甚至还	-12256
的微笑	-12257
十二天官	-12258
这个家伙	-12259
▁more	-12260
塔山	-12261
应征	-12262
弓弩	-12263
找人	-12264
桌前	-12265
气体	-12266
洛善	-12267
苏州	-12268
龙去	-12269
皱着眉头	-12270
那是因为	-12271
剑法	-12272
动听	-12273
惊诧	-12274
扑向	-12275
报答	-12276
花香	-12277
谁敢	-12278
调皮	-12279
我还没	-12280
的痛苦	-12281
胡克强	-12282
应声	-12283
开战	-12284
有条	-12285
死路	-12286
而非	-12287
高顺	-12288
▁凌通	-12289
了解到	-12290
怎么看	-12291
我们将	-12292
民族的	-12293
的城市	-12294
的社会	-12295
惊叹	-12296
战事	-12297
束缚	-12298
毁掉	-12299
流程	-12300
用作	-12301
西洋	-12302
闲着	-12303
饮料	-12304
▁那天	-12305
他不想	-12306
听到的	-12307
成一片	-12308
我本来	-12309
甘铁生	-12310
鲜于修	-12311
司空大人	-12312
胡思乱想	-12313
凄凉	-12314
孟获	-12315
怨恨	-12316
房的	-12317
气候	-12318
活泼	-12319
细菌	-12320
而无	-12321
谦虚	-12322
连昌	-12323
很快地	-12324
皱眉道	-12325
定了定神	-12326
▁齐	-12327
倾听	-12328
应变	-12329
甘心	-12330
远比	-12331
问过	-12332
震耳	-12333
永远不会	-12334
三四	-12335
上身	-12336
再无	-12337
切割	-12338
招牌	-12339
日期	-12340
玩儿	-12341
福利	-12342
童年	-12343
筹码	-12344
▁整个	-12345
增加了	-12346
白素的	-12347
金色的	-12348
开讲	-12349
摘下	-12350
春风	-12351
更快	-12352
满满	-12353
立正	-12354
轻蔑	-12355
非得	-12356
鼓掌	-12357
不了的	-12358
主持人	-12359
的大小	-12360
看一眼	-12361
陶美娟	-12362
更重要的是	-12363
万千	-12364
复原	-12365
奔驰	-12366
她用	-12367
少的	-12368
掀起	-12369
数以	-12370
知晓	-12371
黑人	-12372
▁do	-12373
失踪了	-12374
我也会	-12375
▁day	-12376
随时可以	-12377
建冬	-12378
捂着	-12379
早期	-12380
激起	-12381
耳中	-12382
货车	-12383
近身	-12384
那家	-12385
鞠躬	-12386
▁晚上	-12387
了一杯	-12388
卜连昌	-12389
我仍然	-12390
甚么人	-12391
的照片	-12392
领导人	-12393
II	-12394
南蛮	-12395
宰相	-12396
风波	-12397
就到了	-12398
懒洋洋	-12399
派来的	-12400
难道你	-12401
将自己的	-12402
有什么用	-12403
――	-12404
▁十	-12405
体型	-12406
吼道	-12407
工事	-12408
敌意	-12409
板子	-12410
核弹	-12411
轮廓	-12412
追随	-12413
一旁的	-12414
显示出	-12415
有些发	-12416
武器的	-12417
的事件	-12418
萧县长	-12419
见不到	-12420
这一下	-12421
地点了点头	-12422
二哥	-12423
从何	-12424
克生	-12425
张松	-12426
强势	-12427
往日	-12428
手提	-12429
细的	-12430
车间	-12431
魔力	-12432
▁al	-12433
▁首先	-12434
机械人	-12435
的下落	-12436
这是在	-12437
原振侠和	-12438
扬了扬眉	-12439
▁新	-12440
峭壁	-12441
有四	-12442
方公主	-12443
有一半	-12444
有必要	-12445
林雅儿	-12446
乱世	-12447
仰天	-12448
取决	-12449
坐标	-12450
大盘	-12451
安宁	-12452
平凡	-12453
性情	-12454
撒谎	-12455
极有	-12456
自成	-12457
▁史奈	-12458
奇特的	-12459
的希望	-12460
补充道	-12461
飞行员	-12462
我看到了	-12463
你做	-12464
单身	-12465
大感	-12466
就可	-12467
巧的	-12468
机动	-12469
来信	-12470
来时	-12471
此地	-12472
牵涉	-12473
群的	-12474
那老	-12475
三个字	-12476
到什么	-12477
十一章	-12478
吴世祖	-12479
想象力	-12480
林极也	-12481
龙去脉	-12482
写道	-12483
是呀	-12484
田野	-12485
胡闹	-12486
踪迹	-12487
隐身	-12488
到自己	-12489
和那个	-12490
徐德成	-12491
漆黑的	-12492
证明了	-12493
一波	-12494
两家	-12495
井河	-12496
出神	-12497
勇志	-12498
嗓音	-12499
天哪	-12500
巧合	-12501
悠闲	-12502
歼灭	-12503
每隔	-12504
绝了	-12505
这颗	-12506
地笑了	-12507
水成波	-12508
的安排	-12509
黄得功	-12510
走了过去	-12511
urope	-12512
举着	-12513
十章	-12514
坚信	-12515
来来	-12516
沉睡	-12517
狂风	-12518
礼仪	-12519
笑说	-12520
班主任	-12521
问题上	-12522
的声音道	-12523
个体	-12524
串串	-12525
初期	-12526
好听	-12527
始皇	-12528
布满	-12529
得着	-12530
某人	-12531
祝贺	-12532
老远	-12533
自古	-12534
驶去	-12535
ook	-12536
他的人	-12537
众多的	-12538
▁old	-12539
我的眼睛	-12540
▁world	-12541
▁奥	-12542
压缩	-12543
性地	-12544
恨恨	-12545
成分	-12546
我为	-12547
潜力	-12548
辩解	-12549
div	-12550
出版社	-12551
对她说	-12552
应该说	-12553
笑眯眯	-12554
很长时间	-12555
三万	-12556
可没	-12557
四散	-12558
廖立	-12559
开封	-12560
支票	-12561
西边	-12562
观测	-12563
▁之后	-12564
不允许	-12565
尽全力	-12566
居然会	-12567
而他的	-12568
他们没有	-12569
是一个人	-12570
UN	-12571
也和	-12572
书的	-12573
性感	-12574
青雀	-12575
他们还	-12576
我是说	-12577
我真是	-12578
旁观者	-12579
经济学	-12580
不可能的	-12581
关键时刻	-12582
只是一种	-12583
我的意思是	-12584
IN	-12585
哪能	-12586
如娜	-12587
定律	-12588
小雅	-12589
搬到	-12590
死得	-12591
淑芳	-12592
深思	-12593
低声说	-12594
办事处	-12595
大太太	-12596
我说过	-12597
如果你们	-12598
伍德	-12599
时时	-12600
民警	-12601
续道	-12602
被动	-12603
铁锁	-12604
颤动	-12605
他人的	-12606
他只好	-12607
眼中的	-12608
▁苏耀西	-12609
就像一个	-12610
一瓶	-12611
便可	-12612
库伯	-12613
张嘴	-12614
当做	-12615
标本	-12616
诞生	-12617
ren	-12618
发动了	-12619
的国家	-12620
不料	-12621
乘客	-12622
关在	-12623
昆虫	-12624
照耀	-12625
茶杯	-12626
来的人	-12627
流露出	-12628
黄金时间	-12629
一个小小的	-12630
价位	-12631
使其	-12632
关节	-12633
常识	-12634
数的	-12635
来着	-12636
甄宓	-12637
看好	-12638
阻击	-12639
卫生间	-12640
的叙述	-12641
▁孙百里	-12642
还有很多	-12643
卖出	-12644
又何	-12645
天国	-12646
实用	-12647
小翠	-12648
扔到	-12649
牧场	-12650
白眼	-12651
课程	-12652
贷款	-12653
驾着	-12654
▁古托	-12655
取出一	-12656
在旁边	-12657
就那么	-12658
已经将	-12659
摩托车	-12660
的历史	-12661
还有点	-12662
那少女	-12663
▁one	-12664
▁两个人	-12665
把所有的	-12666
▁子	-12667
撞在	-12668
无视	-12669
衣裳	-12670
西瓜	-12671
赶上	-12672
顺势	-12673
▁我向	-12674
名士兵	-12675
我说的	-12676
挡住了	-12677
王梦雁	-12678
过日子	-12679
▁new	-12680
▁谁	-12681
不宜	-12682
之神	-12683
便要	-12684
外婆	-12685
才算	-12686
捏着	-12687
病情	-12688
的顶	-12689
说谎	-12690
陪同	-12691
在眼前	-12692
松开了	-12693
皱了皱眉	-12694
面无表情	-12695
▁原振侠道	-12696
可言	-12697
吃掉	-12698
哪吒	-12699
在新	-12700
坟墓	-12701
床头	-12702
探出	-12703
的声	-12704
礁石	-12705
这句	-12706
邮件	-12707
我有些	-12708
欢呼声	-12709
着一凡	-12710
nder	-12711
▁第三十	-12712
一死	-12713
一类	-12714
之手	-12715
先锋	-12716
叛徒	-12717
嘲讽	-12718
明年	-12719
沼泽	-12720
竟会	-12721
遥控	-12722
不能说	-12723
想得到	-12724
打破了	-12725
把那些	-12726
拿起了	-12727
还是个	-12728
这样问	-12729
▁玲	-12730
也对	-12731
今夜	-12732
介甫	-12733
就向	-12734
爱他	-12735
蒙诺	-12736
讲得	-12737
质的	-12738
隔离	-12739
▁如今	-12740
拉开了	-12741
紧紧的	-12742
过一个	-12743
在这方面	-12744
机甲战士	-12745
▁K	-12746
不良	-12747
你才	-12748
好吃	-12749
月初	-12750
猎杀	-12751
钉子	-12752
阿俊	-12753
”,“	-12754
亿美元	-12755
和红绫	-12756
夜总会	-12757
甘情愿	-12758
我知道了	-12759
的时候了	-12760
前一	-12761
回音	-12762
恰当	-12763
手套	-12764
探讨	-12765
气急	-12766
羞涩	-12767
自如	-12768
血统	-12769
赔偿	-12770
走下	-12771
边走	-12772
阿里	-12773
对你说	-12774
的帮助	-12775
过了一	-12776
就该	-12777
投靠	-12778
无异	-12779
时尚	-12780
经费	-12781
飞向	-12782
▁我一	-12783
三十多	-12784
只见他	-12785
爆炸声	-12786
▁<	-12787
两国	-12788
之计	-12789
家具	-12790
缝中	-12791
跟著	-12792
他可能	-12793
大大地	-12794
就是说	-12795
的语言	-12796
play	-12797
写得	-12798
古堡	-12799
场中	-12800
坏的	-12801
小白	-12802
时所	-12803
有成	-12804
此际	-12805
洪水	-12806
炕上	-12807
痛楚	-12808
繁荣	-12809
顾虑	-12810
饭吃	-12811
香的	-12812
在当时	-12813
心目中	-12814
不了多久	-12815
到了他的	-12816
笑着说道	-12817
交错	-12818
刀锋	-12819
吭声	-12820
多种	-12821
林云	-12822
洞穴	-12823
甘宁	-12824
瞎子	-12825
附和	-12826
高人	-12827
不用说	-12828
二活佛	-12829
动不动	-12830
卓长根	-12831
学校的	-12832
张夫人	-12833
无痕月	-12834
林至缺	-12835
短暂的	-12836
能量炮	-12837
可我	-12838
嘶哑	-12839
地毯	-12840
守在	-12841
步骤	-12842
爱她	-12843
缩小	-12844
那段	-12845
难事	-12846
领悟	-12847
!?”	-12848
一切的	-12849
他身上	-12850
你就会	-12851
大家族	-12852
小屁孩	-12853
就不再	-12854
应该有	-12855
的手上	-12856
问题了	-12857
静静的	-12858
到哪里去了	-12859
不响	-12860
删除	-12861
咽喉	-12862
直直	-12863
看作	-12864
耀眼	-12865
雷神	-12866
▁杰克	-12867
出一道	-12868
在场的	-12869
对你的	-12870
的真正	-12871
见面的	-12872
他们都是	-12873
已经不是	-12874
提高了声音	-12875
这个世界上	-12876
乳房	-12877
二来	-12878
取代	-12879
把戏	-12880
方圆	-12881
白云	-12882
请示	-12883
鉴定	-12884
骗子	-12885
传说中	-12886
听见了	-12887
小时内	-12888
清晰地	-12889
还能够	-12890
出现了一个	-12891
争斗	-12892
广西	-12893
打起	-12894
揭开	-12895
汉语	-12896
猜到	-12897
的分	-12898
稳稳	-12899
脑后	-12900
过一	-12901
own	-12902
一出口	-12903
爱上了	-12904
style	-12905
中将	-12906
壮的	-12907
眼眶	-12908
空旷	-12909
紧握	-12910
绿的	-12911
他这个	-12912
取决于	-12913
心中一	-12914
结婚了	-12915
丕丕	-12916
他地	-12917
到手	-12918
地转	-12919
复仇	-12920
展现	-12921
庄严	-12922
艾泊	-12923
荣华	-12924
邱光	-12925
iku	-12926
▁关于	-12927
人群中	-12928
他一眼	-12929
内部的	-12930
王大同	-12931
让别人	-12932
feiku	-12933
嚷嚷	-12934
如下	-12935
数千	-12936
端的	-12937
脱身	-12938
见解	-12939
———	-12940
回来后	-12941
说明了	-12942
都有些	-12943
▁这句话	-12944
跟在后面	-12945
</	-12946
▁梅	-12947
八百	-12948
图上	-12949
姑姑	-12950
提拔	-12951
效益	-12952
着腰	-12953
碎裂	-12954
英兰	-12955
躲开	-12956
雷霆	-12957
▁不知	-12958
不论是	-12959
脚下的	-12960
选择的	-12961
社会主义	-12962
都没有了	-12963
也说	-12964
以待	-12965
会长	-12966
会面	-12967
战火	-12968
李铁	-12969
者们	-12970
蒙蒙	-12971
雅典	-12972
验证	-12973
一起来	-12974
他实在	-12975
皱起了	-12976
集团的	-12977
他的身子	-12978
这种东西	-12979
最重要的是	-12980
,「	-12981
伙人	-12982
发财	-12983
好汉	-12984
帮会	-12985
挽回	-12986
摩柯	-12987
收费	-12988
桃花	-12989
绝非	-12990
老二	-12991
被击	-12992
长弓	-12993
雷电	-12994
冒出来	-12995
剧烈地	-12996
女性的	-12997
我们再	-12998
有人来	-12999
雷斯林	-13000
none	-13001
你怎么了	-13002
我知道你	-13003
▁other	-13004
上风	-13005
却很	-13006
商船	-13007
孙河	-13008
愣愣	-13009
按摩	-13010
斗志	-13011
简陋	-13012
忽然又	-13013
想到过	-13014
研究的	-13015
也越来越	-13016
接着说道	-13017
发生了什么	-13018
ST	-13019
五德	-13020
刘极	-13021
南越	-13022
吼叫	-13023
宝德	-13024
搜查	-13025
杂乱	-13026
足有	-13027
▁我问	-13028
▁这里	-13029
多少次	-13030
给大家	-13031
走出去	-13032
难以置信	-13033
">	-13034
="	-13035
▁文	-13036
上船	-13037
兵丁	-13038
妖精	-13039
左侧	-13040
搂住	-13041
斐然	-13042
点上	-13043
莲花	-13044
在我面前	-13045
的人来说	-13046
display	-13047
divstyle	-13048
两辆	-13049
凌宇	-13050
反手	-13051
大雅	-13052
奋力	-13053
好歹	-13054
就当	-13055
张鹄	-13056
活人	-13057
湖北	-13058
衣衫	-13059
都市	-13060
也未必	-13061
到后来	-13062
博士的	-13063
回家了	-13064
很多人都	-13065
▁山虎上校	-13066
————————	-13067
丑恶	-13068
乞丐	-13069
书籍	-13070
从没	-13071
加里	-13072
圣剑	-13073
故乡	-13074
无边	-13075
老罗	-13076
被抓	-13077
赫然	-13078
黄的	-13079
当然要	-13080
用十分	-13081
不尽	-13082
不掉	-13083
任凭	-13084
十倍	-13085
却没	-13086
潜在	-13087
绵绵	-13088
高田	-13089
ild	-13090
不属于	-13091
不是吗	-13092
丧失了	-13093
从里面	-13094
地笑着	-13095
总是在	-13096
摇摇晃	-13097
地点点头	-13098
摇摇晃晃	-13099
▁本	-13100
大院	-13101
头晕	-13102
奢侈	-13103
无措	-13104
歌唱	-13105
狂热	-13106
王宫	-13107
石二	-13108
过着	-13109
不想再	-13110
他看着	-13111
研究生	-13112
上岸	-13113
亮起	-13114
原料	-13115
合上	-13116
告诫	-13117
唾沫	-13118
堂主	-13119
应道	-13120
空了	-13121
耿耿	-13122
进的	-13123
顾杰	-13124
风雪	-13125
▁ag	-13126
一行人	-13127
然后就	-13128
▁寇逸仇	-13129
也是一样	-13130
办公室里	-13131
哈尔茜博士	-13132
一记	-13133
号角	-13134
吐出	-13135
好意	-13136
更高	-13137
而逃	-13138
近来	-13139
连个	-13140
两只手	-13141
发动机	-13142
咬着牙	-13143
未免太	-13144
的几个	-13145
着一股	-13146
跑出来	-13147
一世	-13148
不曾	-13149
两张	-13150
任的	-13151
余曼	-13152
微妙	-13153
恒星	-13154
推出	-13155
潜入	-13156
线路	-13157
边春	-13158
追查	-13159
预知	-13160
马蹄	-13161
▁李固	-13162
那也是	-13163
▁像	-13164
五色	-13165
剑光	-13166
封印	-13167
山里	-13168
支配	-13169
放射	-13170
救我	-13171
沉香	-13172
活得	-13173
灵敏	-13174
萨勒	-13175
身着	-13176
副主任	-13177
甚至在	-13178
认识了	-13179
你一个人	-13180
走了几步	-13181
刘繇	-13182
卖了	-13183
厉声	-13184
坐了	-13185
波罗	-13186
牛皮	-13187
生病	-13188
疏忽	-13189
过人	-13190
▁人们	-13191
▁叶沙	-13192
一阵子	-13193
于是他	-13194
因为它	-13195
愣住了	-13196
的大军	-13197
的话语	-13198
老人的	-13199
传染	-13200
叫来	-13201
各类	-13202
咨询	-13203
孔子	-13204
扩展	-13205
按着	-13206
救生	-13207
跳出	-13208
陶醉	-13209
ail	-13210
▁温谷	-13211
为之一	-13212
冲上去	-13213
我们还	-13214
自由港	-13215
四面八方	-13216
在了地上	-13217
▁古	-13218
。.	-13219
你个	-13220
削弱	-13221
半截	-13222
后才	-13223
坦白	-13224
怜悯	-13225
报上	-13226
曾国	-13227
歉意	-13228
理他	-13229
略带	-13230
繁殖	-13231
虚空	-13232
虞翻	-13233
计画	-13234
各方面	-13235
断断续	-13236
还有许多	-13237
不妥	-13238
两点	-13239
主神	-13240
会使	-13241
呕吐	-13242
地看	-13243
宽敞	-13244
操心	-13245
易水	-13246
米伦	-13247
终身	-13248
董柳	-13249
解了	-13250
难忘	-13251
差一点	-13252
最近的	-13253
极高的	-13254
海面上	-13255
颤抖着	-13256
开始的时候	-13257
自己的生命	-13258
九个	-13259
会让	-13260
克的	-13261
就看	-13262
层层	-13263
朝政	-13264
海里	-13265
谣言	-13266
轮流	-13267
黄忠	-13268
之外的	-13269
就立刻	-13270
希望你	-13271
李英琼	-13272
的中心	-13273
黎明玫	-13274
与众不同	-13275
忍不住了	-13276
找到一个	-13277
一朵	-13278
一言	-13279
为力	-13280
成栋	-13281
我猜	-13282
烟草	-13283
熄灭	-13284
真气	-13285
见状	-13286
令得他	-13287
历史的	-13288
无数次	-13289
杀伤力	-13290
用力一	-13291
的好处	-13292
跟着他	-13293
那只是	-13294
一定可以	-13295
一本正经	-13296
不仅仅是	-13297
这些人的	-13298
毫不犹豫地	-13299
二年	-13300
分的	-13301
囚犯	-13302
拉了	-13303
政委	-13304
爬到	-13305
轰炸	-13306
man	-13307
▁亮声	-13308
▁若文	-13309
她不是	-13310
怎么不	-13311
冷笑一声	-13312
和我一样	-13313
▁Europe	-13314
公文	-13315
内疚	-13316
移开	-13317
识别	-13318
限度	-13319
外国人	-13320
张献忠	-13321
现在他	-13322
那个叫	-13323
面对面	-13324
意想不到	-13325
介入	-13326
发掘	-13327
安淇	-13328
屈服	-13329
擦了	-13330
更要	-13331
泰岳	-13332
脱下	-13333
飞速	-13334
高登	-13335
▁郑森	-13336
我说话	-13337
是一点	-13338
洪熙官	-13339
的双眼	-13340
了么	-13341
凄厉	-13342
受害	-13343
哈根	-13344
夫曼	-13345
安安	-13346
实习	-13347
寄托	-13348
旗舰	-13349
栏杆	-13350
江东	-13351
班登	-13352
班长	-13353
腐败	-13354
仔细的	-13355
却不能	-13356
是一座	-13357
独特的	-13358
的人口	-13359
的价值	-13360
的边缘	-13361
这么个	-13362
∶「	-13363
▁温	-13364
宋富	-13365
推到	-13366
疑心	-13367
酒楼	-13368
镇南	-13369
险些	-13370
顿饭	-13371
高原	-13372
ors	-13373
▁一直	-13374
从地上	-13375
你想想	-13376
宽大的	-13377
床上的	-13378
我也要	-13379
更没有	-13380
曹金福	-13381
萨勒加	-13382
这么想	-13383
魔法师	-13384
因为这个	-13385
无话可说	-13386
EN	-13387
▁【	-13388
加坡	-13389
引诱	-13390
批判	-13391
毒药	-13392
深了	-13393
炫耀	-13394
相隔	-13395
站稳	-13396
张泰丰	-13397
接着又	-13398
的水平	-13399
竟然会	-13400
七年	-13401
后脑	-13402
埋头	-13403
感冒	-13404
此处	-13405
相会	-13406
要将	-13407
就等于	-13408
的一生	-13409
虽然有	-13410
ions	-13411
侧身	-13412
回信	-13413
岂非	-13414
抱拳	-13415
统领	-13416
错觉	-13417
上大学	-13418
不多久	-13419
出一丝	-13420
的全部	-13421
我第一次	-13422
断断续续	-13423
是不是有	-13424
了一口口水	-13425
右侧	-13426
布局	-13427
店的	-13428
想念	-13429
抢救	-13430
散的	-13431
楚云	-13432
毒蛇	-13433
注重	-13434
艾歌	-13435
钢板	-13436
陈列	-13437
跳跃点	-13438
做的事情	-13439
拉杰特拉	-13440
极好	-13441
焦躁	-13442
结舌	-13443
茶几	-13444
被你	-13445
不好的	-13446
你想要	-13447
再说吧	-13448
到这种	-13449
就一直	-13450
打来的	-13451
比自己	-13452
的最后	-13453
。|	-13454
修建	-13455
文物	-13456
无忧	-13457
的四	-13458
箫棋	-13459
若有	-13460
设定	-13461
▁ab	-13462
冲到了	-13463
我倒是	-13464
杀人的	-13465
的文件	-13466
的男子	-13467
自然地	-13468
清醒过来	-13469
那个男人	-13470
一去	-13471
凝固	-13472
吴国	-13473
大怒	-13474
头一	-13475
李鸿	-13476
梦幻	-13477
深信	-13478
自知	-13479
较量	-13480
也感到	-13481
和她的	-13482
复兴社	-13483
而没有	-13484
人的身体	-13485
说了一遍	-13486
世玉	-13487
儿了	-13488
城下	-13489
扑通	-13490
束手	-13491
终端	-13492
西斯	-13493
车窗	-13494
▁fe	-13495
▁高翔	-13496
刚才那	-13497
的各种	-13498
的对话	-13499
八级	-13500
多想	-13501
小林	-13502
张扬	-13503
惨重	-13504
我早	-13505
有权	-13506
欲言	-13507
没钱	-13508
类型	-13509
等于是	-13510
篇文章	-13511
而这个	-13512
坐了起来	-13513
她的眼睛	-13514
......“	-13515
何在	-13516
假定	-13517
大手	-13518
她所	-13519
子棋	-13520
寒光	-13521
撤离	-13522
旁人	-13523
泉水	-13524
珍妮	-13525
羊皮	-13526
虫子	-13527
装修	-13528
选举	-13529
长着	-13530
防范	-13531
面容	-13532
成这样	-13533
老实说	-13534
人呢	-13535
入睡	-13536
就地	-13537
得我	-13538
死地	-13539
气和	-13540
猥琐	-13541
白发	-13542
羽毛	-13543
▁她们	-13544
太大了	-13545
过一次	-13546
oy	-13547
二话	-13548
元钱	-13549
勉力	-13550
天性	-13551
忙脚	-13552
怕是	-13553
摊开	-13554
的苦	-13555
了两个	-13556
今天是	-13557
做得到	-13558
带我去	-13559
我的人	-13560
洪致生	-13561
甘道夫	-13562
甚至可以	-13563
ON	-13564
只手	-13565
在北	-13566
在南	-13567
天啊	-13568
字的	-13569
并将	-13570
开到	-13571
意念	-13572
水准	-13573
温馨	-13574
荒凉	-13575
▁一阵	-13576
停下了	-13577
老先生	-13578
难道是	-13579
领导的	-13580
▁第一百	-13581
在他身上	-13582
一呆	-13583
份上	-13584
倒退	-13585
内外	-13586
刀疤	-13587
强硬	-13588
插手	-13589
▁第九	-13590
如果再	-13591
痛苦地	-13592
的事物	-13593
额头上	-13594
心甘情愿	-13595
皇甫玉华	-13596
为其	-13597
仁慈	-13598
便向	-13599
台下	-13600
小偷	-13601
庄主	-13602
异口	-13603
敷衍	-13604
此后	-13605
死伤	-13606
沉着	-13607
的笑	-13608
贫穷	-13609
那对	-13610
代表着	-13611
和我的	-13612
的心态	-13613
精神力	-13614
觉得很	-13615
运兵船	-13616
丝毫没有	-13617
几个小时	-13618
原来如此	-13619
▁j	-13620
指指	-13621
月果	-13622
的沙	-13623
都用	-13624
ary	-13625
了几次	-13626
天上的	-13627
的姿势	-13628
谈不上	-13629
发出一阵	-13630
我自己的	-13631
长的时间	-13632
想到了这一点	-13633
%。	-13634
下头	-13635
全被	-13636
凶险	-13637
反动	-13638
只用	-13639
国庆	-13640
常规	-13641
广阔	-13642
捡起	-13643
求职	-13644
金币	-13645
的部分	-13646
▁bec	-13647
再说下去	-13648
这样的事情	-13649
个好	-13650
可在	-13651
回荡	-13652
多国	-13653
大青	-13654
平的	-13655
文和	-13656
李严	-13657
比试	-13658
焦点	-13659
貌似	-13660
除去	-13661
万家楼	-13662
受伤的	-13663
她就是	-13664
是完全	-13665
晚上的	-13666
二十分钟	-13667
头也不回	-13668
我们之间	-13669
现在看来	-13670
相当大的	-13671
▁六	-13672
三体	-13673
九非	-13674
事态	-13675
奥秘	-13676
年初	-13677
摩亚	-13678
散去	-13679
时就	-13680
朝天	-13681
极不	-13682
漩涡	-13683
防疫	-13684
难的	-13685
齐全	-13686
乎乎的	-13687
你们在	-13688
吸引力	-13689
更容易	-13690
的都是	-13691
过几天	-13692
侏儒	-13693
化验	-13694
密封	-13695
懒腰	-13696
是吧	-13697
滔滔	-13698
的巨	-13699
相助	-13700
眼儿	-13701
稿子	-13702
细致	-13703
群人	-13704
老年	-13705
饿死	-13706
三十年	-13707
任何的	-13708
在手里	-13709
有时间	-13710
越想越	-13711
十分重要	-13712
我们这里	-13713
那两个人	-13714
官的	-13715
寒风	-13716
异性	-13717
想让	-13718
抢着	-13719
火球	-13720
盼望	-13721
腰带	-13722
舆论	-13723
阵型	-13724
ttp	-13725
去寻找	-13726
▁这就是	-13727
不动声色	-13728
▁http	-13729
▁......	-13730
传闻	-13731
便在	-13732
就凭	-13733
悠然	-13734
斯拉	-13735
泉吟	-13736
贴身	-13737
转念	-13738
一瞬间	-13739
又来了	-13740
双眼睛	-13741
看到过	-13742
知道这	-13743
表现得	-13744
向外走去	-13745
▁there	-13746
一度	-13747
下定	-13748
停泊	-13749
充斥	-13750
兽人	-13751
军长	-13752
地被	-13753
引来	-13754
忠于	-13755
挽救	-13756
自卑	-13757
豪门	-13758
▁夭夭	-13759
人员的	-13760
城内的	-13761
墙壁上	-13762
我身边	-13763
易水寒	-13764
的双手	-13765
的这一	-13766
背对着	-13767
莫名的	-13768
坐在那里	-13769
一气	-13770
命了	-13771
求救	-13772
的将	-13773
石油	-13774
节省	-13775
鄙视	-13776
ile	-13777
▁父亲	-13778
倒不是	-13779
即使在	-13780
同学们	-13781
紫色的	-13782
给别人	-13783
艺术家	-13784
还不错	-13785
这么好	-13786
▁田行健	-13787
我一直在	-13788
生化战士	-13789
绝对没有	-13790
▁Gree	-13791
SC	-13792
▁蓝	-13793
一组	-13794
优美	-13795
再加	-13796
县里	-13797
坏蛋	-13798
对人	-13799
师哥	-13800
愧疚	-13801
打倒	-13802
杂种	-13803
测量	-13804
退缩	-13805
一定能	-13806
你们要	-13807
到这个	-13808
她心里	-13809
而那些	-13810
说得对	-13811
丽娜	-13812
凝视	-13813
分割	-13814
到那	-13815
变革	-13816
哭得	-13817
好说	-13818
快活	-13819
而有	-13820
耻辱	-13821
轨迹	-13822
飞过	-13823
不下去	-13824
分钟后	-13825
现在还	-13826
的气势	-13827
我在这里	-13828
一扫	-13829
三级	-13830
关门	-13831
再好	-13832
刘玉	-13833
博斯	-13834
台长	-13835
孤单	-13836
抖动	-13837
损伤	-13838
既是	-13839
木箱	-13840
歇尔	-13841
现状	-13842
看上	-13843
能使	-13844
血流	-13845
追寻	-13846
顶着	-13847
魔术	-13848
两银子	-13849
你最好	-13850
各自的	-13851
我答应	-13852
斯蒂娜	-13853
是对的	-13854
的成员	-13855
皇帝的	-13856
都必须	-13857
也是一种	-13858
再说什么	-13859
你跟	-13860
依依	-13861
刘明	-13862
平稳	-13863
楚灵	-13864
自作	-13865
衰老	-13866
赛车	-13867
轻重	-13868
▁根据	-13869
三角形	-13870
不过这	-13871
他们把	-13872
尖叫声	-13873
王八蛋	-13874
地笑了笑	-13875
睁开眼来	-13876
▁)	-13877
不无	-13878
也从	-13879
了那	-13880
住他	-13881
四风	-13882
岸上	-13883
慢了	-13884
戴维	-13885
星座	-13886
漫长	-13887
震得	-13888
余下的	-13889
抚摸着	-13890
的公司	-13891
一个声音	-13892
他的时候	-13893
白老大的	-13894
的小伙子	-13895
华德	-13896
右臂	-13897
大众	-13898
狗熊	-13899
质问	-13900
除掉	-13901
雪岩	-13902
不同于	-13903
坐起来	-13904
我爱你	-13905
的火焰	-13906
见到他	-13907
说不清	-13908
走进来	-13909
▁那云青	-13910
他们自己	-13911
可以通过	-13912
既然如此	-13913
看来十分	-13914
谁也没有	-13915
这是我们	-13916
迟疑了一下	-13917
书上	-13918
六年	-13919
北上	-13920
咕哝	-13921
地理	-13922
地用	-13923
外部	-13924
子玉	-13925
接通	-13926
杰作	-13927
珍贵	-13928
的深	-13929
科研	-13930
肤色	-13931
荀攸	-13932
这副	-13933
带走了	-13934
手忙脚	-13935
挥舞着	-13936
空间的	-13937
▁另一个	-13938
在了一起	-13939
发生的一切	-13940
别看	-13941
加班	-13942
字营	-13943
就往	-13944
平面	-13945
强力	-13946
放置	-13947
的诗	-13948
进口	-13949
里边	-13950
饲养	-13951
厉害的	-13952
四阿哥	-13953
回家的	-13954
孙百里	-13955
房子里	-13956
的举动	-13957
空中的	-13958
··	-13959
两颗	-13960
中途	-13961
凯特	-13962
合宜	-13963
恋人	-13964
散发	-13965
敲打	-13966
早饭	-13967
若水	-13968
出声来	-13969
徐德龙	-13970
比起来	-13971
的脖子	-13972
被发现	-13973
这些年来	-13974
但对	-13975
全神	-13976
咧咧	-13977
唯恐	-13978
喝茶	-13979
新生	-13980
梦瑜	-13981
生育	-13982
转弯	-13983
▁OF	-13984
他仍然	-13985
凌抱鹤	-13986
探测器	-13987
的路上	-13988
雷天虹	-13989
不知怎么	-13990
博斯威尔	-13991
哈马帝国	-13992
据我所知	-13993
▁刚	-13994
世事	-13995
促进	-13996
再把	-13997
台前	-13998
拔出	-13999
的几	-14000
空地	-14001
虚荣	-14002
跑车	-14003
踌躇	-14004
部件	-14005
雇佣	-14006
骗我	-14007
停留在	-14008
又或者	-14009
同归于	-14010
忍住了	-14011
陈景德	-14012
欲言又止	-14013
一首	-14014
刚落	-14015
向导	-14016
宫廷	-14017
家属	-14018
张大	-14019
恩人	-14020
才说	-14021
替代	-14022
玉姬	-14023
称的	-14024
虎仁	-14025
调侃	-14026
辫子	-14027
飞剑	-14028
他刚才	-14029
加入了	-14030
提到了	-14031
无极教	-14032
可是他们	-14033
是什么东西	-14034
ue	-14035
不长	-14036
千金	-14037
强光	-14038
我找	-14039
投票	-14040
林诚	-14041
树干	-14042
海因	-14043
蹲在	-14044
又问道	-14045
呼叫声	-14046
开始时	-14047
rist	-14048
的情形之下	-14049
信中	-14050
我该	-14051
描绘	-14052
而论	-14053
茂强	-14054
说有	-14055
▁赵云	-14056
他只能	-14057
你们俩	-14058
吴永刚	-14059
我们能	-14060
有点不	-14061
红着脸	-14062
结束后	-14063
tern	-14064
兴高采烈	-14065
百分之百	-14066
越来越近	-14067
▁莫	-14068
上尉	-14069
前行	-14070
太小	-14071
小唐	-14072
就由	-14073
某某	-14074
洛克	-14075
牵制	-14076
的遗	-14077
紧要	-14078
顾及	-14079
act	-14080
一家人	-14081
到达了	-14082
去哪里	-14083
探险队	-14084
的人是	-14085
这方面	-14086
做些什么	-14087
十分之一	-14088
哭了起来	-14089
CV	-14090
不醒	-14091
摆着	-14092
狄可	-14093
设在	-14094
金子	-14095
安如娜	-14096
的地区	-14097
肆无忌	-14098
肩膀上	-14099
还没等	-14100
都可能	-14101
▁第三部	-14102
从一开始	-14103
一米	-14104
他更	-14105
何方	-14106
军校	-14107
垄断	-14108
归来	-14109
省城	-14110
老兄	-14111
脑门	-14112
贪污	-14113
这番	-14114
电话里	-14115
的人也	-14116
的神经	-14117
结果是	-14118
雪白的	-14119
作战计划	-14120
她的身体	-14121
两岸	-14122
吓唬	-14123
图形	-14124
基督	-14125
天赋	-14126
夹着	-14127
将你	-14128
小原	-14129
每秒	-14130
牲口	-14131
特尔	-14132
王振	-14133
砰砰	-14134
空虚	-14135
纵身	-14136
花朵	-14137
运到	-14138
铁蛋	-14139
高深	-14140
以后再	-14141
在其中	-14142
洗手间	-14143
的口气	-14144
秦始皇	-14145
▁V	-14146
喷出	-14147
她问	-14148
娘娘	-14149
小可	-14150
就先	-14151
就对	-14152
很像	-14153
快感	-14154
检察	-14155
浙江	-14156
诡计	-14157
马野	-14158
不足以	-14159
也不管	-14160
卡琳娜	-14161
平日里	-14162
总司令	-14163
残酷的	-14164
vent	-14165
在我身上	-14166
▁下	-14167
冒襄	-14168
呵斥	-14169
沂都	-14170
牛仔	-14171
石柱	-14172
老胡	-14173
胤禛	-14174
见山	-14175
解剖	-14176
近前	-14177
随机	-14178
不值得	-14179
她一直	-14180
的一角	-14181
两根	-14182
五官	-14183
价的	-14184
兑换	-14185
刺史	-14186
寄生	-14187
播放	-14188
散开	-14189
清愁	-14190
源源	-14191
烈焰	-14192
舍得	-14193
骨的	-14194
▁宋坚	-14195
不到的	-14196
的人的	-14197
说着话	-14198
适当的	-14199
高兴地	-14200
人的生命	-14201
他的神情	-14202
在我们的	-14203
向天	-14204
图纸	-14205
失事	-14206
如雷	-14207
小青	-14208
想在	-14209
接应	-14210
晃晃	-14211
杜良	-14212
瘟皇	-14213
的黄	-14214
衙门	-14215
让开	-14216
镇压	-14217
陈玉	-14218
▁有了	-14219
吴萧萧	-14220
岁左右	-14221
皱眉头	-14222
▁穆秀珍	-14223
不同的是	-14224
哨兵	-14225
岛的	-14226
把车	-14227
林中	-14228
欲聋	-14229
离家	-14230
而你	-14231
轰动	-14232
预期	-14233
▁大亨	-14234
吸引了	-14235
的报告	-14236
他一个人	-14237
变成一个	-14238
告诉你们	-14239
前所未有的	-14240
们在	-14241
掌控	-14242
松陵	-14243
相连	-14244
祝愿	-14245
该是	-14246
赶路	-14247
额上	-14248
骚动	-14249
不过来	-14250
他们有	-14251
他居然	-14252
城墙上	-14253
已到了	-14254
想像力	-14255
老天爷	-14256
见到的	-14257
他的意思	-14258
七天	-14259
九世	-14260
人为	-14261
传令	-14262
八宝	-14263
后天	-14264
宽容	-14265
店里	-14266
忧心	-14267
收敛	-14268
相距	-14269
谁来	-14270
ace	-14271
▁有人	-14272
拉住了	-14273
毕业后	-14274
不用担心	-14275
不知道该	-14276
你能不能	-14277
▁cont	-14278
这样的一个	-14279
人力	-14280
剑客	-14281
咱俩	-14282
夺取	-14283
寇封	-14284
战死	-14285
文艺	-14286
汉国	-14287
破裂	-14288
调节	-14289
从他们	-14290
从头到	-14291
已经从	-14292
是人类	-14293
的阳光	-14294
老板娘	-14295
▁beg	-14296
只不过是一个	-14297
会见	-14298
但你	-14299
佛教	-14300
侵犯	-14301
冬季	-14302
南部	-14303
扬手	-14304
是那	-14305
水流	-14306
禁海	-14307
老孟	-14308
者和	-14309
过年	-14310
青色	-14311
马尔	-14312
▁那位	-14313
不懂得	-14314
你还有	-14315
喜欢的	-14316
得出来	-14317
急速地	-14318
我们先	-14319
杰弗生	-14320
▁我笑道	-14321
没有别的	-14322
前提	-14323
加油	-14324
去打	-14325
合肥	-14326
均线	-14327
导航	-14328
左慈	-14329
年间	-14330
怪叫	-14331
恼火	-14332
机灵	-14333
淋淋	-14334
神采	-14335
观望	-14336
闪身	-14337
韩国	-14338
也难以	-14339
了一段	-14340
墙上的	-14341
大革命	-14342
带领下	-14343
的名义	-14344
第一步	-14345
老将军	-14346
▁我一面	-14347
我的心中	-14348
出了什么事	-14349
位子	-14350
去问	-14351
渡过	-14352
漂浮	-14353
要好	-14354
鼻涕	-14355
不对头	-14356
不是你	-14357
不见得	-14358
也都是	-14359
冲锋枪	-14360
加起来	-14361
可没有	-14362
如果她	-14363
对这种	-14364
怎么想	-14365
的真实	-14366
ians	-14367
你们两个	-14368
的那个人	-14369
其所	-14370
啪啪	-14371
眉心	-14372
章惇	-14373
笑伟	-14374
领地	-14375
ned	-14376
人民币	-14377
冰冷的	-14378
惊呆了	-14379
无限的	-14380
的时代	-14381
边春红	-14382
项小米	-14383
高兴得	-14384
显得有些	-14385
传授	-14386
又多	-14387
国之	-14388
略一	-14389
考核	-14390
脚上	-14391
骨骼	-14392
但这时	-14393
和你们	-14394
广场上	-14395
董事会	-14396
不是为了	-14397
了一大跳	-14398
你的意思	-14399
AR	-14400
动身	-14401
地打	-14402
家珍	-14403
尘埃	-14404
就拿	-14405
招惹	-14406
断层	-14407
是把	-14408
母女	-14409
立足	-14410
近卫	-14411
首脑	-14412
▁就这样	-14413
肆无忌惮	-14414
阿拉伯人	-14415
侦查	-14416
地冲	-14417
夜的	-14418
奔向	-14419
就给	-14420
必将	-14421
是无	-14422
比她	-14423
炮台	-14424
爽快	-14425
竖起	-14426
血色	-14427
顽固	-14428
鹏程	-14429
他总是	-14430
公路上	-14431
就走了	-14432
艘战舰	-14433
他一定会	-14434
我才知道	-14435
整个人都	-14436
▁它	-14437
一晃	-14438
也可	-14439
兄长	-14440
历程	-14441
压根	-14442
吴铮	-14443
散布	-14444
暴雨	-14445
艾尔	-14446
记着	-14447
辆车	-14448
零零	-14449
停住了	-14450
林极与	-14451
行为的	-14452
飞行器	-14453
吸了口气	-14454
昏了过去	-14455
说了之后	-14456
▁would	-14457
ep	-14458
各式	-14459
告知	-14460
四千	-14461
妩媚	-14462
当过	-14463
泪流	-14464
生前	-14465
躲闪	-14466
送上	-14467
骨碌	-14468
在医院	-14469
我们来	-14470
手榴弹	-14471
才明白	-14472
的颜色	-14473
不过现在	-14474
气急败坏	-14475
一碗	-14476
他最	-14477
会说	-14478
储存	-14479
印刷	-14480
大堆	-14481
好啦	-14482
守住	-14483
岁时	-14484
手心	-14485
支书	-14486
效应	-14487
沮授	-14488
真话	-14489
策马	-14490
茶馆	-14491
超出	-14492
主义者	-14493
了你的	-14494
却无法	-14495
坎帕拉	-14496
至少要	-14497
顾不上	-14498
▁我立即	-14499
外星人的	-14500
感觉自己	-14501
成千上万	-14502
我的面前	-14503
电话号码	-14504
直到这时	-14505
▁time	-14506
变成了一个	-14507
保罗	-14508
修养	-14509
共军	-14510
关怀	-14511
就听	-14512
心血	-14513
所料	-14514
指纹	-14515
爪子	-14516
睡得	-14517
英勇	-14518
莉莉	-14519
▁男人	-14520
他决定	-14521
但他的	-14522
开口道	-14523
无疑是	-14524
近距离	-14525
here	-14526
平静下来	-14527
无影无踪	-14528
绝大部分	-14529
:(	-14530
出个	-14531
头颅	-14532
恭喜	-14533
斯洛	-14534
维奇	-14535
草丛	-14536
讲到	-14537
谎言	-14538
起点	-14539
过她	-14540
金维	-14541
ven	-14542
▁张武	-14543
不久前	-14544
他也是	-14545
几乎要	-14546
十几年	-14547
就不要	-14548
赛观音	-14549
也不会有	-14550
震耳欲聋	-14551
长叹了一声	-14552
”;	-14553
唱着	-14554
惊又	-14555
红旗	-14556
还挺	-14557
▁还有	-14558
世界里	-14559
了几分	-14560
反而是	-14561
我问你	-14562
特种兵	-14563
的知识	-14564
缓缓的	-14565
这个男人	-14566
以防	-14567
便道	-14568
劝说	-14569
叫喊	-14570
四名	-14571
太乙	-14572
斯廷	-14573
昆明	-14574
派遣	-14575
琳达	-14576
百田	-14577
请客	-14578
遍布	-14579
高峰	-14580
▁儿子	-14581
▁或许	-14582
可以让	-14583
在身边	-14584
洪塔山	-14585
说出口	-14586
跟我来	-14587
ings	-14588
不顾一切	-14589
摇了摇头道	-14590
你呀	-14591
信的	-14592
出世	-14593
弯刀	-14594
思文	-14595
所言	-14596
正直	-14597
牢骚	-14598
舰桥	-14599
酒精	-14600
▁安琪	-14601
不动了	-14602
养猪户	-14603
知道你	-14604
肩头上	-14605
他们现在	-14606
的时间里	-14607
走的时候	-14608
从来也没有	-14609
▁来	-14610
下方	-14611
凤池	-14612
可漂	-14613
对吗	-14614
心肠	-14615
教学	-14616
模特	-14617
殖民	-14618
涌出	-14619
涌起	-14620
相公	-14621
表态	-14622
铁链	-14623
闻到	-14624
▁老杨	-14625
但没有	-14626
呆呆地	-14627
布满了	-14628
没说话	-14629
社会上	-14630
禁海鞭	-14631
-------	-14632
AD	-14633
之旁	-14634
体温	-14635
分歧	-14636
千百	-14637
吃点	-14638
大于	-14639
店铺	-14640
收音	-14641
狼的	-14642
的歌	-14643
盈盈	-14644
真切	-14645
而立	-14646
▁am	-14647
两分钟	-14648
原因是	-14649
可怕了	-14650
传来一阵	-14651
▁我点了点头	-14652
aw	-14653
两翼	-14654
中型	-14655
住院	-14656
口音	-14657
句丽	-14658
可她	-14659
坦然	-14660
每每	-14661
满身	-14662
百川	-14663
缰绳	-14664
艘船	-14665
ide	-14666
严格的	-14667
了一位	-14668
分明是	-14669
去找他	-14670
就在他	-14671
异星人	-14672
惊呼声	-14673
的光线	-14674
该公司	-14675
费克斯	-14676
他也知道	-14677
所以才会	-14678
的年轻人	-14679
勾结	-14680
包扎	-14681
半边	-14682
哀伤	-14683
官场	-14684
宙斯	-14685
海毅	-14686
略有	-14687
睫毛	-14688
运送	-14689
鼓起	-14690
妻子的	-14691
我完全	-14692
我就要	-14693
有一丝	-14694
沉浸在	-14695
的所在	-14696
青州的	-14697
一定不会	-14698
一轮	-14699
你吗	-14700
发电	-14701
后再	-14702
在同	-14703
妮莎	-14704
干啥	-14705
有著	-14706
玩弄	-14707
现时	-14708
萨姆	-14709
误解	-14710
退到	-14711
ass	-14712
ice	-14713
▁gr	-14714
▁kn	-14715
也不行	-14716
伊铁尔	-14717
有关系	-14718
的基本	-14719
祝义和	-14720
马厅长	-14721
坐在地上	-14722
你什么时候	-14723
▁我叹了一声	-14724
创业	-14725
只需	-14726
御史	-14727
推理	-14728
搞的	-14729
治安	-14730
盟友	-14731
相继	-14732
等的	-14733
造型	-14734
阳台	-14735
你也是	-14736
太平军	-14737
我面前	-14738
数不清	-14739
更重要	-14740
哈哈哈哈	-14741
▁made	-14742
乒乓	-14743
使它	-14744
值钱	-14745
反攻	-14746
坚守	-14747
增添	-14748
排长	-14749
果真	-14750
爱国	-14751
虚伪	-14752
费了	-14753
一样了	-14754
做到了	-14755
工作了	-14756
已经够	-14757
杀死了	-14758
来对付	-14759
潜意识	-14760
的一段	-14761
的口吻	-14762
而是一	-14763
荆州军	-14764
但实际上	-14765
米伦太太	-14766
这样下去	-14767
是什么时候	-14768
中美	-14769
后院	-14770
味儿	-14771
大道	-14772
实说	-14773
庄园	-14774
明月	-14775
汤尼	-14776
渔民	-14777
湿润	-14778
灯笼	-14779
细心	-14780
荡漾	-14781
谈笑	-14782
银雪	-14783
你真是	-14784
先是一	-14785
把所有	-14786
星人的	-14787
的大事	-14788
紧握着	-14789
http	-14790
已经可以	-14791
中队	-14792
会来	-14793
剧痛	-14794
包袱	-14795
四军	-14796
大同	-14797
大成	-14798
峰云	-14799
带我	-14800
忧止	-14801
报了	-14802
有气	-14803
杀我	-14804
用最	-14805
绑架	-14806
通的	-14807
我保证	-14808
而且也	-14809
高兴的	-14810
是不是可以	-14811
莫名其妙的	-14812
OR	-14813
之夜	-14814
份子	-14815
勋章	-14816
大得	-14817
家丁	-14818
显露	-14819
杰明	-14820
次数	-14821
躺下	-14822
那斯	-14823
金银	-14824
占据了	-14825
在一些	-14826
▁did	-14827
一个星期	-14828
ittle	-14829
其头	-14830
只因	-14831
地跑	-14832
左臂	-14833
幼儿	-14834
很强	-14835
攻破	-14836
相爱	-14837
要她	-14838
赶回	-14839
那场	-14840
飞溅	-14841
姑奶奶	-14842
所以说	-14843
才会有	-14844
奖励点数	-14845
我们不是	-14846
两面	-14847
二字	-14848
人有	-14849
人格	-14850
优先	-14851
保管	-14852
全副	-14853
卖给	-14854
呆着	-14855
呼声	-14856
得发	-14857
救人	-14858
画像	-14859
蔡宗	-14860
送我	-14861
可能的	-14862
她突然	-14863
得来的	-14864
我听说	-14865
提供了	-14866
的地下	-14867
在一旁的	-14868
太皇太后	-14869
证券分析	-14870
▁count	-14871
不和	-14872
侵入	-14873
判决	-14874
在与	-14875
尔特	-14876
尝尝	-14877
愤恨	-14878
排名	-14879
段人	-14880
知名	-14881
讲过	-14882
语音	-14883
oco	-14884
他以为	-14885
异能者	-14886
心理上	-14887
活下来	-14888
雅典娜	-14889
你们可以	-14890
在黑暗中	-14891
这么好的	-14892
压低了声音	-14893
之日	-14894
之王	-14895
余人	-14896
倾诉	-14897
分解	-14898
围绕	-14899
女婿	-14900
寒气	-14901
对峙	-14902
扫视	-14903
突发	-14904
谁说	-14905
费力	-14906
送了	-14907
难听	-14908
接受的	-14909
点着头	-14910
的战士	-14911
老家伙	-14912
李富贵的	-14913
▁could	-14914
▁崔	-14915
圣衣	-14916
尽是	-14917
殷勤	-14918
永不	-14919
玉宝	-14920
虚幻	-14921
雷鸣	-14922
飘浮	-14923
鬼头	-14924
不在焉	-14925
两人都	-14926
十三章	-14927
叶文洁	-14928
把整个	-14929
朋友的	-14930
爱情的	-14931
▁贺苏杭	-14932
他的目光	-14933
年轻人的	-14934
非同小可	-14935
上游	-14936
伤疤	-14937
你敢	-14938
刁霖	-14939
喝得	-14940
将手	-14941
才又	-14942
激发	-14943
贫困	-14944
鼻孔	-14945
ake	-14946
悄悄的	-14947
的企业	-14948
破坏了	-14949
转移到	-14950
连声道	-14951
你是一个	-14952
我不得不	-14953
吓了一大跳	-14954
▁范	-14955
乐园	-14956
初恋	-14957
发育	-14958
变换	-14959
在其	-14960
大局	-14961
安可	-14962
寒而	-14963
引爆	-14964
我打	-14965
拿去	-14966
措手	-14967
是和	-14968
耳际	-14969
赞扬	-14970
钱彪	-14971
雨儿	-14972
预防	-14973
骡子	-14974
imp	-14975
一块儿	-14976
关心的	-14977
就会有	-14978
快乐的	-14979
是那种	-14980
林俊野	-14981
认识到	-14982
▁own	-14983
也想不到	-14984
宝德教授	-14985
片刻之后	-14986
个别	-14987
亲生	-14988
人脑	-14989
党的	-14990
再用	-14991
华北	-14992
外衣	-14993
户口	-14994
朝他	-14995
篝火	-14996
越说	-14997
这叫	-14998
送去	-14999
包天剑	-15000
妈妈的	-15001
很不错	-15002
很显然	-15003
看到那	-15004
我们知道	-15005
无能为力	-15006
▁◎	-15007
▁据	-15008
外边	-15009
夜间	-15010
大象	-15011
孙萍	-15012
富人	-15013
居高	-15014
扎巴	-15015
敌对	-15016
柱子	-15017
海关	-15018
评估	-15019
课题	-15020
一个劲	-15021
不行了	-15022
柔声道	-15023
洪泰岳	-15024
男子汉	-15025
紧张地	-15026
这一类	-15027
irst	-15028
看到一个	-15029
自我介绍	-15030
难以想像	-15031
不复	-15032
两块	-15033
凶猛	-15034
刺痛	-15035
听闻	-15036
呆滞	-15037
孙翊	-15038
忍住	-15039
道麟	-15040
闭目	-15041
香姐	-15042
下一次	-15043
所以就	-15044
ally	-15045
▁年	-15046
公寓	-15047
怒雷	-15048
扶住	-15049
报名	-15050
的有	-15051
肖妹	-15052
闹得	-15053
闺女	-15054
青璇	-15055
ful	-15056
▁af	-15057
似乎也	-15058
冯八矬	-15059
刘改兴	-15060
席泰宁	-15061
找不出	-15062
段人庆	-15063
没事吧	-15064
游击队	-15065
缓缓道	-15066
聪明人	-15067
另一只手	-15068
哈哈一笑	-15069
无缘无故	-15070
本身就是	-15071
仙境	-15072
子豪	-15073
开头	-15074
张武	-15075
恶梦	-15076
想见	-15077
我哥	-15078
打火	-15079
明基	-15080
比拟	-15081
热泪	-15082
的要	-15083
绝顶	-15084
迫击	-15085
重心	-15086
的背影	-15087
碰到了	-15088
第三天	-15089
那之间	-15090
借用	-15091
凭空	-15092
动态	-15093
堪称	-15094
提了	-15095
深邃	-15096
燃料	-15097
足球	-15098
黄娟	-15099
同样是	-15100
和一些	-15101
的妻子	-15102
给她的	-15103
这一招	-15104
还是可以	-15105
▁您	-15106
倔强	-15107
光柱	-15108
剑师	-15109
害羞	-15110
无以	-15111
枪响	-15112
横扫	-15113
留情	-15114
黑龙	-15115
▁他又	-15116
也许会	-15117
偷偷地	-15118
开始在	-15119
现在你	-15120
说话间	-15121
还有着	-15122
ance	-15123
我不喜欢	-15124
ck	-15125
五人	-15126
住口	-15127
元军	-15128
即可	-15129
却要	-15130
坎比	-15131
坐上	-15132
大法	-15133
天尊	-15134
太远	-15135
接了	-15136
景行	-15137
注册	-15138
男友	-15139
的本	-15140
腰际	-15141
躬身	-15142
逼得	-15143
飞起	-15144
ach	-15145
▁在他	-15146
了几口	-15147
了好几	-15148
李鸿章	-15149
泉吟香	-15150
谢有盼	-15151
赶到了	-15152
异口同声	-15153
看了我一眼	-15154
过了好一会	-15155
修复	-15156
合成	-15157
名牌	-15158
周期	-15159
咧嘴	-15160
围在	-15161
圣旨	-15162
子义	-15163
排队	-15164
服饰	-15165
自责	-15166
顺从	-15167
不公平	-15168
他一面	-15169
反倒是	-15170
就在这	-15171
我总是	-15172
的另一	-15173
看着那	-15174
等我们	-15175
这条路	-15176
措手不及	-15177
▁我不知道	-15178
每一个人都	-15179
不急	-15180
便已	-15181
受人	-15182
嘟嘟	-15183
在它	-15184
外套	-15185
奇斯	-15186
寇克	-15187
带头	-15188
才从	-15189
进军	-15190
颖珍	-15191
怕什么	-15192
有三个	-15193
沐水灵	-15194
没多久	-15195
的打算	-15196
等他们	-15197
那么的	-15198
中华帝国	-15199
什么样子	-15200
他们可以	-15201
陈氏兄弟	-15202
丰满	-15203
之眼	-15204
他看	-15205
到你	-15206
同居	-15207
女友	-15208
弩箭	-15209
扶起	-15210
把话	-15211
插在	-15212
无几	-15213
言论	-15214
迎着	-15215
难了	-15216
雪白	-15217
顿了	-15218
预计	-15219
后来又	-15220
沈先生	-15221
的胳膊	-15222
置可否	-15223
ough	-15224
▁Eng	-15225
一进	-15226
九龙	-15227
准时	-15228
在车	-15229
寿命	-15230
就又	-15231
彩云	-15232
爹爹	-15233
略为	-15234
秦瑶	-15235
而当	-15236
能耐	-15237
话的	-15238
锐利	-15239
麻将	-15240
黑纱	-15241
鼻尖	-15242
▁这位	-15243
十四章	-15244
是绝对	-15245
的眼泪	-15246
苏祝周	-15247
那么久	-15248
感到一阵	-15249
管理当局	-15250
▁原振侠和	-15251
侍女	-15252
切拉	-15253
动于	-15254
危害	-15255
妥当	-15256
步子	-15257
留守	-15258
老哥	-15259
阿牛	-15260
非人	-15261
▁qu	-15262
四周的	-15263
有利于	-15264
耸耸肩	-15265
远处的	-15266
我的问题	-15267
河南总督	-15268
三条	-15269
丽雪	-15270
之二	-15271
优越	-15272
内地	-15273
易琳	-15274
暴龙	-15275
群臣	-15276
蜡烛	-15277
那副	-15278
陵墓	-15279
,''	-15280
你究竟	-15281
干净净	-15282
找了个	-15283
把目光	-15284
谁都知道	-15285
专用	-15286
了声	-15287
但从	-15288
依稀	-15289
化作	-15290
可行	-15291
和一	-15292
大德	-15293
夸奖	-15294
德罗	-15295
愣了	-15296
方形	-15297
盲目	-15298
跪在	-15299
锁链	-15300
oll	-15301
到那时	-15302
往前走	-15303
的一幕	-15304
而他们	-15305
▁用	-15306
人去	-15307
传言	-15308
免疫	-15309
制成	-15310
口唇	-15311
司法	-15312
啸天	-15313
夏侯	-15314
巧慧	-15315
战区	-15316
所做	-15317
换取	-15318
插入	-15319
林驰	-15320
激昂	-15321
瓦特	-15322
血管	-15323
跌倒	-15324
邓当	-15325
非法	-15326
面貌	-15327
不用了	-15328
刘博士	-15329
算得上	-15330
都一样	-15331
在这之前	-15332
解决问题	-15333
说得十分	-15334
,......	-15335
不迭	-15336
侧头	-15337
再到	-15338
危急	-15339
吃不	-15340
完后	-15341
年头	-15342
旋风	-15343
的脚	-15344
眼了	-15345
航线	-15346
超乎	-15347
轩辕	-15348
分不清	-15349
如果要	-15350
富贵军	-15351
是怎样	-15352
还有个	-15353
▁Rom	-15354
不知多少	-15355
但我还是	-15356
走来走去	-15357
这个道理	-15358
那位先生	-15359
一通	-15360
二青	-15361
功率	-15362
吆喝	-15363
小艾	-15364
少说	-15365
平线	-15366
影片	-15367
心虚	-15368
报到	-15369
敬佩	-15370
演奏	-15371
贯注	-15372
飞驰	-15373
决定的	-15374
哪怕是	-15375
在任何	-15376
姜俊影	-15377
完全不	-15378
就只能	-15379
希尔娅	-15380
我就会	-15381
把那个	-15382
没有被	-15383
肯定的	-15384
落在了	-15385
????	-15386
一字一顿	-15387
▁little	-15388
▁西	-15389
上过	-15390
下地	-15391
冒充	-15392
出马	-15393
华南	-15394
大字	-15395
奴才	-15396
子在	-15397
学着	-15398
带兵	-15399
才智	-15400
文革	-15401
白马	-15402
融化	-15403
衣物	-15404
转着	-15405
软的	-15406
远古	-15407
顽强	-15408
香气	-15409
听得懂	-15410
搞清楚	-15411
紧张的	-15412
锋利的	-15413
able	-15414
知道自己的	-15415
发生了什么事情	-15416
合并	-15417
小猫	-15418
小珍	-15419
开阔	-15420
徐冬	-15421
日报	-15422
牧民	-15423
特色	-15424
磕头	-15425
致远	-15426
身心	-15427
轻微	-15428
闭嘴	-15429
陆地	-15430
麻袋	-15431
▁清伶	-15432
一个好	-15433
不方便	-15434
于是我	-15435
咱们的	-15436
是一块	-15437
有办法	-15438
比较好	-15439
知道她	-15440
记住了	-15441
和我一起	-15442
干干净净	-15443
情形之下	-15444
摆了摆手	-15445
闭着眼睛	-15446
阿蛮公主	-15447
▁than	-15448
:“......	-15449
一走	-15450
代之	-15451
原是	-15452
吃喝	-15453
嘈杂	-15454
场地	-15455
大雪	-15456
广陵	-15457
本就	-15458
母舰	-15459
河里	-15460
满天	-15461
老总	-15462
藏身	-15463
饮食	-15464
也需要	-15465
在学校	-15466
无奈的	-15467
没有用	-15468
的来历	-15469
这里有	-15470
你怎么会	-15471
主题	-15472
倍的	-15473
决战	-15474
喝水	-15475
差错	-15476
庞斑	-15477
战乱	-15478
撕裂	-15479
文武	-15480
熟的	-15481
电光	-15482
皆是	-15483
纳多	-15484
终生	-15485
萧灵	-15486
顺口	-15487
却不料	-15488
天生的	-15489
沙摩柯	-15490
▁林文义	-15491
如果你不	-15492
微不足道	-15493
时事开讲	-15494
的那一刻	-15495
bl	-15496
买入	-15497
低级	-15498
军阀	-15499
所见	-15500
痛恨	-15501
累得	-15502
莫言	-15503
预算	-15504
mer	-15505
像一只	-15506
制造商	-15507
好像在	-15508
是一群	-15509
玄武门	-15510
的人在	-15511
这两种	-15512
这回事	-15513
叔孙怒雷	-15514
想干什么	-15515
此时此刻	-15516
文化大革命	-15517
厂家	-15518
响着	-15519
学宫	-15520
提防	-15521
施琅	-15522
歌女	-15523
死心	-15524
沉稳	-15525
特工	-15526
直视	-15527
组的	-15528
能不	-15529
请安	-15530
隔绝	-15531
▁是的	-15532
刘改芸	-15533
受了伤	-15534
多尔衮	-15535
接触到	-15536
是一张	-15537
沉香辇	-15538
知道吗	-15539
而这些	-15540
▁艾山江	-15541
将手中的	-15542
直到现在	-15543
给人一种	-15544
te	-15545
人造	-15546
体制	-15547
几张	-15548
刀枪	-15549
去接	-15550
很低	-15551
故障	-15552
环顾	-15553
留恋	-15554
胆怯	-15555
金特	-15556
颠倒	-15557
一凡的	-15558
一开口	-15559
不会的	-15560
在一种	-15561
建立了	-15562
我的事	-15563
火车站	-15564
现在又	-15565
生生的	-15566
跑到了	-15567
银色的	-15568
黑衣人	-15569
所以我才	-15570
你为什么要	-15571
不比	-15572
事事	-15573
交织	-15574
凄惨	-15575
吁吁	-15576
和阿	-15577
妮妮	-15578
常理	-15579
心境	-15580
恐爪	-15581
拔陵	-15582
桓公	-15583
梦里	-15584
百计	-15585
睡衣	-15586
瞧瞧	-15587
蓦地	-15588
金斯	-15589
镇上	-15590
顶多	-15591
ced	-15592
▁而在	-15593
三十六	-15594
不敢再	-15595
刘量中	-15596
可以和	-15597
布鲁斯	-15598
欧阳敏	-15599
的心灵	-15600
经验的	-15601
停下脚步	-15602
总有一天	-15603
养活	-15604
却已	-15605
同他	-15606
呆子	-15607
响应	-15608
围住	-15609
惋惜	-15610
扔下	-15611
找寻	-15612
永兴	-15613
直冲	-15614
胡同	-15615
荣幸	-15616
货币	-15617
跳到	-15618
踏着	-15619
高超	-15620
不了了	-15621
不经意	-15622
委书记	-15623
很高的	-15624
谈恋爱	-15625
似乎有些	-15626
我们这些	-15627
我们需要	-15628
闪过一丝	-15629
曼谷	-15630
立于	-15631
舒畅	-15632
质疑	-15633
ang	-15634
在海上	-15635
工作中	-15636
管理的	-15637
胡雪岩	-15638
这女人	-15639
这个城市	-15640
▁many	-15641
伤痛	-15642
促销	-15643
信赖	-15644
助于	-15645
徒劳	-15646
惊动	-15647
期盼	-15648
朱雀	-15649
游荡	-15650
船头	-15651
读过	-15652
▁青龙	-15653
之后才	-15654
全军覆	-15655
恶狠狠	-15656
都是从	-15657
银行的	-15658
心不在焉	-15659
考虑一下	-15660
pp	-15661
▁巴	-15662
一贯	-15663
不一	-15664
丝丝	-15665
乱跳	-15666
全场	-15667
出院	-15668
品种	-15669
如意	-15670
官司	-15671
挑起	-15672
早年	-15673
泰斯	-15674
洪泽	-15675
绣子	-15676
谈起	-15677
路程	-15678
首次	-15679
▁老人	-15680
也就在	-15681
制造的	-15682
却仍然	-15683
向风逸	-15684
夏希澈	-15685
太空中	-15686
目不转	-15687
着头皮	-15688
细小的	-15689
这真是	-15690
部门的	-15691
以至	-15692
区区	-15693
官府	-15694
心烦	-15695
怕他	-15696
怪兽	-15697
戏剧	-15698
挡在	-15699
枪毙	-15700
翻来	-15701
而对	-15702
魁梧	-15703
他们不	-15704
那好吧	-15705
又怎么样	-15706
原振侠医生	-15707
▁沈	-15708
光头	-15709
兰兹	-15710
典韦	-15711
嫦娥	-15712
抽象	-15713
敬畏	-15714
无错	-15715
是真	-15716
漠北	-15717
罗娜	-15718
质地	-15719
辩护	-15720
迷恋	-15721
铠甲	-15722
ife	-15723
也不错	-15724
军官们	-15725
将他的	-15726
我就不	-15727
掉下来	-15728
出了问题	-15729
那样的话	-15730
▁part	-15731
一沉	-15732
乃伊	-15733
也行	-15734
今生	-15735
低于	-15736
出海	-15737
化解	-15738
地产	-15739
奉献	-15740
宝库	-15741
小手	-15742
掉头	-15743
泽清	-15744
理睬	-15745
窝囊	-15746
耀辉	-15747
背心	-15748
胡须	-15749
金发	-15750
黯淡	-15751
公司里	-15752
吓坏了	-15753
夹杂着	-15754
把她的	-15755
的意义	-15756
跟着我	-15757
进行着	-15758
▁这一下	-15759
当然不能	-15760
一次又一次	-15761
不可思议的	-15762
两样	-15763
华尔	-15764
含笑	-15765
埋葬	-15766
她都	-15767
张冲	-15768
战俘	-15769
打转	-15770
柔情	-15771
看穿	-15772
而为	-15773
蜂拥	-15774
蜷缩	-15775
角的	-15776
讥讽	-15777
钓鱼	-15778
oss	-15779
任何事	-15780
取出了	-15781
就看见	-15782
屋子的	-15783
心满意	-15784
斯切拉	-15785
李璧华	-15786
汉弗雷	-15787
王金炳	-15788
的市场	-15789
也让	-15790
僵尸	-15791
凡事	-15792
宝贵	-15793
屏风	-15794
手了	-15795
扳机	-15796
放肆	-15797
早日	-15798
晓明	-15799
突袭	-15800
英杰	-15801
赶走	-15802
迟迟	-15803
停车场	-15804
应该在	-15805
有一张	-15806
脱离了	-15807
这其中	-15808
下定决心	-15809
有多少人	-15810
这种行为	-15811
不息	-15812
她将	-15813
家家	-15814
小迦	-15815
白皙	-15816
管教	-15817
请我	-15818
这本	-15819
音讯	-15820
▁天寿	-15821
▁良辰	-15822
大惊小	-15823
总算是	-15824
我认识	-15825
新加坡	-15826
是属于	-15827
激动得	-15828
的姑娘	-15829
怎么办呢	-15830
的那一天	-15831
自己已经	-15832
▁前	-15833
也跟	-15834
受苦	-15835
如愿	-15836
成天	-15837
扎克	-15838
死寂	-15839
炮艇	-15840
独裁	-15841
笨拙	-15842
见人	-15843
进退	-15844
高低	-15845
黑点	-15846
▁sp	-15847
发展到	-15848
新四军	-15849
进去的	-15850
霍华德	-15851
▁我看到	-15852
也是如此	-15853
又是什么	-15854
这么多的	-15855
▁程	-15856
也更	-15857
也正	-15858
可恨	-15859
后世	-15860
圣诞	-15861
您是	-15862
接著	-15863
江北	-15864
狐疑	-15865
维如	-15866
轻盈	-15867
雪茄	-15868
麦凯	-15869
他曾经	-15870
其余的	-15871
我准备	-15872
擦了擦	-15873
母老虎	-15874
的土地	-15875
的来源	-15876
没有一丝	-15877
的声音在	-15878
一掌	-15879
使出	-15880
去路	-15881
和老	-15882
品味	-15883
喧嚣	-15884
大户	-15885
天了	-15886
天涯	-15887
对它	-15888
巨石	-15889
摆弄	-15890
答话	-15891
蚊子	-15892
被烧	-15893
不会吧	-15894
之上的	-15895
十五章	-15896
平静的	-15897
我根本	-15898
杀了他	-15899
的压力	-15900
的指挥	-15901
竞争对手	-15902
那么多人	-15903
继续说下去	-15904
谁也不知道	-15905
哪天	-15906
在西	-15907
己方	-15908
推翻	-15909
范畴	-15910
醒悟	-15911
▁As	-15912
举起了	-15913
以他的	-15914
兴奋得	-15915
告一段	-15916
的后面	-15917
黑玫瑰	-15918
▁out	-15919
三分之一	-15920
安静下来	-15921
大大小小的	-15922
▁山	-15923
▁柯	-15924
下唇	-15925
商务	-15926
奥兰	-15927
宇航	-15928
掀开	-15929
无赖	-15930
的正	-15931
给您	-15932
背部	-15933
跳着	-15934
ath	-15935
二十万	-15936
佟大雷	-15937
具尸体	-15938
命令道	-15939
当然了	-15940
的人影	-15941
等一下	-15942
警察局	-15943
超出了	-15944
整个世界	-15945
目不转睛	-15946
笑了笑道	-15947
千古	-15948
国务	-15949
屈辱	-15950
无礼	-15951
明智	-15952
照例	-15953
狗蛋	-15954
称作	-15955
端详	-15956
莫顿	-15957
通行	-15958
那女	-15959
铁托	-15960
麦克	-15961
一见到	-15962
了一家	-15963
但是那	-15964
但毕竟	-15965
找上门	-15966
林半夏	-15967
生物的	-15968
相信了	-15969
真的吗	-15970
终于是	-15971
▁men	-15972
所造成的	-15973
从来也未曾	-15974
破六韩拔陵	-15975
呐喊	-15976
垂头	-15977
太久	-15978
封神	-15979
煎熬	-15980
短的	-15981
研制	-15982
素的	-15983
终极	-15984
谋划	-15985
在地下	-15986
我要去	-15987
既没有	-15988
▁那两个	-15989
全神贯注	-15990
在战场上	-15991
▁时	-15992
上马	-15993
你啊	-15994
农场	-15995
大变	-15996
头皮	-15997
废物	-15998
战败	-15999
改为	-16000
次日	-16001
水池	-16002
陨石	-16003
高空	-16004
高耸	-16005
从这个	-16006
十二个	-16007
安排的	-16008
故事里	-16009
狙击手	-16010
的眼里	-16011
的还是	-16012
都有着	-16013
集团军	-16014
中兴	-16015
会谈	-16016
何人	-16017
凌空	-16018
宝狐	-16019
恳求	-16020
我太	-16021
打探	-16022
智者	-16023
而尽	-16024
警局	-16025
诸多	-16026
金星	-16027
他立即	-16028
使用了	-16029
击中了	-16030
向前去	-16031
是这个	-16032
请你们	-16033
最终还是	-16034
是一个十分	-16035
▁风	-16036
一抹	-16037
王俊	-16038
约有	-16039
羞愧	-16040
荣耀	-16041
隐私	-16042
只要他	-16043
当事人	-16044
的发现	-16045
轻易地	-16046
这样地	-16047
不可避免	-16048
和温宝裕	-16049
▁these	-16050
出言	-16051
口号	-16052
古典	-16053
在东	-16054
心目	-16055
恩怨	-16056
有谁	-16057
的我	-16058
营帐	-16059
血脉	-16060
这门	-16061
铁匠	-16062
铁男	-16063
不过去	-16064
合理的	-16065
在路上	-16066
客气了	-16067
感觉上	-16068
的不同	-16069
的手法	-16070
隐隐约	-16071
高句丽	-16072
ious	-16073
取出了一	-16074
现出十分	-16075
这些家伙	-16076
偶像	-16077
公认	-16078
原子	-16079
声和	-16080
小巷	-16081
开个	-16082
替她	-16083
杨松	-16084
沧海	-16085
清洁	-16086
着陆	-16087
都给	-16088
世纪的	-16089
也有人	-16090
他们能	-16091
他可是	-16092
她可以	-16093
我是谁	-16094
每个月	-16095
漫不经	-16096
错过了	-16097
▁索菲娅	-16098
怎么这么	-16099
这个计划	-16100
露出一丝	-16101
不假	-16102
中天	-16103
仰头	-16104
好玩	-16105
旅长	-16106
朝阳	-16107
正版	-16108
母子	-16109
比方	-16110
泡沫	-16111
津津	-16112
消散	-16113
男士	-16114
瞪眼	-16115
箱里	-16116
绝伦	-16117
航天	-16118
退后	-16119
雷老	-16120
领先	-16121
▁几个	-16122
伸出了	-16123
使他的	-16124
北京的	-16125
发着抖	-16126
和那些	-16127
城里的	-16128
天大的	-16129
干掉了	-16130
心里却	-16131
第一天	-16132
那三个	-16133
交通工具	-16134
上层	-16135
买进	-16136
仰起	-16137
厌倦	-16138
君实	-16139
吱吱	-16140
哎哟	-16141
它会	-16142
完蛋	-16143
幽柔	-16144
心口	-16145
扭动	-16146
抹了	-16147
挣钱	-16148
振奋	-16149
是来	-16150
虎子	-16151
道士	-16152
面带	-16153
一丝不	-16154
他身边	-16155
的到来	-16156
皇上的	-16157
着脑袋	-16158
空间站	-16159
拿起电话	-16160
贝尔纳多	-16161
鲜于修礼	-16162
瞪了我一眼	-16163
三下	-16164
军心	-16165
失笑	-16166
少妇	-16167
我自	-16168
拦截	-16169
排斥	-16170
气恼	-16171
犹太	-16172
碎的	-16173
站到	-16174
草坪	-16175
衣领	-16176
不放心	-16177
岛上的	-16178
感到很	-16179
是那个	-16180
江湖上	-16181
详细的	-16182
一直以来	-16183
没有再说什么	-16184
不慢	-16185
中断	-16186
之士	-16187
减弱	-16188
大殿	-16189
小屋	-16190
很深	-16191
惊吓	-16192
拥着	-16193
无路	-16194
比喻	-16195
洗衣	-16196
细腻	-16197
耀宗	-16198
退路	-16199
那根	-16200
长毛	-16201
人一样	-16202
吩咐道	-16203
收音机	-16204
朝廷的	-16205
田毛毛	-16206
的例子	-16207
的武器	-16208
这说明	-16209
金大富	-16210
亲信	-16211
公爷	-16212
切断	-16213
到晚	-16214
力度	-16215
名堂	-16216
大帅	-16217
奉命	-16218
小丽	-16219
工会	-16220
开水	-16221
抗衡	-16222
折扣	-16223
直截	-16224
硝烟	-16225
莫要	-16226
虐待	-16227
随风	-16228
鸟儿	-16229
不愉快	-16230
你以后	-16231
你是否	-16232
我不管	-16233
放出来	-16234
的身躯	-16235
相对于	-16236
着一种	-16237
低下了头	-16238
达到目的	-16239
不知为什么	-16240
还是第一次	-16241
LE	-16242
他竟	-16243
北平	-16244
成人	-16245
推着	-16246
演习	-16247
的她	-16248
自得	-16249
蓝脸	-16250
被困	-16251
豺狼	-16252
又不能	-16253
城外的	-16254
大队长	-16255
村子里	-16256
来看看	-16257
没必要	-16258
的人数	-16259
的灯光	-16260
的队伍	-16261
▁这一切	-16262
手足无措	-16263
浪费时间	-16264
每一个人的	-16265
▁宁	-16266
一觉	-16267
云层	-16268
初中	-16269
口子	-16270
叶家	-16271
吃力	-16272
夹击	-16273
安稳	-16274
是两	-16275
流出	-16276
满地	-16277
象个	-16278
首饰	-16279
▁co	-16280
从没有	-16281
他们才	-16282
听不见	-16283
我立时	-16284
最起码	-16285
的关键	-16286
而感到	-16287
误会了	-16288
骨子里	-16289
ress	-16290
一把抓住	-16291
他是不是	-16292
怪异莫名	-16293
看来像是	-16294
作对	-16295
其一	-16296
剧情	-16297
只当	-16298
坡上	-16299
小狗	-16300
就别	-16301
收取	-16302
残杀	-16303
苍老	-16304
裴紫	-16305
阵亡	-16306
黛丽	-16307
▁千慧	-16308
不由地	-16309
众人都	-16310
必须在	-16311
恐怖的	-16312
想看看	-16313
我这一	-16314
是何等	-16315
的火力	-16316
他的话头	-16317
在他面前	-16318
我们自己	-16319
我就可以	-16320
远的地方	-16321
变异克隆人	-16322
一封	-16323
三岁	-16324
在和	-16325
将这	-16326
小明	-16327
注入	-16328
灰烬	-16329
给的	-16330
网友	-16331
胆量	-16332
诺言	-16333
转告	-16334
遍地	-16335
首席	-16336
▁结果	-16337
不记得	-16338
加快了	-16339
总是不	-16340
确定了	-16341
也没想到	-16342
兄弟姐妹	-16343
在我身边	-16344
我的身边	-16345
躺在地上	-16346
隐隐约约	-16347
▁first	-16348
克远	-16349
大庭	-16350
官僚	-16351
显现	-16352
炯炯	-16353
狗屁	-16354
算盘	-16355
胞胎	-16356
for	-16357
不寻常	-16358
二太太	-16359
又有了	-16360
可是你	-16361
四周围	-16362
屋子中	-16363
的太阳	-16364
都会有	-16365
他们之间	-16366
低下头去	-16367
打电话给	-16368
的一件事	-16369
神情十分	-16370
那个地方	-16371
不单	-16372
不祥	-16373
国土	-16374
推辞	-16375
牛肉	-16376
的嘴	-16377
磁场	-16378
称号	-16379
穿行	-16380
脚踢	-16381
解救	-16382
辩论	-16383
连绵	-16384
黄土	-16385
▁女士	-16386
厉声道	-16387
总指挥	-16388
的大汉	-16389
背上的	-16390
▁how	-16391
任何事情	-16392
是不可能的	-16393
之言	-16394
也比	-16395
名人	-16396
咬了	-16397
啧啧	-16398
座山	-16399
总体	-16400
换个	-16401
摆在	-16402
攻下	-16403
棍子	-16404
没来	-16405
沧桑	-16406
苏眉	-16407
迂回	-16408
那倒	-16409
全身的	-16410
我们便	-16411
无声息	-16412
跟自己	-16413
那男人	-16414
黑斯廷	-16415
什么问题	-16416
你也知道	-16417
这种力量	-16418
通讯频道	-16419
克丽斯蒂娜	-16420
不把	-16421
中毒	-16422
乙方	-16423
午餐	-16424
又怕	-16425
地往	-16426
学士	-16427
宫中	-16428
憎恨	-16429
所指	-16430
拚命	-16431
支吾	-16432
比利	-16433
管子	-16434
肢体	-16435
获利	-16436
触摸	-16437
诊断	-16438
送回	-16439
长袍	-16440
难为	-16441
企业家	-16442
你居然	-16443
寒而栗	-16444
感情的	-16445
报纸上	-16446
的概念	-16447
眼前这	-16448
中年男子	-16449
十分清楚	-16450
又回到了	-16451
可是我却	-16452
手忙脚乱	-16453
坐在沙发上	-16454
是什么样子	-16455
下级	-16456
咚咚	-16457
大国	-16458
她已	-16459
惧怕	-16460
慎重	-16461
我以	-16462
有数	-16463
死我	-16464
美金	-16465
袋子	-16466
裂缝	-16467
诸如	-16468
轰隆	-16469
连着	-16470
霸道	-16471
▁忽然	-16472
上去的	-16473
和几个	-16474
并不会	-16475
得这么	-16476
能找到	-16477
问自己	-16478
他的身边	-16479
怎么会有	-16480
有些事情	-16481
▁游	-16482
▁话	-16483
凭着	-16484
启发	-16485
哗哗	-16486
已久	-16487
床前	-16488
摇摇	-16489
用尽	-16490
脸庞	-16491
记起	-16492
铁头	-16493
阿爸	-16494
▁人类	-16495
▁电话	-16496
不小的	-16497
他喜欢	-16498
你的事	-16499
史可法	-16500
的心里	-16501
非常好	-16502
打个电话	-16503
人命	-16504
别动	-16505
悦耳	-16506
效忠	-16507
正的	-16508
气力	-16509
氛围	-16510
海龙	-16511
留学	-16512
闲聊	-16513
马匹	-16514
uss	-16515
不服气	-16516
不觉得	-16517
把一个	-16518
是中国	-16519
有着一	-16520
的小姐	-16521
罗蒙诺	-16522
▁tri	-16523
但是我们	-16524
好一会儿	-16525
我不相信	-16526
真是一个	-16527
八宝沉香辇	-16528
▁八	-16529
一并	-16530
严峻	-16531
人世	-16532
似笑	-16533
低落	-16534
信徒	-16535
几眼	-16536
卷第	-16537
又岂	-16538
失控	-16539
守城	-16540
插嘴	-16541
暴君	-16542
洛伊	-16543
用枪	-16544
电流	-16545
神像	-16546
积分	-16547
转而	-16548
送的	-16549
▁陈阵	-16550
也有了	-16551
他才道	-16552
伊斯兰	-16553
但是也	-16554
奇异的	-16555
平均线	-16556
的身分	-16557
肯定了	-16558
迫击炮	-16559
▁我有点	-16560
不止一次	-16561
太史慈和	-16562
硬着头皮	-16563
你知不知道	-16564
万事	-16565
倪光	-16566
力克	-16567
墨镜	-16568
审讯	-16569
山中	-16570
新奇	-16571
望望	-16572
步步	-16573
洋溢	-16574
湿了	-16575
瓦拉	-16576
相思	-16577
窟窿	-16578
诚实	-16579
顷刻	-16580
他早就	-16581
你还不	-16582
又好笑	-16583
只能在	-16584
的那张	-16585
站出来	-16586
自己了	-16587
裴将军	-16588
这事儿	-16589
一件事情	-16590
却并没有	-16591
这些问题	-16592
▁芙兰西亚	-16593
一剑	-16594
不难	-16595
俨然	-16596
凌乱	-16597
刚到	-16598
吓人	-16599
当众	-16600
德里	-16601
怠慢	-16602
拉拢	-16603
按时	-16604
推论	-16605
敲了	-16606
暴发	-16607
曲子	-16608
木村	-16609
树的	-16610
自治	-16611
▁按照	-16612
▁难道	-16613
于是便	-16614
动于衷	-16615
得通红	-16616
心里想	-16617
护卫舰	-16618
由于他	-16619
其他地方	-16620
形成一个	-16621
之行	-16622
九十	-16623
体重	-16624
公式	-16625
出没	-16626
别处	-16627
可音	-16628
周边	-16629
堆里	-16630
威毅	-16631
宝弟	-16632
硬的	-16633
胜过	-16634
贵妃	-16635
这会	-16636
▁巴图	-16637
令人心	-16638
在日本	-16639
威毅侯	-16640
影响力	-16641
月二十	-16642
绝没有	-16643
虽然我	-16644
这些小	-16645
迷糊糊	-16646
就可以知道	-16647
不忘	-16648
丝绸	-16649
大幅	-16650
就如	-16651
柏青	-16652
正气	-16653
派来	-16654
胸部	-16655
觉悟	-16656
这更	-16657
▁大约	-16658
写了一	-16659
只是道	-16660
得如此	-16661
望一眼	-16662
现实的	-16663
理想的	-16664
的了解	-16665
的手里	-16666
陡地一	-16667
为了什么	-16668
加大	-16669
加拿	-16670
取胜	-16671
夹在	-16672
忐忑	-16673
新兵	-16674
根源	-16675
治理	-16676
洁白	-16677
潼州	-16678
礼节	-16679
箫琴	-16680
脸皮	-16681
自是	-16682
ved	-16683
全玉姬	-16684
十阿哥	-16685
孙建冬	-16686
李成栋	-16687
永远是	-16688
渐渐的	-16689
见面了	-16690
▁年轻人	-16691
▁贾玉珍	-16692
圣剑山庄	-16693
脸色苍白	-16694
这并不是	-16695
脸上的表情	-16696
,[	-16697
之争	-16698
之快	-16699
之恩	-16700
内在	-16701
可好	-16702
可要	-16703
堆积	-16704
外号	-16705
奋勇	-16706
既不	-16707
油灯	-16708
满腹	-16709
漏洞	-16710
百合	-16711
示弱	-16712
管制	-16713
纪灵	-16714
置之	-16715
群中	-16716
起义	-16717
迷离	-16718
送进	-16719
出事了	-16720
就是不	-16721
更不会	-16722
来找你	-16723
正处于	-16724
王子服	-16725
现代化	-16726
如果真的	-16727
说话的时候	-16728
上头	-16729
不善	-16730
丢掉	-16731
先说	-16732
呼喊	-16733
外科	-16734
完好	-16735
挺身	-16736
猛虎	-16737
电灯	-16738
腾空	-16739
轻笑	-16740
鲜艳	-16741
黄沙	-16742
黑发	-16743
也只好	-16744
了一间	-16745
对我道	-16746
得意地	-16747
才开始	-16748
睁开了	-16749
秘密的	-16750
希望能够	-16751
技术人员	-16752
但仍	-16753
兢兢	-16754
大块	-16755
有异	-16756
有缘	-16757
机遇	-16758
深蓝	-16759
电池	-16760
赋予	-16761
身世	-16762
鼻梁	-16763
ood	-16764
▁徐德	-16765
不过了	-16766
同志们	-16767
因为有	-16768
密集的	-16769
科学的	-16770
米博士	-16771
也有可能	-16772
多说什么	-16773
感到意外	-16774
迷迷糊糊	-16775
▁说到这里	-16776
这种情形下	-16777
不决	-16778
主子	-16779
之举	-16780
书桌	-16781
仅供	-16782
他跟	-16783
多得	-16784
尼玛	-16785
屠宰	-16786
快些	-16787
指引	-16788
歌曲	-16789
爽朗	-16790
等地	-16791
计时	-16792
谴责	-16793
逃命	-16794
重逢	-16795
ict	-16796
▁此刻	-16797
不作声	-16798
你愿意	-16799
好意思	-16800
恐爪龙	-16801
所用的	-16802
是一副	-16803
现在在	-16804
自由的	-16805
记忆中	-16806
那便是	-16807
▁他说着	-16808
原振侠在	-16809
陆战队员	-16810
▁如果不是	-16811
内衣	-16812
凝神	-16813
包子	-16814
宗主	-16815
小喜	-16816
打我	-16817
王都	-16818
知青	-16819
签名	-16820
芳子	-16821
蜜蜂	-16822
被这	-16823
认错	-16824
这使	-16825
遮掩	-16826
骂我	-16827
多半是	-16828
才算是	-16829
接过了	-16830
第一批	-16831
没有多少	-16832
这样一种	-16833
▁这种情形	-16834
▁华	-16835
上当	-16836
亮着	-16837
出席	-16838
卡特	-16839
压着	-16840
吐吐	-16841
战国	-16842
树立	-16843
神父	-16844
继而	-16845
问候	-16846
颠簸	-16847
飞了	-16848
仿佛在	-16849
似笑非	-16850
我听得	-16851
提高了	-16852
来回踱	-16853
评论员	-16854
边上的	-16855
顿了顿	-16856
从天而降	-16857
同归于尽	-16858
吸了一口	-16859
大规模的	-16860
不得不承认	-16861
也不是什么	-16862
可以看的出来	-16863
?......”	-16864
东瓜	-16865
冷气	-16866
后人	-16867
国公	-16868
如梦	-16869
愁眉	-16870
枪法	-16871
梦见	-16872
洋人	-16873
离我	-16874
签字	-16875
翻腾	-16876
肉眼	-16877
记号	-16878
重耳	-16879
▁在那	-16880
▁更多	-16881
三年前	-16882
冷然道	-16883
大门口	-16884
我感觉	-16885
时间里	-16886
观察着	-16887
高兴了	-16888
得很清楚	-16889
目前为止	-16890
仇人	-16891
任意	-16892
似是	-16893
再想	-16894
军服	-16895
厂的	-16896
厚厚	-16897
国轩	-16898
扎西	-16899
更能	-16900
滴滴	-16901
瑟瑟	-16902
管道	-16903
至终	-16904
虽是	-16905
解说	-16906
小丫头	-16907
并不想	-16908
我们到	-16909
真正地	-16910
类似于	-16911
颜色的	-16912
▁pla	-16913
▁汉烈米	-16914
▁那时候	-16915
容易的事	-16916
那些东西	-16917
雷德伍德	-16918
短的时间内	-16919
这是怎么回事	-16920
▁波	-16921
一开	-16922
三点	-16923
上也	-16924
以示	-16925
你找	-16926
先到	-16927
如水	-16928
害的	-16929
带路	-16930
抵御	-16931
海滩	-16932
爵士	-16933
美酒	-16934
过头	-16935
里地	-16936
问的	-16937
风情	-16938
高呼	-16939
鼎鼎	-16940
上去了	-16941
却已经	-16942
又惊又	-16943
固定的	-16944
又是一个	-16945
天下第一	-16946
”“	-16947
今儿	-16948
名将	-16949
吵闹	-16950
堡主	-16951
干得	-16952
恭维	-16953
授权	-16954
撒娇	-16955
斯汀	-16956
本部	-16957
汇合	-16958
环保	-16959
甲方	-16960
罕见	-16961
翻脸	-16962
落日	-16963
还把	-16964
领事	-16965
题材	-16966
饺子	-16967
驻军	-16968
.''	-16969
仿佛是	-16970
免不了	-16971
我想要	-16972
某一个	-16973
的怪物	-16974
裘里安	-16975
譬如说	-16976
那真是	-16977
▁刘改芸	-16978
原振侠也	-16979
地看着她	-16980
让自己的	-16981
这个时代	-16982
初次	-16983
己经	-16984
忍心	-16985
流露	-16986
清二	-16987
珠子	-16988
瑞平	-16989
翻过	-16990
长城	-16991
间接	-16992
▁为此	-16993
他需要	-16994
居然是	-16995
思索着	-16996
执政官	-16997
文化的	-16998
自己会	-16999
钻进了	-17000
▁他们的	-17001
虽然不是	-17002
你当	-17003
后又	-17004
在石	-17005
拍打	-17006
接听	-17007
暖和	-17008
的冰	-17009
的野	-17010
皮肉	-17011
矿石	-17012
空空	-17013
笔钱	-17014
箭头	-17015
胆大	-17016
豪富	-17017
额的	-17018
之后就	-17019
于博士	-17020
他说道	-17021
价值的	-17022
卡罗莱	-17023
坐在了	-17024
环境中	-17025
自己对	-17026
都不想	-17027
才是真正的	-17028
!?	-17029
▁日	-17030
兴起	-17031
天神	-17032
徐盛	-17033
情理	-17034
没等	-17035
疑虑	-17036
较大	-17037
辨认	-17038
不理会	-17039
准确地	-17040
到一起	-17041
句话说	-17042
只是个	-17043
喘不过	-17044
在半空	-17045
我看你	-17046
相应的	-17047
这种话	-17048
她是一个	-17049
▁这是一个	-17050
▁century	-17051
▁关	-17052
一拉	-17053
去死	-17054
宁宁	-17055
得来	-17056
感知	-17057
海皇	-17058
皆知	-17059
精打	-17060
罗喉	-17061
要了	-17062
请来	-17063
进程	-17064
迷信	-17065
魏刚	-17066
卡罗琳	-17067
叫起来	-17068
展开了	-17069
时期的	-17070
能看到	-17071
但是他的	-17072
做了什么	-17073
哈根九世	-17074
奇斯瓦特	-17075
有了一个	-17076
这个意思	-17077
▁good	-17078
▁想	-17079
下半	-17080
也只	-17081
五指	-17082
人道	-17083
口里	-17084
察看	-17085
对那	-17086
座上	-17087
怒意	-17088
怕了	-17089
意乱	-17090
更换	-17091
松手	-17092
科幻	-17093
触及	-17094
那会	-17095
也来了	-17096
他看见	-17097
做一些	-17098
古代的	-17099
存在了	-17100
的巨大	-17101
的空气	-17102
自然要	-17103
赢得了	-17104
跑过去	-17105
一个一个	-17106
两个人都	-17107
没有关系	-17108
当时的情形	-17109
没有人可以	-17110
之名	-17111
全靠	-17112
冷不	-17113
医务	-17114
可比	-17115
合力	-17116
年底	-17117
惯例	-17118
条路	-17119
狗的	-17120
眨了	-17121
胡言	-17122
贸然	-17123
门下	-17124
队形	-17125
▁正当	-17126
▁阿拉	-17127
一进门	-17128
不适合	-17129
打起来	-17130
的人选	-17131
的利益	-17132
石青璇	-17133
起作用	-17134
隐藏在	-17135
朱四判官	-17136
亚尔	-17137
出血	-17138
吃苦	-17139
密林	-17140
富裕	-17141
对策	-17142
把大	-17143
折叠	-17144
接管	-17145
翠莲	-17146
航海	-17147
话语	-17148
阵子	-17149
陈小	-17150
限于	-17151
app	-17152
▁站在	-17153
也不算	-17154
他无法	-17155
吃完饭	-17156
有一段	-17157
监狱里	-17158
硬生生	-17159
走一步	-17160
ical	-17161
再也无法	-17162
离开之后	-17163
至少可以	-17164
也难	-17165
佛门	-17166
元璋	-17167
单调	-17168
卡迪	-17169
厂里	-17170
可别	-17171
哄哄	-17172
大肆	-17173
奔腾	-17174
打赌	-17175
江水	-17176
电线	-17177
的热	-17178
直气	-17179
祖母	-17180
费利	-17181
起彼	-17182
铎尔	-17183
the	-17184
危险了	-17185
方铁生	-17186
的做法	-17187
的金属	-17188
UNSC	-17189
了一下手	-17190
尤其是在	-17191
怎么可以	-17192
免费电子书	-17193
de	-17194
丫鬟	-17195
交了	-17196
升级	-17197
地朝	-17198
官吏	-17199
干事	-17200
惘然	-17201
掌心	-17202
汉军	-17203
的就	-17204
纷争	-17205
跑步	-17206
阵形	-17207
隐居	-17208
▁这天	-17209
于是就	-17210
到我们	-17211
失败的	-17212
害怕了	-17213
就在于	-17214
当时我	-17215
微弱的	-17216
打火机	-17217
的一方	-17218
的天气	-17219
的那只	-17220
的门口	-17221
笑着道	-17222
见到你	-17223
这位是	-17224
那样子	-17225
▁我苦笑	-17226
自由世界	-17227
这一点上	-17228
一动也不动	-17229
发出了一阵	-17230
不看	-17231
丧气	-17232
他以	-17233
体贴	-17234
你妈	-17235
你若	-17236
僵持	-17237
划分	-17238
外加	-17239
她便	-17240
嫣红	-17241
平生	-17242
并用	-17243
更甚	-17244
特人	-17245
紫香	-17246
绝世	-17247
苦心	-17248
不在意	-17249
为一个	-17250
云哥哥	-17251
他这样	-17252
头大汗	-17253
始至终	-17254
然后才	-17255
的特点	-17256
意料之中	-17257
▁不过林极	-17258
NA	-17259
击杀	-17260
受损	-17261
帆布	-17262
敲击	-17263
斗篷	-17264
的病	-17265
眺望	-17266
蓝天	-17267
金山	-17268
银枪	-17269
伸手在	-17270
吃东西	-17271
本以为	-17272
用的是	-17273
的痕迹	-17274
而自己	-17275
蔡风的	-17276
迷人的	-17277
▁他一面	-17278
上市公司	-17279
脸上露出	-17280
借此	-17281
六七	-17282
叫唤	-17283
唠叨	-17284
小二	-17285
小香	-17286
尼尔	-17287
扑去	-17288
扔掉	-17289
招式	-17290
断裂	-17291
火热	-17292
玩了	-17293
症状	-17294
的清	-17295
西兰	-17296
要从	-17297
▁br	-17298
不愧是	-17299
二十岁	-17300
倒不如	-17301
势力的	-17302
十六章	-17303
可不能	-17304
启动了	-17305
呻吟声	-17306
地走了	-17307
木乃伊	-17308
至少在	-17309
请大家	-17310
得意洋洋	-17311
没有多久	-17312
贝尔纳多特	-17313
▁before	-17314
?)	-17315
不忙	-17316
两女	-17317
做成	-17318
大理	-17319
巨浪	-17320
惊疑	-17321
死里	-17322
残余	-17323
沉静	-17324
没准	-17325
流民	-17326
祭祀	-17327
赶往	-17328
不自在	-17329
他们地	-17330
多余的	-17331
最关键	-17332
都需要	-17333
▁war	-17334
但是他却	-17335
只要我们	-17336
看在眼里	-17337
这个国家	-17338
▁车	-17339
一推	-17340
你为	-17341
凑近	-17342
大呼	-17343
安危	-17344
恐吓	-17345
斜斜	-17346
注目	-17347
灵感	-17348
荒诞	-17349
靠拢	-17350
鸡场	-17351
ack	-17352
决不是	-17353
她的心	-17354
居住的	-17355
悠瓦拉	-17356
有一道	-17357
沉默了	-17358
玛仙的	-17359
瞧不起	-17360
训练的	-17361
▁陈景德	-17362
人的时候	-17363
任何东西	-17364
正是因为	-17365
长时间的	-17366
有什么事情	-17367
du	-17368
南洋	-17369
品尝	-17370
地窖	-17371
垂下	-17372
左宗	-17373
很近	-17374
徐徐	-17375
急救	-17376
流逝	-17377
登基	-17378
罗多	-17379
转折	-17380
迅猛	-17381
igh	-17382
你如果	-17383
却一直	-17384
可以从	-17385
喜欢你	-17386
头顶上	-17387
我忙道	-17388
我非常	-17389
权力的	-17390
此起彼	-17391
能得到	-17392
跳出来	-17393
他也没有	-17394
到了什么	-17395
吸一口气	-17396
IC	-17397
之柱	-17398
乐祸	-17399
也未	-17400
信件	-17401
其不	-17402
出名	-17403
好过	-17404
妮娅	-17405
幕后	-17406
惟有	-17407
挑逗	-17408
月色	-17409
殷嘉	-17410
芝龙	-17411
若狂	-17412
进发	-17413
那他	-17414
▁只要	-17415
不必再	-17416
伸出一	-17417
出了事	-17418
听我的	-17419
基本的	-17420
宋家堡	-17421
就可能	-17422
星球上	-17423
的一半	-17424
否则的话	-17425
这场战争	-17426
加查林帝国	-17427
皱起了眉头	-17428
▁Y	-17429
假期	-17430
前程	-17431
取下	-17432
口哨	-17433
后门	-17434
已成	-17435
径自	-17436
沙哑	-17437
法王	-17438
生态	-17439
用它	-17440
科克	-17441
请她	-17442
赵括	-17443
他根本	-17444
传出来	-17445
回家去	-17446
客厅里	-17447
录音机	-17448
德瑞克	-17449
死死地	-17450
神秘人	-17451
阳台上	-17452
▁are	-17453
▁第三章	-17454
一不小心	-17455
其实就是	-17456
满头大汗	-17457
的大眼睛	-17458
都是一个	-17459
▁粞	-17460
三种	-17461
吸毒	-17462
壮大	-17463
尔顿	-17464
开花	-17465
扶持	-17466
早了	-17467
来者	-17468
汉王	-17469
清的	-17470
狂妄	-17471
神气	-17472
装出	-17473
诗歌	-17474
跃起	-17475
阴险	-17476
阿妈	-17477
黑星	-17478
net	-17479
▁艾歌	-17480
不希望	-17481
从小就	-17482
冷冰冰	-17483
如今的	-17484
左宗棠	-17485
标准的	-17486
灾乐祸	-17487
卡罗莱娜	-17488
呆了片刻	-17489
在他身边	-17490
在电话里	-17491
没有甚么	-17492
转眼之间	-17493
▁原振侠在	-17494
到底是怎么回事	-17495
于世	-17496
使之	-17497
光着	-17498
几块	-17499
却道	-17500
敬意	-17501
无尽	-17502
的青	-17503
硬币	-17504
耗子	-17505
胡人	-17506
衬衣	-17507
袋中	-17508
转来	-17509
▁乔红	-17510
为中心	-17511
也会有	-17512
仲大雅	-17513
差点没	-17514
往往是	-17515
我和她	-17516
眨着眼	-17517
答应着	-17518
也是为了	-17519
有的时候	-17520
的时间内	-17521
有什么东西	-17522
不改	-17523
公鸡	-17524
凶恶	-17525
双子	-17526
咫尺	-17527
回味	-17528
外壳	-17529
她正	-17530
孔振	-17531
富豪	-17532
平坦	-17533
府邸	-17534
念念	-17535
有礼	-17536
点着	-17537
赶着	-17538
送死	-17539
部族	-17540
重负	-17541
队列	-17542
防军	-17543
雕刻	-17544
养殖户	-17545
恐怖号	-17546
移动的	-17547
许许多	-17548
那自然	-17549
鬼子的	-17550
亿万	-17551
你爹	-17552
修长	-17553
军情	-17554
嘟囔	-17555
多情	-17556
好比	-17557
存的	-17558
局部	-17559
展览	-17560
念着	-17561
招来	-17562
旅程	-17563
旺盛	-17564
特性	-17565
装扮	-17566
遍体	-17567
高处	-17568
高山	-17569
wap	-17570
▁我将	-17571
她竟然	-17572
就听到	-17573
屏住了	-17574
服务生	-17575
而这种	-17576
胡克党	-17577
菲尔德	-17578
他老人家	-17579
别的地方	-17580
已经成为	-17581
我之所以	-17582
战场上的	-17583
的小女孩	-17584
这样的情形下	-17585
不适	-17586
合资	-17587
圆圈	-17588
在哪	-17589
地和	-17590
奴婢	-17591
暗道	-17592
知府	-17593
粗暴	-17594
累累	-17595
结界	-17596
背包	-17597
被告	-17598
辣辣	-17599
铁恨	-17600
▁“‘	-17601
▁不管	-17602
▁方晓	-17603
不甘心	-17604
他有些	-17605
北京市	-17606
史克尔	-17607
张鹏程	-17608
想不通	-17609
望着她	-17610
的人马	-17611
突然从	-17612
算了吧	-17613
规定的	-17614
起身子	-17615
辛德拉	-17616
那个大	-17617
飞机上	-17618
▁李邦殊	-17619
如果喜欢	-17620
是我们的	-17621
石二矮子	-17622
于禁	-17623
充实	-17624
商的	-17625
恍然	-17626
悄然	-17627
派到	-17628
照料	-17629
神甫	-17630
红灯	-17631
编号	-17632
蛋糕	-17633
裸体	-17634
触手	-17635
进取	-17636
通天	-17637
长沙	-17638
驻守	-17639
也明白	-17640
他几乎	-17641
你只要	-17642
八路军	-17643
安心的	-17644
思想的	-17645
放心了	-17646
的滋味	-17647
直视着	-17648
见不得	-17649
▁第二章	-17650
在我看来	-17651
就变成了	-17652
我忍不住	-17653
ug	-17654
上所	-17655
乘机	-17656
书店	-17657
价还	-17658
失魂	-17659
宽阔	-17660
急剧	-17661
损坏	-17662
描淡	-17663
瘫痪	-17664
目击	-17665
福晋	-17666
空隙	-17667
纤细	-17668
艾丽	-17669
诉说	-17670
追着	-17671
那便	-17672
飞艇	-17673
了一套	-17674
你可能	-17675
冲过去	-17676
大学的	-17677
工作者	-17678
方力元	-17679
松陵村	-17680
清二楚	-17681
温妮莎	-17682
生命之	-17683
罗伯爵	-17684
置身于	-17685
阵地上	-17686
陈庆国	-17687
也不一定	-17688
又是一阵	-17689
和他一起	-17690
》(	-17691
处罚	-17692
当个	-17693
总的	-17694
晃了	-17695
杀声	-17696
环绕	-17697
药材	-17698
血战	-17699
言行	-17700
门铃	-17701
鸭子	-17702
一大堆	-17703
也不肯	-17704
十七章	-17705
递给我	-17706
▁在那一	-17707
没有理由	-17708
▁第三部一统	-17709
ty	-17710
▁[	-17711
一招	-17712
代人	-17713
刘家	-17714
咕咕	-17715
善仁	-17716
地走	-17717
大头	-17718
尾杉	-17719
形体	-17720
惨白	-17721
招了	-17722
斯顿	-17723
珍宝	-17724
省委	-17725
矮人	-17726
蔬菜	-17727
觉着	-17728
追兵	-17729
道里	-17730
他十分	-17731
他明白	-17732
勒雷人	-17733
半分钟	-17734
帮助你	-17735
按下了	-17736
理直气	-17737
白凤鸣	-17738
的形式	-17739
的高层	-17740
看见他	-17741
结巴巴	-17742
里糊涂	-17743
铁长风	-17744
▁洪致生	-17745
帕尔斯军	-17746
那一定是	-17747
▁把	-17748
上加	-17749
不失	-17750
了这	-17751
型态	-17752
堕落	-17753
干燥	-17754
开拓	-17755
星云	-17756
眼界	-17757
老潘	-17758
补贴	-17759
迪玛	-17760
迫切	-17761
那不	-17762
长虹	-17763
马群	-17764
高价	-17765
鲨鱼	-17766
四十多	-17767
在那些	-17768
的遭遇	-17769
追问道	-17770
和太史慈	-17771
我这个人	-17772
睁大眼睛	-17773
这种想法	-17774
这种说法	-17775
临淄	-17776
便说	-17777
傀儡	-17778
全速	-17779
北面	-17780
卷起	-17781
坡特	-17782
声称	-17783
应聘	-17784
强制	-17785
招募	-17786
是哪	-17787
武将	-17788
玩家	-17789
破产	-17790
网站	-17791
路易	-17792
那点	-17793
银光	-17794
飘荡	-17795
他指着	-17796
刘百田	-17797
在这场	-17798
地板上	-17799
放到了	-17800
是一头	-17801
最多的	-17802
最好是	-17803
登上了	-17804
的战略	-17805
的理论	-17806
门口的	-17807
Coco	-17808
只剩下了	-17809
我为什么	-17810
毫不客气	-17811
结结巴巴	-17812
▁只	-17813
不接	-17814
不谈	-17815
中士	-17816
也似	-17817
做完	-17818
冠军	-17819
含有	-17820
夜幕	-17821
打出	-17822
打斗	-17823
星门	-17824
真能	-17825
缠住	-17826
罗伯	-17827
落实	-17828
要杀	-17829
阻力	-17830
二十一	-17831
失望了	-17832
我竟然	-17833
所在地	-17834
都是些	-17835
所带来的	-17836
▁我苦笑了一下	-17837
OK	-17838
一派	-17839
九年	-17840
便利	-17841
吞食	-17842
呜咽	-17843
圆筒	-17844
坠落	-17845
安乐	-17846
就怕	-17847
必胜	-17848
扯着	-17849
母鸡	-17850
泛着	-17851
洗了	-17852
猎手	-17853
礼拜	-17854
绯云	-17855
雨长	-17856
一下吧	-17857
与林极	-17858
俗话说	-17859
学生的	-17860
散发出	-17861
有如此	-17862
李自成	-17863
现在却	-17864
生产的	-17865
的人头	-17866
直截了	-17867
轻描淡	-17868
他们就会	-17869
想说什么	-17870
气喘吁吁	-17871
不知道如何	-17872
’、	-17873
丢人	-17874
中级	-17875
乐得	-17876
书包	-17877
再生	-17878
历代	-17879
名誉	-17880
回话	-17881
天意	-17882
如雨	-17883
幽州	-17884
持有	-17885
数万	-17886
福气	-17887
英镑	-17888
跑出	-17889
车轮	-17890
迷人	-17891
醍醐	-17892
马特	-17893
▁铁蛋	-17894
一眼就	-17895
从那里	-17896
少不了	-17897
开口了	-17898
有一百	-17899
十分高兴	-17900
在半空中	-17901
的意思是	-17902
MA	-17903
一扇	-17904
东家	-17905
厂房	-17906
圆球	-17907
并排	-17908
怕我	-17909
拿走	-17910
撑着	-17911
浑然	-17912
真地	-17913
缝里	-17914
跺脚	-17915
轮回	-17916
那大	-17917
邯郸	-17918
郭淮	-17919
驱使	-17920
之法则	-17921
他本来	-17922
元叶媚	-17923
坚定的	-17924
大约是	-17925
我早已	-17926
显示器	-17927
江苏怡	-17928
沙当当	-17929
真的要	-17930
辛格里	-17931
▁不知道	-17932
所产生的	-17933
无动于衷	-17934
IT	-17935
一门	-17936
上路	-17937
他倒	-17938
便于	-17939
像在	-17940
关押	-17941
却让	-17942
压压	-17943
发愣	-17944
史上	-17945
大卫	-17946
定下	-17947
密斯	-17948
尚且	-17949
成全	-17950
推算	-17951
浅浅	-17952
词汇	-17953
问话	-17954
一听得	-17955
他不禁	-17956
你不想	-17957
尊敬的	-17958
我这样	-17959
手指头	-17960
洁白的	-17961
的小孩	-17962
苏耀东	-17963
你的名字	-17964
我的时候	-17965
▁他一面说	-17966
▁原振侠又	-17967
在他的身上	-17968
对他们来说	-17969
CT	-17970
二号	-17971
位上	-17972
光辉	-17973
分头	-17974
即逝	-17975
友善	-17976
发给	-17977
多是	-17978
好话	-17979
张鲁	-17980
拐弯	-17981
指尖	-17982
救出	-17983
明朝	-17984
暗淡	-17985
清除	-17986
炼狱	-17987
画画	-17988
皮包	-17989
讲起	-17990
躲过	-17991
造就	-17992
顺序	-17993
马欢	-17994
▁七叔	-17995
▁宋维	-17996
不满意	-17997
乡亲们	-17998
了几天	-17999
出一股	-18000
只感到	-18001
头一次	-18002
就因为	-18003
就无法	-18004
得让人	-18005
折腾你	-18006
攻击的	-18007
明白吗	-18008
离去的	-18009
自己要	-18010
那件事	-18011
骑士团	-18012
▁叶莲子	-18013
▁林若璇	-18014
公共汽车	-18015
完全一样	-18016
希罗伯爵	-18017
手机访问	-18018
没有法子	-18019
飞了出去	-18020
▁与此同时	-18021
我从来没有	-18022
略停了一停	-18023
修正	-18024
假冒	-18025
刘虞	-18026
包厢	-18027
后生	-18028
在沙	-18029
堂的	-18030
天鹅	-18031
寻思	-18032
张辽	-18033
心机	-18034
打动	-18035
执意	-18036
显著	-18037
闻名	-18038
马头	-18039
以来的	-18040
是一家	-18041
终于在	-18042
这一套	-18043
一跃而起	-18044
历史上的	-18045
可是我们	-18046
幸灾乐祸	-18047
紧张起来	-18048
▁九	-18049
一秒	-18050
丽江	-18051
休闲	-18052
喧闹	-18053
悲愤	-18054
打造	-18055
担保	-18056
摆设	-18057
界限	-18058
硕士	-18059
突进	-18060
阵营	-18061
阿超	-18062
风筝	-18063
ign	-18064
▁us	-18065
▁老板	-18066
不下来	-18067
大瘟皇	-18068
就够了	-18069
的势力	-18070
联合国	-18071
负责任	-18072
▁郑保云	-18073
大惊失色	-18074
有限公司	-18075
黑斯廷斯	-18076
党员	-18077
共有	-18078
军舰	-18079
冷水	-18080
压倒	-18081
宣称	-18082
底细	-18083
府中	-18084
强奸	-18085
忘掉	-18086
挺好	-18087
擦着	-18088
明扬	-18089
本土	-18090
滋滋	-18091
熟了	-18092
白布	-18093
终点	-18094
置于	-18095
羊群	-18096
苏家	-18097
装束	-18098
高考	-18099
ied	-18100
▁三人	-18101
会产生	-18102
依然是	-18103
几年前	-18104
十八章	-18105
可真是	-18106
居高临	-18107
愤怒的	-18108
摆摆手	-18109
明确的	-18110
是个好	-18111
一片空白	-18112
我怎么会	-18113
正是如此	-18114
这么多人	-18115
不言	-18116
义的	-18117
他家	-18118
傲慢	-18119
公道	-18120
刘颖	-18121
剑飞	-18122
又来	-18123
寝室	-18124
托着	-18125
投奔	-18126
最强	-18127
死掉	-18128
王伟	-18129
王志	-18130
琉斯	-18131
碎石	-18132
自若	-18133
言罢	-18134
谁呢	-18135
购物	-18136
辛顿	-18137
逍遥	-18138
ite	-18139
不知该	-18140
分公司	-18141
在经过	-18142
派人去	-18143
马金花	-18144
owed	-18145
▁王梦雁	-18146
也不得不	-18147
发生什么事	-18148
还没来得及	-18149
▁纳尔逊先生	-18150
储备	-18151
士良	-18152
审查	-18153
想找	-18154
摸不	-18155
斯芬	-18156
生性	-18157
米尔	-18158
踩着	-18159
载着	-18160
迟钝	-18161
顶尖	-18162
▁他道	-18163
医生的	-18164
又回到	-18165
就有人	-18166
很平静	-18167
沙漠中	-18168
的功夫	-18169
盯着我	-18170
看热闹	-18171
示意他	-18172
黑暗的	-18173
他也不会	-18174
我们两个	-18175
▁普	-18176
公国	-18177
各级	-18178
向右	-18179
四五	-18180
围观	-18181
奇道	-18182
射杀	-18183
尔舒	-18184
弄清	-18185
得手	-18186
打消	-18187
[...]
