<unk>	0
<s>	0
</s>	0
<pad>	0
__USER__	0
__BOT__	0
<0x00>	0
<0x01>	0
<0x02>	0
<0x03>	0
<0x04>	0
<0x05>	0
<0x06>	0
<0x07>	0
<0x08>	0
<0x09>	0
<0x0A>	0
<0x0B>	0
<0x0C>	0
<0x0D>	0
<0x0E>	0
<0x0F>	0
<0x10>	0
<0x11>	0
<0x12>	0
<0x13>	0
<0x14>	0
<0x15>	0
<0x16>	0
<0x17>	0
<0x18>	0
<0x19>	0
<0x1A>	0
<0x1B>	0
<0x1C>	0
<0x1D>	0
<0x1E>	0
<0x1F>	0
<0x20>	0
<0x21>	0
<0x22>	0
<0x23>	0
<0x24>	0
<0x25>	0
<0x26>	0
<0x27>	0
<0x28>	0
<0x29>	0
<0x2A>	0
<0x2B>	0
<0x2C>	0
<0x2D>	0
<0x2E>	0
<0x2F>	0
<0x30>	0
<0x31>	0
<0x32>	0
<0x33>	0
<0x34>	0
<0x35>	0
<0x36>	0
<0x37>	0
<0x38>	0
<0x39>	0
<0x3A>	0
<0x3B>	0
<0x3C>	0
<0x3D>	0
<0x3E>	0
<0x3F>	0
<0x40>	0
<0x41>	0
<0x42>	0
<0x43>	0
<0x44>	0
<0x45>	0
<0x46>	0
<0x47>	0
<0x48>	0
<0x49>	0
<0x4A>	0
<0x4B>	0
<0x4C>	0
<0x4D>	0
<0x4E>	0
<0x4F>	0
<0x50>	0
<0x51>	0
<0x52>	0
<0x53>	0
<0x54>	0
<0x55>	0
<0x56>	0
<0x57>	0
<0x58>	0
<0x59>	0
<0x5A>	0
<0x5B>	0
<0x5C>	0
<0x5D>	0
<0x5E>	0
<0x5F>	0
<0x60>	0
<0x61>	0
<0x62>	0
<0x63>	0
<0x64>	0
<0x65>	0
<0x66>	0
<0x67>	0
<0x68>	0
<0x69>	0
<0x6A>	0
<0x6B>	0
<0x6C>	0
<0x6D>	0
<0x6E>	0
<0x6F>	0
<0x70>	0
<0x71>	0
<0x72>	0
<0x73>	0
<0x74>	0
<0x75>	0
<0x76>	0
<0x77>	0
<0x78>	0
<0x79>	0
<0x7A>	0
<0x7B>	0
<0x7C>	0
<0x7D>	0
<0x7E>	0
<0x7F>	0
<0x80>	0
<0x81>	0
<0x82>	0
<0x83>	0
<0x84>	0
<0x85>	0
<0x86>	0
<0x87>	0
<0x88>	0
<0x89>	0
<0x8A>	0
<0x8B>	0
<0x8C>	0
<0x8D>	0
<0x8E>	0
<0x8F>	0
<0x90>	0
<0x91>	0
<0x92>	0
<0x93>	0
<0x94>	0
<0x95>	0
<0x96>	0
<0x97>	0
<0x98>	0
<0x99>	0
<0x9A>	0
<0x9B>	0
<0x9C>	0
<0x9D>	0
<0x9E>	0
<0x9F>	0
<0xA0>	0
<0xA1>	0
<0xA2>	0
<0xA3>	0
<0xA4>	0
<0xA5>	0
<0xA6>	0
<0xA7>	0
<0xA8>	0
<0xA9>	0
<0xAA>	0
<0xAB>	0
<0xAC>	0
<0xAD>	0
<0xAE>	0
<0xAF>	0
<0xB0>	0
<0xB1>	0
<0xB2>	0
<0xB3>	0
<0xB4>	0
<0xB5>	0
<0xB6>	0
<0xB7>	0
<0xB8>	0
<0xB9>	0
<0xBA>	0
<0xBB>	0
<0xBC>	0
<0xBD>	0
<0xBE>	0
<0xBF>	0
<0xC0>	0
<0xC1>	0
<0xC2>	0
<0xC3>	0
<0xC4>	0
<0xC5>	0
<0xC6>	0
<0xC7>	0
<0xC8>	0
<0xC9>	0
<0xCA>	0
<0xCB>	0
<0xCC>	0
<0xCD>	0
<0xCE>	0
<0xCF>	0
<0xD0>	0
<0xD1>	0
<0xD2>	0
<0xD3>	0
<0xD4>	0
<0xD5>	0
<0xD6>	0
<0xD7>	0
<0xD8>	0
<0xD9>	0
<0xDA>	0
<0xDB>	0
<0xDC>	0
<0xDD>	0
<0xDE>	0
<0xDF>	0
<0xE0>	0
<0xE1>	0
<0xE2>	0
<0xE3>	0
<0xE4>	0
<0xE5>	0
<0xE6>	0
<0xE7>	0
<0xE8>	0
<0xE9>	0
<0xEA>	0
<0xEB>	0
<0xEC>	0
<0xED>	0
<0xEE>	0
<0xEF>	0
<0xF0>	0
<0xF1>	0
<0xF2>	0
<0xF3>	0
<0xF4>	0
<0xF5>	0
<0xF6>	0
<0xF7>	0
<0xF8>	0
<0xF9>	0
<0xFA>	0
<0xFB>	0
<0xFC>	0
<0xFD>	0
<0xFE>	0
<0xFF>	0
▁*	-0
..	-1
中国	-2
公司	-3
一个	-4
发展	-5
工作	-6
市场	-7
。”	-8
企业	-9
我们	-10
国家	-11
进行	-12
....	-13
服务	-14
人民	-15
经济	-16
可以	-17
”,	-18
**	-19
没有	-20
美国	-21
问题	-22
表示	-23
--	-24
自己	-25
记者	-26
nt	-27
他们	-28
通过	-29
技术	-30
”。	-31
社会	-32
产品	-33
建设	-34
),	-35
▁|	-36
管理	-37
成为	-38
研究	-39
时间	-40
▁E	-41
投资	-42
政府	-43
ry	-44
第一	-45
方面	-46
世界	-47
文化	-48
▁“	-49
目前	-50
▁**	-51
北京	-52
同时	-53
已经	-54
国际	-55
可能	-56
项目	-57
开始	-58
大学	-59
主要	-60
▁Ent	-61
▁Entry	-62
产业	-63
安全	-64
地区	-65
的一	-66
,“	-67
活动	-68
亿元	-69
er	-70
▁在	-71
以及	-72
中心	-73
人员	-74
这个	-75
其中	-76
生产	-77
增长	-78
数据	-79
重要	-80
今年	-81
部分	-82
情况	-83
作为	-84
就是	-85
认为	-86
合作	-87
▁(	-88
教育	-89
行业	-90
提供	-91
影响	-92
需要	-93
实现	-94
使用	-95
因为	-96
%,	-97
相关	-98
组织	-99
生活	-100
城市	-101
in	-102
消费	-103
▁「	-104
an	-105
全国	-106
这些	-107
出现	-108
on	-109
科技	-110
历史	-111
包括	-112
其他	-113
日本	-114
发现	-115
信息	-116
政策	-117
:“	-118
创新	-119
代表	-120
平台	-121
——	-122
要求	-123
是一	-124
大的	-125
系统	-126
到了	-127
第二	-128
发布	-129
%。	-130
......	-131
获得	-132
上海	-133
一步	-134
环境	-135
部门	-136
了一	-137
人的	-138
持续	-139
现在	-140
什么	-141
如果	-142
主义	-143
对于	-144
根据	-145
汽车	-146
集团	-147
中的	-148
也是	-149
能力	-150
机构	-151
开展	-152
业务	-153
的人	-154
的是	-155
发生	-156
由于	-157
提升	-158
▁据	-159
万元	-160
方式	-161
计划	-162
价格	-163
支持	-164
银行	-165
年的	-166
香港	-167
不同	-168
这样	-169
工程	-170
ar	-171
上的	-172
不是	-173
有限	-174
品牌	-175
之后	-176
这一	-177
全球	-178
委员	-179
)。	-180
一些	-181
显示	-182
来的	-183
▁《	-184
设计	-185
关系	-186
科学	-187
保护	-188
完成	-189
领域	-190
电影	-191
不断	-192
基础	-193
学生	-194
位于	-195
进一步	-196
因此	-197
学校	-198
需求	-199
增加	-200
----	-201
推动	-202
进入	-203
比赛	-204
还是	-205
继续	-206
责任	-207
会议	-208
联合	-209
为了	-210
群众	-211
金融	-212
质量	-213
资源	-214
但是	-215
运动	-216
资金	-217
提高	-218
这种	-219
积极	-220
以来	-221
。“	-222
解决	-223
美元	-224
负责	-225
国内	-226
收入	-227
时代	-228
存在	-229
参加	-230
自己的	-231
超过	-232
▁第	-233
分别	-234
开发	-235
很多	-236
基金	-237
中央	-238
交易	-239
内容	-240
智能	-241
之一	-242
个人	-243
加强	-244
规模	-245
al	-246
期间	-247
网络	-248
销售	-249
标准	-250
所有	-251
未来	-252
同比	-253
推进	-254
建立	-255
旅游	-256
更多	-257
还有	-258
报道	-259
单位	-260
风险	-261
改革	-262
他的	-263
领导	-264
提出	-265
参与	-266
共同	-267
时候	-268
or	-269
学习	-270
at	-271
了解	-272
地方	-273
有限公司	-274
介绍	-275
电视	-276
不能	-277
虽然	-278
交通	-279
都是	-280
游戏	-281
这是	-282
非常	-283
过程	-284
重点	-285
政治	-286
所以	-287
孩子	-288
成立	-289
报告	-290
法院	-291
希望	-292
疫情	-293
建筑	-294
en	-295
水平	-296
基本	-297
专业	-298
农业	-299
经营	-300
形成	-301
生态	-302
我国	-303
)、	-304
关注	-305
正在	-306
▁S	-307
最后	-308
健康	-309
当时	-310
实施	-311
全面	-312
工业	-313
不过	-314
传统	-315
能源	-316
用户	-317
之间	-318
学院	-319
st	-320
分析	-321
保障	-322
一直	-323
行为	-324
当地	-325
特别	-326
规定	-327
决定	-328
执行	-329
选择	-330
》,	-331
两个	-332
第三	-333
新的	-334
模式	-335
数字	-336
精神	-337
作品	-338
能够	-339
有关	-340
艺术	-341
新闻	-342
▁中	-343
具有	-344
成功	-345
来自	-346
达到	-347
调查	-348
系列	-349
医院	-350
作用	-351
举行	-352
行动	-353
好的	-354
上市	-355
媒体	-356
日电	-357
实际	-358
最终	-359
正式	-360
利用	-361
委员会	-362
目标	-363
法律	-364
▁本	-365
制度	-366
现场	-367
的大	-368
一起	-369
关于	-370
。」	-371
英国	-372
随着	-373
▁C	-374
音乐	-375
▁-	-376
一定	-377
去年	-378
年来	-379
区域	-380
综合	-381
体系	-382
只有	-383
不仅	-384
大家	-385
ic	-386
制造	-387
如何	-388
价值	-389
指出	-390
铁路	-391
甚至	-392
结果	-393
取得	-394
现代	-395
最高	-396
书记	-397
公里	-398
表现	-399
行政	-400
战略	-401
应用	-402
此外	-403
台湾	-404
以上	-405
必须	-406
不会	-407
编辑	-408
坚持	-409
接受	-410
主席	-411
措施	-412
医疗	-413
导致	-414
结构	-415
股份	-416
帮助	-417
罗斯	-418
许多	-419
el	-420
空间	-421
es	-422
家庭	-423
社区	-424
商业	-425
起来	-426
受到	-427
▁新	-428
出了	-429
控制	-430
应该	-431
有效	-432
成本	-433
任务	-434
一次	-435
看到	-436
经过	-437
下降	-438
直接	-439
比较	-440
优势	-441
宣传	-442
拥有	-443
证券	-444
造成	-445
▁A	-446
促进	-447
的新	-448
处理	-449
今天	-450
季度	-451
保持	-452
属于	-453
过去	-454
自然	-455
it	-456
条件	-457
中华	-458
消息	-459
无法	-460
居民	-461
原因	-462
体育	-463
》(	-464
开放	-465
变化	-466
稳定	-467
机制	-468
世纪	-469
阶段	-470
调整	-471
建议	-472
资产	-473
方案	-474
核心	-475
联网	-476
冠军	-477
青年	-478
除了	-479
故事	-480
或者	-481
消费者	-482
知道	-483
竞争	-484
产生	-485
而且	-486
▁M	-487
结合	-488
设备	-489
截至	-490
得到	-491
不少	-492
预计	-493
交流	-494
民族	-495
力量	-496
il	-497
面积	-498
专家	-499
是在	-500
干部	-501
成员	-502
设施	-503
劳动	-504
规划	-505
利亚	-506
担任	-507
明显	-508
之前	-509
资本	-510
功能	-511
主题	-512
范围	-513
二十	-514
来说	-515
来看	-516
电子	-517
俄罗斯	-518
个月	-519
事件	-520
严重	-521
也有	-522
客户	-523
发行	-524
小时	-525
宣布	-526
一样	-527
发挥	-528
监管	-529
车站	-530
任何	-531
更加	-532
供应	-533
按照	-534
欧洲	-535
左右	-536
手机	-537
利润	-538
有的	-539
人才	-540
制作	-541
球队	-542
职业	-543
长期	-544
运营	-545
法国	-546
打造	-547
半年	-548
机会	-549
人们	-550
这里	-551
的重要	-552
材料	-553
知识	-554
视频	-555
研发	-556
思想	-557
生物	-558
出的	-559
并不	-560
努力	-561
一般	-562
农村	-563
减少	-564
另一	-565
主任	-566
is	-567
完全	-568
共和	-569
朋友	-570
团队	-571
时期	-572
落实	-573
首次	-574
结束	-575
关键	-576
针对	-577
方向	-578
集中	-579
此次	-580
下的	-581
特色	-582
互联网	-583
案件	-584
经验	-585
先生	-586
人士	-587
德国	-588
人口	-589
性的	-590
各种	-591
准备	-592
▁P	-593
革命	-594
保险	-595
贸易	-596
是否	-597
▁原	-598
▁B	-599
充分	-600
注意	-601
农民	-602
治理	-603
。(	-604
et	-605
道路	-606
节目	-607
ro	-608
公共	-609
重大	-610
”“	-611
公开	-612
称为	-613
战争	-614
平均	-615
双方	-616
举办	-617
后的	-618
ch	-619
足球	-620
的时候	-621
告诉	-622
明确	-623
形式	-624
然而	-625
具体	-626
食品	-627
整体	-628
全部	-629
年代	-630
后来	-631
并且	-632
广州	-633
的情况	-634
am	-635
带来	-636
连续	-637
深入	-638
▁专	-639
印度	-640
采用	-641
基地	-642
机关	-643
近日	-644
创业	-645
年轻	-646
意见	-647
负责人	-648
协会	-649
有一	-650
那么	-651
ion	-652
培训	-653
指导	-654
联赛	-655
采取	-656
广东	-657
最大	-658
用于	-659
平方	-660
数量	-661
大会	-662
的事	-663
投入	-664
觉得	-665
出版	-666
公安	-667
商品	-668
大量	-669
体验	-670
一年	-671
方法	-672
公告	-673
是一个	-674
le	-675
发展的	-676
浙江	-677
卫生	-678
监督	-679
申请	-680
完善	-681
以下	-682
的问题	-683
快速	-684
亿美元	-685
re	-686
融资	-687
出口	-688
及时	-689
的高	-690
统计	-691
共和国	-692
的发展	-693
地产	-694
的一个	-695
再次	-696
指数	-697
”、	-698
恢复	-699
做好	-700
独立	-701
比如	-702
▁一	-703
预期	-704
ht	-705
ou	-706
另外	-707
航空	-708
文明	-709
▁T	-710
▁中国	-711
其实	-712
公布	-713
训练	-714
我的	-715
土地	-716
只是	-717
怎么	-718
》、	-719
组成	-720
当前	-721
加快	-722
统一	-723
办公	-724
过程中	-725
▁中新	-726
计算	-727
绿色	-728
犯罪	-729
确定	-730
总统	-731
升级	-732
整个	-733
车辆	-734
最近	-735
▁专栏	-736
毕业	-737
协议	-738
压力	-739
进行了	-740
ol	-741
上涨	-742
如此	-743
▁饰	-744
创造	-745
检查	-746
扩大	-747
驾驶	-748
来越	-749
年度	-750
成绩	-751
越来越	-752
乡村	-753
儿童	-754
董事	-755
多个	-756
加入	-757
就业	-758
也不	-759
化的	-760
联系	-761
事业	-762
山东	-763
:《	-764
考虑	-765
累计	-766
程度	-767
公园	-768
面对	-769
同比增长	-770
这样的	-771
内的	-772
名为	-773
深圳	-774
▁从	-775
购买	-776
人类	-777
om	-778
投资者	-779
推出	-780
才能	-781
▁>	-782
运行	-783
标题	-784
职工	-785
各地	-786
▁这	-787
人物	-788
贷款	-789
然后	-790
▁【	-791
附近	-792
人民币	-793
前往	-794
分钟	-795
华社	-796
运输	-797
实践	-798
联盟	-799
会上	-800
社会主义	-801
自由	-802
支付	-803
理论	-804
创作	-805
机场	-806
演员	-807
he	-808
成果	-809
困难	-810
尼亚	-811
电话	-812
改变	-813
丰富	-814
月份	-815
意识	-816
的小	-817
状态	-818
尽管	-819
此前	-820
真正	-821
强调	-822
动力	-823
确保	-824
降低	-825
吸引	-826
资料	-827
经理	-828
和平	-829
观众	-830
因素	-831
de	-832
](	-833
公路	-834
突破	-835
意义	-836
办法	-837
自动	-838
教授	-839
ac	-840
as	-841
成了	-842
治疗	-843
高速	-844
最佳	-845
员工	-846
动物	-847
检测	-848
州市	-849
十二	-850
规范	-851
依法	-852
▁大	-853
为主	-854
同样	-855
部长	-856
,《	-857
军事	-858
韩国	-859
面临	-860
▁[	-861
▁L	-862
▁I	-863
直播	-864
利率	-865
us	-866
相比	-867
贡献	-868
部队	-869
来源	-870
如今	-871
生命	-872
不到	-873
父亲	-874
有些	-875
党的	-876
重新	-877
处于	-878
不得	-879
相对	-880
司法	-881
%;	-882
位置	-883
安排	-884
?」	-885
公司的	-886
市民	-887
三年	-888
▁G	-889
探索	-890
四川	-891
随后	-892
一种	-893
老师	-894
角色	-895
喜欢	-896
实验	-897
他们的	-898
优秀	-899
最大的	-900
合同	-901
多数	-902
球员	-903
委会	-904
的话	-905
他在	-906
▁原标题	-907
逐渐	-908
仍然	-909
一名	-910
业绩	-911
发表	-912
经历	-913
新能源	-914
财政	-915
三个	-916
列车	-917
日在	-918
这么	-919
▁R	-920
召开	-921
优化	-922
不可	-923
▁李	-924
》、《	-925
增强	-926
利益	-927
这次	-928
ing	-929
主动	-930
比例	-931
融合	-932
挑战	-933
普通	-934
工作人员	-935
满足	-936
通知	-937
患者	-938
海外	-939
东西	-940
改善	-941
出来	-942
万人	-943
公众	-944
江苏	-945
决赛	-946
启动	-947
▁H	-948
报记者	-949
苏联	-950
一家	-951
指挥	-952
死亡	-953
渠道	-954
亚洲	-955
十分	-956
费用	-957
符合	-958
河南	-959
民主	-960
天津	-961
男子	-962
文学	-963
力的	-964
收益	-965
下来	-966
违法	-967
趋势	-968
操作	-969
股东	-970
帝国	-971
下午	-972
事故	-973
保证	-974
ut	-975
▁D	-976
游客	-977
每年	-978
出生	-979
▁中新网	-980
我们的	-981
》。	-982
尤其	-983
设立	-984
基层	-985
成长	-986
距离	-987
的地	-988
速度	-989
相当	-990
AI	-991
少年	-992
分布	-993
加大	-994
容易	-995
斯特	-996
它们	-997
都有	-998
展示	-999
第四	-1000
几乎	-1001
维护	-1002
涉及	-1003
高质量	-1004
例如	-1005
值得	-1006
」,	-1007
场景	-1008
工人	-1009
南京	-1010
覆盖	-1011
机器	-1012
正常	-1013
近年来	-1014
近期	-1015
培养	-1016
博物	-1017
转型	-1018
区的	-1019
有人	-1020
身份	-1021
制定	-1022
年前	-1023
改造	-1024
微信	-1025
自治	-1026
▁F	-1027
酒店	-1028
重庆	-1029
效果	-1030
里的	-1031
一位	-1032
线上	-1033
街道	-1034
背景	-1035
感染	-1036
布局	-1037
而是	-1038
有所	-1039
广告	-1040
大幅	-1041
战斗	-1042
设置	-1043
每天	-1044
她的	-1045
病毒	-1046
检察	-1047
自身	-1048
▁王	-1049
采访	-1050
赛季	-1051
推广	-1052
电池	-1053
赛事	-1054
板块	-1055
多的	-1056
只能	-1057
官方	-1058
国务	-1059
污染	-1060
之间的	-1061
新冠	-1062
经常	-1063
网站	-1064
北部	-1065
广泛	-1066
多次	-1067
上升	-1068
对此	-1069
事实	-1070
强化	-1071
并在	-1072
人工	-1073
儿子	-1074
斯坦	-1075
通常	-1076
ap	-1077
北京市	-1078
▁我	-1079
工厂	-1080
重要的	-1081
曾经	-1082
数据显示	-1083
迅速	-1084
南部	-1085
将在	-1086
于是	-1087
身体	-1088
!”	-1089
同期	-1090
严格	-1091
就会	-1092
▁张	-1093
主体	-1094
市场的	-1095
新增	-1096
评价	-1097
纪念	-1098
也在	-1099
现象	-1100
女子	-1101
教师	-1102
▁为	-1103
先后	-1104
作者	-1105
两国	-1106
):	-1107
不足	-1108
合理	-1109
认识	-1110
成都	-1111
西亚	-1112
名的	-1113
以后	-1114
上半年	-1115
证明	-1116
防控	-1117
内部	-1118
电商	-1119
离开	-1120
都会	-1121
逐步	-1122
中小	-1123
高的	-1124
ri	-1125
岁的	-1126
近平	-1127
营业	-1128
队伍	-1129
导演	-1130
平方米	-1131
收购	-1132
](/	-1133
习近平	-1134
上述	-1135
共产	-1136
不要	-1137
也会	-1138
反对	-1139
飞机	-1140
净利润	-1141
纪录	-1142
首先	-1143
引导	-1144
”、“	-1145
博物馆	-1146
先进	-1147
广大	-1148
原则	-1149
示范	-1150
程序	-1151
学家	-1152
现实	-1153
力度	-1154
同志	-1155
上午	-1156
是一种	-1157
第一次	-1158
村民	-1159
警方	-1160
反映	-1161
围绕	-1162
解放	-1163
演出	-1164
▁记者	-1165
传播	-1166
依然	-1167
志愿	-1168
来到	-1169
理念	-1170
母亲	-1171
者的	-1172
构建	-1173
高度	-1174
▁历史	-1175
工作的	-1176
股票	-1177
」。	-1178
心理	-1179
了一个	-1180
的方式	-1181
反应	-1182
感觉	-1183
参考	-1184
记录	-1185
语言	-1186
类似	-1187
只要	-1188
武汉	-1189
大型	-1190
医生	-1191
各类	-1192
智慧	-1193
支撑	-1194
排名	-1195
病例	-1196
移动	-1197
基于	-1198
讨论	-1199
货币	-1200
在中国	-1201
大陆	-1202
外交	-1203
无论	-1204
of	-1205
的工作	-1206
文物	-1207
▁当	-1208
执法	-1209
而言	-1210
销量	-1211
展开	-1212
说明	-1213
日起	-1214
朝鲜	-1215
引发	-1216
建成	-1217
办理	-1218
的影响	-1219
限制	-1220
工会	-1221
效率	-1222
住房	-1223
电动	-1224
理解	-1225
网友	-1226
意味	-1227
天气	-1228
根本	-1229
共有	-1230
欢迎	-1231
引起	-1232
至今	-1233
海军	-1234
应当	-1235
大利	-1236
特殊	-1237
军队	-1238
教学	-1239
观察	-1240
房地产	-1241
▁根据	-1242
文章	-1243
唯一	-1244
福建	-1245
工具	-1246
人民共和国	-1247
植物	-1248
避免	-1249
and	-1250
重视	-1251
三十	-1252
两人	-1253
小说	-1254
软件	-1255
河北	-1256
htm	-1257
拍摄	-1258
民警	-1259
之外	-1260
选手	-1261
一体	-1262
大部分	-1263
中学	-1264
俱乐	-1265
状况	-1266
成交	-1267
模型	-1268
医药	-1269
进口	-1270
周期	-1271
女性	-1272
国务院	-1273
给予	-1274
▁生	-1275
ed	-1276
▁今年	-1277
俱乐部	-1278
实行	-1279
主教	-1280
纠纷	-1281
ra	-1282
环节	-1283
发动	-1284
主持	-1285
目的	-1286
每个	-1287
更好	-1288
对外	-1289
蒙古	-1290
概念	-1291
种植	-1292
所在	-1293
小组	-1294
。**	-1295
运会	-1296
日前	-1297
复杂	-1298
老人	-1299
简单	-1300
湖南	-1301
的主要	-1302
鼓励	-1303
打击	-1304
▁W	-1305
注册	-1306
那些	-1307
东北	-1308
胜利	-1309
人民法院	-1310
日报	-1311
女儿	-1312
普遍	-1313
集体	-1314
等地	-1315
云南	-1316
法治	-1317
从而	-1318
运动员	-1319
养老	-1320
长的	-1321
总理	-1322
金额	-1323
感到	-1324
以前	-1325
斗争	-1326
阿尔	-1327
细胞	-1328
百分	-1329
呈现	-1330
号码	-1331
权益	-1332
透露	-1333
葡萄	-1334
机械	-1335
都在	-1336
的前	-1337
占比	-1338
年底	-1339
号线	-1340
不同的	-1341
部署	-1342
并没有	-1343
▁而	-1344
他说	-1345
特点	-1346
专项	-1347
杭州	-1348
方面的	-1349
声明	-1350
及其	-1351
分别为	-1352
试验	-1353
施工	-1354
▁O	-1355
协调	-1356
▁N	-1357
分子	-1358
▁此外	-1359
黄金	-1360
最新	-1361
作出	-1362
父母	-1363
一路	-1364
对方	-1365
环保	-1366
短期	-1367
直到	-1368
:**	-1369
党委	-1370
分为	-1371
家的	-1372
咨询	-1373
应对	-1374
万吨	-1375
有了	-1376
装备	-1377
找到	-1378
始终	-1379
”(	-1380
西部	-1381
广场	-1382
意味着	-1383
营销	-1384
损失	-1385
面的	-1386
特别是	-1387
本次	-1388
简称	-1389
苹果	-1390
上市公司	-1391
线路	-1392
自主	-1393
国民	-1394
使得	-1395
红色	-1396
特征	-1397
事务	-1398
邀请	-1399
股权	-1400
承担	-1401
的同时	-1402
可能会	-1403
ot	-1404
难以	-1405
对手	-1406
指标	-1407
山西	-1408
矛盾	-1409
不久	-1410
东方	-1411
企业的	-1412
全省	-1413
回到	-1414
分类	-1415
年至	-1416
真的	-1417
从事	-1418
优质	-1419
越南	-1420
风格	-1421
增速	-1422
电力	-1423
解释	-1424
维持	-1425
比亚	-1426
粮食	-1427
中国的	-1428
飞行	-1429
全市	-1430
深化	-1431
女士	-1432
但在	-1433
加速	-1434
伦斯	-1435
ad	-1436
消防	-1437
()	-1438
》《	-1439
的基础	-1440
un	-1441
手段	-1442
产量	-1443
产业链	-1444
周边	-1445
表演	-1446
多元	-1447
人大	-1448
突出	-1449
▁三	-1450
湖北	-1451
披露	-1452
高校	-1453
带动	-1454
武器	-1455
规则	-1456
至少	-1457
更是	-1458
小区	-1459
罗马	-1460
克兰	-1461
似乎	-1462
IP	-1463
零售	-1464
两年	-1465
的主	-1466
不再	-1467
多种	-1468
登记	-1469
▁t	-1470
应急	-1471
下跌	-1472
深度	-1473
相信	-1474
人数	-1475
os	-1476
博士	-1477
ur	-1478
提前	-1479
歌曲	-1480
国的	-1481
党员	-1482
推荐	-1483
落地	-1484
营收	-1485
体现	-1486
ct	-1487
物流	-1488
上了	-1489
东京	-1490
论坛	-1491
仪式	-1492
在于	-1493
流动	-1494
▁该	-1495
助力	-1496
评论	-1497
东南	-1498
同学	-1499
选举	-1500
疫苗	-1501
办公室	-1502
监测	-1503
地区的	-1504
%、	-1505
疾病	-1506
形势	-1507
共享	-1508
斯拉	-1509
意大利	-1510
ay	-1511
化学	-1512
十一	-1513
ent	-1514
五年	-1515
车型	-1516
看来	-1517
▁目前	-1518
形象	-1519
高级	-1520
文件	-1521
的时间	-1522
一下	-1523
立即	-1524
流量	-1525
信心	-1526
配合	-1527
微博	-1528
将军	-1529
澳大	-1530
几个	-1531
日至	-1532
日晚	-1533
同年	-1534
当天	-1535
真实	-1536
商务	-1537
提供了	-1538
资格	-1539
它的	-1540
那个	-1541
包含	-1542
科研	-1543
西班	-1544
家族	-1545
联邦	-1546
无人	-1547
来了	-1548
路线	-1549
生涯	-1550
加上	-1551
西班牙	-1552
出台	-1553
格兰	-1554
做到	-1555
为什么	-1556
肯定	-1557
则是	-1558
各项	-1559
接近	-1560
广西	-1561
人在	-1562
石油	-1563
评估	-1564
um	-1565
突然	-1566
名单	-1567
你们	-1568
组合	-1569
超级	-1570
▁新华社	-1571
分享	-1572
广播	-1573
一带	-1574
十四	-1575
专门	-1576
安徽	-1577
英雄	-1578
医学	-1579
地位	-1580
小学	-1581
旅客	-1582
访问	-1583
在此	-1584
更多的	-1585
▁生平	-1586
贫困	-1587
数字化	-1588
必要	-1589
情绪	-1590
居住	-1591
表达	-1592
幸福	-1593
态度	-1594
群体	-1595
的地方	-1596
现代化	-1597
▁责任	-1598
课程	-1599
娱乐	-1600
纽约	-1601
具备	-1602
顺利	-1603
攻击	-1604
?”	-1605
总体	-1606
太阳	-1607
测试	-1608
构成	-1609
马克	-1610
年人	-1611
切实	-1612
加工	-1613
▁刘	-1614
昨天	-1615
▁责任编辑	-1616
是中国	-1617
还要	-1618
类型	-1619
通道	-1620
沟通	-1621
行的	-1622
危机	-1623
ia	-1624
▁K	-1625
调研	-1626
接触	-1627
江西	-1628
确诊	-1629
很大	-1630
处罚	-1631
▁陈	-1632
品种	-1633
网上	-1634
有利	-1635
的情况下	-1636
贵州	-1637
救援	-1638
本身	-1639
认真	-1640
▁of	-1641
贯彻	-1642
正是	-1643
终于	-1644
信用	-1645
时的	-1646
罗伦斯	-1647
预测	-1648
正确	-1649
年间	-1650
观点	-1651
ig	-1652
技能	-1653
控股	-1654
队的	-1655
派出	-1656
盈利	-1657
律师	-1658
调解	-1659
配置	-1660
知名	-1661
加拿	-1662
地铁	-1663
PP	-1664
确实	-1665
乌克兰	-1666
天然	-1667
联合国	-1668
名字	-1669
精准	-1670
物质	-1671
会在	-1672
家长	-1673
图书	-1674
有望	-1675
官员	-1676
表明	-1677
一点	-1678
回应	-1679
将于	-1680
声音	-1681
岗位	-1682
空气	-1683
▁本报	-1684
达成	-1685
地下	-1686
森林	-1687
现金	-1688
品质	-1689
妻子	-1690
兄弟	-1691
im	-1692
会的	-1693
高端	-1694
诉讼	-1695
非洲	-1696
试点	-1697
当然	-1698
令人	-1699
股价	-1700
oo	-1701
ab	-1702
芯片	-1703
连接	-1704
合并	-1705
▁但	-1706
发言	-1707
日的	-1708
社交	-1709
聚焦	-1710
研究所	-1711
公益	-1712
cn	-1713
▁与	-1714
▁对于	-1715
还在	-1716
垃圾	-1717
轨道	-1718
免费	-1719
工资	-1720
陕西	-1721
海南	-1722
对象	-1723
策略	-1724
振兴	-1725
是由	-1726
被告	-1727
并非	-1728
ir	-1729
就在	-1730
id	-1731
批准	-1732
一天	-1733
互动	-1734
较大	-1735
通讯	-1736
设有	-1737
纷纷	-1738
往往	-1739
多年	-1740
出席	-1741
首席	-1742
一致	-1743
董事长	-1744
总经理	-1745
人工智能	-1746
协同	-1747
版本	-1748
领域的	-1749
日常	-1750
全力	-1751
大力	-1752
引领	-1753
海洋	-1754
一切	-1755
高质量发展	-1756
所谓	-1757
愿意	-1758
尤其是	-1759
角度	-1760
肺炎	-1761
教练	-1762
样的	-1763
变得	-1764
中国人民	-1765
的中	-1766
十八	-1767
!」	-1768
理想	-1769
一场	-1770
iv	-1771
新时代	-1772
研究院	-1773
第一个	-1774
早期	-1775
巨大	-1776
国家的	-1777
ul	-1778
民众	-1779
危险	-1780
发出	-1781
运用	-1782
景区	-1783
伙伴	-1784
团结	-1785
实际上	-1786
电视台	-1787
非法	-1788
电视剧	-1789
产品的	-1790
一条	-1791
太平	-1792
饰演	-1793
城区	-1794
低于	-1795
补贴	-1796
相互	-1797
已有	-1798
领先	-1799
作家	-1800
线下	-1801
出行	-1802
大多数	-1803
取消	-1804
院长	-1805
ag	-1806
另一方面	-1807
等方面	-1808
气象	-1809
就能	-1810
东部	-1811
适应	-1812
破坏	-1813
下滑	-1814
很快	-1815
即使	-1816
释放	-1817
授权	-1818
显著	-1819
阿拉	-1820
▁图	-1821
将会	-1822
加拿大	-1823
新型	-1824
很难	-1825
十年	-1826
▁摄	-1827
昨日	-1828
生的	-1829
约翰	-1830
拒绝	-1831
走向	-1832
作战	-1833
环比	-1834
赢得	-1835
今日	-1836
基础设施	-1837
定的	-1838
em	-1839
巴西	-1840
确认	-1841
缺乏	-1842
期待	-1843
名称	-1844
▁他	-1845
著名	-1846
各国	-1847
众多	-1848
标志	-1849
有着	-1850
产能	-1851
财务	-1852
遇到	-1853
卫星	-1854
第五	-1855
各级	-1856
共产党	-1857
拓展	-1858
机车	-1859
格局	-1860
▁小	-1861
上海市	-1862
基因	-1863
告诉记者	-1864
ation	-1865
几年	-1866
场所	-1867
采购	-1868
学者	-1869
玩家	-1870
动作	-1871
妇女	-1872
带来的	-1873
明星	-1874
房屋	-1875
年龄	-1876
西南	-1877
克斯	-1878
自行	-1879
转移	-1880
变成	-1881
局长	-1882
多少	-1883
将其	-1884
照片	-1885
国防	-1886
进步	-1887
考试	-1888
方便	-1889
掌握	-1890
影片	-1891
一度	-1892
症状	-1893
阿里	-1894
兴趣	-1895
一线	-1896
相同	-1897
最低	-1898
典型	-1899
▁高	-1900
实力	-1901
同意	-1902
。《	-1903
亏损	-1904
一段	-1905
十三	-1906
起了	-1907
即将	-1908
城镇	-1909
澳大利亚	-1910
警察	-1911
大众	-1912
西北	-1913
境内	-1914
首都	-1915
让人	-1916
动画	-1917
毫米	-1918
停止	-1919
发布的	-1920
美联	-1921
良好	-1922
签订	-1923
寻找	-1924
展现	-1925
总书记	-1926
合法	-1927
学术	-1928
想要	-1929
在这	-1930
药物	-1931
之下	-1932
各个	-1933
带领	-1934
你的	-1935
作业	-1936
财经	-1937
最初	-1938
都不	-1939
国王	-1940
提醒	-1941
该公司	-1942
产权	-1943
性和	-1944
培育	-1945
成熟	-1946
做出	-1947
二是	-1948
秘书	-1949
华为	-1950
冲突	-1951
##	-1952
案例	-1953
习惯	-1954
澳门	-1955
机器人	-1956
金属	-1957
实现了	-1958
西方	-1959
决策	-1960
四个	-1961
的中国	-1962
信号	-1963
流程	-1964
一批	-1965
临时	-1966
爆发	-1967
下了	-1968
协助	-1969
气候	-1970
充满	-1971
相应	-1972
高效	-1973
春节	-1974
通信	-1975
新疆	-1976
地球	-1977
感受	-1978
──	-1979
团体	-1980
ow	-1981
想到	-1982
舞台	-1983
山区	-1984
定位	-1985
较为	-1986
义务	-1987
长江	-1988
年初	-1989
享受	-1990
更为	-1991
一代	-1992
阶级	-1993
参赛	-1994
去世	-1995
获得了	-1996
开启	-1997
上下	-1998
腾讯	-1999
深刻	-2000
出发	-2001
自治区	-2002
▁有	-2003
友好	-2004
提到	-2005
专辑	-2006
传承	-2007
疫情防控	-2008
举措	-2009
威胁	-2010
▁J	-2011
地震	-2012
完整	-2013
子的	-2014
多家	-2015
阅读	-2016
放在	-2017
新区	-2018
家人	-2019
们的	-2020
工艺	-2021
而在	-2022
外国	-2023
ph	-2024
坚决	-2025
▁近日	-2026
修复	-2027
原本	-2028
成就	-2029
优惠	-2030
▁不过	-2031
收到	-2032
▁V	-2033
主要是	-2034
荣誉	-2035
转变	-2036
创建	-2037
▁马	-2038
并未	-2039
旅行	-2040
周年	-2041
法官	-2042
园区	-2043
大使	-2044
旗下	-2045
审判	-2046
大赛	-2047
担心	-2048
小的	-2049
一边	-2050
西安	-2051
用的	-2052
纳入	-2053
事情	-2054
制造业	-2055
武装	-2056
人民政府	-2057
或许	-2058
咖啡	-2059
实体	-2060
住宅	-2061
▁美国	-2062
可能是	-2063
改为	-2064
描述	-2065
转化	-2066
展览	-2067
发射	-2068
体制	-2069
开出	-2070
新华社	-2071
斯科	-2072
股份有限公司	-2073
击败	-2074
创始	-2075
履行	-2076
涨幅	-2077
期货	-2078
世界杯	-2079
司机	-2080
放弃	-2081
面向	-2082
高达	-2083
出现了	-2084
了解到	-2085
餐饮	-2086
大约	-2087
公交	-2088
ce	-2089
差异	-2090
总裁	-2091
清楚	-2092
自我	-2093
权利	-2094
航天	-2095
gm	-2096
争议	-2097
月底	-2098
---	-2099
队员	-2100
也可以	-2101
性能	-2102
回答	-2103
配套	-2104
供给	-2105
标签	-2106
在线	-2107
希腊	-2108
地的	-2109
之中	-2110
密切	-2111
II	-2112
收费	-2113
签署	-2114
的产品	-2115
比赛中	-2116
百姓	-2117
诈骗	-2118
民生	-2119
的不	-2120
进展	-2121
赫萝	-2122
迎来	-2123
强烈	-2124
有一个	-2125
问题的	-2126
追求	-2127
是个	-2128
南方	-2129
pp	-2130
受伤	-2131
青岛	-2132
紧张	-2133
流行	-2134
少数	-2135
整治	-2136
年在	-2137
紧急	-2138
药品	-2139
陆续	-2140
被称为	-2141
打开	-2142
法规	-2143
依据	-2144
巴黎	-2145
物业	-2146
欧盟	-2147
国有	-2148
青少年	-2149
赔偿	-2150
平衡	-2151
福利	-2152
禁止	-2153
意思	-2154
三大	-2155
会员	-2156
发放	-2157
适合	-2158
之路	-2159
学科	-2160
承诺	-2161
伦敦	-2162
也就是	-2163
当中	-2164
更新	-2165
获悉	-2166
▁周	-2167
强的	-2168
文艺	-2169
业内	-2170
物理	-2171
到达	-2172
加坡	-2173
等等	-2174
民间	-2175
便利	-2176
总结	-2177
安装	-2178
嫌疑	-2179
宇宙	-2180
经济发展	-2181
十五	-2182
效应	-2183
▁作为	-2184
财产	-2185
供应链	-2186
整合	-2187
门店	-2188
违规	-2189
订单	-2190
外的	-2191
持有	-2192
活跃	-2193
最早	-2194
以为	-2195
美术	-2196
的事情	-2197
允许	-2198
校园	-2199
万美元	-2200
政协	-2201
会有	-2202
三角	-2203
主办	-2204
批评	-2205
冲击	-2206
开幕	-2207
循环	-2208
债务	-2209
▁年	-2210
的历史	-2211
实验室	-2212
也将	-2213
未能	-2214
百分点	-2215
甘肃	-2216
停车	-2217
临床	-2218
当年	-2219
oc	-2220
后续	-2221
判断	-2222
手术	-2223
尝试	-2224
物资	-2225
债券	-2226
四年	-2227
时刻	-2228
视为	-2229
发电	-2230
统筹	-2231
法庭	-2232
带着	-2233
BA	-2234
建造	-2235
说法	-2236
曾在	-2237
某某	-2238
失去	-2239
到底	-2240
代表团	-2241
思考	-2242
证据	-2243
结婚	-2244
独特	-2245
▁自	-2246
库存	-2247
年轻人	-2248
色的	-2249
工商	-2250
主角	-2251
感谢	-2252
的热	-2253
学会	-2254
分配	-2255
one	-2256
个百分点	-2257
十六	-2258
一方面	-2259
尚未	-2260
ber	-2261
量的	-2262
美联储	-2263
尔斯	-2264
平安	-2265
辽宁	-2266
通报	-2267
进攻	-2268
驱动	-2269
在一起	-2270
以上的	-2271
一旦	-2272
涉嫌	-2273
英语	-2274
CE	-2275
美丽	-2276
讲话	-2277
物种	-2278
中共	-2279
特斯拉	-2280
里斯	-2281
前的	-2282
继承	-2283
经典	-2284
总部	-2285
等人	-2286
此同时	-2287
行业的	-2288
妈妈	-2289
晚上	-2290
高等	-2291
可是	-2292
人民的	-2293
广东省	-2294
民营	-2295
对接	-2296
泰国	-2297
预防	-2298
大学生	-2299
马来	-2300
也没有	-2301
就像	-2302
形态	-2303
估值	-2304
高于	-2305
龙头	-2306
遗产	-2307
一系列	-2308
杂志	-2309
影视	-2310
一是	-2311
行情	-2312
▁阿	-2313
背后	-2314
演唱	-2315
回家	-2316
全年	-2317
加盟	-2318
副主任	-2319
人群	-2320
此后	-2321
刚刚	-2322
车的	-2323
混合	-2324
隔离	-2325
Ch	-2326
潜力	-2327
处置	-2328
并于	-2329
下去	-2330
日下午	-2331
▁据了解	-2332
拉斯	-2333
参观	-2334
▁----	-2335
补充	-2336
的第一	-2337
▁由于	-2338
防止	-2339
高中	-2340
第二次	-2341
蛋白	-2342
充电	-2343
引进	-2344
伟大	-2345
锦标	-2346
歌手	-2347
争取	-2348
走进	-2349
遭遇	-2350
:「	-2351
见的	-2352
判决	-2353
本土	-2354
交所	-2355
还将	-2356
可持续	-2357
食物	-2358
养殖	-2359
波动	-2360
市的	-2361
▁上	-2362
天的	-2363
在美国	-2364
辖区	-2365
贝尔	-2366
生态环境	-2367
li	-2368
」(	-2369
认定	-2370
的一种	-2371
播出	-2372
扶贫	-2373
对话	-2374
开通	-2375
日上午	-2376
机遇	-2377
校长	-2378
防范	-2379
挖掘	-2380
讲述	-2381
也要	-2382
的企业	-2383
内蒙古	-2384
签约	-2385
▁北京	-2386
乘客	-2387
关心	-2388
身上	-2389
地点	-2390
记载	-2391
职务	-2392
农产品	-2393
举行的	-2394
再度	-2395
市委	-2396
当事	-2397
固定	-2398
和其他	-2399
错误	-2400
中文	-2401
元素	-2402
气温	-2403
坚定	-2404
ers	-2405
大小	-2406
大队	-2407
剧情	-2408
公斤	-2409
回归	-2410
统治	-2411
gmw	-2412
就有	-2413
事项	-2414
创始人	-2415
事实上	-2416
的市场	-2417
本地	-2418
新加坡	-2419
摄影	-2420
的生活	-2421
电脑	-2422
漫画	-2423
满意	-2424
议会	-2425
▁金	-2426
购物	-2427
失败	-2428
公安局	-2429
谈判	-2430
的原因	-2431
考核	-2432
▁天	-2433
首个	-2434
并不是	-2435
遭到	-2436
温度	-2437
准确	-2438
承认	-2439
大战	-2440
保留	-2441
以色	-2442
公平	-2443
▁In	-2444
▁虽然	-2445
二年	-2446
力于	-2447
详细	-2448
意外	-2449
就可以	-2450
成为了	-2451
给了	-2452
出去	-2453
议员	-2454
以色列	-2455
哈尔	-2456
中有	-2457
文字	-2458
通胀	-2459
刑事	-2460
审查	-2461
初步	-2462
氧化	-2463
脱贫	-2464
提出了	-2465
由此	-2466
出现在	-2467
荷兰	-2468
预警	-2469
原来	-2470
秩序	-2471
央行	-2472
吉林	-2473
总额	-2474
是因为	-2475
遗址	-2476
那里	-2477
od	-2478
不了	-2479
活力	-2480
两次	-2481
是不	-2482
op	-2483
欧元	-2484
奋斗	-2485
城乡	-2486
至于	-2487
此时	-2488
化解	-2489
配音	-2490
的故事	-2491
会长	-2492
公民	-2493
星期	-2494
试图	-2495
线的	-2496
快递	-2497
获取	-2498
全体	-2499
月的	-2500
站在	-2501
巨大的	-2502
粉丝	-2503
ww	-2504
延伸	-2505
进士	-2506
现有	-2507
两岸	-2508
开工	-2509
份额	-2510
官兵	-2511
检察院	-2512
退休	-2513
两种	-2514
);	-2515
优先	-2516
不好	-2517
头部	-2518
隐患	-2519
绝对	-2520
哪些	-2521
市值	-2522
阳市	-2523
的心	-2524
中新	-2525
账户	-2526
年起	-2527
依托	-2528
如下	-2529
管理局	-2530
▁前	-2531
▁据悉	-2532
新能源汽车	-2533
志愿者	-2534
有利于	-2535
ru	-2536
幼儿	-2537
身边	-2538
间的	-2539
条例	-2540
老板	-2541
核酸	-2542
龙江	-2543
▁St	-2544
浙江省	-2545
第六	-2546
有时	-2547
th	-2548
学位	-2549
战士	-2550
高速公路	-2551
ET	-2552
分析师	-2553
大规模	-2554
科学院	-2555
主演	-2556
动态	-2557
在北京	-2558
大道	-2559
都要	-2560
光伏	-2561
种子	-2562
多名	-2563
新兴	-2564
返回	-2565
排放	-2566
ov	-2567
理事	-2568
动车	-2569
场的	-2570
考察	-2571
得到了	-2572
票房	-2573
审批	-2574
派出所	-2575
梦想	-2576
违反	-2577
障碍	-2578
一带一路	-2579
人民群众	-2580
提示	-2581
监会	-2582
家里	-2583
确诊病例	-2584
成效	-2585
代理	-2586
难题	-2587
▁黄	-2588
延续	-2589
est	-2590
解决方案	-2591
av	-2592
逻辑	-2593
拉克	-2594
入口	-2595
改编	-2596
光明	-2597
做法	-2598
奥运会	-2599
火箭	-2600
陷入	-2601
约为	-2602
的研究	-2603
频道	-2604
不知道	-2605
公众号	-2606
予以	-2607
交付	-2608
神经	-2609
新冠肺炎	-2610
美洲	-2611
的水	-2612
国产	-2613
定期	-2614
当地时间	-2615
增加了	-2616
健全	-2617
氛围	-2618
组建	-2619
年开始	-2620
厂商	-2621
的基础上	-2622
或是	-2623
斯克	-2624
▁如果	-2625
效益	-2626
融入	-2627
范围内	-2628
许可	-2629
ard	-2630
境外	-2631
在一	-2632
初期	-2633
完成了	-2634
投票	-2635
著作	-2636
▁以	-2637
层面	-2638
注重	-2639
乡村振兴	-2640
战役	-2641
St	-2642
理财	-2643
识别	-2644
商家	-2645
主力	-2646
在这里	-2647
营造	-2648
联动	-2649
打破	-2650
认可	-2651
入选	-2652
▁第二	-2653
财富	-2654
就要	-2655
三季度	-2656
▁二	-2657
把握	-2658
是指	-2659
图书馆	-2660
不管	-2661
▁---	-2662
ie	-2663
彻底	-2664
最多	-2665
袭击	-2666
赛道	-2667
帝国主义	-2668
有机	-2669
玻璃	-2670
大数据	-2671
习近平总书记	-2672
接到	-2673
有力	-2674
嫌疑人	-2675
地说	-2676
蔬菜	-2677
其后	-2678
万辆	-2679
子女	-2680
审理	-2681
着力	-2682
立法	-2683
和社会	-2684
长沙	-2685
移民	-2686
预算	-2687
这也是	-2688
月初	-2689
不够	-2690
反弹	-2691
▁,	-2692
进程	-2693
英格兰	-2694
专利	-2695
明年	-2696
发动机	-2697
收集	-2698
年以来	-2699
)(	-2700
相关的	-2701
定义	-2702
取得了	-2703
理由	-2704
良好的	-2705
地理	-2706
依靠	-2707
塞尔	-2708
打算	-2709
空军	-2710
主管	-2711
合作社	-2712
采访时	-2713
出版社	-2714
竞赛	-2715
装置	-2716
▁南	-2717
发起	-2718
为此	-2719
这位	-2720
上映	-2721
的国家	-2722
攻坚	-2723
html	-2724
某些	-2725
在内的	-2726
场比赛	-2727
尊重	-2728
有序	-2729
生长	-2730
的好	-2731
要素	-2732
十九	-2733
AR	-2734
出售	-2735
各自	-2736
整改	-2737
人和	-2738
使用的	-2739
内地	-2740
思维	-2741
元年	-2742
西藏	-2743
租赁	-2744
使命	-2745
多样	-2746
扩张	-2747
激励	-2748
房子	-2749
收获	-2750
▁对	-2751
国外	-2752
每日	-2753
足够	-2754
▁d	-2755
协商	-2756
情况下	-2757
宗教	-2758
皇帝	-2759
引入	-2760
她们	-2761
NA	-2762
担当	-2763
激烈	-2764
也能	-2765
](//	-2766
的外	-2767
▁为了	-2768
还能	-2769
想法	-2770
建设的	-2771
京东	-2772
子公司	-2773
、“	-2774
做了	-2775
等待	-2776
尽快	-2777
退出	-2778
ak	-2779
度的	-2780
科技创新	-2781
永远	-2782
▁杨	-2783
生存	-2784
▁:	-2785
最后一	-2786
现在的	-2787
北方	-2788
伊朗	-2789
都能	-2790
科学家	-2791
美的	-2792
一定要	-2793
art	-2794
体的	-2795
侵略	-2796
职责	-2797
▁——	-2798
无线	-2799
太平洋	-2800
用来	-2801
江苏省	-2802
女孩	-2803
均为	-2804
ep	-2805
下游	-2806
别人	-2807
率为	-2808
生意	-2809
过的	-2810
ell	-2811
一级	-2812
产业发展	-2813
马来西亚	-2814
日益	-2815
尔德	-2816
将继续	-2817
中间	-2818
的行为	-2819
的价格	-2820
出租	-2821
高峰	-2822
检验	-2823
走势	-2824
合计	-2825
周围	-2826
更大	-2827
他人	-2828
共建	-2829
抵达	-2830
另一个	-2831
转向	-2832
下一步	-2833
援助	-2834
com	-2835
公主	-2836
还会	-2837
关闭	-2838
营养	-2839
能量	-2840
▁本报讯	-2841
层次	-2842
计算机	-2843
的技术	-2844
得知	-2845
总是	-2846
▁随着	-2847
球场	-2848
都市	-2849
办事	-2850
丈夫	-2851
局面	-2852
灾害	-2853
成的	-2854
刺激	-2855
大概	-2856
世界上	-2857
导弹	-2858
是什么	-2859
等问题	-2860
小姐	-2861
美好	-2862
凌晨	-2863
两位	-2864
审核	-2865
历史上	-2866
马克思	-2867
的需求	-2868
今后	-2869
复苏	-2870
宏观	-2871
的数据	-2872
山东省	-2873
夏季	-2874
图片	-2875
多人	-2876
更好地	-2877
乡镇	-2878
凭借	-2879
回忆	-2880
较高	-2881
知识产权	-2882
一体化	-2883
黑龙江	-2884
顾问	-2885
决心	-2886
司令	-2887
共计	-2888
ne	-2889
素质	-2890
青春	-2891
监察	-2892
的要求	-2893
教堂	-2894
里面	-2895
命运	-2896
出来的	-2897
结束后	-2898
ID	-2899
支出	-2900
下一	-2901
十大	-2902
同一	-2903
锦标赛	-2904
宪法	-2905
抖音	-2906
青海	-2907
服装	-2908
人生	-2909
读者	-2910
厦门	-2911
读书	-2912
▁然而	-2913
十七	-2914
印象	-2915
虚拟	-2916
积累	-2917
戏剧	-2918
开设	-2919
其余	-2920
在大	-2921
原料	-2922
常态	-2923
态势	-2924
更高	-2925
冬季	-2926
可见	-2927
差距	-2928
命名	-2929
有可能	-2930
得以	-2931
台北	-2932
搭建	-2933
是对	-2934
相似	-2935
路径	-2936
省级	-2937
举报	-2938
版权	-2939
能否	-2940
的情	-2941
翻译	-2942
的一部分	-2943
海上	-2944
未来的	-2945
营业收入	-2946
储备	-2947
句话	-2948
重建	-2949
充分发挥	-2950
▁的	-2951
修改	-2952
总局	-2953
市长	-2954
听到	-2955
交易所	-2956
实在	-2957
热情	-2958
每次	-2959
▁同时	-2960
奖励	-2961
的关键	-2962
▁s	-2963
形成了	-2964
对其	-2965
未成	-2966
的一些	-2967
小米	-2968
已被	-2969
面上	-2970
心的	-2971
天然气	-2972
竞争力	-2973
的关系	-2974
任命	-2975
时尚	-2976
的三	-2977
党组	-2978
包装	-2979
也被	-2980
货物	-2981
背景下	-2982
领导人	-2983
休息	-2984
即便	-2985
有关部门	-2986
▁m	-2987
不错	-2988
服务的	-2989
友谊	-2990
改进	-2991
爱的	-2992
依赖	-2993
重组	-2994
呼吸	-2995
埃及	-2996
上线	-2997
创意	-2998
无论是	-2999
ine	-3000
毕竟	-3001
后期	-3002
边界	-3003
斯的	-3004
威尔	-3005
时报	-3006
港元	-3007
申报	-3008
我觉得	-3009
宁波	-3010
解放军	-3011
接种	-3012
不知	-3013
▁截至	-3014
大多	-3015
传递	-3016
显然	-3017
▁我们	-3018
眼睛	-3019
航班	-3020
同步	-3021
无疑	-3022
记忆	-3023
阿拉伯	-3024
权力	-3025
率先	-3026
济南	-3027
波兰	-3028
区间	-3029
那样	-3030
业主	-3031
文旅	-3032
项目的	-3033
奖项	-3034
▁除了	-3035
参加了	-3036
招聘	-3037
台风	-3038
德里	-3039
国家队	-3040
行政区	-3041
煤炭	-3042
几天	-3043
技术的	-3044
很好	-3045
孩子们	-3046
这项	-3047
性质	-3048
爆炸	-3049
券商	-3050
TV	-3051
▁第一	-3052
全新	-3053
两名	-3054
复兴	-3055
当事人	-3056
这也	-3057
道德	-3058
才是	-3059
家中	-3060
各方	-3061
巩固	-3062
ob	-3063
大大	-3064
生活的	-3065
退役	-3066
依旧	-3067
出生于	-3068
助于	-3069
其次	-3070
件事	-3071
四川省	-3072
请求	-3073
聚集	-3074
休闲	-3075
激发	-3076
王国	-3077
管控	-3078
夫人	-3079
文化的	-3080
仍在	-3081
细节	-3082
作曲	-3083
▁和	-3084
高铁	-3085
的内容	-3086
隶属于	-3087
有点	-3088
建立了	-3089
前期	-3090
ang	-3091
同比下降	-3092
质疑	-3093
取代	-3094
的首	-3095
的老	-3096
支部	-3097
一百	-3098
的经济	-3099
新建	-3100
防护	-3101
提交	-3102
铁道	-3103
ST	-3104
更有	-3105
路上	-3106
中部	-3107
大桥	-3108
客运	-3109
缓解	-3110
▁U	-3111
少女	-3112
日内	-3113
普及	-3114
其它	-3115
发言人	-3116
河南省	-3117
并将	-3118
水利	-3119
因而	-3120
每一个	-3121
▁西	-3122
制的	-3123
剧本	-3124
替代	-3125
二手	-3126
研究中心	-3127
观看	-3128
思路	-3129
认知	-3130
估计	-3131
副主席	-3132
钢铁	-3133
ub	-3134
路口	-3135
延长	-3136
合约	-3137
健身	-3138
搜索	-3139
政府的	-3140
合格	-3141
考古	-3142
强制	-3143
一同	-3144
日子	-3145
阳光	-3146
而不是	-3147
发达	-3148
受理	-3149
加息	-3150
传媒	-3151
华人	-3152
电信	-3153
陆军	-3154
河流	-3155
平方公里	-3156
发布了	-3157
土耳	-3158
祖国	-3159
早在	-3160
跨境	-3161
支援	-3162
The	-3163
og	-3164
月至	-3165
土耳其	-3166
▁the	-3167
持股	-3168
难度	-3169
奥斯	-3170
海关	-3171
认证	-3172
古代	-3173
了一些	-3174
和谐	-3175
还没有	-3176
占据	-3177
师范	-3178
过来	-3179
▁Ch	-3180
玉米	-3181
论文	-3182
查看	-3183
殖民	-3184
让我	-3185
报名	-3186
规律	-3187
维修	-3188
权威	-3189
奖号	-3190
万余	-3191
中方	-3192
eb	-3193
互相	-3194
市区	-3195
奥运	-3196
门口	-3197
本期	-3198
本届	-3199
不得不	-3200
呼吁	-3201
毕业生	-3202
上一	-3203
基督	-3204
观念	-3205
被认为	-3206
信任	-3207
秘书长	-3208
带来了	-3209
导体	-3210
个性	-3211
救助	-3212
年后	-3213
千万	-3214
的能力	-3215
损害	-3216
太空	-3217
水库	-3218
APP	-3219
▁安	-3220
郑州	-3221
面前	-3222
简介	-3223
在这个	-3224
发布会	-3225
隧道	-3226
冬奥	-3227
的目标	-3228
为止	-3229
▁东	-3230
院士	-3231
厘米	-3232
地质	-3233
’,	-3234
大臣	-3235
群岛	-3236
白色	-3237
皇家	-3238
本人	-3239
伊斯	-3240
途径	-3241
监控	-3242
程度上	-3243
墨西	-3244
回来	-3245
旨在	-3246
//	-3247
士兵	-3248
地面	-3249
最好的	-3250
视觉	-3251
势力	-3252
等多	-3253
威廉	-3254
苏州	-3255
反复	-3256
大师	-3257
以往	-3258
丰富的	-3259
对应	-3260
暴雨	-3261
一九	-3262
仍有	-3263
发的	-3264
寻求	-3265
精彩	-3266
天下	-3267
小型	-3268
而不	-3269
招商	-3270
委托	-3271
爱情	-3272
Ph	-3273
斯基	-3274
诊断	-3275
诸多	-3276
▁日本	-3277
期限	-3278
国家和	-3279
不多	-3280
暂时	-3281
上周	-3282
当日	-3283
可能性	-3284
很多人	-3285
暂停	-3286
沈阳	-3287
餐厅	-3288
可以在	-3289
港口	-3290
成立于	-3291
第七	-3292
终端	-3293
赋能	-3294
编剧	-3295
经济社会	-3296
感情	-3297
他是	-3298
所有的	-3299
敌人	-3300
地图	-3301
美国的	-3302
响应	-3303
当选	-3304
山市	-3305
▁饰演	-3306
婚姻	-3307
辅助	-3308
流通	-3309
百万	-3310
中国特色	-3311
物品	-3312
逝世	-3313
协作	-3314
化工	-3315
新技术	-3316
恐怖	-3317
想象	-3318
证实	-3319
淘汰	-3320
墨西哥	-3321
点击	-3322
抓住	-3323
▁f	-3324
马拉	-3325
幅度	-3326
下半年	-3327
异常	-3328
这场	-3329
一世	-3330
灵活	-3331
类的	-3332
工程师	-3333
模拟	-3334
防治	-3335
哪里	-3336
爱国	-3337
硬件	-3338
金牌	-3339
夺得	-3340
shtml	-3341
专题	-3342
一座	-3343
人力	-3344
已成为	-3345
主场	-3346
单曲	-3347
说是	-3348
巨头	-3349
转让	-3350
占领	-3351
二世	-3352
后者	-3353
大楼	-3354
排查	-3355
球迷	-3356
”)	-3357
最好	-3358
一项	-3359
以下简称	-3360
印尼	-3361
市政府	-3362
金融机构	-3363
明朝	-3364
座谈	-3365
又称	-3366
ction	-3367
创立	-3368
瑞典	-3369
熟悉	-3370
亮相	-3371
收盘	-3372
整理	-3373
ind	-3374
南北	-3375
助理	-3376
地上	-3377
河北省	-3378
最为	-3379
致力于	-3380
DP	-3381
主流	-3382
党中央	-3383
节奏	-3384
为何	-3385
维亚	-3386
回落	-3387
花园	-3388
说的	-3389
前景	-3390
家属	-3391
配备	-3392
华盛	-3393
窗口	-3394
出任	-3395
跌幅	-3396
二级	-3397
输入	-3398
创办	-3399
菲律	-3400
科普	-3401
英文	-3402
对抗	-3403
信息化	-3404
菲律宾	-3405
半导体	-3406
留在	-3407
▁p	-3408
负担	-3409
的作用	-3410
▁c	-3411
关联	-3412
的风险	-3413
引擎	-3414
超市	-3415
清洁	-3416
万亿元	-3417
自觉	-3418
发生了	-3419
科创	-3420
必然	-3421
接待	-3422
▁吴	-3423
▁不	-3424
紧密	-3425
剧院	-3426
工作者	-3427
篮球	-3428
的机会	-3429
野生	-3430
▁近年来	-3431
战胜	-3432
投诉	-3433
当代	-3434
上年	-3435
手续	-3436
为例	-3437
前进	-3438
州的	-3439
播放	-3440
系统的	-3441
对比	-3442
黑色	-3443
照顾	-3444
明白	-3445
一直在	-3446
▁香港	-3447
看好	-3448
报警	-3449
职能	-3450
百年	-3451
ill	-3452
智能化	-3453
达到了	-3454
帮扶	-3455
是以	-3456
起诉	-3457
实习	-3458
报道称	-3459
残疾	-3460
生于	-3461
莫斯科	-3462
生产的	-3463
原油	-3464
▁四	-3465
资本市场	-3466
指示	-3467
尔的	-3468
清理	-3469
鉴定	-3470
”;	-3471
作物	-3472
中华民族	-3473
清晰	-3474
较低	-3475
纪委	-3476
主张	-3477
从业	-3478
nd	-3479
相关负责人	-3480
化石	-3481
尼斯	-3482
all	-3483
那种	-3484
等级	-3485
路段	-3486
的精神	-3487
运作	-3488
大批	-3489
通用	-3490
全世界	-3491
个股	-3492
也很	-3493
受益	-3494
购房	-3495
经济的	-3496
经销	-3497
游泳	-3498
ik	-3499
队长	-3500
位的	-3501
房间	-3502
一定的	-3503
议院	-3504
树立	-3505
tp	-3506
比为	-3507
▁北	-3508
他们在	-3509
维奇	-3510
半岛	-3511
不用	-3512
伤害	-3513
十字	-3514
爱好	-3515
询问	-3516
城市的	-3517
”**	-3518
框架	-3519
式的	-3520
国会	-3521
省委	-3522
存款	-3523
数学	-3524
上有	-3525
个体	-3526
▁de	-3527
aper	-3528
在全国	-3529
留下	-3530
股市	-3531
相关部门	-3532
是一名	-3533
审计	-3534
热带	-3535
列入	-3536
共识	-3537
常委会	-3538
让他	-3539
姆斯	-3540
ew	-3541
守护	-3542
考虑到	-3543
政策的	-3544
拿到	-3545
罚款	-3546
高兴	-3547
公安机关	-3548
上游	-3549
回升	-3550
男性	-3551
首批	-3552
裁判	-3553
平时	-3554
送达	-3555
热点	-3556
过了	-3557
公尺	-3558
瑞士	-3559
庆祝	-3560
总监	-3561
表面	-3562
立方	-3563
部件	-3564
同事	-3565
心里	-3566
登陆	-3567
信托	-3568
透过	-3569
反而	-3570
ess	-3571
等方式	-3572
供应商	-3573
▁值得	-3574
活动的	-3575
军人	-3576
出一	-3577
衣服	-3578
公务	-3579
华盛顿	-3580
微信公众号	-3581
▁另外	-3582
哲学	-3583
感染者	-3584
六年	-3585
师傅	-3586
自行车	-3587
的长	-3588
研究员	-3589
集成	-3590
都没有	-3591
业内人士	-3592
看见	-3593
建于	-3594
新一	-3595
当下	-3596
颜色	-3597
题材	-3598
证监会	-3599
人为	-3600
这两	-3601
博览	-3602
ant	-3603
假期	-3604
日期	-3605
这家	-3606
不及	-3607
相结合	-3608
快乐	-3609
震荡	-3610
我是	-3611
接着	-3612
颁奖	-3613
不在	-3614
保存	-3615
的两	-3616
接下来	-3617
走访	-3618
温暖	-3619
超越	-3620
电气	-3621
强大	-3622
秘密	-3623
全民	-3624
政权	-3625
一个月	-3626
平稳	-3627
消失	-3628
组织的	-3629
服务中心	-3630
之际	-3631
舞蹈	-3632
话题	-3633
马上	-3634
仅仅	-3635
明的	-3636
ip	-3637
暴力	-3638
学名	-3639
叙利亚	-3640
提名	-3641
防御	-3642
以外	-3643
公司在	-3644
繁荣	-3645
与此同时	-3646
好了	-3647
核酸检测	-3648
相当于	-3649
招生	-3650
常务	-3651
方的	-3652
民事	-3653
线索	-3654
哈尔滨	-3655
年内	-3656
当局	-3657
传统的	-3658
交警	-3659
产生的	-3660
基础上	-3661
适当	-3662
月台	-3663
著名的	-3664
军的	-3665
了中国	-3666
提供的	-3667
战场	-3668
导向	-3669
出身	-3670
行驶	-3671
即可	-3672
财报	-3673
直至	-3674
警告	-3675
真是	-3676
传说	-3677
国家级	-3678
的投资	-3679
ev	-3680
燃料	-3681
艺术家	-3682
特定	-3683
涵盖	-3684
▁『	-3685
不可能	-3686
主导	-3687
制品	-3688
下调	-3689
和发展	-3690
▁曾	-3691
各大	-3692
人均	-3693
与其	-3694
我想	-3695
防疫	-3696
附属	-3697
变革	-3698
级别	-3699
美食	-3700
前来	-3701
发力	-3702
很大的	-3703
授予	-3704
分局	-3705
我就	-3706
客观	-3707
以此	-3708
很少	-3709
昆明	-3710
用地	-3711
长安	-3712
央视	-3713
http	-3714
IT	-3715
生成	-3716
老年人	-3717
下行	-3718
OS	-3719
主播	-3720
不如	-3721
买入	-3722
源于	-3723
IS	-3724
是有	-3725
处的	-3726
外资	-3727
但他	-3728
条约	-3729
本质	-3730
基金会	-3731
://	-3732
乐团	-3733
去年同期	-3734
收藏	-3735
年被	-3736
医保	-3737
营商	-3738
当时的	-3739
室内	-3740
提出的	-3741
答案	-3742
之所以	-3743
私人	-3744
这部	-3745
****	-3746
万亩	-3747
中山	-3748
百度	-3749
好像	-3750
显得	-3751
扮演	-3752
列表	-3753
外部	-3754
国庆	-3755
怎样	-3756
算法	-3757
海域	-3758
不太	-3759
不开	-3760
海岸	-3761
对中国	-3762
每月	-3763
▁赵	-3764
有助于	-3765
意志	-3766
电站	-3767
是为了	-3768
强大的	-3769
局势	-3770
空中	-3771
名义	-3772
所属	-3773
▁她	-3774
一张	-3775
列为	-3776
立场	-3777
万平方米	-3778
改革开放	-3779
的国际	-3780
命令	-3781
作风	-3782
亲自	-3783
的女	-3784
受害	-3785
GP	-3786
走出	-3787
唱片	-3788
改制	-3789
的核心	-3790
学员	-3791
高温	-3792
注意到	-3793
携手	-3794
回收	-3795
王朝	-3796
做的	-3797
候选	-3798
ec	-3799
怀疑	-3800
元的	-3801
的安全	-3802
影响力	-3803
的公司	-3804
App	-3805
辐射	-3806
公布的	-3807
房企	-3808
院校	-3809
嘉宾	-3810
推行	-3811
装饰	-3812
时代的	-3813
场地	-3814
ina	-3815
家乡	-3816
也许	-3817
▁林	-3818
布鲁	-3819
▁。	-3820
食用	-3821
更大的	-3822
不良	-3823
五个	-3824
埔寨	-3825
土壤	-3826
销售额	-3827
柬埔寨	-3828
夜间	-3829
发现了	-3830
车企	-3831
工作室	-3832
信贷	-3833
也就	-3834
人次	-3835
去了	-3836
消除	-3837
自动驾驶	-3838
ian	-3839
万人次	-3840
舆论	-3841
一人	-3842
政务	-3843
更好的	-3844
IPO	-3845
一个人	-3846
的形式	-3847
一份	-3848
税务	-3849
出战	-3850
的原	-3851
垄断	-3852
降雨	-3853
严重的	-3854
他还	-3855
路易	-3856
送到	-3857
地带	-3858
毛主席	-3859
副书记	-3860
球会	-3861
CP	-3862
称号	-3863
ist	-3864
工作中	-3865
担忧	-3866
大气	-3867
萨克	-3868
农户	-3869
外界	-3870
本来	-3871
不动	-3872
沿海	-3873
大连	-3874
回购	-3875
”,“	-3876
▁尽管	-3877
现状	-3878
回报	-3879
在其	-3880
吸收	-3881
服务业	-3882
CEO	-3883
谨慎	-3884
总量	-3885
在该	-3886
合肥	-3887
收录	-3888
通行	-3889
轻松	-3890
▁##	-3891
真正的	-3892
ETF	-3893
柴油	-3894
到的	-3895
随时	-3896
电台	-3897
纪律	-3898
爸爸	-3899
收益率	-3900
毛利率	-3901
借助	-3902
第一时间	-3903
的支持	-3904
桥梁	-3905
伯特	-3906
二人	-3907
曝光	-3908
让我们	-3909
▁长	-3910
推出了	-3911
au	-3912
反馈	-3913
多了	-3914
if	-3915
第三方	-3916
慈善	-3917
▁华	-3918
危害	-3919
老年	-3920
启用	-3921
大致	-3922
没想到	-3923
开拓	-3924
正义	-3925
立案	-3926
公元	-3927
转换	-3928
交换	-3929
」、	-3930
注入	-3931
?**	-3932
还可以	-3933
扶持	-3934
搭载	-3935
的手	-3936
金山	-3937
ity	-3938
专用	-3939
提高了	-3940
▁###	-3941
大厦	-3942
四大	-3943
ich	-3944
合伙	-3945
安置	-3946
合成	-3947
AT	-3948
常常	-3949
在新	-3950
ED	-3951
幼儿园	-3952
党和	-3953
强度	-3954
的结果	-3955
节约	-3956
不住	-3957
自信	-3958
的生产	-3959
骑士	-3960
率领	-3961
售价	-3962
极大	-3963
硕士	-3964
▁其他	-3965
葡萄酒	-3966
本周	-3967
会见	-3968
GDP	-3969
边境	-3970
告知	-3971
落后	-3972
要在	-3973
通讯员	-3974
维尔	-3975
补偿	-3976
文化和	-3977
看着	-3978
专注	-3979
组成的	-3980
IC	-3981
究竟	-3982
清单	-3983
重的	-3984
▁b	-3985
点的	-3986
外交部	-3987
房产	-3988
附近的	-3989
羽毛	-3990
一周	-3991
考生	-3992
所得	-3993
海拔	-3994
发明	-3995
司马	-3996
qu	-3997
东南亚	-3998
各界	-3999
免疫	-4000
这座	-4001
彼得	-4002
修订	-4003
情感	-4004
领袖	-4005
的社会	-4006
入境	-4007
ook	-4008
几十	-4009
教会	-4010
营商环境	-4011
今年以来	-4012
分别是	-4013
董事会	-4014
通车	-4015
潜在	-4016
清华	-4017
史上	-4018
这就是	-4019
中期	-4020
分布于	-4021
相继	-4022
文物保护	-4023
▁白	-4024
BC	-4025
祖父	-4026
不利	-4027
定价	-4028
安徽省	-4029
存在的	-4030
经济增长	-4031
到来	-4032
实时	-4033
经销商	-4034
说道	-4035
ai	-4036
登场	-4037
真昼	-4038
的道路	-4039
可达	-4040
火灾	-4041
感受到	-4042
的学生	-4043
指定	-4044
黄河	-4045
的部分	-4046
▁Inst	-4047
美军	-4048
不起	-4049
查询	-4050
▁罗	-4051
顾客	-4052
她在	-4053
冰雪	-4054
为中国	-4055
排除	-4056
架构	-4057
第八	-4058
回复	-4059
ran	-4060
米的	-4061
的消息	-4062
季节	-4063
,**	-4064
月中	-4065
乐观	-4066
早已	-4067
为主题	-4068
税收	-4069
全国人大	-4070
评级	-4071
用品	-4072
表情	-4073
决议	-4074
这类	-4075
发生在	-4076
政治人物	-4077
ens	-4078
不超过	-4079
教区	-4080
仅有	-4081
不出	-4082
恒大	-4083
企业家	-4084
▁其中	-4085
▁第三	-4086
卡尔	-4087
同时也	-4088
乔治	-4089
拍卖	-4090
爱心	-4091
根廷	-4092
特区	-4093
流入	-4094
画面	-4095
车间	-4096
首相	-4097
投放	-4098
标的	-4099
数的	-4100
明治	-4101
经费	-4102
口罩	-4103
国内外	-4104
年上半年	-4105
机的	-4106
▁国家	-4107
进球	-4108
一部分	-4109
长城	-4110
马克思主义	-4111
注意的是	-4112
保健	-4113
红包	-4114
慢慢	-4115
业态	-4116
朝阳	-4117
热门	-4118
精品	-4119
ast	-4120
定制	-4121
大奖	-4122
单一	-4123
夫妻	-4124
随即	-4125
ail	-4126
农民工	-4127
实地	-4128
方位	-4129
未成年人	-4130
流动性	-4131
部的	-4132
ES	-4133
开了	-4134
演讲	-4135
门槛	-4136
讲解	-4137
会谈	-4138
情节	-4139
尚书	-4140
在中	-4141
新高	-4142
集团有限公司	-4143
治安	-4144
极端	-4145
不上	-4146
常规	-4147
日讯	-4148
很有	-4149
坐在	-4150
立足	-4151
密集	-4152
▁多	-4153
本科	-4154
一提	-4155
积分	-4156
动员	-4157
每一	-4158
档案	-4159
进行的	-4160
热烈	-4161
平等	-4162
数十	-4163
区别	-4164
用途	-4165
更名为	-4166
信仰	-4167
品类	-4168
看起来	-4169
也没	-4170
魔法	-4171
扎实	-4172
蓝色	-4173
凝聚	-4174
ort	-4175
从未	-4176
看看	-4177
经贸	-4178
的作品	-4179
▁文	-4180
任职	-4181
▁国	-4182
部份	-4183
探讨	-4184
的方法	-4185
▁Y	-4186
前后	-4187
舰队	-4188
内外	-4189
是不是	-4190
家居	-4191
验证	-4192
福建省	-4193
运动会	-4194
承包	-4195
进而	-4196
县委	-4197
一季度	-4198
行星	-4199
五十	-4200
捐赠	-4201
造型	-4202
记得	-4203
比利	-4204
妹妹	-4205
身为	-4206
成分	-4207
会议上	-4208
公社	-4209
和服务	-4210
编制	-4211
葡萄牙	-4212
布拉	-4213
出场	-4214
IN	-4215
现任	-4216
全程	-4217
up	-4218
管辖	-4219
皮肤	-4220
一辆	-4221
巴基	-4222
诞生	-4223
情报	-4224
腐败	-4225
枢纽	-4226
的城市	-4227
出演	-4228
党建	-4229
原告	-4230
是一位	-4231
▁海	-4232
虚假	-4233
编号	-4234
机动车	-4235
饮料	-4236
▁此次	-4237
有什么	-4238
哥哥	-4239
与其他	-4240
明显的	-4241
入侵	-4242
获奖	-4243
在接受	-4244
兴建	-4245
特朗	-4246
的文化	-4247
两大	-4248
等领域	-4249
南非	-4250
成立了	-4251
边缘	-4252
人文	-4253
挂牌	-4254
单元	-4255
但由于	-4256
Al	-4257
上面	-4258
离婚	-4259
长时间	-4260
▁此	-4261
澳洲	-4262
的设计	-4263
的成绩	-4264
ong	-4265
沃尔	-4266
的东西	-4267
爱尔	-4268
以来的	-4269
若干	-4270
更换	-4271
▁今天	-4272
约定	-4273
解除	-4274
生动	-4275
站台	-4276
肿瘤	-4277
见证	-4278
put	-4279
解读	-4280
减持	-4281
手中	-4282
湖北省	-4283
研究生	-4284
公寓	-4285
奥林	-4286
环球	-4287
▁and	-4288
晋级	-4289
象征	-4290
倾向	-4291
不变	-4292
倡议	-4293
早上	-4294
卫视	-4295
一段时间	-4296
▁上海	-4297
越来越多	-4298
交给	-4299
带有	-4300
▁中新社	-4301
中心的	-4302
联合会	-4303
就算	-4304
▁/	-4305
复合	-4306
尽量	-4307
汇率	-4308
用车	-4309
io	-4310
查处	-4311
评选	-4312
是美国	-4313
病人	-4314
运河	-4315
的基本	-4316
的政策	-4317
在今年	-4318
执导	-4319
短视频	-4320
观测	-4321
沿线	-4322
ge	-4323
战后	-4324
福州	-4325
为其	-4326
时段	-4327
日报道	-4328
实质	-4329
低碳	-4330
可靠	-4331
我在	-4332
适用	-4333
不大	-4334
意愿	-4335
兰州	-4336
重复	-4337
余额	-4338
标准化	-4339
的规定	-4340
大量的	-4341
领土	-4342
深圳市	-4343
火车	-4344
天主教	-4345
白酒	-4346
开心	-4347
起点	-4348
一片	-4349
湖南省	-4350
亚军	-4351
mm	-4352
加剧	-4353
生育	-4354
水果	-4355
瞬间	-4356
保罗	-4357
课堂	-4358
遵守	-4359
out	-4360
常见	-4361
屏幕	-4362
魅力	-4363
分之一	-4364
剧场	-4365
市场上	-4366
犯罪嫌疑人	-4367
充足	-4368
三是	-4369
法兰	-4370
不但	-4371
失业	-4372
万股	-4373
▁Out	-4374
江南	-4375
输出	-4376
中小企业	-4377
这条	-4378
巴基斯坦	-4379
设定	-4380
法定	-4381
景观	-4382
每周	-4383
人民检察院	-4384
负债	-4385
公正	-4386
段时间	-4387
领导干部	-4388
有多	-4389
截至目前	-4390
码头	-4391
强劲	-4392
孩子的	-4393
考验	-4394
康复	-4395
不满	-4396
的相关	-4397
这一点	-4398
亚马	-4399
房价	-4400
柏林	-4401
▁正	-4402
效力	-4403
创业板	-4404
富汗	-4405
频繁	-4406
年中国	-4407
是从	-4408
研讨	-4409
地利	-4410
被迫	-4411
阵容	-4412
乃至	-4413
十月	-4414
农场	-4415
减轻	-4416
长达	-4417
商店	-4418
全线	-4419
回顾	-4420
会计	-4421
修建	-4422
基本上	-4423
教育部	-4424
我们要	-4425
oh	-4426
物的	-4427
在他	-4428
ate	-4429
▁但是	-4430
出于	-4431
彼此	-4432
就读	-4433
亚历	-4434
啤酒	-4435
拉丁	-4436
常委	-4437
镜头	-4438
过度	-4439
弟弟	-4440
担保	-4441
占地	-4442
买卖	-4443
里亚	-4444
加油	-4445
的过程	-4446
足协	-4447
草原	-4448
联络	-4449
▁车站	-4450
中介	-4451
受欢迎	-4452
货运	-4453
分离	-4454
饮食	-4455
性格	-4456
家庄	-4457
个别	-4458
困境	-4459
商标	-4460
证书	-4461
艺人	-4462
下载	-4463
黄色	-4464
佛教	-4465
调节	-4466
太子	-4467
竞技	-4468
的变化	-4469
发布会上	-4470
的信息	-4471
TO	-4472
乾隆	-4473
在全球	-4474
单独	-4475
都可以	-4476
MA	-4477
无限	-4478
▁是	-4479
食品安全	-4480
资助	-4481
和中国	-4482
多项	-4483
我也	-4484
官网	-4485
扩展	-4486
争夺	-4487
色彩	-4488
样子	-4489
炒股	-4490
代表大会	-4491
阿根廷	-4492
Phone	-4493
合规	-4494
交通运输	-4495
OO	-4496
不想	-4497
策划	-4498
多年的	-4499
之处	-4500
否则	-4501
节能	-4502
有很多	-4503
西兰	-4504
中美	-4505
伊斯兰	-4506
牺牲	-4507
典礼	-4508
抑制	-4509
的全	-4510
ER	-4511
是最	-4512
走了	-4513
高原	-4514
四十	-4515
放缓	-4516
护理	-4517
ern	-4518
新生	-4519
践行	-4520
与中国	-4521
受访	-4522
透明	-4523
梳理	-4524
违法行为	-4525
七年	-4526
九年	-4527
账号	-4528
不确定	-4529
传统文化	-4530
ark	-4531
比亚迪	-4532
小麦	-4533
海峡	-4534
坚守	-4535
影像	-4536
特朗普	-4537
弘扬	-4538
县城	-4539
指引	-4540
看到了	-4541
我们在	-4542
啊啊	-4543
之战	-4544
先行	-4545
办案	-4546
报纸	-4547
的世界	-4548
测量	-4549
▁主要	-4550
副部长	-4551
下来的	-4552
了对	-4553
夫妇	-4554
...	-4555
阻止	-4556
巡视	-4557
周末	-4558
马尔	-4559
节日	-4560
归母	-4561
泽东	-4562
跟踪	-4563
其中包括	-4564
并入	-4565
协定	-4566
此事	-4567
一半	-4568
跟随	-4569
人员的	-4570
▁五	-4571
上诉	-4572
▁月	-4573
便捷	-4574
文献	-4575
涉案	-4576
▁这个	-4577
遭受	-4578
舒适	-4579
丹麦	-4580
男女	-4581
一部	-4582
全长	-4583
iPhone	-4584
的表现	-4585
长春	-4586
经纪	-4587
为核心	-4588
社会的	-4589
宁夏	-4590
提及	-4591
民主党	-4592
贯彻落实	-4593
交叉	-4594
电梯	-4595
」、「	-4596
吸引了	-4597
据悉	-4598
毛泽东	-4599
所需	-4600
途中	-4601
BS	-4602
分散	-4603
▁万	-4604
全县	-4605
奖金	-4606
省份	-4607
撤销	-4608
内阁	-4609
南海	-4610
电动车	-4611
外贸	-4612
维权	-4613
过于	-4614
▁孙	-4615
▁徐	-4616
广州市	-4617
之子	-4618
条款	-4619
添加	-4620
地块	-4621
收视	-4622
PC	-4623
企业和	-4624
的第	-4625
户外	-4626
待遇	-4627
▁编	-4628
阿富汗	-4629
将成为	-4630
封闭	-4631
才会	-4632
最高的	-4633
开发商	-4634
说话	-4635
到位	-4636
劳动力	-4637
平台的	-4638
变成了	-4639
世界大战	-4640
方针	-4641
补助	-4642
奥林匹	-4643
预约	-4644
村庄	-4645
边的	-4646
截止	-4647
浪费	-4648
高考	-4649
二次	-4650
本书	-4651
太原	-4652
政党	-4653
大国	-4654
源头	-4655
立刻	-4656
用了	-4657
坦克	-4658
大街	-4659
的一次	-4660
合作伙伴	-4661
缅甸	-4662
原创	-4663
喜剧	-4664
御史	-4665
印发	-4666
党委书记	-4667
,「	-4668
亲王	-4669
玛丽	-4670
法案	-4671
的服务	-4672
拆除	-4673
人心	-4674
原子	-4675
淘宝	-4676
在前	-4677
相较	-4678
负面	-4679
理工	-4680
外出	-4681
大学的	-4682
合适	-4683
发售	-4684
稳步	-4685
南昌	-4686
节点	-4687
八年	-4688
内涵	-4689
家电	-4690
开发区	-4691
总工会	-4692
变动	-4693
百分之	-4694
合法权益	-4695
米尔	-4696
▁新京	-4697
▁这是	-4698
的态度	-4699
抓获	-4700
提起	-4701
比重	-4702
某种	-4703
研制	-4704
目前的	-4705
克服	-4706
已在	-4707
▁日	-4708
普查	-4709
EC	-4710
认同	-4711
斯塔	-4712
焦点	-4713
爱尔兰	-4714
克里	-4715
调控	-4716
时任	-4717
探测	-4718
业务的	-4719
村里	-4720
储能	-4721
支队	-4722
非遗	-4723
茅台	-4724
▁因为	-4725
携带	-4726
曾任	-4727
的海	-4728
增收	-4729
污水	-4730
细分	-4731
造成的	-4732
相应的	-4733
天津市	-4734
破产	-4735
▁据介绍	-4736
上演	-4737
推出的	-4738
博会	-4739
见到	-4740
云南省	-4741
住在	-4742
书籍	-4743
可在	-4744
的风	-4745
被告人	-4746
匹配	-4747
能在	-4748
装修	-4749
车主	-4750
红利	-4751
亚马逊	-4752
明天	-4753
▁朱	-4754
商场	-4755
私募	-4756
毕业于	-4757
山县	-4758
乘坐	-4759
进出口	-4760
为期	-4761
▁伊	-4762
锻炼	-4763
学的	-4764
存储	-4765
)[	-4766
公示	-4767
并购	-4768
无人机	-4769
的有	-4770
给我	-4771
写作	-4772
公积	-4773
露出	-4774
开业	-4775
皇后	-4776
采集	-4777
中东	-4778
王子	-4779
中国共产党	-4780
重要的是	-4781
船舶	-4782
华侨	-4783
不敢	-4784
多年来	-4785
保卫	-4786
战术	-4787
US	-4788
村的	-4789
上班	-4790
理性	-4791
品牌的	-4792
ok	-4793
局部	-4794
是一家	-4795
用电	-4796
这份	-4797
事务所	-4798
ey	-4799
群众的	-4800
一行	-4801
住了	-4802
世界的	-4803
审议	-4804
man	-4805
较大的	-4806
它是	-4807
年到	-4808
而被	-4809
上去	-4810
跨越	-4811
社员	-4812
为一	-4813
解决了	-4814
党支部	-4815
将是	-4816
埃尔	-4817
人都	-4818
▁下	-4819
产值	-4820
合作的	-4821
看出	-4822
例子	-4823
雷达	-4824
里程	-4825
一提的是	-4826
李某	-4827
涨停	-4828
的后	-4829
用水	-4830
客户端	-4831
重量	-4832
犹太	-4833
竟然	-4834
进度	-4835
有效的	-4836
宠物	-4837
文化遗产	-4838
首位	-4839
两天	-4840
太多	-4841
附加	-4842
加强对	-4843
奥地利	-4844
过去的	-4845
开展了	-4846
立方米	-4847
抓好	-4848
东风	-4849
刺史	-4850
课题	-4851
▁去年	-4852
又有	-4853
故意	-4854
亚太	-4855
以便	-4856
夏天	-4857
渗透	-4858
完美	-4859
的过程中	-4860
日军	-4861
湾区	-4862
等奖	-4863
主持人	-4864
公爵	-4865
自贸	-4866
AM	-4867
辅导	-4868
拿下	-4869
结论	-4870
还没	-4871
北海	-4872
放松	-4873
的天	-4874
全区	-4875
清朝	-4876
dex	-4877
密度	-4878
一开始	-4879
地方政府	-4880
火星	-4881
公积金	-4882
厚的	-4883
纺织	-4884
交往	-4885
东盟	-4886
严肃	-4887
级的	-4888
区块	-4889
耕地	-4890
▁据新华社	-4891
洪水	-4892
湿地	-4893
大模型	-4894
ah	-4895
名人	-4896
相反	-4897
共同体	-4898
摩托	-4899
妇联	-4900
草案	-4901
传奇	-4902
定了	-4903
制裁	-4904
▁巴	-4905
▁v	-4906
滑雪	-4907
港澳	-4908
结算	-4909
车道	-4910
杀死	-4911
链接	-4912
产生了	-4913
像是	-4914
步伐	-4915
阵地	-4916
综艺	-4917
空调	-4918
利好	-4919
追究	-4920
内心	-4921
地域	-4922
火山	-4923
诉求	-4924
谈到	-4925
科技有限公司	-4926
山西省	-4927
期的	-4928
干警	-4929
条件的	-4930
加州	-4931
劳动者	-4932
最重要的	-4933
航线	-4934
的原则	-4935
付费	-4936
栖息	-4937
发生的	-4938
流域	-4939
细化	-4940
ock	-4941
先锋	-4942
心脏	-4943
前沿	-4944
应该是	-4945
外卖	-4946
ack	-4947
侵权	-4948
增幅	-4949
要把	-4950
巡回	-4951
举办的	-4952
配送	-4953
进了	-4954
老百姓	-4955
互联	-4956
林业	-4957
管道	-4958
身份证	-4959
主人	-4960
www	-4961
在上海	-4962
ud	-4963
驱逐	-4964
部部长	-4965
经历了	-4966
人体	-4967
他表示	-4968
特拉	-4969
再生	-4970
而来	-4971
期内	-4972
叠加	-4973
哥伦	-4974
安全生产	-4975
可以通过	-4976
一流	-4977
县的	-4978
牙利	-4979
原始	-4980
苏格兰	-4981
都很	-4982
校区	-4983
生活中	-4984
高位	-4985
AC	-4986
亮点	-4987
年号	-4988
加以	-4989
借款	-4990
导师	-4991
平原	-4992
度假	-4993
微软	-4994
目的是	-4995
匈牙利	-4996
毕业后	-4997
中午	-4998
每个人	-4999
的比赛	-5000
都被	-5001
已经成为	-5002
资讯	-5003
▁卡	-5004
广阔	-5005
归母净利润	-5006
王某	-5007
脱离	-5008
修正	-5009
汇报	-5010
电网	-5011
中国大陆	-5012
奥林匹克	-5013
▁由	-5014
模范	-5015
关注的	-5016
不停	-5017
新城	-5018
创造了	-5019
从来	-5020
增值	-5021
沙特	-5022
营运	-5023
管理的	-5024
出现的	-5025
除此	-5026
致富	-5027
降至	-5028
含量	-5029
领取	-5030
改制为	-5031
这款	-5032
他认为	-5033
崛起	-5034
塑料	-5035
▁美	-5036
牵引	-5037
可持续发展	-5038
已于	-5039
看法	-5040
谷歌	-5041
sh	-5042
两家	-5043
找到了	-5044
亚历山	-5045
存量	-5046
并与	-5047
的分	-5048
的总	-5049
▁资料	-5050
突发	-5051
eg	-5052
岁时	-5053
传染	-5054
不仅是	-5055
余人	-5056
未经	-5057
赋予	-5058
新鲜	-5059
白天	-5060
尼西亚	-5061
伊拉克	-5062
有个	-5063
巴巴	-5064
敏感	-5065
副总裁	-5066
全方位	-5067
货币政策	-5068
自杀	-5069
赚钱	-5070
回国	-5071
网络安全	-5072
衔接	-5073
兴奋	-5074
见面	-5075
不仅仅	-5076
神秘	-5077
远程	-5078
备案	-5079
生效	-5080
▁对此	-5081
法律法规	-5082
合力	-5083
景点	-5084
其在	-5085
人与	-5086
亚运会	-5087
疯狂	-5088
艰难	-5089
老挝	-5090
油价	-5091
含有	-5092
收取	-5093
为代表	-5094
集中在	-5095
调度	-5096
保守	-5097
企图	-5098
声称	-5099
一期	-5100
徒刑	-5101
书中	-5102
一只	-5103
而非	-5104
选拔	-5105
不一样	-5106
不明	-5107
上阵	-5108
评审	-5109
血管	-5110
价值观	-5111
ue	-5112
▁昨日	-5113
的位置	-5114
为人	-5115
绘画	-5116
离子	-5117
)》	-5118
▁n	-5119
昭和	-5120
▁制作	-5121
这时	-5122
防守	-5123
备受	-5124
气氛	-5125
意识到	-5126
伟大的	-5127
剧集	-5128
供图	-5129
督促	-5130
原材料	-5131
视野	-5132
时许	-5133
年和	-5134
客车	-5135
上门	-5136
重庆市	-5137
偶像	-5138
se	-5139
天文	-5140
三星	-5141
终点	-5142
的声音	-5143
克拉	-5144
index	-5145
勋章	-5146
▁如今	-5147
第九	-5148
集群	-5149
▁**“	-5150
部门的	-5151
便宜	-5152
既然	-5153
的现象	-5154
积极性	-5155
AP	-5156
千瓦	-5157
残疾人	-5158
▁炒股	-5159
演唱会	-5160
乐队	-5161
参谋	-5162
代码	-5163
听说	-5164
无症状	-5165
》)	-5166
号召	-5167
打通	-5168
文物保护单位	-5169
登上	-5170
激动	-5171
豪华	-5172
给他	-5173
转会	-5174
无数	-5175
规定的	-5176
辞职	-5177
载体	-5178
常态化	-5179
还需要	-5180
TC	-5181
数字经济	-5182
这就	-5183
样本	-5184
三国	-5185
亨利	-5186
▁这些	-5187
出资	-5188
常见的	-5189
连锁	-5190
日晚间	-5191
艰苦	-5192
供需	-5193
打工	-5194
演奏	-5195
好好	-5196
ter	-5197
这对	-5198
绿化	-5199
宿舍	-5200
目的地	-5201
两者	-5202
会被	-5203
球季	-5204
北美	-5205
和技术	-5206
学生的	-5207
预报	-5208
感动	-5209
一支	-5210
互通	-5211
口岸	-5212
出海	-5213
对阵	-5214
动能	-5215
国土	-5216
降水	-5217
▁近	-5218
活动中	-5219
师生	-5220
容量	-5221
团长	-5222
▁那	-5223
巡逻	-5224
▁l	-5225
好友	-5226
所长	-5227
普法	-5228
机构的	-5229
吃饭	-5230
洛杉	-5231
功率	-5232
接收	-5233
安德	-5234
命名为	-5235
合资	-5236
中新网	-5237
丰收	-5238
否认	-5239
克里斯	-5240
的一项	-5241
新一轮	-5242
职业生涯	-5243
他和	-5244
商人	-5245
国际机场	-5246
媒体报道	-5247
仅为	-5248
监狱	-5249
设计师	-5250
缩短	-5251
仲裁	-5252
区内	-5253
发掘	-5254
的光	-5255
书法	-5256
消耗	-5257
约束	-5258
东莞	-5259
将以	-5260
种族	-5261
雷斯	-5262
也不会	-5263
市镇	-5264
并对	-5265
之日起	-5266
货车	-5267
对待	-5268
供电	-5269
图像	-5270
的双	-5271
尔特	-5272
毫无	-5273
洛杉矶	-5274
麦克	-5275
已经在	-5276
民政	-5277
的美国	-5278
的力量	-5279
天使	-5280
古巴	-5281
侦查	-5282
纤维	-5283
书店	-5284
较多	-5285
在一个	-5286
港股	-5287
陕西省	-5288
主营	-5289
事发	-5290
助推	-5291
▁针对	-5292
五大	-5293
等多个	-5294
复工	-5295
日凌晨	-5296
医师	-5297
邮政	-5298
阳县	-5299
关系的	-5300
增量	-5301
骨干	-5302
赶到	-5303
侵犯	-5304
追溯	-5305
功夫	-5306
也为	-5307
零部件	-5308
中国人	-5309
场馆	-5310
In	-5311
奉献	-5312
芬兰	-5313
▁国际	-5314
力和	-5315
步兵	-5316
从此	-5317
家园	-5318
受到了	-5319
国企	-5320
新浪	-5321
的确	-5322
多位	-5323
将为	-5324
网红	-5325
最多的	-5326
判处	-5327
画家	-5328
加拉	-5329
可以说	-5330
租金	-5331
中共中央	-5332
SH	-5333
录取	-5334
荣获	-5335
直升	-5336
意为	-5337
种类	-5338
精心	-5339
在本	-5340
一号	-5341
逮捕	-5342
古老	-5343
是为	-5344
味道	-5345
男孩	-5346
开庭	-5347
市场监管	-5348
招股	-5349
开户	-5350
一日	-5351
面包	-5352
历任	-5353
变更	-5354
属性	-5355
排列	-5356
就被	-5357
和大	-5358
中国经济	-5359
our	-5360
个小时	-5361
▁来源	-5362
风暴	-5363
靠近	-5364
他对	-5365
也就是说	-5366
情形	-5367
元宇宙	-5368
月二十	-5369
中级	-5370
缴纳	-5371
向上	-5372
石化	-5373
▁本次	-5374
她说	-5375
严峻	-5376
克尔	-5377
血液	-5378
快手	-5379
制片	-5380
是我	-5381
建筑面积	-5382
写的	-5383
遗憾	-5384
发展和	-5385
一道	-5386
月中旬	-5387
ric	-5388
既有	-5389
▁通过	-5390
终止	-5391
▁本报记者	-5392
职位	-5393
两侧	-5394
正面	-5395
分行	-5396
了很多	-5397
CD	-5398
政法	-5399
候选人	-5400
轨道交通	-5401
头的	-5402
逾期	-5403
三次	-5404
又是	-5405
期徒刑	-5406
▁郑	-5407
首届	-5408
原因是	-5409
随之	-5410
体现了	-5411
不见	-5412
军区	-5413
视角	-5414
畅通	-5415
神话	-5416
多元化	-5417
面临的	-5418
迎接	-5419
龙的	-5420
江西省	-5421
总会	-5422
潜艇	-5423
高管	-5424
拘留	-5425
组长	-5426
标本	-5427
冠状	-5428
西洋	-5429
万元的	-5430
年末	-5431
凤凰	-5432
第二个	-5433
楼市	-5434
自动化	-5435
强势	-5436
州刺史	-5437
力争	-5438
](/)	-5439
三级	-5440
科学技术	-5441
时期的	-5442
正确的	-5443
的合作	-5444
张某	-5445
在外	-5446
布尔	-5447
无锡	-5448
中信	-5449
仔细	-5450
发改	-5451
远远	-5452
介绍了	-5453
独特的	-5454
不断提升	-5455
被认为是	-5456
副局长	-5457
京津	-5458
km	-5459
电动汽车	-5460
历程	-5461
执行人	-5462
中医	-5463
本文	-5464
分公司	-5465
介入	-5466
阳性	-5467
并以	-5468
评为	-5469
监督管理	-5470
son	-5471
制药	-5472
挪威	-5473
煤矿	-5474
特性	-5475
种种	-5476
▁圣	-5477
\*	-5478
萨斯	-5479
▁于	-5480
旗舰	-5481
派遣	-5482
轮融资	-5483
是日本	-5484
▁苏	-5485
今年的	-5486
在国内	-5487
将进一步	-5488
不需要	-5489
听取	-5490
当地的	-5491
目前已	-5492
十几	-5493
水的	-5494
诗人	-5495
在日本	-5496
得分	-5497
据了解	-5498
主要的	-5499
拿出	-5500
农业生产	-5501
从中	-5502
局的	-5503
却是	-5504
主义的	-5505
一千	-5506
年中	-5507
是一部	-5508
可谓	-5509
射击	-5510
从小	-5511
投产	-5512
城的	-5513
过渡	-5514
外汇	-5515
网球	-5516
再加上	-5517
▁最佳	-5518
贵族	-5519
假日	-5520
▁奥	-5521
目录	-5522
指南	-5523
开辟	-5524
农田	-5525
正当	-5526
花费	-5527
越来越多的	-5528
征求	-5529
代替	-5530
▁台湾	-5531
他也	-5532
▁水	-5533
大使馆	-5534
平台上	-5535
新冠病毒	-5536
消毒	-5537
月以来	-5538
麻烦	-5539
热爱	-5540
转型升级	-5541
ff	-5542
蔚来	-5543
在了	-5544
的电影	-5545
为基础	-5546
技巧	-5547
契机	-5548
az	-5549
主教练	-5550
师范大学	-5551
救灾	-5552
就开始	-5553
农业农村	-5554
古典	-5555
三人	-5556
小镇	-5557
一套	-5558
而成	-5559
▁红	-5560
激光	-5561
业余	-5562
▁当然	-5563
建设和	-5564
▁总	-5565
的那	-5566
形容	-5567
▁图为	-5568
处分	-5569
长三角	-5570
哥伦比亚	-5571
装甲	-5572
甘肃省	-5573
数百	-5574
穿越	-5575
将持续	-5576
市场化	-5577
算力	-5578
遵循	-5579
帮忙	-5580
局局长	-5581
组成部分	-5582
卡拉	-5583
▁胡	-5584
学校的	-5585
业的	-5586
▁事实上	-5587
站的	-5588
这个问题	-5589
同行	-5590
脱贫攻坚	-5591
富裕	-5592
极为	-5593
让他们	-5594
台中	-5595
保险公司	-5596
使其	-5597
这意味着	-5598
彰显	-5599
▁要	-5600
记者从	-5601
严厉	-5602
剩余	-5603
衍生	-5604
报价	-5605
场上	-5606
完工	-5607
层的	-5608
在内	-5609
羽毛球	-5610
写道	-5611
而已	-5612
中药	-5613
干预	-5614
中医药	-5615
ax	-5616
采用了	-5617
痛苦	-5618
轰炸	-5619
这件事	-5620
拜登	-5621
全新的	-5622
万个	-5623
山脉	-5624
南宁	-5625
另有	-5626
区块链	-5627
倡导	-5628
承办	-5629
毒品	-5630
和新	-5631
▁罗伦斯	-5632
)-	-5633
美团	-5634
较高的	-5635
推介	-5636
无症状感染者	-5637
高度重视	-5638
开幕式	-5639
这两个	-5640
带头	-5641
之地	-5642
位居	-5643
小微	-5644
救治	-5645
将有	-5646
ord	-5647
优良	-5648
发现的	-5649
借鉴	-5650
公顷	-5651
观光	-5652
所谓的	-5653
来自于	-5654
向前	-5655
ng	-5656
在家	-5657
HK	-5658
焦虑	-5659
的可能性	-5660
风景	-5661
提问	-5662
不论	-5663
石家庄	-5664
的模式	-5665
嘉靖	-5666
▁昨天	-5667
抗日	-5668
壮大	-5669
复制	-5670
公共服务	-5671
巴马	-5672
▁●	-5673
故障	-5674
马斯	-5675
有没有	-5676
超过了	-5677
便是	-5678
跟着	-5679
▁电影	-5680
合物	-5681
比利时	-5682
万名	-5683
用户的	-5684
日开始	-5685
本地区	-5686
谈话	-5687
贵的	-5688
强国	-5689
可前往	-5690
没有任何	-5691
增产	-5692
办事处	-5693
男人	-5694
马里	-5695
的朋友	-5696
德华	-5697
聊天	-5698
起到	-5699
最有	-5700
保安	-5701
ass	-5702
长约	-5703
▁现	-5704
如同	-5705
流传	-5706
稳健	-5707
笔记	-5708
给出	-5709
山的	-5710
改革的	-5711
除此之外	-5712
产地	-5713
者和	-5714
ance	-5715
搭配	-5716
换乘	-5717
牠们	-5718
将对	-5719
赞助	-5720
募集	-5721
诚信	-5722
总督	-5723
几个月	-5724
民营企业	-5725
很好的	-5726
卖出	-5727
国家安全	-5728
冠状病毒	-5729
权的	-5730
▁关于	-5731
▁唐	-5732
心中	-5733
ace	-5734
机组	-5735
峰会	-5736
有限责任	-5737
尼克	-5738
珠海	-5739
千米	-5740
ore	-5741
新人	-5742
突击	-5743
塑造	-5744
早年	-5745
詹姆斯	-5746
压缩	-5747
缓慢	-5748
全会	-5749
更高的	-5750
标志着	-5751
之旅	-5752
杰克	-5753
短板	-5754
均价	-5755
凸显	-5756
学历	-5757
化妆	-5758
家企业	-5759
利息	-5760
出货	-5761
成人	-5762
不等	-5763
不愿	-5764
他与	-5765
社保	-5766
稳定的	-5767
恋爱	-5768
公告称	-5769
二百	-5770
长远	-5771
谢谢	-5772
PM	-5773
巴勒	-5774
该国	-5775
▁经	-5776
人气	-5777
垂直	-5778
排行	-5779
我认为	-5780
红军	-5781
实事	-5782
店铺	-5783
出色	-5784
防汛	-5785
国立	-5786
练习	-5787
宣讲	-5788
的多	-5789
变为	-5790
轿车	-5791
上行	-5792
气体	-5793
!!	-5794
忽视	-5795
▁此前	-5796
商业银行	-5797
冒险	-5798
用人	-5799
住院	-5800
医疗机构	-5801
次数	-5802
▁后	-5803
事后	-5804
展望	-5805
要有	-5806
扩建	-5807
石头	-5808
赛中	-5809
筹备	-5810
消费者的	-5811
等多种	-5812
个人信息	-5813
多多	-5814
就不	-5815
片区	-5816
势头	-5817
次年	-5818
长度	-5819
技术和	-5820
上半	-5821
大夫	-5822
交易日	-5823
大于	-5824
批发	-5825
▁+	-5826
随著	-5827
二季度	-5828
oy	-5829
首发	-5830
再到	-5831
比特	-5832
等因素	-5833
▁山	-5834
中奖	-5835
也曾	-5836
驾驶员	-5837
荣耀	-5838
放大	-5839
永久	-5840
增多	-5841
的美	-5842
出租车	-5843
小幅	-5844
尺寸	-5845
▁因此	-5846
▁in	-5847
职棒	-5848
的环境	-5849
恒星	-5850
选择了	-5851
克莱	-5852
的儿子	-5853
冬奥会	-5854
缺少	-5855
高层	-5856
水泥	-5857
的前提	-5858
放心	-5859
举行了	-5860
水稻	-5861
▁降	-5862
作了	-5863
指控	-5864
讲座	-5865
资质	-5866
愿望	-5867
受损	-5868
处处	-5869
城县	-5870
他被	-5871
最快	-5872
将来	-5873
期望	-5874
万亿	-5875
野生动物	-5876
族自治	-5877
沙漠	-5878
ON	-5879
外观	-5880
尔夫	-5881
鉴于	-5882
工地	-5883
县级	-5884
性别	-5885
天皇	-5886
比分	-5887
耐心	-5888
uc	-5889
录音	-5890
承受	-5891
知县	-5892
AN	-5893
姐姐	-5894
▁所以	-5895
在香港	-5896
后面	-5897
队友	-5898
上期	-5899
的一座	-5900
人家	-5901
小孩	-5902
志愿服务	-5903
送给	-5904
西斯	-5905
短暂	-5906
在国际	-5907
的名字	-5908
总值	-5909
摆脱	-5910
中国队	-5911
坚实	-5912
青山	-5913
五月	-5914
警示	-5915
金融服务	-5916
海口	-5917
警惕	-5918
公布了	-5919
号的	-5920
公务员	-5921
混乱	-5922
天堂	-5923
我和	-5924
暴露	-5925
主管部门	-5926
转化为	-5927
知情	-5928
浦东	-5929
三月	-5930
市政	-5931
搬迁	-5932
单纯	-5933
新华	-5934
航空公司	-5935
高水平	-5936
产业的	-5937
必要的	-5938
集聚	-5939
事业单位	-5940
丝绸	-5941
占有	-5942
消化	-5943
也让	-5944
奇偶	-5945
举人	-5946
能力的	-5947
SU	-5948
亿元人民币	-5949
执政	-5950
纳税	-5951
NBA	-5952
城堡	-5953
暑期	-5954
及其他	-5955
副院长	-5956
德尔	-5957
赛后	-5958
投资人	-5959
后果	-5960
ive	-5961
三世	-5962
底线	-5963
就已经	-5964
喜爱	-5965
▁被	-5966
天地	-5967
市公安局	-5968
基建	-5969
姑娘	-5970
无奈	-5971
信念	-5972
关爱	-5973
的反	-5974
网格	-5975
研报	-5976
量子	-5977
指挥部	-5978
留学	-5979
作词	-5980
为民	-5981
死后	-5982
黑龙江省	-5983
电器	-5984
夺冠	-5985
的车	-5986
量产	-5987
教育的	-5988
两地	-5989
余名	-5990
潮流	-5991
衰退	-5992
成功的	-5993
乐园	-5994
▁与此同时	-5995
ib	-5996
止于	-5997
用作	-5998
的同	-5999
财政部	-6000
是要	-6001
MV	-6002
不对	-6003
有限责任公司	-6004
抢救	-6005
眼镜	-6006
▁Pro	-6007
罗马尼亚	-6008
公募	-6009
欧美	-6010
聚落	-6011
频率	-6012
▁新京报	-6013
ont	-6014
灵魂	-6015
钢琴	-6016
about	-6017
过后	-6018
但这	-6019
限于	-6020
仍是	-6021
▁X	-6022
亦有	-6023
共赢	-6024
周刊	-6025
发改委	-6026
大人	-6027
上调	-6028
增长的	-6029
完整的	-6030
的高度	-6031
渐渐	-6032
提升了	-6033
目光	-6034
坦言	-6035
语音	-6036
停车场	-6037
一块	-6038
的增长	-6039
▁会议	-6040
人力资源	-6041
家具	-6042
两个月	-6043
办学	-6044
将棋	-6045
此类	-6046
为中心	-6047
贵州省	-6048
双向	-6049
本报记者	-6050
PS	-6051
北约	-6052
时机	-6053
对外开放	-6054
我会	-6055
的比例	-6056
征收	-6057
美帝国主义	-6058
我要	-6059
额度	-6060
为由	-6061
纪录片	-6062
又名	-6063
区和	-6064
达尔	-6065
企业在	-6066
大厅	-6067
隐私	-6068
精力	-6069
第一位	-6070
均有	-6071
时光	-6072
分裂	-6073
得益	-6074
摄像	-6075
客场	-6076
宽松	-6077
体会	-6078
特里	-6079
器械	-6080
省道	-6081
▁编辑	-6082
竣工	-6083
离不开	-6084
人事	-6085
建筑物	-6086
康熙	-6087
▁德	-6088
的政治	-6089
欣赏	-6090
大选	-6091
旗下的	-6092
下半	-6093
短信	-6094
火车站	-6095
TA	-6096
打电话	-6097
一把	-6098
▁相关	-6099
涨价	-6100
政府和	-6101
张家	-6102
之上	-6103
骑兵	-6104
辽宁省	-6105
八月	-6106
Sh	-6107
理事会	-6108
ee	-6109
布莱	-6110
心情	-6111
紧紧	-6112
DA	-6113
感知	-6114
是大	-6115
迹象	-6116
成立的	-6117
第三季度	-6118
居家	-6119
实用	-6120
智能手机	-6121
ode	-6122
下属	-6123
米兰	-6124
富士	-6125
害怕	-6126
部分地区	-6127
河道	-6128
出境	-6129
合唱	-6130
两条	-6131
苏丹	-6132
▁演员	-6133
促使	-6134
处在	-6135
高压	-6136
朋友圈	-6137
所在地	-6138
CO	-6139
描绘	-6140
人人	-6141
形状	-6142
一款	-6143
差不多	-6144
时间内	-6145
该项目	-6146
恐怕	-6147
承载	-6148
成品	-6149
正如	-6150
公约	-6151
基督教	-6152
▁艾	-6153
往来	-6154
直升机	-6155
▁日前	-6156
获胜	-6157
对我	-6158
▁**(	-6159
也不是	-6160
通知书	-6161
电子商务	-6162
的责任	-6163
aw	-6164
饭店	-6165
孵化	-6166
博览会	-6167
尽可能	-6168
不敌	-6169
出入口	-6170
设计的	-6171
增持	-6172
密码	-6173
穿着	-6174
伤亡	-6175
▁爱	-6176
抗疫	-6177
道歉	-6178
的状态	-6179
并无	-6180
日正式	-6181
市场份额	-6182
背后的	-6183
熊猫	-6184
电路	-6185
起来的	-6186
战队	-6187
招待	-6188
唯一的	-6189
提振	-6190
杀害	-6191
护航	-6192
之家	-6193
特的	-6194
分红	-6195
子里	-6196
标识	-6197
落户	-6198
主权	-6199
民宿	-6200
那时	-6201
专业的	-6202
党组织	-6203
等工作	-6204
格尔	-6205
精选	-6206
简单的	-6207
小心	-6208
栏目	-6209
今天的	-6210
管制	-6211
》:	-6212
塔尔	-6213
拉动	-6214
是我们	-6215
是位于	-6216
开始了	-6217
围棋	-6218
的思想	-6219
产业园	-6220
进军	-6221
”——	-6222
有期徒刑	-6223
得很	-6224
end	-6225
能力和	-6226
位列	-6227
七月	-6228
这是一个	-6229
故宫	-6230
上年同期	-6231
产阶级	-6232
谴责	-6233
资深	-6234
一对	-6235
▁现在	-6236
开创	-6237
ly	-6238
▁郭	-6239
小鹏	-6240
核实	-6241
流浪	-6242
的速度	-6243
感兴趣	-6244
加利	-6245
几次	-6246
创下	-6247
道理	-6248
口气	-6249
▁经过	-6250
合并为	-6251
均衡	-6252
客人	-6253
签证	-6254
锦赛	-6255
困扰	-6256
德拉	-6257
特尔	-6258
省市	-6259
中表示	-6260
英镑	-6261
确立	-6262
▁剧情	-6263
提案	-6264
记者表示	-6265
三位	-6266
疑似	-6267
临近	-6268
抵抗	-6269
经济社会发展	-6270
已经有	-6271
出品	-6272
沉浸	-6273
鸟类	-6274
的父亲	-6275
议题	-6276
的具体	-6277
客服	-6278
>>	-6279
马斯克	-6280
公开赛	-6281
维度	-6282
军团	-6283
▁何	-6284
扩散	-6285
仓库	-6286
点评	-6287
科夫	-6288
运营商	-6289
印度尼西亚	-6290
县人	-6291
一直是	-6292
笑容	-6293
付出	-6294
下旬	-6295
一事	-6296
升至	-6297
经授权	-6298
拓宽	-6299
源自	-6300
的建设	-6301
清华大学	-6302
制造商	-6303
交互	-6304
了一系列	-6305
慰问	-6306
提议	-6307
概率	-6308
体育场	-6309
体重	-6310
座谈会	-6311
国债	-6312
示范区	-6313
SA	-6314
阿里巴巴	-6315
六月	-6316
形成的	-6317
调动	-6318
也可	-6319
尼尔	-6320
门票	-6321
ox	-6322
量化	-6323
公分	-6324
导航	-6325
一定会	-6326
依照	-6327
征程	-6328
久的	-6329
产业化	-6330
需求的	-6331
经营者	-6332
巴勒斯坦	-6333
掉了	-6334
!》	-6335
宁德	-6336
经济学	-6337
谋划	-6338
Ar	-6339
的说法	-6340
新一代	-6341
吉林省	-6342
▁全	-6343
同盟	-6344
▁公司	-6345
精英	-6346
的项目	-6347
交通安全	-6348
的身	-6349
界的	-6350
之内	-6351
多万	-6352
普惠	-6353
万历	-6354
学士	-6355
恶劣	-6356
丰田	-6357
红旗	-6358
算是	-6359
自愿	-6360
集团的	-6361
重返	-6362
投降	-6363
int	-6364
定点	-6365
最具	-6366
人才培养	-6367
▁其	-6368
ain	-6369
区分	-6370
商户	-6371
降温	-6372
洛克	-6373
烈士	-6374
来源于	-6375
氪经授权	-6376
忠诚	-6377
较少	-6378
圆形	-6379
低价	-6380
至此	-6381
足以	-6382
成交额	-6383
干扰	-6384
诗歌	-6385
三百	-6386
发送	-6387
温泉	-6388
初心	-6389
人死亡	-6390
yl	-6391
的角色	-6392
债权	-6393
短短	-6394
的活动	-6395
的管理	-6396
社交媒体	-6397
四月	-6398
提取	-6399
车厢	-6400
自称	-6401
下辖	-6402
保护区	-6403
▁明	-6404
燃气	-6405
第二天	-6406
区委	-6407
每股	-6408
原来的	-6409
婴儿	-6410
席位	-6411
洛阳	-6412
▁最后	-6413
副总经理	-6414
仪器	-6415
之时	-6416
都没	-6417
互助	-6418
汇聚	-6419
pe	-6420
到期	-6421
检察机关	-6422
直径	-6423
第一批	-6424
家公司	-6425
旁边	-6426
新闻发布会	-6427
二月	-6428
▁古	-6429
多地	-6430
这段	-6431
原名	-6432
的最	-6433
十二年	-6434
参展	-6435
大盘	-6436
当作	-6437
克罗	-6438
今年上半年	-6439
由中国	-6440
受灾	-6441
地址	-6442
主打	-6443
九月	-6444
年时	-6445
采访时表示	-6446
燃油	-6447
ust	-6448
中和	-6449
国资	-6450
棉花	-6451
生日	-6452
癌症	-6453
抗议	-6454
CC	-6455
▁概	-6456
Pro	-6457
表彰	-6458
法制	-6459
长大	-6460
颁发	-6461
受访者	-6462
一面	-6463
地处	-6464
低迷	-6465
诊疗	-6466
▁h	-6467
朝廷	-6468
的重	-6469
▁亚	-6470
▁江	-6471
榜单	-6472
展示了	-6473
上级	-6474
萨尔	-6475
言论	-6476
▁英国	-6477
完毕	-6478
三种	-6479
各部门	-6480
还不	-6481
斯拉夫	-6482
▁元	-6483
科院	-6484
繁殖	-6485
执行官	-6486
吉尔	-6487
▁面对	-6488
的头	-6489
很容易	-6490
的时代	-6491
加入了	-6492
占总	-6493
波罗	-6494
好转	-6495
婚礼	-6496
条件下	-6497
物价	-6498
立体	-6499
有一些	-6500
一大	-6501
东亚	-6502
看似	-6503
疫情影响	-6504
现货	-6505
电影节	-6506
万多	-6507
该校	-6508
显现	-6509
迪士	-6510
迄今	-6511
第三次	-6512
美股	-6513
▁其实	-6514
▁同	-6515
划分	-6516
碰撞	-6517
下面	-6518
为首	-6519
入驻	-6520
过往	-6521
政协委员	-6522
届时	-6523
不应	-6524
日均	-6525
认识到	-6526
迪士尼	-6527
本院	-6528
浪漫	-6529
户籍	-6530
▁"	-6531
看了	-6532
迭代	-6533
的大型	-6534
而出	-6535
介绍说	-6536
医护	-6537
的使用	-6538
▁石	-6539
眼前	-6540
细菌	-6541
随机	-6542
复杂的	-6543
就此	-6544
我市	-6545
辉煌	-6546
降价	-6547
中超	-6548
布置	-6549
太郎	-6550
制约	-6551
的资金	-6552
北大	-6553
让她	-6554
违法犯罪	-6555
玩具	-6556
健康发展	-6557
转载	-6558
当场	-6559
某个	-6560
专属	-6561
历史的	-6562
部落	-6563
总投资	-6564
的地位	-6565
日元	-6566
武帝	-6567
造成了	-6568
列宁	-6569
第十	-6570
万户	-6571
金曲	-6572
侍郎	-6573
回去	-6574
东北部	-6575
等方面的	-6576
书写	-6577
出土	-6578
睡眠	-6579
转为	-6580
顶级	-6581
有时候	-6582
爱好者	-6583
的决定	-6584
景气	-6585
增效	-6586
纳斯	-6587
LP	-6588
的优势	-6589
五百	-6590
消灭	-6591
▁据报道	-6592
一方	-6593
极其	-6594
汉语	-6595
的所有	-6596
风电	-6597
食堂	-6598
中海	-6599
队在	-6600
一次性	-6601
月球	-6602
鲜明	-6603
来讲	-6604
ure	-6605
构造	-6606
▁首先	-6607
接连	-6608
毫不	-6609
新发展	-6610
尔多	-6611
也不能	-6612
作出了	-6613
剧中	-6614
公里的	-6615
安倍	-6616
了起来	-6617
引起了	-6618
经济学家	-6619
原有	-6620
的口	-6621
实战	-6622
模块	-6623
福特	-6624
机动	-6625
走到	-6626
技术创新	-6627
一时	-6628
领事	-6629
终身	-6630
生态文明	-6631
恐龙	-6632
手的	-6633
好评	-6634
▁本文	-6635
标准的	-6636
不佳	-6637
年由	-6638
青睐	-6639
不符合	-6640
的一切	-6641
要闻	-6642
大字	-6643
一件	-6644
▁交通	-6645
庭审	-6646
普京	-6647
大宗	-6648
相机	-6649
)**	-6650
”:	-6651
民航	-6652
真相	-6653
百货	-6654
六个	-6655
起步	-6656
短期内	-6657
同胞	-6658
租房	-6659
之后的	-6660
VR	-6661
全身	-6662
生猪	-6663
发扬	-6664
利斯	-6665
深深	-6666
车上	-6667
总数	-6668
演艺	-6669
呈现出	-6670
九龙	-6671
致辞	-6672
约有	-6673
首席执行官	-6674
赢得了	-6675
团伙	-6676
抵押	-6677
流向	-6678
竞选	-6679
肌肉	-6680
主题曲	-6681
班子	-6682
贯穿	-6683
演绎	-6684
市场主体	-6685
开办	-6686
女王	-6687
自然资源	-6688
结构性	-6689
遗传	-6690
预案	-6691
三天	-6692
信访	-6693
ath	-6694
RE	-6695
中被	-6696
浓度	-6697
▁–	-6698
演练	-6699
包围	-6700
印刷	-6701
安东	-6702
旗帜	-6703
道的	-6704
排队	-6705
了吗	-6706
未有	-6707
交通事故	-6708
分支	-6709
华北	-6710
服役	-6711
链条	-6712
高新区	-6713
本站	-6714
则为	-6715
定于	-6716
将被	-6717
正规	-6718
中最	-6719
干涉	-6720
商业化	-6721
成员国	-6722
实体经济	-6723
领导小组	-6724
东海	-6725
▁通讯员	-6726
陌生	-6727
ex	-6728
▁一个	-6729
节度	-6730
一案	-6731
月起	-6732
东南部	-6733
端的	-6734
运转	-6735
上看	-6736
分歧	-6737
中原	-6738
克的	-6739
无效	-6740
当晚	-6741
京津冀	-6742
药业	-6743
▁拉	-6744
春晚	-6745
降幅	-6746
与会	-6747
验收	-6748
项目建设	-6749
新京	-6750
有趣	-6751
年轻的	-6752
▁老	-6753
不高	-6754
▁全国	-6755
书院	-6756
带货	-6757
棒球	-6758
节省	-6759
的传统	-6760
山水	-6761
▁Z	-6762
▁宋	-6763
外地	-6764
亚历山大	-6765
一定程度上	-6766
大阪	-6767
仿佛	-6768
指责	-6769
这是一	-6770
▁你	-6771
气候变化	-6772
安全的	-6773
代言	-6774
三个月	-6775
特种	-6776
快速发展	-6777
统计局	-6778
数据中心	-6779
军官	-6780
类别	-6781
中外	-6782
亦是	-6783
维斯	-6784
信息技术	-6785
价比	-6786
差别	-6787
女生	-6788
誉为	-6789
paper	-6790
▁第四	-6791
进入了	-6792
ight	-6793
利的	-6794
市级	-6795
文化和旅游	-6796
总决赛	-6797
上月	-6798
了一场	-6799
底部	-6800
短缺	-6801
遏制	-6802
中日	-6803
独立的	-6804
开支	-6805
传感	-6806
邻居	-6807
预告	-6808
台南	-6809
▁以下	-6810
所在的	-6811
▁家族	-6812
IM	-6813
分化	-6814
六十	-6815
之为	-6816
基准	-6817
▁参考	-6818
宣称	-6819
改名为	-6820
假设	-6821
笔者	-6822
▁按照	-6823
▁另	-6824
涌现	-6825
的战略	-6826
姐妹	-6827
对该	-6828
有过	-6829
orm	-6830
伴随着	-6831
奇迹	-6832
性地	-6833
礼物	-6834
船只	-6835
中小学	-6836
核查	-6837
打了	-6838
绝大多数	-6839
摩托车	-6840
类似的	-6841
GPT	-6842
三分	-6843
华夏	-6844
流出	-6845
融合发展	-6846
秋季	-6847
万达	-6848
下方	-6849
雕塑	-6850
医学院	-6851
燃烧	-6852
街头	-6853
演化	-6854
▁Q	-6855
模样	-6856
蔓延	-6857
光荣	-6858
ach	-6859
被视为	-6860
面临着	-6861
科幻	-6862
之前的	-6863
奥尔	-6864
擅长	-6865
二氧化	-6866
定为	-6867
数千	-6868
代价	-6869
国际化	-6870
▁w	-6871
、《	-6872
定居	-6873
回暖	-6874
年报	-6875
欢乐	-6876
澎湃	-6877
,”	-6878
教室	-6879
如果你	-6880
流感	-6881
的价值	-6882
行政处罚	-6883
市场规模	-6884
ohn	-6885
随意	-6886
的重要性	-6887
大脑	-6888
合伙人	-6889
ech	-6890
上世纪	-6891
直播间	-6892
ug	-6893
:(	-6894
注射	-6895
乡试	-6896
全社会	-6897
不受	-6898
解散	-6899
在与	-6900
也表示	-6901
不幸	-6902
入围	-6903
的意见	-6904
晋升	-6905
说了	-6906
十四五	-6907
行人	-6908
▁就	-6909
大家都	-6910
矛盾纠纷	-6911
加大对	-6912
做得	-6913
基本面	-6914
的一条	-6915
现时	-6916
乒乓	-6917
积极参与	-6918
事宜	-6919
的感觉	-6920
华东	-6921
实践中	-6922
应用于	-6923
后卫	-6924
的标准	-6925
战绩	-6926
走廊	-6927
黑暗	-6928
办公厅	-6929
辛苦	-6930
兵团	-6931
步行	-6932
一生	-6933
只会	-6934
护士	-6935
红球	-6936
扣除	-6937
牵头	-6938
该庄	-6939
各地的	-6940
网民	-6941
领导下	-6942
尼亚州	-6943
有机会	-6944
我不	-6945
春秋	-6946
多方	-6947
落在	-6948
▁平	-6949
▁龙	-6950
大局	-6951
杀人	-6952
滴滴	-6953
称作	-6954
部副部长	-6955
也都	-6956
维埃	-6957
缺陷	-6958
陪伴	-6959
att	-6960
务实	-6961
发生后	-6962
市场需求	-6963
征集	-6964
怎么办	-6965
员的	-6966
宝马	-6967
治愈	-6968
专注于	-6969
环境保护	-6970
抗战	-6971
▁音乐	-6972
下沉	-6973
科创板	-6974
氪经授权发布	-6975
岛屿	-6976
意向	-6977
行政区划	-6978
入学	-6979
业界	-6980
缴费	-6981
并向	-6982
抗击	-6983
问题上	-6984
整车	-6985
ann	-6986
原理	-6987
享有	-6988
数据库	-6989
人民医院	-6990
德的	-6991
马拉松	-6992
巡查	-6993
▁这一	-6994
自身的	-6995
和小	-6996
圆满	-6997
开车	-6998
化名	-6999
党员干部	-7000
入了	-7001
图案	-7002
▁双	-7003
前提	-7004
诺夫	-7005
中级人民法院	-7006
付款	-7007
盗窃	-7008
破解	-7009
发展中国	-7010
卓越	-7011
恶化	-7012
拿着	-7013
视线	-7014
银行业	-7015
可爱	-7016
间接	-7017
集合	-7018
蓬勃	-7019
发育	-7020
早就	-7021
取决	-7022
厨房	-7023
法人	-7024
他就	-7025
的创新	-7026
大地	-7027
乐器	-7028
但也	-7029
独自	-7030
得益于	-7031
不断提高	-7032
美术馆	-7033
英超	-7034
▁Sh	-7035
每人	-7036
追踪	-7037
Sp	-7038
沪深	-7039
服饰	-7040
此举	-7041
了两	-7042
ond	-7043
银河	-7044
波斯	-7045
滨海	-7046
物联网	-7047
出门	-7048
▁最	-7049
幸运	-7050
的内	-7051
国安	-7052
下一个	-7053
电机	-7054
或将	-7055
起义	-7056
多云	-7057
清水	-7058
期满	-7059
加密	-7060
倾斜	-7061
并为	-7062
哪个	-7063
麒麟	-7064
吸引力	-7065
的音乐	-7066
不容	-7067
亲切	-7068
奶奶	-7069
▁受	-7070
季后	-7071
人大常委会	-7072
摧毁	-7073
称赞	-7074
独家	-7075
阴谋	-7076
我们将	-7077
通往	-7078
蛋白质	-7079
很高	-7080
方言	-7081
选出	-7082
ith	-7083
美国总统	-7084
游击	-7085
缩小	-7086
的经验	-7087
急救	-7088
流转	-7089
十二月	-7090
取决于	-7091
中秋	-7092
兼任	-7093
切尔	-7094
的代表	-7095
ice	-7096
▁随后	-7097
该市	-7098
线城市	-7099
行程	-7100
基金经理	-7101
兴起	-7102
亿元的	-7103
女人	-7104
新车	-7105
无需	-7106
文书	-7107
同学们	-7108
相较于	-7109
研究人员	-7110
失踪	-7111
冬天	-7112
的任务	-7113
商会	-7114
罕见	-7115
初中	-7116
▁图片	-7117
大事	-7118
名叫	-7119
管理办法	-7120
分工	-7121
将近	-7122
可以看到	-7123
华南	-7124
等到	-7125
ies	-7126
包容	-7127
姿态	-7128
的人生	-7129
副总理	-7130
无产阶级	-7131
的事实	-7132
被执行人	-7133
春天	-7134
拉开	-7135
曲线	-7136
格里	-7137
格拉	-7138
的第二	-7139
的方向	-7140
足球队	-7141
光绪	-7142
党组书记	-7143
侵害	-7144
报告中	-7145
司长	-7146
减弱	-7147
古城	-7148
较小	-7149
国民党	-7150
并通过	-7151
小康	-7152
价值的	-7153
园林	-7154
历经	-7155
忘记	-7156
太阳能	-7157
制作的	-7158
胡同	-7159
更快	-7160
则在	-7161
了一种	-7162
成交量	-7163
生活在	-7164
二期	-7165
唐朝	-7166
干净	-7167
过多	-7168
违约	-7169
lay	-7170
交响	-7171
本报	-7172
爵士	-7173
男篮	-7174
高地	-7175
安全隐患	-7176
的空间	-7177
竞争对手	-7178
持平	-7179
相连	-7180
性价比	-7181
的就是	-7182
▁当地时间	-7183
关节	-7184
细致	-7185
排水	-7186
要么	-7187
%-	-7188
在过去	-7189
前三季度	-7190
享福利	-7191
美方	-7192
各位	-7193
热线	-7194
召开的	-7195
实业	-7196
法的	-7197
桐乃	-7198
膨胀	-7199
鼓舞	-7200
远的	-7201
消息称	-7202
上学	-7203
门诊	-7204
字母	-7205
大会上	-7206
最后的	-7207
民俗	-7208
巴尔	-7209
准入	-7210
矿业	-7211
要是	-7212
全覆盖	-7213
保养	-7214
病的	-7215
哈萨克	-7216
投资的	-7217
阻碍	-7218
改变了	-7219
型的	-7220
爷爷	-7221
”。“	-7222
新冠肺炎疫情	-7223
已达	-7224
ood	-7225
万里	-7226
资产管理	-7227
惊喜	-7228
起源	-7229
中等	-7230
富有	-7231
亿港元	-7232
和文化	-7233
许可证	-7234
进一步提升	-7235
刘某	-7236
▁每	-7237
般的	-7238
化和	-7239
商务部	-7240
的计划	-7241
当初	-7242
▁那么	-7243
关税	-7244
登录	-7245
▁g	-7246
会对	-7247
深受	-7248
举证	-7249
教训	-7250
表现出	-7251
党政	-7252
取得的	-7253
既是	-7254
走上	-7255
进一步加强	-7256
▁简介	-7257
龙头企业	-7258
武汉市	-7259
回合	-7260
又在	-7261
大门	-7262
任命为	-7263
病情	-7264
上限	-7265
只好	-7266
大涨	-7267
曲目	-7268
▁最近	-7269
数字化转型	-7270
杭州市	-7271
优秀的	-7272
汽油	-7273
有两	-7274
游戏的	-7275
足联	-7276
西侧	-7277
监制	-7278
但我	-7279
祝福	-7280
打出	-7281
赛的	-7282
伯爵	-7283
远离	-7284
颗粒	-7285
月开始	-7286
是我国	-7287
CN	-7288
观赏	-7289
是非常	-7290
关怀	-7291
日本的	-7292
渔业	-7293
演习	-7294
有两个	-7295
基点	-7296
水域	-7297
热度	-7298
▁开	-7299
文创	-7300
留言	-7301
新股	-7302
epaper	-7303
以北	-7304
名誉	-7305
春季	-7306
”?	-7307
就医	-7308
意图	-7309
站点	-7310
▁作者	-7311
IV	-7312
猪肉	-7313
加快推进	-7314
传输	-7315
但却	-7316
真人	-7317
不止	-7318
善于	-7319
日治	-7320
沿着	-7321
▁Al	-7322
使用了	-7323
等相关	-7324
亿美元的	-7325
被人	-7326
长官	-7327
务工	-7328
单打	-7329
隶属	-7330
届全国	-7331
文本	-7332
瓦尔	-7333
银行的	-7334
起初	-7335
也成为	-7336
反映了	-7337
▁新华社北京	-7338
心态	-7339
研判	-7340
奇怪	-7341
州区	-7342
逆转	-7343
的人口	-7344
奢侈	-7345
为主的	-7346
士顿	-7347
太大	-7348
迪亚	-7349
新西兰	-7350
北京大学	-7351
斯顿	-7352
在我	-7353
水平的	-7354
接受了	-7355
中所	-7356
向东	-7357
国道	-7358
温州	-7359
近年	-7360
消费品	-7361
体检	-7362
天空	-7363
饲料	-7364
失误	-7365
芝加	-7366
时空	-7367
流失	-7368
偿还	-7369
教材	-7370
人们的	-7371
女排	-7372
遇难	-7373
各方面	-7374
科的	-7375
终结	-7376
分布在	-7377
单车	-7378
拍照	-7379
时间为	-7380
技艺	-7381
面貌	-7382
海南省	-7383
佛山	-7384
次于	-7385
足球运动员	-7386
old	-7387
双边	-7388
arl	-7389
限度	-7390
斯托	-7391
曾是	-7392
等于	-7393
了自己的	-7394
伴随	-7395
小红	-7396
年期	-7397
ial	-7398
和国际	-7399
的神	-7400
分成	-7401
夯实	-7402
点赞	-7403
农机	-7404
界面	-7405
重症	-7406
的特点	-7407
生产经营	-7408
芝加哥	-7409
后被	-7410
届中国	-7411
合作协议	-7412
攻关	-7413
改建	-7414
正好	-7415
离职	-7416
的角度	-7417
得多	-7418
战友	-7419
热闹	-7420
规格	-7421
IR	-7422
值班	-7423
小平	-7424
布朗	-7425
杠杆	-7426
参与了	-7427
社团	-7428
楼盘	-7429
▁可	-7430
的山	-7431
打卡	-7432
晚报	-7433
的女儿	-7434
▁武	-7435
指令	-7436
的最大	-7437
满了	-7438
停靠	-7439
实际情况	-7440
废除	-7441
▁梁	-7442
ili	-7443
托管	-7444
获批	-7445
不易	-7446
生素	-7447
资本主义	-7448
了他	-7449
奥巴马	-7450
▁个人	-7451
一站	-7452
书面	-7453
起飞	-7454
近代	-7455
ost	-7456
决赛中	-7457
的通知	-7458
▁黑	-7459
圣诞	-7460
外长	-7461
客流	-7462
小程序	-7463
的法律	-7464
▁韩	-7465
筛查	-7466
是一座	-7467
克林	-7468
AS	-7469
着手	-7470
组件	-7471
发行的	-7472
住宿	-7473
赛场	-7474
MS	-7475
适用于	-7476
养老金	-7477
特色的	-7478
的孩子	-7479
开采	-7480
违纪	-7481
▁中华	-7482
出自	-7483
前列	-7484
我说	-7485
月在	-7486
做出了	-7487
有力的	-7488
跨国	-7489
失去了	-7490
%)	-7491
吉利	-7492
还原	-7493
电竞	-7494
的土地	-7495
监局	-7496
脚步	-7497
央企	-7498
得名	-7499
戏曲	-7500
奥斯卡	-7501
万家	-7502
传达	-7503
向南	-7504
新品	-7505
该片	-7506
从严	-7507
橄榄	-7508
知的	-7509
千年	-7510
增至	-7511
歧视	-7512
同时也是	-7513
漂亮	-7514
督导	-7515
一共	-7516
为企业	-7517
效能	-7518
自从	-7519
了许多	-7520
感和	-7521
的目的	-7522
洛夫	-7523
其中的	-7524
▁比如	-7525
发挥了	-7526
飞行员	-7527
暑假	-7528
安娜	-7529
ick	-7530
多样性	-7531
LED	-7532
废弃	-7533
这名	-7534
就没有	-7535
愤怒	-7536
商业模式	-7537
树木	-7538
佛罗	-7539
稳定性	-7540
相邻	-7541
典型的	-7542
报告显示	-7543
灌溉	-7544
牙齿	-7545
归属于	-7546
原先	-7547
女友	-7548
这首	-7549
▁二是	-7550
中新社	-7551
医务	-7552
三名	-7553
和高	-7554
供水	-7555
深耕	-7556
的效果	-7557
薄弱	-7558
组的	-7559
上网	-7560
装箱	-7561
作为一个	-7562
部位	-7563
大股东	-7564
在未来	-7565
电商平台	-7566
邮件	-7567
行走	-7568
责令	-7569
也开始	-7570
不确定性	-7571
部尚书	-7572
减少了	-7573
口碑	-7574
风光	-7575
明确了	-7576
开盘	-7577
风雨	-7578
天猫	-7579
展出	-7580
年同期	-7581
器的	-7582
▁因	-7583
宣告	-7584
寿命	-7585
敦煌	-7586
日后	-7587
模仿	-7588
卡斯	-7589
没能	-7590
的家	-7591
银行卡	-7592
告别	-7593
岩石	-7594
化合物	-7595
的地区	-7596
留守	-7597
蒙特	-7598
生产和	-7599
上方	-7600
十足	-7601
节度使	-7602
新材料	-7603
不存在	-7604
青海省	-7605
丝绸之路	-7606
低位	-7607
感慨	-7608
监护	-7609
城管	-7610
撰写	-7611
中队	-7612
等部门	-7613
君主	-7614
饲养	-7615
个国家	-7616
自有	-7617
战斗机	-7618
便民	-7619
履职	-7620
通过了	-7621
自己在	-7622
ish	-7623
正月	-7624
维恩	-7625
陪同	-7626
坚持以	-7627
之初	-7628
一处	-7629
中欧	-7630
借贷	-7631
女主角	-7632
年均	-7633
控股股东	-7634
到处	-7635
能不能	-7636
Cl	-7637
网易	-7638
素养	-7639
较好	-7640
防空	-7641
它们的	-7642
出具	-7643
全球化	-7644
向好	-7645
脸上	-7646
有许多	-7647
隐藏	-7648
外科	-7649
了不少	-7650
实现营业收入	-7651
微笑	-7652
在地	-7653
整顿	-7654
激活	-7655
合理的	-7656
增进	-7657
希尔	-7658
▁当前	-7659
特兰	-7660
西北部	-7661
ebook	-7662
▁哈	-7663
火爆	-7664
专项行动	-7665
开学	-7666
都将	-7667
推迟	-7668
苏维埃	-7669
中院	-7670
的品牌	-7671
亲属	-7672
茶叶	-7673
)“	-7674
ier	-7675
信用卡	-7676
ide	-7677
跨界	-7678
公交车	-7679
度和	-7680
are	-7681
iz	-7682
大兴	-7683
奔驰	-7684
少数民族	-7685
泊尔	-7686
以南	-7687
幻想	-7688
XX	-7689
迫切	-7690
公元前	-7691
勇气	-7692
东侧	-7693
旋律	-7694
水位	-7695
行长	-7696
政治局	-7697
造车	-7698
平面	-7699
电车	-7700
不断地	-7701
中断	-7702
气象台	-7703
▁市	-7704
纪检	-7705
者按	-7706
专区	-7707
建国	-7708
希望能	-7709
▁说	-7710
本月	-7711
工作会议	-7712
佩戴	-7713
想起	-7714
per	-7715
共产主义	-7716
大理	-7717
本市	-7718
作的	-7719
及相关	-7720
塞尔维亚	-7721
情怀	-7722
开发的	-7723
重要作用	-7724
外围	-7725
age	-7726
和解	-7727
万科	-7728
促销	-7729
期刊	-7730
▁Ar	-7731
稍微	-7732
▁神	-7733
▁经济	-7734
共和党	-7735
约合	-7736
贯通	-7737
大风	-7738
纪念馆	-7739
进去	-7740
制定了	-7741
计划的	-7742
但不	-7743
旅游业	-7744
教科	-7745
很可能	-7746
总面积	-7747
试验区	-7748
阵营	-7749
ett	-7750
前者	-7751
超出	-7752
就是要	-7753
抓手	-7754
商品房	-7755
外来	-7756
时至	-7757
颁布	-7758
招股书	-7759
二维	-7760
装机	-7761
已经被	-7762
结束了	-7763
刚才	-7764
RO	-7765
陈某	-7766
京都	-7767
八十	-7768
监委	-7769
现已	-7770
里克	-7771
bert	-7772
本赛季	-7773
以下的	-7774
DNA	-7775
委员会主席	-7776
现金流	-7777
分级	-7778
备战	-7779
▁这种	-7780
价格上涨	-7781
迁移	-7782
不安	-7783
还未	-7784
ear	-7785
AD	-7786
的教育	-7787
人对	-7788
首播	-7789
CPI	-7790
瞄准	-7791
其中有	-7792
要想	-7793
在南	-7794
众议院	-7795
分割	-7796
卫队	-7797
符号	-7798
年纪	-7799
和美国	-7800
在这种	-7801
的人才	-7802
不行	-7803
房地产市场	-7804
▁福	-7805
出手	-7806
但其	-7807
面试	-7808
公共卫生	-7809
厂家	-7810
ss	-7811
农药	-7812
发了	-7813
查理	-7814
十八大	-7815
房贷	-7816
选项	-7817
减排	-7818
难点	-7819
让你	-7820
体育馆	-7821
▁两	-7822
二战	-7823
和中	-7824
体现在	-7825
的其他	-7826
尴尬	-7827
送往	-7828
并由	-7829
留学生	-7830
受贿	-7831
灾区	-7832
的前提下	-7833
个人的	-7834
沿革	-7835
浪潮	-7836
灾难	-7837
看待	-7838
大豆	-7839
闻名	-7840
级联赛	-7841
▁The	-7842
出道	-7843
给你	-7844
在那里	-7845
姓名	-7846
宣言	-7847
▁近期	-7848
的母亲	-7849
Th	-7850
菲利	-7851
将从	-7852
网点	-7853
批判	-7854
妥善	-7855
漏洞	-7856
四季度	-7857
那是	-7858
SUV	-7859
完成后	-7860
激情	-7861
他曾	-7862
步骤	-7863
测算	-7864
批次	-7865
▁世界	-7866
表态	-7867
助攻	-7868
征求意见	-7869
下令	-7870
我省	-7871
叫做	-7872
中式	-7873
Mar	-7874
需要的	-7875
刷新	-7876
出院	-7877
前锋	-7878
那就是	-7879
水上	-7880
的人们	-7881
工委	-7882
邻近	-7883
会场	-7884
炸弹	-7885
公立	-7886
杰出	-7887
胜出	-7888
影响了	-7889
抓紧	-7890
航运	-7891
ary	-7892
旅行社	-7893
不一	-7894
公报	-7895
这里的	-7896
月末	-7897
阶段性	-7898
还包括	-7899
在西	-7900
捐款	-7901
三千	-7902
全天	-7903
体系建设	-7904
储存	-7905
’。”	-7906
前所	-7907
劳务	-7908
将领	-7909
提质	-7910
其中一个	-7911
厕所	-7912
居然	-7913
和经济	-7914
型号	-7915
——“	-7916
操纵	-7917
被动	-7918
在世界	-7919
双手	-7920
糖尿	-7921
路面	-7922
一台	-7923
在对	-7924
也需要	-7925
预制	-7926
本轮	-7927
转运	-7928
仅次于	-7929
已是	-7930
参与者	-7931
me	-7932
相同的	-7933
无线电视	-7934
总计	-7935
玫瑰	-7936
程度的	-7937
成年	-7938
全资	-7939
尼奥	-7940
恐惧	-7941
生活方式	-7942
▁具体	-7943
水质	-7944
▁&	-7945
开门	-7946
ment	-7947
死于	-7948
催化	-7949
多为	-7950
日从	-7951
不便	-7952
传感器	-7953
创作的	-7954
额外	-7955
器官	-7956
战线	-7957
顺序	-7958
的存在	-7959
虚构	-7960
国防部	-7961
向北	-7962
并被	-7963
薪酬	-7964
说服	-7965
中国科学院	-7966
内容的	-7967
庞大的	-7968
新中国	-7969
服务平台	-7970
血压	-7971
房源	-7972
绩效	-7973
国民经济	-7974
人身	-7975
干线	-7976
等活动	-7977
周一	-7978
等重点	-7979
录制	-7980
运动的	-7981
后方	-7982
工匠	-7983
金钱	-7984
德斯	-7985
教导	-7986
无关	-7987
金刚	-7988
日消息	-7989
GB	-7990
的收入	-7991
组织开展	-7992
精灵	-7993
赶紧	-7994
und	-7995
创新发展	-7996
上来	-7997
祝贺	-7998
足球俱乐部	-7999
ix	-8000
支付宝	-8001
▁田	-8002
底层	-8003
灵感	-8004
基础设施建设	-8005
布斯	-8006
到现在	-8007
在校	-8008
运送	-8009
持有的	-8010
与之	-8011
歌唱	-8012
白云	-8013
博士学位	-8014
充分利用	-8015
▁加	-8016
三亚	-8017
与发展	-8018
等情况	-8019
路的	-8020
动漫	-8021
弟子	-8022
摩根	-8023
坚强	-8024
亚运	-8025
好处	-8026
五一	-8027
的研发	-8028
图为	-8029
示威	-8030
纳米	-8031
不时	-8032
另一种	-8033
有权	-8034
已经是	-8035
团的	-8036
弗里	-8037
在网上	-8038
世锦赛	-8039
个性化	-8040
的选择	-8041
世代	-8042
股东的	-8043
水中	-8044
二十大	-8045
鱼类	-8046
街区	-8047
累积	-8048
尼泊尔	-8049
脂肪	-8050
集装箱	-8051
▁中央	-8052
一看	-8053
他为	-8054
少将	-8055
享年	-8056
灯光	-8057
的销售	-8058
人是	-8059
迎来了	-8060
在这一	-8061
的四	-8062
的马	-8063
十一月	-8064
屋顶	-8065
求助	-8066
长征	-8067
被害	-8068
限购	-8069
夺取	-8070
主营业务	-8071
丧失	-8072
截图	-8073
高等学校	-8074
详情	-8075
管理和	-8076
偶尔	-8077
撤离	-8078
去做	-8079
把它	-8080
主帅	-8081
奖章	-8082
一手	-8083
的人物	-8084
的关注	-8085
▁故事	-8086
事物	-8087
弥补	-8088
英寸	-8089
输送	-8090
时常	-8091
新模式	-8092
资源的	-8093
智利	-8094
颁奖典礼	-8095
精确	-8096
了几	-8097
准则	-8098
▁家庭	-8099
极限	-8100
老家	-8101
冷静	-8102
难民	-8103
招募	-8104
时间的	-8105
多月	-8106
国家和地区	-8107
了一批	-8108
大雨	-8109
频频	-8110
二手房	-8111
生产线	-8112
它在	-8113
深夜	-8114
西南部	-8115
降低了	-8116
照明	-8117
领地	-8118
仍未	-8119
▁报道称	-8120
两市	-8121
▁无	-8122
会儿	-8123
哈哈	-8124
发酵	-8125
格林	-8126
云计算	-8127
▁一是	-8128
我们也	-8129
排行榜	-8130
不服	-8131
撞击	-8132
贫困户	-8133
解决问题	-8134
VD	-8135
名录	-8136
的身份	-8137
明朝政治人物	-8138
▁学校	-8139
兼职	-8140
的家庭	-8141
称呼	-8142
安市	-8143
损伤	-8144
增设	-8145
川县	-8146
至关	-8147
预备	-8148
AA	-8149
个月的	-8150
一层	-8151
优异	-8152
分数	-8153
酒精	-8154
和他的	-8155
复产	-8156
证券交易所	-8157
可惜	-8158
气的	-8159
ank	-8160
施行	-8161
桂林	-8162
玩法	-8163
台阶	-8164
着眼	-8165
曼联	-8166
但从	-8167
北侧	-8168
早晨	-8169
何时	-8170
扫描	-8171
矿山	-8172
举办了	-8173
称之为	-8174
宗旨	-8175
专业化	-8176
▁Com	-8177
交界	-8178
剩下	-8179
标注	-8180
酒吧	-8181
渴望	-8182
省道台	-8183
光学	-8184
单位的	-8185
扬州	-8186
们在	-8187
▁活动	-8188
会出现	-8189
▁永	-8190
新闻发布会上	-8191
看得	-8192
委员会委员	-8193
将达到	-8194
因其	-8195
她是	-8196
折叠	-8197
火热	-8198
身亡	-8199
PE	-8200
促进了	-8201
防线	-8202
化妆品	-8203
不低于	-8204
他于	-8205
五千	-8206
海底	-8207
他将	-8208
和支持	-8209
成都市	-8210
巨人	-8211
望远	-8212
的重大	-8213
勇敢	-8214
占用	-8215
对他	-8216
头衔	-8217
谈及	-8218
道光	-8219
▁法国	-8220
的概念	-8221
裁定	-8222
mer	-8223
义大利	-8224
的意思	-8225
前面	-8226
预售	-8227
子上	-8228
水源	-8229
播种	-8230
较快	-8231
传闻	-8232
参数	-8233
莱坞	-8234
尸体	-8235
简化	-8236
技术人员	-8237
的王	-8238
为主要	-8239
天天	-8240
耶稣	-8241
遗漏	-8242
纠正	-8243
了一条	-8244
不懂	-8245
开口	-8246
大胆	-8247
警务	-8248
影院	-8249
粤语	-8250
等一系列	-8251
八一	-8252
元左右	-8253
日发布	-8254
敢于	-8255
风云	-8256
军民	-8257
▁将	-8258
▁特	-8259
音乐会	-8260
国有企业	-8261
人民代表大会	-8262
店的	-8263
穿过	-8264
副会长	-8265
救护	-8266
日记	-8267
中发现	-8268
pen	-8269
说过	-8270
手法	-8271
贵阳	-8272
打印	-8273
江市	-8274
共青	-8275
一个个	-8276
出让	-8277
打进	-8278
GC	-8279
第一季度	-8280
挑选	-8281
风貌	-8282
的一位	-8283
不清	-8284
一群	-8285
的重点	-8286
量为	-8287
出动	-8288
的业务	-8289
高新技术	-8290
军在	-8291
加尔	-8292
征服	-8293
价为	-8294
入场	-8295
▁清	-8296
招标	-8297
支配	-8298
铁矿	-8299
都需要	-8300
飞船	-8301
这种情况	-8302
上场	-8303
医疗器械	-8304
act	-8305
和管理	-8306
入住	-8307
度过	-8308
天府	-8309
浩特	-8310
商贸	-8311
变异	-8312
社报道	-8313
磷酸	-8314
廉洁	-8315
美国人	-8316
主线	-8317
先进的	-8318
比特币	-8319
▁Sch	-8320
创新创业	-8321
支柱	-8322
混凝	-8323
▁真	-8324
宝宝	-8325
防卫	-8326
fin	-8327
头发	-8328
水面	-8329
中国市场	-8330
制度的	-8331
缺席	-8332
果然	-8333
大同	-8334
足够的	-8335
归属	-8336
瓶颈	-8337
有一种	-8338
的艺术	-8339
大卫	-8340
会同	-8341
沿岸	-8342
颠覆	-8343
放射	-8344
行为的	-8345
美国政府	-8346
叙述	-8347
自家	-8348
智库	-8349
炒作	-8350
给我们	-8351
总共	-8352
月下旬	-8353
的话题	-8354
的一年	-8355
实际行动	-8356
在当地	-8357
日举行	-8358
BN	-8359
逐年	-8360
中长期	-8361
之女	-8362
移植	-8363
答应	-8364
数据的	-8365
官至	-8366
文中	-8367
建材	-8368
弹性	-8369
当今	-8370
空白	-8371
上课	-8372
存在着	-8373
也对	-8374
序列	-8375
▁游戏	-8376
诺贝尔	-8377
的对	-8378
北海道	-8379
中全会	-8380
省政府	-8381
宾馆	-8382
ME	-8383
New	-8384
▁许	-8385
加深	-8386
核电	-8387
了一下	-8388
检察官	-8389
卫生健康	-8390
为代表的	-8391
搭档	-8392
▁杜	-8393
字节	-8394
十余	-8395
身高	-8396
降息	-8397
生物学	-8398
产品质量	-8399
俄国	-8400
橡胶	-8401
外援	-8402
乒乓球	-8403
村委会	-8404
督察	-8405
疑问	-8406
混凝土	-8407
IF	-8408
的用户	-8409
▁吉	-8410
在京	-8411
事迹	-8412
花了	-8413
▁a	-8414
▁编者按	-8415
就把	-8416
厉害	-8417
前行	-8418
现存	-8419
乘用车	-8420
盘中	-8421
多万元	-8422
地亚	-8423
生产力	-8424
国际社会	-8425
勇士	-8426
已经开始	-8427
现今	-8428
轮胎	-8429
历史文化	-8430
强烈的	-8431
流水	-8432
是香港	-8433
实际控制	-8434
不下	-8435
冻结	-8436
理事长	-8437
乌拉	-8438
增添	-8439
珠宝	-8440
的花	-8441
但仍	-8442
党内	-8443
岁月	-8444
田径	-8445
武术	-8446
最大限度	-8447
了吧	-8448
即时	-8449
引发了	-8450
▁科	-8451
穆斯	-8452
和企业	-8453
模糊	-8454
精密	-8455
缺口	-8456
▁再	-8457
行李	-8458
以内	-8459
口径	-8460
QQ	-8461
理查	-8462
回了	-8463
电力机车	-8464
版的	-8465
app	-8466
马丁	-8467
侦察	-8468
周五	-8469
不容易	-8470
厂的	-8471
发表了	-8472
▁欧洲	-8473
经济体	-8474
各项工作	-8475
只需	-8476
▁荣誉	-8477
线上线下	-8478
削减	-8479
居委会	-8480
工信	-8481
其实是	-8482
天文学	-8483
城镇化	-8484
亲子	-8485
悬挂	-8486
掀起	-8487
不同于	-8488
的日子	-8489
电源	-8490
衡量	-8491
递交	-8492
。”“	-8493
推测	-8494
ris	-8495
医护人员	-8496
乡道	-8497
平民	-8498
年美国	-8499
平常	-8500
旅馆	-8501
会不会	-8502
波士顿	-8503
中将	-8504
内有	-8505
▁赫萝	-8506
接下来的	-8507
资料显示	-8508
弗雷	-8509
的可	-8510
该剧	-8511
昨晚	-8512
极大的	-8513
文化旅游	-8514
反动	-8515
心灵	-8516
陶瓷	-8517
鸡蛋	-8518
安县	-8519
晚会	-8520
已完成	-8521
之声	-8522
及以上	-8523
明明	-8524
绍兴	-8525
一声	-8526
致使	-8527
建筑师	-8528
美容	-8529
加利福	-8530
党组成员	-8531
更容易	-8532
伯格	-8533
生理	-8534
ram	-8535
器材	-8536
座位	-8537
拼多多	-8538
这样一个	-8539
只不过	-8540
疼痛	-8541
直属	-8542
的功能	-8543
北魏	-8544
畜牧	-8545
联通	-8546
审美	-8547
(《	-8548
不含	-8549
抱着	-8550
▁炒股开户	-8551
别墅	-8552
格雷	-8553
受害者	-8554
领导的	-8555
了一份	-8556
分校	-8557
延期	-8558
▁未来	-8559
上市的	-8560
达人	-8561
千里	-8562
始于	-8563
行使	-8564
赫尔	-8565
糖尿病	-8566
不当	-8567
战国	-8568
次会议	-8569
篇小说	-8570
三四	-8571
社会治理	-8572
的做法	-8573
希望通过	-8574
传出	-8575
售卖	-8576
拯救	-8577
歌舞	-8578
绿地	-8579
在他的	-8580
市场预期	-8581
为新	-8582
慢性	-8583
简历	-8584
生产总值	-8585
厂房	-8586
编曲	-8587
续航	-8588
车身	-8589
巨额	-8590
ung	-8591
将与	-8592
的钱	-8593
让更多	-8594
全局	-8595
现有的	-8596
锁定	-8597
动力电池	-8598
国家公园	-8599
殖民地	-8600
修道	-8601
买了	-8602
兼顾	-8603
彩票	-8604
约瑟	-8605
空气质量	-8606
结局	-8607
规模的	-8608
▁内	-8609
。。	-8610
落成	-8611
闭环	-8612
旋转	-8613
股本	-8614
有不少	-8615
乌鲁	-8616
跨度	-8617
OR	-8618
壁垒	-8619
参议院	-8620
最美	-8621
科学研究	-8622
之星	-8623
教宗	-8624
地形	-8625
容纳	-8626
放开	-8627
规模化	-8628
一一	-8629
于此	-8630
遇到了	-8631
",	-8632
盲目	-8633
人间	-8634
用药	-8635
认为是	-8636
良性	-8637
新冠疫情	-8638
尔街	-8639
油气	-8640
建设项目	-8641
时间里	-8642
互补	-8643
干事	-8644
攀升	-8645
记者在	-8646
田间	-8647
怎样的	-8648
分解	-8649
廉政	-8650
维多	-8651
闭幕	-8652
数额	-8653
时长	-8654
发展中国家	-8655
伊利	-8656
中说	-8657
用心	-8658
布里	-8659
恶意	-8660
政府部门	-8661
惊讶	-8662
个城市	-8663
MP	-8664
就看	-8665
平凡	-8666
加之	-8667
▁我国	-8668
发病	-8669
均在	-8670
被困	-8671
牛奶	-8672
论证	-8673
这笔	-8674
新媒体	-8675
一词	-8676
不顾	-8677
烟台	-8678
即位	-8679
城际	-8680
的游戏	-8681
短期大学	-8682
▁谢	-8683
他又	-8684
村落	-8685
市中心	-8686
天后	-8687
定向	-8688
广泛的	-8689
时表示	-8690
大部	-8691
海淀	-8692
行业发展	-8693
▁米	-8694
皮书	-8695
展现了	-8696
SP	-8697
派的	-8698
惠民	-8699
日和	-8700
以外的	-8701
变形	-8702
综合性	-8703
上证	-8704
褐色	-8705
▁资料图	-8706
率达	-8707
过剩	-8708
▁花	-8709
会晤	-8710
多彩	-8711
数为	-8712
ork	-8713
也因此	-8714
执教	-8715
接著	-8716
投手	-8717
的想法	-8718
克劳	-8719
军方	-8720
行车	-8721
重启	-8722
JR	-8723
使馆	-8724
剧团	-8725
巴斯	-8726
据此	-8727
持仓	-8728
但因	-8729
国旗	-8730
耶夫	-8731
用人单位	-8732
景象	-8733
马力	-8734
的成功	-8735
工作组	-8736
格鲁	-8737
进来	-8738
▁他们	-8739
折扣	-8740
岛上	-8741
是他	-8742
自豪	-8743
▁雷	-8744
三峡	-8745
入金	-8746
选区	-8747
Met	-8748
。)	-8749
南侧	-8750
来临	-8751
认购	-8752
望远镜	-8753
战的	-8754
制止	-8755
的一名	-8756
什么样的	-8757
▁单	-8758
比起	-8759
特殊的	-8760
抢险	-8761
ld	-8762
任期	-8763
在英国	-8764
更具	-8765
等的	-8766
ert	-8767
比赛的	-8768
旺季	-8769
歌词	-8770
患有	-8771
泡沫	-8772
的样子	-8773
不久前	-8774
选秀	-8775
召回	-8776
最新的	-8777
溢价	-8778
场合	-8779
盆地	-8780
奖牌	-8781
据说	-8782
高尔夫	-8783
领队	-8784
封锁	-8785
选为	-8786
场面	-8787
▁六	-8788
民用	-8789
油田	-8790
宣传部	-8791
朋友们	-8792
的有效	-8793
全过程	-8794
财物	-8795
投身	-8796
尾巴	-8797
局地	-8798
总队	-8799
搜救	-8800
住房公积金	-8801
真理	-8802
能够在	-8803
卫健	-8804
轨迹	-8805
钥匙	-8806
碳排放	-8807
禁毒	-8808
▁法	-8809
被发现	-8810
话语	-8811
新产品	-8812
洛伐	-8813
迫使	-8814
增长了	-8815
诠释	-8816
特大	-8817
SZ	-8818
Wh	-8819
牌照	-8820
那就	-8821
兴业	-8822
分区	-8823
职员	-8824
是否有	-8825
和对	-8826
在第	-8827
矩阵	-8828
聘请	-8829
拥抱	-8830
木材	-8831
住户	-8832
全场	-8833
发文	-8834
命中	-8835
传染病	-8836
没什么	-8837
新年	-8838
阿尔巴	-8839
弗拉	-8840
范畴	-8841
摄像头	-8842
的建议	-8843
集团公司	-8844
▁主	-8845
说不	-8846
aa	-8847
反击	-8848
往年	-8849
钓鱼	-8850
co	-8851
一九七	-8852
男友	-8853
大力发展	-8854
泉州	-8855
大联盟	-8856
▁叶	-8857
人社	-8858
赌博	-8859
III	-8860
学生们	-8861
众人	-8862
水电	-8863
白宫	-8864
BM	-8865
女神	-8866
又一	-8867
node	-8868
实习生	-8869
的消费	-8870
▁夏	-8871
模特	-8872
篇章	-8873
领军	-8874
不合格	-8875
的一家	-8876
宣传活动	-8877
打败	-8878
umber	-8879
弗朗	-8880
开源	-8881
相对于	-8882
▁欧	-8883
故乡	-8884
台上	-8885
温和	-8886
不禁	-8887
个基点	-8888
的一大	-8889
偶然	-8890
碎片	-8891
入球	-8892
没有人	-8893
女足	-8894
信息的	-8895
ire	-8896
▁)	-8897
前方	-8898
联手	-8899
城墙	-8900
仍然是	-8901
光大	-8902
俄乌	-8903
历时	-8904
失望	-8905
买家	-8906
异地	-8907
首家	-8908
首尔	-8909
开发者	-8910
河流域	-8911
以其	-8912
怀孕	-8913
难道	-8914
的发生	-8915
进出	-8916
差异化	-8917
的局面	-8918
设置了	-8919
人类的	-8920
机械化	-8921
收缩	-8922
集结	-8923
疾控	-8924
阿姨	-8925
驱逐舰	-8926
第二季度	-8927
值为	-8928
轻易	-8929
司令部	-8930
要加强	-8931
丽莎	-8932
交汇	-8933
工业和	-8934
并止于	-8935
长期以来	-8936
pt	-8937
接力	-8938
西里	-8939
战中	-8940
替补	-8941
洛斯	-8942
所有人	-8943
指导下	-8944
一句	-8945
但是在	-8946
发展战略	-8947
米亚	-8948
评分	-8949
ect	-8950
季后赛	-8951
sk	-8952
直言	-8953
路易斯	-8954
援引	-8955
科技成果	-8956
外媒	-8957
申请人	-8958
▁到	-8959
而后	-8960
七十	-8961
书画	-8962
进化	-8963
农家	-8964
怎么样	-8965
初级	-8966
慕容	-8967
结合起来	-8968
接入	-8969
Fac	-8970
制作人	-8971
农牧	-8972
▁分类	-8973
改良	-8974
巴嫩	-8975
高标准	-8976
的斗争	-8977
格外	-8978
郎中	-8979
可控	-8980
曾于	-8981
为他	-8982
牡丹	-8983
黎巴嫩	-8984
提琴	-8985
灭绝	-8986
eam	-8987
史密	-8988
总台	-8989
抚养	-8990
德意志	-8991
严格的	-8992
宏观经济	-8993
屠杀	-8994
桃园	-8995
返乡	-8996
环卫	-8997
边防	-8998
写了	-8999
走出去	-9000
我们认为	-9001
包裹	-9002
省长	-9003
有一定	-9004
置业	-9005
ory	-9006
左右的	-9007
land	-9008
急需	-9009
曾被	-9010
不愿意	-9011
增加到	-9012
资产阶级	-9013
作案	-9014
绿色发展	-9015
大幅度	-9016
报告期内	-9017
从业人员	-9018
文化交流	-9019
干旱	-9020
损坏	-9021
工业化	-9022
英里	-9023
元红包	-9024
加班	-9025
▁北京市	-9026
亲戚	-9027
各族	-9028
联席	-9029
现代农业	-9030
储蓄	-9031
遗迹	-9032
薇娅	-9033
主义者	-9034
和国家	-9035
块钱	-9036
一样的	-9037
向记者	-9038
爱德华	-9039
太守	-9040
)、《	-9041
位于中国	-9042
通风	-9043
在欧洲	-9044
还有一个	-9045
罗德	-9046
要坚持	-9047
职场	-9048
中毒	-9049
自律	-9050
死了	-9051
联想	-9052
大中	-9053
可通过	-9054
兑现	-9055
无可	-9056
共青团	-9057
擅自	-9058
运载	-9059
拉萨	-9060
依次	-9061
就连	-9062
战争的	-9063
小时内	-9064
光明日报	-9065
高雄	-9066
ata	-9067
法兰克	-9068
主要有	-9069
杯冠军	-9070
的金	-9071
iss	-9072
改装	-9073
日宣布	-9074
往返	-9075
规范化	-9076
建立健全	-9077
两项	-9078
孔子	-9079
的趋势	-9080
博弈	-9081
的主题	-9082
odel	-9083
中国政府	-9084
必须要	-9085
收到了	-9086
蛋糕	-9087
用工	-9088
指的是	-9089
字号	-9090
革新	-9091
离开了	-9092
管理层	-9093
助手	-9094
▁过去	-9095
男主角	-9096
▁□	-9097
载人	-9098
主事	-9099
二维码	-9100
这句话	-9101
北斗	-9102
步枪	-9103
牢牢	-9104
超额	-9105
睡觉	-9106
▁其次	-9107
子弹	-9108
死者	-9109
缩减	-9110
股民	-9111
猜测	-9112
ence	-9113
曹操	-9114
:《【	-9115
形式的	-9116
科技大学	-9117
的成员	-9118
信息披露	-9119
网约	-9120
抑郁	-9121
升任	-9122
深厚	-9123
也可能	-9124
春运	-9125
互联互通	-9126
医疗服务	-9127
发达国家	-9128
律师事务所	-9129
所说	-9130
罗夫	-9131
又一次	-9132
之一的	-9133
CR	-9134
用好	-9135
预订	-9136
的压力	-9137
高质量发展的	-9138
是很	-9139
配件	-9140
rit	-9141
现行	-9142
谣言	-9143
变速	-9144
标杆	-9145
难得	-9146
细则	-9147
自助	-9148
季报	-9149
加利亚	-9150
有关规定	-9151
代谢	-9152
报导	-9153
战争中	-9154
太后	-9155
合金	-9156
达标	-9157
净化	-9158
阐述	-9159
净流入	-9160
自由贸易	-9161
交会	-9162
低温	-9163
布雷	-9164
榜样	-9165
gle	-9166
无力	-9167
女演员	-9168
不已	-9169
各有	-9170
奥迪	-9171
诸如	-9172
公共交通	-9173
批复	-9174
民意	-9175
还表示	-9176
产物	-9177
安心	-9178
山村	-9179
删除	-9180
▁Th	-9181
中场	-9182
前夕	-9183
惩罚	-9184
体操	-9185
末期	-9186
通关	-9187
一年的	-9188
线路口	-9189
路边	-9190
劳工	-9191
东京都	-9192
奶粉	-9193
有色	-9194
帮助下	-9195
上下游	-9196
监督管理局	-9197
例行	-9198
实施方案	-9199
的一系列	-9200
安全性	-9201
计划在	-9202
如果没有	-9203
▁除	-9204
参谋长	-9205
放置	-9206
理会	-9207
ash	-9208
不仅仅是	-9209
承接	-9210
摇滚	-9211
犹豫	-9212
南京市	-9213
政治家	-9214
火锅	-9215
艾伦	-9216
的权利	-9217
铁路局	-9218
▁若	-9219
入金抽	-9220
▁今年以来	-9221
设立了	-9222
东路	-9223
手工	-9224
创业者	-9225
最早的	-9226
族自治区	-9227
宁德时代	-9228
李克	-9229
求职	-9230
实效	-9231
阵雨	-9232
出局	-9233
更重要的是	-9234
华裔	-9235
口腔	-9236
我很	-9237
了一次	-9238
意义的	-9239
灰色	-9240
▁俄罗斯	-9241
小微企业	-9242
约占	-9243
和个人	-9244
稳增长	-9245
手指	-9246
两会	-9247
好事	-9248
食性	-9249
体制改革	-9250
角逐	-9251
监管部门	-9252
年第	-9253
满满	-9254
授课	-9255
星系	-9256
裁员	-9257
为国家	-9258
我们会	-9259
区人民法院	-9260
得出	-9261
双打	-9262
学金	-9263
辩论	-9264
的专业	-9265
共同努力	-9266
格斯	-9267
检修	-9268
养老保险	-9269
前线	-9270
座椅	-9271
热议	-9272
尼日	-9273
引人	-9274
支流	-9275
木齐	-9276
的一份	-9277
撤退	-9278
被誉为	-9279
呼和	-9280
少量	-9281
扫码	-9282
是谁	-9283
年全国	-9284
是一项	-9285
江湖	-9286
▁http	-9287
售票	-9288
近几年	-9289
足球联赛	-9290
既要	-9291
职业教育	-9292
医院的	-9293
好莱坞	-9294
电影的	-9295
庄村	-9296
当成	-9297
住建	-9298
战机	-9299
克萨斯	-9300
首轮	-9301
▁**【	-9302
城中	-9303
的热情	-9304
乌鲁木齐	-9305
-----	-9306
户口	-9307
做大	-9308
几位	-9309
开行	-9310
奠定了	-9311
新京报记者	-9312
下达	-9313
拆迁	-9314
一站式	-9315
环境下	-9316
传教	-9317
吐槽	-9318
地名	-9319
珍贵	-9320
ame	-9321
▁答	-9322
利于	-9323
长子	-9324
率达到	-9325
清代	-9326
直辖	-9327
缺点	-9328
新设	-9329
校友	-9330
省的	-9331
巴拉	-9332
还款	-9333
维也	-9334
生态系统	-9335
接替	-9336
▁Un	-9337
理财产品	-9338
一所	-9339
咱们	-9340
几百	-9341
车内	-9342
日于	-9343
光电	-9344
导致的	-9345
西路	-9346
研讨会	-9347
跨境电商	-9348
别的	-9349
重心	-9350
人们对	-9351
有效地	-9352
留下了	-9353
手里	-9354
类型的	-9355
卡罗	-9356
攻势	-9357
晚期	-9358
浏览	-9359
排名第	-9360
创新的	-9361
儿女	-9362
岛的	-9363
合同纠纷	-9364
设在	-9365
通告	-9366
限定	-9367
同样的	-9368
中国国家	-9369
盈利能力	-9370
大军	-9371
制成	-9372
深入推进	-9373
签署了	-9374
民办	-9375
▁八	-9376
分开	-9377
产销	-9378
拨打	-9379
体内	-9380
哪儿	-9381
大学教授	-9382
现代化的	-9383
▁另一方面	-9384
FC	-9385
推特	-9386
航行	-9387
山口	-9388
口味	-9389
尤为	-9390
延安	-9391
忙碌	-9392
Wind	-9393
任意	-9394
神圣	-9395
福德	-9396
情的	-9397
时隔	-9398
教育局	-9399
栽培	-9400
一职	-9401
而这	-9402
却在	-9403
进驻	-9404
是通过	-9405
疫情期间	-9406
气息	-9407
我们就	-9408
哪怕	-9409
的情形	-9410
采取了	-9411
预制菜	-9412
山上	-9413
世纪的	-9414
提倡	-9415
法典	-9416
建立起	-9417
旧金山	-9418
抢劫	-9419
名额	-9420
阿尔及	-9421
法学	-9422
萨拉	-9423
选民	-9424
减免	-9425
玩笑	-9426
驾车	-9427
较强	-9428
孟加拉	-9429
研究的	-9430
国足	-9431
副本	-9432
同一个	-9433
向西	-9434
比尔	-9435
社长	-9436
基金的	-9437
俗称	-9438
统一的	-9439
适宜	-9440
带到	-9441
后来的	-9442
上传	-9443
会展	-9444
适度	-9445
棋士	-9446
互利	-9447
收窄	-9448
证件	-9449
人口的	-9450
一颗	-9451
内亚	-9452
南路	-9453
满洲	-9454
创作者	-9455
乘车	-9456
泄露	-9457
小时的	-9458
商行	-9459
聪明	-9460
贬值	-9461
和他	-9462
采样	-9463
正在进行	-9464
笑着	-9465
要以	-9466
负责人表示	-9467
最高人民法院	-9468
普鲁	-9469
动车组	-9470
▁三是	-9471
应用场景	-9472
核心技术	-9473
▁斯	-9474
痛点	-9475
采摘	-9476
布政	-9477
得主	-9478
党的二十大	-9479
热潮	-9480
逃离	-9481
ae	-9482
保定	-9483
深交所	-9484
不成	-9485
原型	-9486
美好的	-9487
iel	-9488
MO	-9489
不让	-9490
污染物	-9491
oogle	-9492
报酬	-9493
一直以来	-9494
都督	-9495
获得的	-9496
CT	-9497
仓储	-9498
价的	-9499
切入	-9500
常年	-9501
语的	-9502
效力于	-9503
类似于	-9504
+”	-9505
简直	-9506
糟糕	-9507
居住在	-9508
全域	-9509
罗伯特	-9510
世界和平	-9511
公安部	-9512
是如何	-9513
第二轮	-9514
的比赛中	-9515
▁而在	-9516
农作物	-9517
成为一个	-9518
巴克	-9519
来到了	-9520
后再	-9521
波音	-9522
严禁	-9523
旧址	-9524
节假日	-9525
一来	-9526
英勇	-9527
这支	-9528
地在	-9529
ley	-9530
今晚	-9531
出国	-9532
函数	-9533
生产基地	-9534
捷克	-9535
▁七	-9536
下列	-9537
穆斯林	-9538
cm	-9539
开花	-9540
观音	-9541
解答	-9542
▁卢	-9543
制订	-9544
背鳍	-9545
片的	-9546
原有的	-9547
提高到	-9548
创投	-9549
比例为	-9550
洛伐克	-9551
维也纳	-9552
巡抚	-9553
延迟	-9554
▁一位	-9555
▁Sp	-9556
索尼	-9557
健康的	-9558
Un	-9559
祭祀	-9560
▁人	-9561
书的	-9562
球的	-9563
初创	-9564
复活	-9565
本案	-9566
ames	-9567
别克	-9568
沉默	-9569
发表声明	-9570
尔顿	-9571
游玩	-9572
精细	-9573
突出的	-9574
勒斯	-9575
贝克	-9576
▁汉	-9577
号为	-9578
社会各界	-9579
工伤	-9580
注册资本	-9581
打入	-9582
的无	-9583
主办的	-9584
双重	-9585
歌剧	-9586
的区域	-9587
的行动	-9588
NG	-9589
▁参	-9590
全面推进	-9591
攻打	-9592
步入	-9593
不完全	-9594
▁位于	-9595
万余元	-9596
物体	-9597
enn	-9598
两周	-9599
▁来自	-9600
不懈	-9601
江县	-9602
跑道	-9603
按规定	-9604
该区	-9605
波尔	-9606
购置	-9607
暗示	-9608
合作关系	-9609
日表示	-9610
启发	-9611
不去	-9612
处以	-9613
安保	-9614
九州	-9615
回事	-9616
层层	-9617
论述	-9618
市场经济	-9619
页面	-9620
尼古	-9621
保加利亚	-9622
影业	-9623
高品质	-9624
可供	-9625
因地	-9626
展区	-9627
强迫	-9628
预定	-9629
上百	-9630
讲述了	-9631
垃圾分类	-9632
行业协会	-9633
州府	-9634
华尔街	-9635
BO	-9636
填补	-9637
新闻网	-9638
广播电视	-9639
广汽	-9640
理工大学	-9641
合一	-9642
北交所	-9643
在那	-9644
世界经济	-9645
发稿	-9646
变迁	-9647
亿欧元	-9648
个省	-9649
典型案例	-9650
食材	-9651
其他的	-9652
内蒙古自治区	-9653
下称	-9654
乌斯	-9655
缺失	-9656
▁他说	-9657
新业态	-9658
An	-9659
净值	-9660
得好	-9661
改正	-9662
▁本鱼	-9663
一体的	-9664
商圈	-9665
清算	-9666
实的	-9667
拉德	-9668
车展	-9669
上帝	-9670
收入的	-9671
第一名	-9672
畅销	-9673
的眼	-9674
航母	-9675
▁用	-9676
产区	-9677
捕捉	-9678
▁如何	-9679
公开发	-9680
出席了	-9681
年前的	-9682
接口	-9683
中国式	-9684
淡水	-9685
但没有	-9686
分辨	-9687
%)、	-9688
基数	-9689
全球经济	-9690
老虎	-9691
环境的	-9692
推动了	-9693
主题教育	-9694
又要	-9695
民兵	-9696
平静	-9697
略有	-9698
之大	-9699
并表示	-9700
找不到	-9701
投入使用	-9702
研学	-9703
全国各地	-9704
战车	-9705
班列	-9706
默默	-9707
下车	-9708
直隶	-9709
数码	-9710
考量	-9711
的理念	-9712
必将	-9713
日内瓦	-9714
sp	-9715
走私	-9716
满意度	-9717
深度融合	-9718
十四年	-9719
甚至是	-9720
;“	-9721
ve	-9722
跟进	-9723
ron	-9724
冷空气	-9725
的背景下	-9726
资管	-9727
制宜	-9728
uk	-9729
青铜	-9730
明确的	-9731
负荷	-9732
所致	-9733
毛利	-9734
研发的	-9735
全员	-9736
牛肉	-9737
ica	-9738
筛选	-9739
重申	-9740
投资建议	-9741
绿色低碳	-9742
了近	-9743
按察	-9744
编入	-9745
▁史	-9746
县道	-9747
多达	-9748
小时候	-9749
分的	-9750
县域	-9751
也从	-9752
但她	-9753
圣经	-9754
或其他	-9755
把自己	-9756
ount	-9757
钻石	-9758
新兴产业	-9759
新闻记者	-9760
吉祥	-9761
▁综合	-9762
呼和浩特	-9763
司职	-9764
票据	-9765
首度	-9766
与美国	-9767
非物质	-9768
atGPT	-9769
展会	-9770
培训班	-9771
未知	-9772
篮板	-9773
抱怨	-9774
这么说	-9775
头条	-9776
▁本文来自	-9777
的数量	-9778
伟大复兴	-9779
为大	-9780
实物	-9781
充满了	-9782
会议员	-9783
举动	-9784
同名	-9785
多边	-9786
年获	-9787
公会	-9788
我们可以	-9789
拥堵	-9790
轻轻	-9791
积极的	-9792
副市长	-9793
半决赛	-9794
指挥官	-9795
慕尼	-9796
召集	-9797
餐馆	-9798
打破了	-9799
有意	-9800
花钱	-9801
过年	-9802
铃木	-9803
发展改革	-9804
特区政府	-9805
目标是	-9806
款项	-9807
企稳	-9808
偏好	-9809
加斯	-9810
封面	-9811
科尔	-9812
的特	-9813
碳酸	-9814
该行	-9815
万台	-9816
不怕	-9817
壁画	-9818
的照片	-9819
上是	-9820
收回	-9821
话说	-9822
陈列	-9823
关切	-9824
三家	-9825
赛前	-9826
思政	-9827
的成本	-9828
执法人员	-9829
▁数据显示	-9830
不堪	-9831
揭示	-9832
男生	-9833
老旧	-9834
语文	-9835
跳水	-9836
有一天	-9837
John	-9838
现身	-9839
赠送	-9840
wit	-9841
宇航	-9842
提速	-9843
祖先	-9844
签订了	-9845
FO	-9846
精度	-9847
为中	-9848
出货量	-9849
生态保护	-9850
争论	-9851
不管是	-9852
中国驻	-9853
之名	-9854
ner	-9855
的调查	-9856
二千	-9857
老龄	-9858
要做	-9859
客机	-9860
极具	-9861
转账	-9862
纯粹	-9863
适时	-9864
这一次	-9865
骄傲	-9866
成熟的	-9867
小于	-9868
▁还有	-9869
并不能	-9870
入手	-9871
奋进	-9872
斯卡	-9873
时速	-9874
才有	-9875
纳粹	-9876
慕尼黑	-9877
第四季度	-9878
广电	-9879
北上	-9880
朝阳区	-9881
做过	-9882
DR	-9883
收割	-9884
母公司	-9885
内在	-9886
配方	-9887
▁沙	-9888
分析人士	-9889
温馨	-9890
有著	-9891
湖泊	-9892
但如果	-9893
神社	-9894
西宁	-9895
门前	-9896
停产	-9897
维多利亚	-9898
不动产	-9899
遗体	-9900
▁松	-9901
夜晚	-9902
革命的	-9903
扭转	-9904
海事	-9905
行动计划	-9906
宝贵	-9907
护照	-9908
汉字	-9909
一举	-9910
买房	-9911
好奇	-9912
造船	-9913
专科	-9914
副使	-9915
构筑	-9916
生鲜	-9917
修理	-9918
在上	-9919
向你	-9920
增大	-9921
越野	-9922
大火	-9923
探险	-9924
的日本	-9925
ool	-9926
不构成	-9927
公司将	-9928
为准	-9929
ini	-9930
车队	-9931
签字	-9932
之道	-9933
在建	-9934
横向	-9935
快速增长	-9936
之称	-9937
反诈	-9938
回头	-9939
必需	-9940
河西	-9941
海报	-9942
af	-9943
开启了	-9944
特别是在	-9945
变现	-9946
粤港	-9947
因子	-9948
白银	-9949
amp	-9950
下水	-9951
同类	-9952
公司和	-9953
什么时候	-9954
加热	-9955
go	-9956
余家	-9957
浓厚	-9958
经由	-9959
转发	-9960
其间	-9961
并举	-9962
顶尖	-9963
喜欢的	-9964
高科技	-9965
优惠政策	-9966
一架	-9967
楼梯	-9968
管理部门	-9969
股的	-9970
转入	-9971
进博会	-9972
后在	-9973
雅典	-9974
ical	-9975
中证	-9976
相处	-9977
获利	-9978
堪称	-9979
郊区	-9980
向往	-9981
是一场	-9982
没办法	-9983
所能	-9984
一番	-9985
复旦	-9986
愿景	-9987
就诊	-9988
阿尔巴尼亚	-9989
闲置	-9990
收紧	-9991
社会保障	-9992
出色的	-9993
有大	-9994
该案	-9995
锂电池	-9996
▁方	-9997
会导致	-9998
站厅	-9999
改名	-10000
开始在	-10001
工程建设	-10002
产出	-10003
又被	-10004
▁地理	-10005
主要包括	-10006
蓝天	-10007
年与	-10008
投资基金	-10009
高等教育	-10010
名词	-10011
持久	-10012
any	-10013
保持在	-10014
以及其他	-10015
时说	-10016
患者的	-10017
条规定	-10018
化肥	-10019
莲花	-10020
篇文章	-10021
▁让	-10022
个项目	-10023
反正	-10024
跳动	-10025
为契机	-10026
之心	-10027
机电	-10028
风力	-10029
我们对	-10030
正值	-10031
的未来	-10032
人大代表	-10033
京剧	-10034
扎根	-10035
昆虫	-10036
mil	-10037
的不同	-10038
结果显示	-10039
早日	-10040
温柔	-10041
▁各	-10042
乐视	-10043
体型	-10044
真诚	-10045
深入开展	-10046
知府	-10047
的保护	-10048
主编	-10049
幕后	-10050
阴性	-10051
服务器	-10052
四处	-10053
的行业	-10054
农历	-10055
重回	-10056
占地面积	-10057
退市	-10058
驿站	-10059
一律	-10060
叙事	-10061
ows	-10062
落到	-10063
借此	-10064
精致	-10065
技术学院	-10066
区域内	-10067
大区	-10068
描写	-10069
致敬	-10070
高山	-10071
对公司	-10072
参保	-10073
作曲家	-10074
我国的	-10075
增加值	-10076
升格	-10077
同心	-10078
AL	-10079
观的	-10080
雕像	-10081
这张	-10082
And	-10083
体系的	-10084
领衔	-10085
试行	-10086
东区	-10087
痕迹	-10088
立陶	-10089
干燥	-10090
违法违规	-10091
先发	-10092
加紧	-10093
眼下	-10094
向社会	-10095
▁连	-10096
兵力	-10097
▁德国	-10098
见过	-10099
』(	-10100
组委会	-10101
复工复产	-10102
住民	-10103
北极	-10104
CBA	-10105
光明网	-10106
楼的	-10107
太太	-10108
对照	-10109
民初	-10110
不像	-10111
亲密	-10112
世纪初	-10113
清醒	-10114
罢工	-10115
aaS	-10116
修道院	-10117
自己是	-10118
强行	-10119
英尺	-10120
影响力的	-10121
▁如	-10122
▁布	-10123
ite	-10124
快捷	-10125
聚会	-10126
第二届	-10127
懂得	-10128
例外	-10129
多尔	-10130
收视率	-10131
重型	-10132
为目标	-10133
管理中心	-10134
------	-10135
▁梅	-10136
嘉兴	-10137
推送	-10138
县政府	-10139
阶段的	-10140
后勤	-10141
移交	-10142
马路	-10143
大将军	-10144
人口普查	-10145
在华	-10146
稀土	-10147
加勒	-10148
我对	-10149
火力	-10150
灭火	-10151
交代	-10152
污染防治	-10153
平行	-10154
店内	-10155
▁电视剧	-10156
集资	-10157
导致了	-10158
获得感	-10159
许多人	-10160
萎缩	-10161
着的	-10162
在这些	-10163
影响到	-10164
”!	-10165
四百	-10166
放到	-10167
星的	-10168
月饼	-10169
单价	-10170
报案	-10171
历史新高	-10172
四世	-10173
受害人	-10174
事先	-10175
冷却	-10176
格式	-10177
正处于	-10178
传来	-10179
完了	-10180
价格的	-10181
实名	-10182
战略性	-10183
有关的	-10184
不予	-10185
这么多	-10186
大城市	-10187
产业集群	-10188
发票	-10189
引用	-10190
转移到	-10191
立陶宛	-10192
筑牢	-10193
作品的	-10194
关键词	-10195
几内亚	-10196
那时候	-10197
县长	-10198
扣非	-10199
执勤	-10200
和创新	-10201
格勒	-10202
的西	-10203
中标	-10204
悉尼	-10205
国际合作	-10206
以东	-10207
子和	-10208
庄为	-10209
江区	-10210
螺旋	-10211
时有	-10212
名片	-10213
倾向于	-10214
时节	-10215
乡村旅游	-10216
任天堂	-10217
公募基金	-10218
Bl	-10219
DS	-10220
反思	-10221
门外	-10222
出版的	-10223
哈萨克斯坦	-10224
金斯	-10225
股指	-10226
菲尔德	-10227
山地	-10228
悲剧	-10229
秘鲁	-10230
ton	-10231
具体的	-10232
爆料	-10233
局副局长	-10234
死刑	-10235
罪行	-10236
人称	-10237
韧性	-10238
红十字	-10239
较好的	-10240
极致	-10241
镇压	-10242
特意	-10243
人受伤	-10244
股市场	-10245
习俗	-10246
反抗	-10247
渤海	-10248
是台湾	-10249
查尔斯	-10250
刚果	-10251
着陆	-10252
设立的	-10253
严格落实	-10254
州长	-10255
瑞拉	-10256
制动	-10257
激素	-10258
着重	-10259
这块	-10260
推理	-10261
▁广州	-10262
烟花	-10263
高架	-10264
参照	-10265
下发	-10266
电视节目	-10267
DC	-10268
更要	-10269
长效	-10270
▁当天	-10271
船员	-10272
去年的	-10273
交谈	-10274
伪造	-10275
▁这次	-10276
里约	-10277
的最后	-10278
等服务	-10279
网约车	-10280
一阵	-10281
涨超	-10282
品的	-10283
四周	-10284
拖欠	-10285
厅长	-10286
首日	-10287
圣母	-10288
河内	-10289
▁曾祖	-10290
问题是	-10291
奋战	-10292
首款	-10293
的妻子	-10294
目前在	-10295
职人员	-10296
展厅	-10297
调整为	-10298
参会	-10299
阿斯	-10300
有哪些	-10301
净利润为	-10302
MC	-10303
之美	-10304
余万元	-10305
联赛冠军	-10306
丽的	-10307
庞大	-10308
黎明	-10309
增长率	-10310
正常的	-10311
减产	-10312
后备	-10313
没收	-10314
卡车	-10315
有害	-10316
蝙蝠	-10317
oll	-10318
副校长	-10319
最高气温	-10320
大跌	-10321
而上	-10322
弱势	-10323
途经	-10324
和工作	-10325
科大学	-10326
管理人员	-10327
珍珠	-10328
相传	-10329
的办法	-10330
纳德	-10331
陷阱	-10332
▁Cl	-10333
▁to	-10334
党的十八大	-10335
不必	-10336
亚种	-10337
南区	-10338
这一切	-10339
法律责任	-10340
Am	-10341
清除	-10342
民主共和国	-10343
任教	-10344
高风险	-10345
制度改革	-10346
颇为	-10347
的良好	-10348
点位	-10349
在一些	-10350
指向	-10351
瑞幸	-10352
的爱	-10353
了他的	-10354
积极探索	-10355
形的	-10356
订阅	-10357
打好	-10358
日被	-10359
新房	-10360
ivers	-10361
你是	-10362
亿股	-10363
孤独	-10364
▁问	-10365
叛乱	-10366
古老的	-10367
智能制造	-10368
兰卡	-10369
给人	-10370
英伟	-10371
据统计	-10372
售后	-10373
小龙	-10374
编码	-10375
做强	-10376
刑法	-10377
华润	-10378
星球	-10379
狮子	-10380
生气	-10381
为核心的	-10382
一刻	-10383
军委	-10384
南极	-10385
年产	-10386
最长	-10387
▁评价	-10388
ase	-10389
▁SF	-10390
万的	-10391
管理有限公司	-10392
▁邓	-10393
编组	-10394
周三	-10395
报销	-10396
的出现	-10397
傍晚	-10398
前三	-10399
将由	-10400
ink	-10401
仅供	-10402
他从	-10403
利物	-10404
掌声	-10405
影响的	-10406
本国	-10407
裁决	-10408
▁初	-10409
安打	-10410
机票	-10411
水产	-10412
发热	-10413
活性	-10414
说出	-10415
高价	-10416
委员长	-10417
奇艺	-10418
要求的	-10419
难免	-10420
军工	-10421
飙升	-10422
进一步提高	-10423
小组赛	-10424
管委会	-10425
生物医药	-10426
具有重要	-10427
看过	-10428
签名	-10429
的平均	-10430
单日	-10431
金华	-10432
却被	-10433
均已	-10434
摄氏	-10435
为重点	-10436
等形式	-10437
人权	-10438
部电影	-10439
以西	-10440
清洗	-10441
连续剧	-10442
一分	-10443
始建于	-10444
illi	-10445
升温	-10446
等行业	-10447
ital	-10448
▁莫	-10449
事中	-10450
支线	-10451
**。	-10452
元帅	-10453
分组	-10454
开奖	-10455
市场竞争	-10456
SO	-10457
感叹	-10458
▁新浪	-10459
给自己	-10460
sina	-10461
动荡	-10462
明了	-10463
没人	-10464
心理学	-10465
水资源	-10466
供销	-10467
放宽	-10468
可以用	-10469
没错	-10470
贝壳	-10471
养生	-10472
山路	-10473
▁实际上	-10474
推翻	-10475
▁冯	-10476
发表的	-10477
动工	-10478
合影	-10479
蚂蚁	-10480
表决	-10481
丰台	-10482
滥用	-10483
就这样	-10484
约翰逊	-10485
上新	-10486
恶性	-10487
武警	-10488
果实	-10489
公证	-10490
勇于	-10491
卖家	-10492
可行	-10493
是一次	-10494
▁崔	-10495
帽子	-10496
的黑	-10497
后又	-10498
愉快	-10499
露营	-10500
传动	-10501
检疫	-10502
点头	-10503
西湖	-10504
属的	-10505
达州	-10506
ale	-10507
专访	-10508
最初的	-10509
还是要	-10510
致电	-10511
趋于	-10512
境外输入	-10513
▁外	-10514
一万	-10515
改编自	-10516
连胜	-10517
了个	-10518
弹药	-10519
的自	-10520
警报	-10521
风口	-10522
我知道	-10523
知名度	-10524
————	-10525
切换	-10526
等内容	-10527
▁注	-10528
便于	-10529
养成	-10530
想着	-10531
剧组	-10532
深处	-10533
河口	-10534
起的	-10535
主办方	-10536
幸福感	-10537
的表情	-10538
寻常	-10539
纪检监察	-10540
销售收入	-10541
其为	-10542
蜘蛛	-10543
树林	-10544
利物浦	-10545
对自己	-10546
县公安局	-10547
日常生活	-10548
专精	-10549
商量	-10550
忽略	-10551
转债	-10552
rist	-10553
Re	-10554
的军事	-10555
机型	-10556
沉淀	-10557
耳朵	-10558
▁比赛	-10559
表述	-10560
还得	-10561
就是在	-10562
奴隶	-10563
班长	-10564
如果是	-10565
的人群	-10566
的平台	-10567
下乡	-10568
有三	-10569
震惊	-10570
安全和	-10571
年为	-10572
球队的	-10573
FT	-10574
缩写	-10575
聚合	-10576
军舰	-10577
年成立	-10578
并且在	-10579
冲锋	-10580
什么是	-10581
ons	-10582
房地产开发	-10583
一本	-10584
用以	-10585
的开	-10586
服务和	-10587
重伤	-10588
无所	-10589
摩擦	-10590
明代	-10591
首创	-10592
需要在	-10593
体力	-10594
标记	-10595
卫健委	-10596
社会责任	-10597
最强	-10598
作出的	-10599
上报	-10600
新闻发言人	-10601
▁千	-10602
同比增加	-10603
注意力	-10604
可以看出	-10605
天内	-10606
执业	-10607
大面积	-10608
给他们	-10609
重塑	-10610
年获得	-10611
被评为	-10612
面对面	-10613
有线	-10614
而来的	-10615
EN	-10616
前身	-10617
周四	-10618
热搜	-10619
其他人	-10620
片中	-10621
顶层	-10622
的个人	-10623
ci	-10624
游览	-10625
区域的	-10626
官方微博	-10627
▁曹	-10628
这在	-10629
命运共同体	-10630
这样做	-10631
北区	-10632
话剧	-10633
这片	-10634
中国在	-10635
学习贯彻	-10636
指导意见	-10637
四季	-10638
恩来	-10639
河畔	-10640
充电桩	-10641
有何	-10642
督查	-10643
主体责任	-10644
更强	-10645
公告送达	-10646
封为	-10647
斯里	-10648
▁第五	-10649
窗户	-10650
者在	-10651
观望	-10652
▁Mar	-10653
北路	-10654
不绝	-10655
移送	-10656
执照	-10657
了下来	-10658
这点	-10659
筹集	-10660
生死	-10661
蓝球	-10662
抵制	-10663
是其	-10664
因地制宜	-10665
走高	-10666
AK	-10667
神奇	-10668
液体	-10669
深的	-10670
▁广	-10671
▁韩国	-10672
恐慌	-10673
泰山	-10674
默德	-10675
▁至于	-10676
市场对	-10677
的可能	-10678
上任	-10679
舒服	-10680
bc	-10681
室外	-10682
赞扬	-10683
不少人	-10684
募集资金	-10685
网络诈骗	-10686
EV	-10687
存在于	-10688
能让	-10689
质押	-10690
的事业	-10691
曾表示	-10692
这些问题	-10693
集会	-10694
当年的	-10695
募资	-10696
放映	-10697
供热	-10698
高点	-10699
对我们	-10700
日本政府	-10701
姊妹	-10702
权限	-10703
点燃	-10704
奋力	-10705
改称	-10706
积水	-10707
合适的	-10708
粤港澳大	-10709
阿尔及利亚	-10710
上千	-10711
不远	-10712
万欧元	-10713
问责	-10714
生产企业	-10715
新竹	-10716
深刻的	-10717
学院教授	-10718
红线	-10719
绑架	-10720
在国家	-10721
苏宁	-10722
的背后	-10723
高出	-10724
是否会	-10725
火炬	-10726
少了	-10727
的阿	-10728
相遇	-10729
身心	-10730
和生活	-10731
多伦	-10732
大海	-10733
接管	-10734
另一位	-10735
习近平主席	-10736
本领	-10737
监视	-10738
配角	-10739
精细化	-10740
▁时间	-10741
或者是	-10742
田村	-10743
赞同	-10744
鲁迅	-10745
新能源车	-10746
反响	-10747
一小	-10748
修缮	-10749
全家	-10750
防火	-10751
二层	-10752
牢固	-10753
助您	-10754
保持着	-10755
年华	-10756
银牌	-10757
他们对	-10758
学院的	-10759
▁关	-10760
五星	-10761
疲劳	-10762
能为	-10763
角落	-10764
一辈	-10765
门的	-10766
更低	-10767
次日	-10768
答复	-10769
北京的	-10770
▁沈	-10771
乐透	-10772
龙科	-10773
义务教育	-10774
申购	-10775
研究和	-10776
医疗卫生	-10777
入市	-10778
唐代	-10779
现为	-10780
▁当时	-10781
未有的	-10782
青岛市	-10783
雄安	-10784
所得税	-10785
期奖号	-10786
特别行政区	-10787
英伟达	-10788
国营	-10789
自此	-10790
贩卖	-10791
是一件	-10792
写字	-10793
自强	-10794
人民日报	-10795
沉积	-10796
▁彭	-10797
封建	-10798
操控	-10799
建成后	-10800
▁for	-10801
寒冷	-10802
高潮	-10803
仍处于	-10804
日晚上	-10805
的人员	-10806
有益	-10807
十一年	-10808
豆瓣	-10809
多样化	-10810
杜绝	-10811
票价	-10812
邮轮	-10813
科学的	-10814
并有	-10815
雕刻	-10816
从业者	-10817
南斯拉夫	-10818
波特	-10819
环绕	-10820
▁今日	-10821
文的	-10822
棋子	-10823
中国企业	-10824
拜仁	-10825
解说	-10826
代表队	-10827
任务的	-10828
绝大部分	-10829
中俄	-10830
查明	-10831
镇的	-10832
伦理	-10833
归还	-10834
意的	-10835
点多	-10836
体积	-10837
名将	-10838
编写	-10839
谋杀	-10840
▁数据	-10841
的新型	-10842
年期间	-10843
系列活动	-10844
视为送达	-10845
娃娃	-10846
与他	-10847
去的	-10848
科目	-10849
返还	-10850
遍布	-10851
小红书	-10852
引起的	-10853
针对性	-10854
orn	-10855
也无法	-10856
制片人	-10857
超预期	-10858
是被	-10859
一下子	-10860
亮的	-10861
案发	-10862
发展改革委	-10863
ans	-10864
政策和	-10865
记者说	-10866
郑州市	-10867
加快建设	-10868
文库	-10869
普拉	-10870
道具	-10871
保密	-10872
维克	-10873
不法	-10874
年世界杯	-10875
人寿	-10876
】**	-10877
增值税	-10878
表达了	-10879
bl	-10880
护卫	-10881
国内的	-10882
一间	-10883
不移	-10884
这让	-10885
是国家	-10886
▁女	-10887
▁#	-10888
做什么	-10889
自贸区	-10890
路号码	-10891
恰恰	-10892
珍惜	-10893
思想政治	-10894
是全球	-10895
事件的	-10896
卫冕	-10897
多久	-10898
率的	-10899
体制机制	-10900
中青	-10901
轻微	-10902
驻华	-10903
很大程度上	-10904
▁京	-10905
连载	-10906
ara	-10907
优点	-10908
料理	-10909
托马斯	-10910
新型冠状病毒	-10911
免税	-10912
会社	-10913
情景	-10914
特新	-10915
各领域	-10916
案件的	-10917
周转	-10918
录像	-10919
▁本届	-10920
愈发	-10921
穆罕	-10922
高新	-10923
lex	-10924
国际贸易	-10925
元首	-10926
呼声	-10927
史密斯	-10928
研发投入	-10929
清晨	-10930
起火	-10931
假冒	-10932
幸存	-10933
攻克	-10934
在微博	-10935
受众	-10936
登山	-10937
公司与	-10938
挖掘潜力	-10939
名列	-10940
多么	-10941
杀手	-10942
工信部	-10943
尤其是在	-10944
▁分布	-10945
体长	-10946
分队	-10947
▁特征	-10948
兑换	-10949
如期	-10950
纲要	-10951
eng	-10952
产品和	-10953
则有	-10954
打造的	-10955
的一场	-10956
口号	-10957
可以说是	-10958
三项	-10959
深化改革	-10960
六大	-10961
来信	-10962
该地区	-10963
相比之下	-10964
套餐	-10965
最小	-10966
蒂娜	-10967
质量和	-10968
猪笼	-10969
趣味	-10970
社会主义思想	-10971
可能的	-10972
物理学	-10973
将他	-10974
峰值	-10975
烟草	-10976
首要	-10977
GA	-10978
可乐	-10979
欺骗	-10980
段的	-10981
OP	-10982
塔斯	-10983
首脑	-10984
增强了	-10985
之城	-10986
优越	-10987
但对	-10988
翰林	-10989
企业发展	-10990
体能	-10991
刊登	-10992
育种	-10993
资金流向	-10994
这将	-10995
阶层	-10996
汽车的	-10997
成为中国	-10998
体系和	-10999
综艺节目	-11000
欲望	-11001
人性	-11002
发布公告	-11003
冲刺	-11004
致命	-11005
顺应	-11006
孙子	-11007
渔民	-11008
副总	-11009
吸烟	-11010
随便	-11011
aul	-11012
经营的	-11013
县人民法院	-11014
Ad	-11015
手上	-11016
警戒	-11017
该院	-11018
显示出	-11019
可怕	-11020
二手车	-11021
莱斯	-11022
▁早年	-11023
重重	-11024
ube	-11025
主要为	-11026
大正	-11027
年代初	-11028
梅西	-11029
胜负	-11030
银保	-11031
集团军	-11032
▁埃	-11033
不然	-11034
生机	-11035
短剧	-11036
加重	-11037
人被	-11038
激进	-11039
边际	-11040
晶体	-11041
地为	-11042
动物园	-11043
村干部	-11044
家伙	-11045
法语	-11046
触及	-11047
在现场	-11048
疗法	-11049
回到了	-11050
gb	-11051
剧烈	-11052
病房	-11053
徐州	-11054
长久	-11055
翡翠	-11056
▁概要	-11057
了大量	-11058
则表示	-11059
金麒麟	-11060
英特尔	-11061
你在	-11062
水准	-11063
设备的	-11064
手动	-11065
菩萨	-11066
侧面	-11067
港交所	-11068
猪笼草	-11069
发展规划	-11070
捍卫	-11071
的他	-11072
雨水	-11073
res	-11074
完成的	-11075
宽度	-11076
**,	-11077
不断完善	-11078
说到	-11079
为了让	-11080
▁下一步	-11081
产业结构	-11082
幽默	-11083
弗兰	-11084
▁市场	-11085
留下的	-11086
采访中	-11087
不及预期	-11088
捐献	-11089
该县	-11090
▁背景	-11091
主观	-11092
器件	-11093
质的	-11094
沉浸式	-11095
走在	-11096
半年报	-11097
将依法	-11098
微生物	-11099
治国	-11100
决定了	-11101
但他们	-11102
一贯	-11103
ESG	-11104
年出生	-11105
证明了	-11106
本网	-11107
的李	-11108
通过对	-11109
的水平	-11110
刚需	-11111
察觉	-11112
揭露	-11113
杨某	-11114
队伍建设	-11115
首府	-11116
只需要	-11117
台北市	-11118
也已	-11119
鲜花	-11120
急性	-11121
演变	-11122
吉斯	-11123
电解	-11124
你会	-11125
宜昌	-11126
ove	-11127
春节期间	-11128
三板	-11129
与大	-11130
削弱	-11131
占了	-11132
吸纳	-11133
德罗	-11134
疏散	-11135
复仇	-11136
平板	-11137
海湾	-11138
要从	-11139
造假	-11140
不仅如此	-11141
候车	-11142
参选	-11143
路透	-11144
▁就在	-11145
yn	-11146
党史	-11147
旺盛	-11148
视察	-11149
会试	-11150
生前	-11151
购车	-11152
马德里	-11153
副秘书长	-11154
回调	-11155
烦恼	-11156
中国和	-11157
洞察	-11158
舰艇	-11159
列出	-11160
eth	-11161
在经济	-11162
▁@	-11163
一股	-11164
城市建设	-11165
委内	-11166
此案	-11167
脆弱	-11168
还需	-11169
周二	-11170
岛式	-11171
而行	-11172
PPO	-11173
SS	-11174
二十四	-11175
司司长	-11176
科技公司	-11177
CH	-11178
忽然	-11179
维生素	-11180
出入	-11181
美学	-11182
却没有	-11183
积极推进	-11184
是目前	-11185
历代	-11186
江户	-11187
老大	-11188
▁后来	-11189
搬到	-11190
沪指	-11191
洽谈	-11192
每小时	-11193
一线城市	-11194
卡塔尔	-11195
停留	-11196
就近	-11197
种业	-11198
为自己	-11199
有网友	-11200
听证	-11201
再一次	-11202
的条件	-11203
上榜	-11204
▁成	-11205
嘉义	-11206
看上去	-11207
知识分子	-11208
满贯	-11209
安静	-11210
讨厌	-11211
专栏	-11212
取胜	-11213
潜水	-11214
父子	-11215
辣椒	-11216
至关重要	-11217
残酷	-11218
铜牌	-11219
优秀传统文化	-11220
上车	-11221
就已	-11222
压迫	-11223
山顶	-11224
惠及	-11225
都是在	-11226
开播	-11227
眼里	-11228
年夏季	-11229
工作报告	-11230
动脉	-11231
外面	-11232
有小	-11233
二号	-11234
重要讲话	-11235
南站	-11236
▁蔡	-11237
团购	-11238
我还	-11239
所说的	-11240
ys	-11241
商城	-11242
次的	-11243
牢记	-11244
违背	-11245
决策部署	-11246
分手	-11247
只在	-11248
爆款	-11249
正能量	-11250
操作系统	-11251
分流	-11252
遇见	-11253
一个是	-11254
的非	-11255
中国青年	-11256
研究报告	-11257
比如说	-11258
头上	-11259
越大	-11260
达克	-11261
爱奇艺	-11262
为首的	-11263
查获	-11264
起伏	-11265
报复	-11266
直流	-11267
网记者	-11268
体量	-11269
远东	-11270
将通过	-11271
碳中和	-11272
中也	-11273
辩护	-11274
岁以下	-11275
相关规定	-11276
领先的	-11277
空间站	-11278
几何	-11279
委内瑞拉	-11280
在我们	-11281
▁据台湾	-11282
汤姆	-11283
可再生	-11284
赛马	-11285
大家的	-11286
战斗力	-11287
霍尔	-11288
美国和	-11289
分泌	-11290
泰勒	-11291
很重要	-11292
不清楚	-11293
期满后	-11294
环境中	-11295
持续推进	-11296
克鲁	-11297
访谈	-11298
这本书	-11299
党和国家	-11300
大公	-11301
奶茶	-11302
的最高	-11303
未必	-11304
!?	-11305
手表	-11306
简易	-11307
育人	-11308
的需要	-11309
▁青	-11310
阿联	-11311
史蒂	-11312
RNA	-11313
专精特新	-11314
过去了	-11315
象棋	-11316
外商	-11317
拉美	-11318
中铁	-11319
再现	-11320
调查研究	-11321
实际控制人	-11322
一头	-11323
一心	-11324
一组	-11325
新村	-11326
是用	-11327
剩下的	-11328
教育和	-11329
主题机会	-11330
中立	-11331
压制	-11332
各省	-11333
陆地	-11334
把他	-11335
挂钩	-11336
支行	-11337
礼仪	-11338
▁使用	-11339
二者	-11340
巴萨	-11341
放下	-11342
规章	-11343
▁北京时间	-11344
一二	-11345
替换	-11346
钢材	-11347
不算	-11348
人道	-11349
讨伐	-11350
itt	-11351
仪式上	-11352
的建筑	-11353
她和	-11354
约旦	-11355
长假	-11356
奇偶比为	-11357
党支部书记	-11358
经纪人	-11359
养老服务	-11360
设想	-11361
▁文章	-11362
升高	-11363
国泰	-11364
数目	-11365
会议的	-11366
在台湾	-11367
重大的	-11368
专职	-11369
亿吨	-11370
推向	-11371
这与	-11372
那天	-11373
也好	-11374
堡垒	-11375
大林	-11376
啊啊啊啊	-11377
冰箱	-11378
各区	-11379
员外	-11380
天花	-11381
彰化	-11382
欧冠	-11383
些时候	-11384
专家学者	-11385
法令	-11386
希特	-11387
矿产	-11388
▁作品	-11389
上将	-11390
巴赫	-11391
缓和	-11392
跑步	-11393
他们是	-11394
暴跌	-11395
花样	-11396
ek	-11397
给她	-11398
的真实	-11399
报考	-11400
现阶段	-11401
olog	-11402
主要用于	-11403
百亿	-11404
游戏中	-11405
总部位于	-11406
赛区	-11407
ics	-11408
可用	-11409
得更	-11410
皇马	-11411
网信	-11412
两个人	-11413
分析师研报	-11414
年他	-11415
有些人	-11416
论坛上	-11417
失信	-11418
是世界	-11419
污水处理	-11420
三层	-11421
▁炒股就看	-11422
助您挖掘潜力	-11423
假如	-11424
四是	-11425
得了	-11426
风情	-11427
价格为	-11428
白俄罗斯	-11429
负责同志	-11430
两国人民	-11431
金融市场	-11432
吃的	-11433
新政	-11434
轻型	-11435
销售的	-11436
固体	-11437
第十二	-11438
劳模	-11439
见习	-11440
罗马帝国	-11441
佣金	-11442
使者	-11443
开会	-11444
银川	-11445
精神的	-11446
同比减少	-11447
工作机制	-11448
一笔	-11449
不稳定	-11450
引发的	-11451
最近的	-11452
约瑟夫	-11453
中之	-11454
客户的	-11455
粤港澳大湾区	-11456
EM	-11457
热的	-11458
▁一些	-11459
主板	-11460
茶饮	-11461
没有什么	-11462
进一步完善	-11463
各样的	-11464
等措施	-11465
舞台上	-11466
手持	-11467
入户	-11468
打响	-11469
八个	-11470
昌平	-11471
朝着	-11472
强降雨	-11473
七个	-11474
三条	-11475
激烈的	-11476
音乐节	-11477
同比上升	-11478
克利	-11479
打赢	-11480
被捕	-11481
展现出	-11482
起来了	-11483
就是一个	-11484
学业	-11485
▁苏联	-11486
上汽	-11487
双双	-11488
小事	-11489
崩溃	-11490
ott	-11491
但我们	-11492
形势下	-11493
未成年	-11494
祖国的	-11495
共同富裕	-11496
行政执法	-11497
大户	-11498
aut	-11499
必须在	-11500
积极开展	-11501
悠久	-11502
权重	-11503
珠江	-11504
电气化	-11505
专场	-11506
可能在	-11507
开除	-11508
补给	-11509
rom	-11510
刚开始	-11511
纪念碑	-11512
追溯到	-11513
一再	-11514
分别在	-11515
工农	-11516
贪污	-11517
限额	-11518
You	-11519
社会组织	-11520
▁建	-11521
拦截	-11522
期权	-11523
震撼	-11524
支持和	-11525
就地	-11526
电磁	-11527
染色	-11528
职权	-11529
代表性	-11530
但因为	-11531
但现在	-11532
乐趣	-11533
保证金	-11534
不适	-11535
帷幕	-11536
反映出	-11537
是一些	-11538
▁家	-11539
崇祯	-11540
黑人	-11541
比去年	-11542
同为	-11543
高清	-11544
和完善	-11545
系统性	-11546
是的	-11547
几年来	-11548
的股权	-11549
疫苗接种	-11550
少的	-11551
毁灭	-11552
▁AI	-11553
给出了	-11554
▁台	-11555
主业	-11556
导游	-11557
逃避	-11558
委员会的	-11559
,‘	-11560
半个	-11561
大西洋	-11562
哺乳	-11563
arm	-11564
政策措施	-11565
建设社会主义	-11566
华语	-11567
藏品	-11568
新征程	-11569
风险提示	-11570
办好	-11571
蒸汽	-11572
地中海	-11573
密切接触	-11574
▁凯	-11575
置于	-11576
意义上	-11577
管理人	-11578
去看	-11579
相差	-11580
色球	-11581
通货	-11582
陨石	-11583
互联网金融	-11584
EP	-11585
集训	-11586
萝卜	-11587
门将	-11588
零食	-11589
观众的	-11590
':	-11591
起草	-11592
之意	-11593
工业互联网	-11594
来往	-11595
友好的	-11596
次列车	-11597
的利益	-11598
SK	-11599
平米	-11600
国资委	-11601
无缘	-11602
中西部	-11603
民法典	-11604
交流合作	-11605
经济新闻	-11606
▁光	-11607
时装	-11608
先生说	-11609
最后一次	-11610
手册	-11611
社论	-11612
深远	-11613
机构和	-11614
平均水平	-11615
UN	-11616
保利	-11617
入股	-11618
天才	-11619
床上	-11620
自立	-11621
高涨	-11622
邓小平	-11623
但最终	-11624
这不是	-11625
穆罕默德	-11626
以免	-11627
哈拉	-11628
农业部	-11629
实质性	-11630
之间的关系	-11631
试剂	-11632
)](	-11633
工程院	-11634
喝酒	-11635
头脑	-11636
宣判	-11637
意料	-11638
紧迫	-11639
的第三	-11640
坚定不移	-11641
幕府	-11642
万物	-11643
出血	-11644
行列	-11645
被害人	-11646
史料	-11647
处理器	-11648
伊尔	-11649
骨头	-11650
▁建筑	-11651
rili	-11652
客厅	-11653
目击	-11654
分会	-11655
jbc	-11656
境内的	-11657
资金的	-11658
是可以	-11659
jbcx	-11660
之余	-11661
短时间内	-11662
设法	-11663
功能的	-11664
奔赴	-11665
核准	-11666
短片	-11667
诸葛	-11668
处处长	-11669
年终	-11670
远征	-11671
元旦	-11672
太极	-11673
在哪里	-11674
三农	-11675
腹部	-11676
搞好	-11677
成立后	-11678
Le	-11679
会让	-11680
威夷	-11681
过程中的	-11682
年年底	-11683
))	-11684
型企业	-11685
威尼斯	-11686
已超过	-11687
明珠	-11688
副教授	-11689
的各种	-11690
日到	-11691
严谨	-11692
高空	-11693
起到了	-11694
Model	-11695
相近	-11696
花卉	-11697
和市场	-11698
突出问题	-11699
一枚	-11700
亚美	-11701
余个	-11702
费尔	-11703
题为	-11704
中国人民银行	-11705
后于	-11706
日产	-11707
著有	-11708
支球队	-11709
全产业链	-11710
共产党员	-11711
消防安全	-11712
经济效益	-11713
升为	-11714
摩洛	-11715
的生命	-11716
动机	-11717
最后一个	-11718
习近平新时代	-11719
核武器	-11720
确定了	-11721
一等奖	-11722
网络上	-11723
LO	-11724
渔船	-11725
如果不	-11726
每位	-11727
肥料	-11728
奢侈品	-11729
确定性	-11730
美国海军	-11731
▁最终	-11732
个月内	-11733
也非常	-11734
套房	-11735
巡洋	-11736
中小微	-11737
下同	-11738
眼中	-11739
美国经济	-11740
按时	-11741
西瓜	-11742
之类的	-11743
美丽的	-11744
应付	-11745
真实的	-11746
常识	-11747
年份	-11748
服务商	-11749
ited	-11750
建设中	-11751
ress	-11752
市委书记	-11753
之力	-11754
彼时	-11755
承压	-11756
我希望	-11757
的一天	-11758
并不意味着	-11759
酿酒	-11760
供给侧	-11761
先生的	-11762
开放的	-11763
无线电	-11764
目前为止	-11765
专家组	-11766
影评	-11767
童年	-11768
力学	-11769
基辅	-11770
巴塞	-11771
被盗	-11772
第二大	-11773
准备工作	-11774
固定资产	-11775
天文台	-11776
样品	-11777
ony	-11778
持续提升	-11779
出入境	-11780
博物院	-11781
)”	-11782
本线	-11783
▁演出	-11784
套路	-11785
榜首	-11786
绘制	-11787
播出的	-11788
大宗商品	-11789
嘉庆	-11790
较早	-11791
除非	-11792
研究会	-11793
位数	-11794
在她	-11795
织田	-11796
走低	-11797
出台了	-11798
▁、	-11799
▁九	-11800
大棚	-11801
等国	-11802
开工建设	-11803
▁陆	-11804
宴会	-11805
质效	-11806
首映	-11807
拉丁美洲	-11808
学期	-11809
星际	-11810
知名的	-11811
加码	-11812
社群	-11813
ver	-11814
参议员	-11815
金融危机	-11816
射手	-11817
因此在	-11818
忍不住	-11819
第一家	-11820
建立的	-11821
▁Bl	-11822
是中华	-11823
%(	-11824
同性	-11825
宁县	-11826
连队	-11827
右侧	-11828
无比	-11829
购物中心	-11830
汉族	-11831
的路	-11832
身穿	-11833
为名	-11834
媒介	-11835
邮箱	-11836
并称	-11837
购房者	-11838
一郎	-11839
日渐	-11840
与合作	-11841
劳动合同	-11842
管理制度	-11843
恒生	-11844
赞赏	-11845
为实现	-11846
哈利	-11847
早餐	-11848
齐全	-11849
临床试验	-11850
调查显示	-11851
学费	-11852
包含了	-11853
第十三	-11854
一夜	-11855
乡亲	-11856
安慰	-11857
年任	-11858
情人	-11859
曼谷	-11860
值得一提的是	-11861
和我	-11862
TOP	-11863
。”(	-11864
的意义	-11865
Open	-11866
中南	-11867
废物	-11868
回应称	-11869
值得注意的是	-11870
前十	-11871
安区	-11872
过敏	-11873
带领下	-11874
奖最佳	-11875
契合	-11876
宜居	-11877
里程碑	-11878
来水	-11879
贴近	-11880
岁以上	-11881
族自治州	-11882
届全国人大	-11883
佛罗里	-11884
感的	-11885
批量	-11886
海外市场	-11887
末端	-11888
莱德	-11889
西德	-11890
%),	-11891
在当时	-11892
早期的	-11893
的股份	-11894
三分之一	-11895
工业企业	-11896
巅峰	-11897
年将	-11898
温室	-11899
用力	-11900
不详	-11901
中西	-11902
姿势	-11903
注销	-11904
镇区	-11905
DVD	-11906
判决书	-11907
地标	-11908
海水	-11909
摆在	-11910
逃跑	-11911
粒子	-11912
黑猫	-11913
在去年	-11914
地进行	-11915
宝石	-11916
追逐	-11917
该物种	-11918
他以	-11919
守法	-11920
店里	-11921
排污	-11922
旁的	-11923
气质	-11924
甄选	-11925
等技术	-11926
外交部长	-11927
推销	-11928
迷你	-11929
下降了	-11930
是一款	-11931
的视频	-11932
广播公司	-11933
原为	-11934
ium	-11935
不断增强	-11936
缩影	-11937
环比增长	-11938
IG	-11939
保供	-11940
千亿	-11941
哈佛	-11942
是怎么	-11943
还有很多	-11944
后代	-11945
▁上述	-11946
年成为	-11947
排球	-11948
雷锋	-11949
预留	-11950
目前正在	-11951
公诉	-11952
内战	-11953
加沙	-11954
断裂	-11955
知情人士	-11956
拥护	-11957
诺斯	-11958
日报记者	-11959
本片	-11960
▁Le	-11961
共鸣	-11962
含义	-11963
规避	-11964
ов	-11965
多年前	-11966
的努力	-11967
唱歌	-11968
搜寻	-11969
的革命	-11970
感冒	-11971
片段	-11972
▁进入	-11973
招牌	-11974
服用	-11975
ade	-11976
ose	-11977
普通的	-11978
后才	-11979
因为他	-11980
引资	-11981
自发	-11982
▁记者从	-11983
不负	-11984
外籍	-11985
加强与	-11986
洗手	-11987
超标	-11988
十三年	-11989
个县	-11990
情况的	-11991
二氧化碳	-11992
反射	-11993
安居	-11994
美金	-11995
支持下	-11996
其他国家	-11997
文化产业	-11998
画作	-11999
硅谷	-12000
属地	-12001
anc	-12002
▁导演	-12003
充实	-12004
肇事	-12005
那么多	-12006
万桶	-12007
走过	-12008
原住民	-12009
的商业	-12010
屏障	-12011
私立	-12012
该省	-12013
时被	-12014
的整体	-12015
几乎没有	-12016
脊椎	-12017
▁乌	-12018
两级	-12019
侦探	-12020
有必要	-12021
查验	-12022
一汽	-12023
手枪	-12024
抗体	-12025
素材	-12026
计量	-12027
硕士学位	-12028
一口	-12029
选取	-12030
。「	-12031
杂交	-12032
▁普	-12033
接任	-12034
花顺	-12035
确定的	-12036
净利	-12037
节目中	-12038
出击	-12039
喜悦	-12040
戈尔	-12041
邯郸	-12042
带给	-12043
标普	-12044
的单	-12045
不应该	-12046
不被	-12047
处长	-12048
年轻人的	-12049
石器	-12050
医科大学	-12051
消防救援	-12052
区长	-12053
这边	-12054
丢失	-12055
多处	-12056
校外	-12057
说起	-12058
ML	-12059
以赴	-12060
▁范	-12061
中书	-12062
欧阳	-12063
点半	-12064
繁忙	-12065
第一部	-12066
越多	-12067
org	-12068
无疑是	-12069
户部	-12070
牧场	-12071
▁浙江	-12072
就不会	-12073
医务人员	-12074
内斯	-12075
峡谷	-12076
别人的	-12077
巡洋舰	-12078
工作日	-12079
该如何	-12080
中亚	-12081
年仅	-12082
省内	-12083
录得	-12084
经纬	-12085
车载	-12086
本文来自	-12087
▁「....	-12088
;(	-12089
▁·	-12090
应收	-12091
自研	-12092
受益于	-12093
左翼	-12094
这套	-12095
雇佣	-12096
第二季	-12097
▁魏	-12098
克力	-12099
投机	-12100
抵御	-12101
秉持	-12102
高校毕业生	-12103
磋商	-12104
从来没有	-12105
盘活	-12106
▁康	-12107
洗衣	-12108
科技的	-12109
已知	-12110
抗日战争	-12111
摩尔	-12112
收受	-12113
集成电路	-12114
费率	-12115
最终以	-12116
唯有	-12117
就任	-12118
很久	-12119
点和	-12120
矿物	-12121
拿到了	-12122
依然是	-12123
应邀	-12124
整齐	-12125
的观点	-12126
热心	-12127
过高	-12128
在全	-12129
十三五	-12130
Com	-12131
在法国	-12132
分钟后	-12133
文明的	-12134
了这个	-12135
志愿军	-12136
的一面	-12137
组织和	-12138
案情	-12139
美债	-12140
让大家	-12141
剑桥	-12142
诱导	-12143
冲绳	-12144
积极推动	-12145
人选	-12146
港区	-12147
可以从	-12148
年下半年	-12149
反腐	-12150
还为	-12151
▁st	-12152
实施的	-12153
抽查	-12154
大概率	-12155
经济和	-12156
勘探	-12157
交流道	-12158
休假	-12159
轰炸机	-12160
陈述	-12161
Net	-12162
呼吸道	-12163
不难	-12164
毗邻	-12165
关村	-12166
北宋	-12167
重整	-12168
的形象	-12169
清洁能源	-12170
置换	-12171
为人民	-12172
资产负债	-12173
▁早在	-12174
体温	-12175
商用	-12176
二十年	-12177
迟迟	-12178
西安市	-12179
设计和	-12180
三部	-12181
只见	-12182
挑衅	-12183
跃进	-12184
参演	-12185
西站	-12186
近百	-12187
如今的	-12188
人民银行	-12189
印第	-12190
同日	-12191
减税	-12192
拼搏	-12193
博主	-12194
私营	-12195
的主力	-12196
email	-12197
会将	-12198
转变为	-12199
各家	-12200
得奖	-12201
下一代	-12202
宣传教育	-12203
▁它	-12204
南宋	-12205
报刊	-12206
金股	-12207
ensis	-12208
亲人	-12209
感恩	-12210
电厂	-12211
居民的	-12212
艺术品	-12213
在意	-12214
德军	-12215
▁常	-12216
出炉	-12217
的国	-12218
骚扰	-12219
积极作用	-12220
一首	-12221
不通	-12222
北站	-12223
发出的	-12224
时间和	-12225
全力以赴	-12226
三方	-12227
拿起	-12228
被判	-12229
美妆	-12230
西门	-12231
迁徙	-12232
▁而且	-12233
偏低	-12234
雾霾	-12235
不允许	-12236
phone	-12237
发布公告称	-12238
一角	-12239
这件	-12240
摩洛哥	-12241
租借	-12242
系的	-12243
诱惑	-12244
投向	-12245
辞去	-12246
▁十	-12247
了我	-12248
好几	-12249
笔记本	-12250
不准	-12251
人格	-12252
的心情	-12253
部主任	-12254
太过	-12255
巴布	-12256
预选	-12257
我们是	-12258
为主题的	-12259
排在	-12260
讲师	-12261
▁奖项	-12262
北京时间	-12263
烹饪	-12264
花生	-12265
提升至	-12266
字节跳动	-12267
亮眼	-12268
刻意	-12269
年以	-12270
庄园	-12271
客串	-12272
的书	-12273
脖子	-12274
利比亚	-12275
先前	-12276
的白	-12277
ins	-12278
有一次	-12279
渗透率	-12280
参政	-12281
发展到	-12282
,'	-12283
如是	-12284
进取	-12285
投融资	-12286
可再生能源	-12287
词汇	-12288
不仅要	-12289
智力	-12290
出游	-12291
赶赴	-12292
悄悄	-12293
的两个	-12294
柴油机车	-12295
▁余	-12296
▁请	-12297
开局	-12298
野外	-12299
一般的	-12300
奥委会	-12301
工人阶级	-12302
庭院	-12303
盟友	-12304
EL	-12305
科学与	-12306
战略合作	-12307
揭牌	-12308
文帝	-12309
汉堡	-12310
借口	-12311
地把	-12312
外国人	-12313
方向的	-12314
每一次	-12315
正式启动	-12316
的大部分	-12317
全资子公司	-12318
地缘	-12319
夸张	-12320
更改	-12321
阵风	-12322
的对象	-12323
:[	-12324
写着	-12325
华的	-12326
送上	-12327
层面的	-12328
年毕业于	-12329
De	-12330
制服	-12331
大米	-12332
很长	-12333
这部分	-12334
族自治县	-12335
不忘	-12336
也与	-12337
开封	-12338
联名	-12339
还说	-12340
自主品牌	-12341
之以	-12342
保管	-12343
日照	-12344
降级	-12345
比上年	-12346
还存在	-12347
对立	-12348
第一届	-12349
东站	-12350
%/	-12351
▁钟	-12352
对决	-12353
空袭	-12354
的预期	-12355
达成协议	-12356
前所未有的	-12357
估算	-12358
服务于	-12359
在高	-12360
用手	-12361
▁戴	-12362
周六	-12363
出一个	-12364
rb	-12365
清明	-12366
印第安	-12367
的一个重要	-12368
核算	-12369
并获得	-12370
一定是	-12371
的文章	-12372
信息显示	-12373
纪委监委	-12374
你要	-12375
启示	-12376
海尔	-12377
较强的	-12378
始终坚持	-12379
专员	-12380
日语	-12381
在会上	-12382
▁k	-12383
吉他	-12384
富豪	-12385
讲究	-12386
身材	-12387
了该	-12388
定增	-12389
罪犯	-12390
半小时	-12391
根本上	-12392
▁记者了解到	-12393
化为	-12394
政变	-12395
棋手	-12396
欺诈	-12397
管理工作	-12398
功效	-12399
家门口	-12400
尼日利亚	-12401
常住	-12402
民心	-12403
转播	-12404
看到的	-12405
基金公司	-12406
客户提供	-12407
实实在	-12408
下班	-12409
朝日	-12410
联军	-12411
教育厅	-12412
动手	-12413
的红	-12414
自营	-12415
生命周期	-12416
事的	-12417
先是	-12418
税费	-12419
很快就	-12420
▁报告	-12421
周恩来	-12422
格拉斯	-12423
一轮	-12424
间谍	-12425
王室	-12426
造林	-12427
不同的是	-12428
▁董	-12429
在我国	-12430
接手	-12431
术语	-12432
避险	-12433
首付	-12434
婆婆	-12435
珊瑚	-12436
足迹	-12437
为他们	-12438
发生变化	-12439
驻地	-12440
ii	-12441
昔日	-12442
降落	-12443
南山	-12444
听见	-12445
校舍	-12446
世的	-12447
仍将	-12448
克雷	-12449
河谷	-12450
▁报道	-12451
利用率	-12452
的一半	-12453
保荐	-12454
则由	-12455
火焰	-12456
莉薇娅	-12457
粮食安全	-12458
还有一些	-12459
▁贝	-12460
否定	-12461
搜集	-12462
无意	-12463
联社	-12464
意识和	-12465
法兰西	-12466
仅供参考	-12467
▁吕	-12468
NHK	-12469
探测器	-12470
真的是	-12471
天鹅	-12472
座堂	-12473
这批	-12474
优化营商环境	-12475
一篇	-12476
传导	-12477
子孙	-12478
的张	-12479
都不会	-12480
多重	-12481
大片	-12482
番茄	-12483
万千瓦	-12484
综合治理	-12485
看病	-12486
概念股	-12487
共振	-12488
彩色	-12489
名进士	-12490
第二批	-12491
交通大学	-12492
IA	-12493
九十	-12494
orld	-12495
万元人民币	-12496
半径	-12497
直达	-12498
虹桥	-12499
跑到	-12500
门户	-12501
生态环境保护	-12502
平成	-12503
河的	-12504
的应用	-12505
大有	-12506
尽力	-12507
担负	-12508
)》,	-12509
分析认为	-12510
卡通	-12511
湖区	-12512
耳机	-12513
古迹	-12514
帐篷	-12515
克罗地亚	-12516
中央电视台	-12517
株式	-12518
部和	-12519
了出来	-12520
的共同	-12521
了新	-12522
卖给	-12523
▁秦	-12524
回避	-12525
库尔	-12526
组装	-12527
小伙	-12528
澄清	-12529
设于	-12530
刑事责任	-12531
光辉	-12532
拒不	-12533
疏导	-12534
购票	-12535
的交易	-12536
认定为	-12537
年世界	-12538
同比下滑	-12539
右手	-12540
救济	-12541
▁约翰	-12542
不再是	-12543
奖学金	-12544
保有	-12545
宝贝	-12546
德语	-12547
之风	-12548
但它	-12549
你说	-12550
市场中	-12551
议案	-12552
题目	-12553
供暖	-12554
议长	-12555
财年	-12556
”),	-12557
曾为	-12558
鲁能	-12559
总公司	-12560
归类	-12561
初衷	-12562
复式	-12563
季军	-12564
会产生	-12565
下单	-12566
旅程	-12567
身处	-12568
命名的	-12569
广西壮	-12570
株式会社	-12571
基石	-12572
崇拜	-12573
材质	-12574
概括	-12575
甲组	-12576
还可	-12577
一向	-12578
仅在	-12579
曾有	-12580
共中央	-12581
夏威夷	-12582
了一项	-12583
抢占	-12584
牛津	-12585
事业的	-12586
▁本报北京	-12587
专线	-12588
抛弃	-12589
绿水	-12590
ald	-12591
▁更	-12592
钱包	-12593
zh	-12594
泉水	-12595
涌入	-12596
安定	-12597
为我们	-12598
ward	-12599
政委	-12600
ana	-12601
主要由	-12602
斯蒂	-12603
ake	-12604
VC	-12605
等候	-12606
收入为	-12607
无障碍	-12608
方形	-12609
蒙德	-12610
经验的	-12611
共生	-12612
音频	-12613
伙伴关系	-12614
经济损失	-12615
ating	-12616
要注意	-12617
第一财经	-12618
最高法院	-12619
保费	-12620
吃了	-12621
年会	-12622
收支	-12623
根基	-12624
演技	-12625
车祸	-12626
露天	-12627
还是在	-12628
▁潘	-12629
人所	-12630
年才	-12631
自公告	-12632
无一	-12633
罪名	-12634
事关	-12635
分管	-12636
并成为	-12637
▁为什么	-12638
stock	-12639
OK	-12640
又能	-12641
号楼	-12642
商铺	-12643
路站	-12644
辆车	-12645
中心主任	-12646
目前已经	-12647
▁丁	-12648
古屋	-12649
水土	-12650
骨骼	-12651
委书记	-12652
率军	-12653
不断扩大	-12654
午后	-12655
游行	-12656
全面提升	-12657
保税	-12658
航海	-12659
lix	-12660
应有的	-12661
日趋	-12662
的名	-12663
统战	-12664
罗拉	-12665
香港配音	-12666
疫情防控工作	-12667
结尾	-12668
乱象	-12669
南通	-12670
道夫	-12671
yst	-12672
并不会	-12673
的人工	-12674
协同发展	-12675
制造的	-12676
被杀	-12677
备忘	-12678
学园	-12679
泽民	-12680
省会	-12681
机枪	-12682
oth	-12683
十六年	-12684
抗旱	-12685
赞成	-12686
可以让	-12687
意识形态	-12688
关口	-12689
内需	-12690
卡特	-12691
德勒	-12692
根源	-12693
真心	-12694
和一个	-12695
多伦多	-12696
个案	-12697
左侧	-12698
的语言	-12699
掌控	-12700
王者	-12701
摄影师	-12702
军用	-12703
蕴含	-12704
red	-12705
河水	-12706
世纪末	-12707
主义和	-12708
政府在	-12709
超级联赛	-12710
国小	-12711
奠定	-12712
房东	-12713
▁例如	-12714
听了	-12715
期盼	-12716
预估	-12717
▁专家	-12718
与国际	-12719
感觉到	-12720
三甲	-12721
战区	-12722
巾帼	-12723
抗原	-12724
海盗	-12725
普鲁士	-12726
凭证	-12727
溯源	-12728
第一百	-12729
to	-12730
厚度	-12731
的上	-12732
▁教育	-12733
多层次	-12734
移动互联网	-12735
狭窄	-12736
form	-12737
格力	-12738
老兵	-12739
法西斯	-12740
▁百	-12741
氢能	-12742
福音	-12743
包括了	-12744
的经营	-12745
委任	-12746
他指出	-12747
世界各国	-12748
佐藤	-12749
维拉	-12750
▁一般	-12751
明日	-12752
姓氏	-12753
本作	-12754
黄浦	-12755
▁于是	-12756
rand	-12757
一身	-12758
地向	-12759
村镇	-12760
和产业	-12761
已连续	-12762
海内外	-12763
文化艺术	-12764
赛车	-12765
长途	-12766
样板	-12767
人才的	-12768
中国足球	-12769
奔跑	-12770
中国汽车	-12771
梅尔	-12772
至上	-12773
!?」	-12774
但目前	-12775
同样是	-12776
展开了	-12777
据报道	-12778
明确规定	-12779
饱和	-12780
日来	-12781
身后	-12782
等功能	-12783
宫殿	-12784
急诊	-12785
▁图片来源	-12786
更能	-12787
蝴蝶	-12788
与社会	-12789
的居民	-12790
传授	-12791
叔叔	-12792
地将	-12793
熟练	-12794
风采	-12795
气象局	-12796
很不	-12797
网联	-12798
两人的	-12799
国家统计局	-12800
东县	-12801
反恐	-12802
跌停	-12803
▁印度	-12804
去世后	-12805
选举中	-12806
王位	-12807
因为它	-12808
备忘录	-12809
民族团结	-12810
师资	-12811
这起	-12812
经济带	-12813
Co	-12814
蓝图	-12815
宰相	-12816
村民们	-12817
等产品	-12818
垒打	-12819
电影院	-12820
刚好	-12821
通俗	-12822
交易的	-12823
南沙	-12824
反垄断	-12825
进一步扩大	-12826
不胜	-12827
!!」	-12828
的科学	-12829
携程	-12830
的经历	-12831
继续保持	-12832
六百	-12833
市县	-12834
来访	-12835
做到了	-12836
LA	-12837
因病	-12838
场次	-12839
学子	-12840
新材	-12841
复旦大学	-12842
生殖	-12843
画像	-12844
短线	-12845
服务保障	-12846
生物多样性	-12847
的古	-12848
禁令	-12849
一波	-12850
上前	-12851
亚当	-12852
纽带	-12853
不错的	-12854
职称	-12855
密切关注	-12856
剪辑	-12857
但随着	-12858
我们必须	-12859
则以	-12860
流行的	-12861
梯队	-12862
隐瞒	-12863
风波	-12864
李克强	-12865
等信息	-12866
只有一个	-12867
饮酒	-12868
底蕴	-12869
次子	-12870
但对于	-12871
年加入	-12872
Google	-12873
职业技术学院	-12874
,(	-12875
加持	-12876
规矩	-12877
学习和	-12878
布政使	-12879
射入	-12880
自然保护区	-12881
动的	-12882
在不	-12883
填写	-12884
百强	-12885
万件	-12886
间隔	-12887
就读于	-12888
TS	-12889
▁好	-12890
完备	-12891
被骗	-12892
转到	-12893
三轮	-12894
却不	-12895
但也有	-12896
曾多次	-12897
赛冠军	-12898
商报记者	-12899
制备	-12900
即是	-12901
本金	-12902
灭亡	-12903
的工作人员	-12904
扩充	-12905
由来	-12906
生命的	-12907
结构的	-12908
迈向	-12909
迈克尔	-12910
重点关注	-12911
到场	-12912
十五年	-12913
平方米的	-12914
诗词	-12915
%)。	-12916
我现在	-12917
直播带货	-12918
▁洪	-12919
一说	-12920
全军	-12921
饮水	-12922
高产	-12923
帮我	-12924
工业和信息化	-12925
可为	-12926
党委副书记	-12927
味的	-12928
极度	-12929
伍德	-12930
发声	-12931
日公布	-12932
维持在	-12933
亚冠	-12934
受到影响	-12935
美好生活	-12936
碰到	-12937
则认为	-12938
有多少	-12939
两座	-12940
局限	-12941
巨星	-12942
躺在	-12943
专业合作社	-12944
手游	-12945
能耗	-12946
中指出	-12947
对应的	-12948
之情	-12949
家和	-12950
融券	-12951
剧目	-12952
电压	-12953
特定的	-12954
运载火箭	-12955
跨省	-12956
▁警方	-12957
异议	-12958
摆放	-12959
没了	-12960
福祉	-12961
芭蕾	-12962
调解员	-12963
晚报记者	-12964
法律规定	-12965
北市	-12966
田园	-12967
脱颖	-12968
实现营收	-12969
la	-12970
管线	-12971
期间的	-12972
过硬	-12973
▁—	-12974
填报	-12975
纵向	-12976
avid	-12977
▁;	-12978
疲软	-12979
纵横	-12980
金砖	-12981
纳税人	-12982
领导班子	-12983
打车	-12984
蒂安	-12985
走强	-12986
一等	-12987
莉莎	-12988
》),	-12989
增资	-12990
族群	-12991
洛伊	-12992
烟火	-12993
种的	-12994
事业部	-12995
号种子	-12996
龙类	-12997
身上的	-12998
一审	-12999
善良	-13000
团员	-13001
访华	-13002
有待	-13003
里奥	-13004
拍摄的	-13005
率和	-13006
从去年	-13007
净资产	-13008
困难的	-13009
党校	-13010
是由于	-13011
心理健康	-13012
数以	-13013
实践活动	-13014
中路	-13015
被打	-13016
钱的	-13017
是英国	-13018
老人的	-13019
专项整治	-13020
困惑	-13021
差点	-13022
erv	-13023
了自己	-13024
会计师	-13025
十个	-13026
滑冰	-13027
眼科	-13028
的高速	-13029
阿联酋	-13030
一幅	-13031
全书	-13032
弹劾	-13033
继任	-13034
ouse	-13035
地表	-13036
跌超	-13037
公开发行	-13038
财报显示	-13039
迎战	-13040
逼近	-13041
意思是	-13042
是一条	-13043
▁麦	-13044
招呼	-13045
编程	-13046
颇有	-13047
高通	-13048
保障性	-13049
女性的	-13050
给出的	-13051
庄为邻	-13052
当选为	-13053
在小	-13054
尊敬	-13055
市场和	-13056
服务体系	-13057
英军	-13058
▁关注	-13059
贫困地区	-13060
毛泽东思想	-13061
吸毒	-13062
每亩	-13063
较差	-13064
▁Int	-13065
事业发展	-13066
无人驾驶	-13067
▁车站结构	-13068
▁萨	-13069
敌军	-13070
骑行	-13071
拓跋	-13072
的一员	-13073
越来越大	-13074
信徒	-13075
通话	-13076
航空航天	-13077
因为在	-13078
模式的	-13079
会是	-13080
内陆	-13081
又将	-13082
唐山	-13083
▁Ro	-13084
据介绍	-13085
咳嗽	-13086
散文	-13087
科长	-13088
给大家	-13089
出路	-13090
就将	-13091
归来	-13092
是将	-13093
倾听	-13094
节水	-13095
初次	-13096
瀑布	-13097
配音员	-13098
未来发展	-13099
号称	-13100
潍坊	-13101
了这一	-13102
首先要	-13103
后悔	-13104
失控	-13105
以及在	-13106
公安分局	-13107
我们希望	-13108
搭乘	-13109
菲利普	-13110
建军	-13111
我家	-13112
月亮	-13113
毫无疑	-13114
熟悉的	-13115
都已经	-13116
竞价	-13117
足总	-13118
学习的	-13119
是没有	-13120
近距离	-13121
▁波	-13122
东汉	-13123
居前	-13124
公司股份	-13125
这几年	-13126
一副	-13127
八百	-13128
典范	-13129
跌破	-13130
▁在此	-13131
净流出	-13132
因涉嫌	-13133
催生	-13134
调侃	-13135
证券公司	-13136
电信网络诈骗	-13137
和阿	-13138
市盈	-13139
解禁	-13140
国公	-13141
不完全统计	-13142
▁个	-13143
尊严	-13144
植入	-13145
着急	-13146
打造了	-13147
的战斗	-13148
品尝	-13149
宏伟	-13150
投标	-13151
参与到	-13152
的患者	-13153
▁新京报讯	-13154
每一位	-13155
都御史	-13156
风格的	-13157
旅客铁道	-13158
也称	-13159
占到	-13160
拖拉	-13161
答辩	-13162
高档	-13163
击败了	-13164
有能力	-13165
加利福尼亚州	-13166
CA	-13167
刑部	-13168
相比于	-13169
把手	-13170
警力	-13171
错过	-13172
之年号	-13173
大熊猫	-13174
的案件	-13175
OPPO	-13176
面积为	-13177
在场	-13178
上交所	-13179
油画	-13180
突变	-13181
▁贾	-13182
停运	-13183
汇集	-13184
the	-13185
与前	-13186
也比较	-13187
作品中	-13188
资源和	-13189
全村	-13190
楼宇	-13191
涉及到	-13192
知晓	-13193
稻田	-13194
年全球	-13195
证券日报	-13196
结盟	-13197
的报道	-13198
▁名	-13199
传言	-13200
来得	-13201
▁上海市	-13202
西方国家	-13203
多米	-13204
安抚	-13205
建的	-13206
永恒	-13207
选股	-13208
遇上	-13209
该党	-13210
小朋友	-13211
▁Mus	-13212
较去年同期	-13213
了其	-13214
一根	-13215
即为	-13216
建有	-13217
派人	-13218
逐一	-13219
Int	-13220
犹太人	-13221
都不能	-13222
天王	-13223
评委	-13224
在北	-13225
墓葬	-13226
常用	-13227
病逝	-13228
威尔士	-13229
两国关系	-13230
亿立方米	-13231
电流	-13232
▁博	-13233
国铁	-13234
文体	-13235
不到位	-13236
政务服务	-13237
炮兵	-13238
第三届	-13239
GW	-13240
农林	-13241
前途	-13242
任何人	-13243
张专辑	-13244
全国重点	-13245
常州	-13246
不合理	-13247
得到的	-13248
总数的	-13249
主机	-13250
带回	-13251
犹如	-13252
告诉我	-13253
直辖市	-13254
最受欢迎	-13255
爱国主义	-13256
涉事	-13257
全流程	-13258
开庭审理	-13259
退役军人	-13260
两场	-13261
并列	-13262
探访	-13263
工作和	-13264
是这样	-13265
处方	-13266
官僚	-13267
俄罗斯的	-13268
光的	-13269
审慎	-13270
敦促	-13271
日由	-13272
立交	-13273
完善的	-13274
歇尔	-13275
家庭的	-13276
年左右	-13277
每日经济新闻	-13278
之父	-13279
正向	-13280
父亲的	-13281
四方	-13282
领跑	-13283
故居	-13284
文摘	-13285
而又	-13286
▁An	-13287
减速	-13288
热水	-13289
车体	-13290
不小的	-13291
的身影	-13292
看不到	-13293
扰乱	-13294
ise	-13295
季节性	-13296
▁鲁	-13297
人居	-13298
塔利	-13299
该股	-13300
玛丽亚	-13301
身体健康	-13302
重磅	-13303
▁新华社记者	-13304
枪支	-13305
礼品	-13306
并要求	-13307
▁富	-13308
是国内	-13309
严厉打击	-13310
比去年同期	-13311
使他	-13312
津贴	-13313
之年	-13314
充当	-13315
市内	-13316
江淮	-13317
上台	-13318
切断	-13319
攻入	-13320
家政	-13321
恶魔	-13322
房租	-13323
原则上	-13324
似的	-13325
养猪	-13326
内政	-13327
新任	-13328
艾滋	-13329
顶部	-13330
的根本	-13331
和水	-13332
带你	-13333
开的	-13334
的小说	-13335
毫无疑问	-13336
第一书记	-13337
举例	-13338
有余	-13339
藤原	-13340
服务等	-13341
主要集中在	-13342
不慎	-13343
减肥	-13344
击中	-13345
急剧	-13346
收复	-13347
错了	-13348
▁男子	-13349
集中隔离	-13350
一类	-13351
刹车	-13352
我爱	-13353
***	-13354
城乡建设	-13355
对策	-13356
平县	-13357
的球员	-13358
ка	-13359
》;	-13360
对称	-13361
按摩	-13362
看作	-13363
ein	-13364
两年的	-13365
实施了	-13366
深层次	-13367
诊断为	-13368
外语	-13369
安全感	-13370
辖区内	-13371
近两年	-13372
预期的	-13373
ower	-13374
消费需求	-13375
一艘	-13376
续约	-13377
判定	-13378
影子	-13379
也是一个	-13380
日在北京	-13381
上旬	-13382
江山	-13383
网购	-13384
通货膨胀	-13385
患病	-13386
过大	-13387
安理会	-13388
俄军	-13389
国情	-13390
雷诺	-13391
老字号	-13392
不断的	-13393
人员在	-13394
其他地区	-13395
亲身	-13396
续集	-13397
ael	-13398
行业内	-13399
亚美尼亚	-13400
游乐	-13401
考证	-13402
丽莎白	-13403
工人的	-13404
巧克力	-13405
现在是	-13406
型电力机车	-13407
▁太	-13408
哈德	-13409
通常是	-13410
变得更加	-13411
复议	-13412
沿途	-13413
选址	-13414
▁著作	-13415
的人数	-13416
的组织	-13417
说什么	-13418
大幅提升	-13419
频次	-13420
晚年	-13421
阿布	-13422
金额为	-13423
境界	-13424
环比下降	-13425
得不到	-13426
香港的	-13427
社会科学院	-13428
天体	-13429
海运	-13430
肩膀	-13431
让自己	-13432
职业技能	-13433
交战	-13434
亲友	-13435
直观	-13436
锅炉	-13437
预赛	-13438
▁天津	-13439
亿人	-13440
大河	-13441
年限	-13442
迅猛	-13443
总股本	-13444
大庆	-13445
工人们	-13446
人民币汇率	-13447
经济发展的	-13448
EX	-13449
应有	-13450
第一代	-13451
可能导致	-13452
不乏	-13453
暴涨	-13454
跌至	-13455
剥夺	-13456
钢厂	-13457
面板	-13458
驻扎	-13459
的场景	-13460
▁任	-13461
解析	-13462
身分	-13463
▁历任	-13464
只有在	-13465
四人	-13466
紧盯	-13467
远洋	-13468
为群众	-13469
每年的	-13470
roup	-13471
分别增长	-13472
尾声	-13473
艰巨	-13474
大山	-13475
白人	-13476
ius	-13477
启动了	-13478
环境和	-13479
俘虏	-13480
大声	-13481
班的	-13482
rad	-13483
atch	-13484
接纳	-13485
派对	-13486
队和	-13487
阻力	-13488
购买了	-13489
。』	-13490
湖广	-13491
▁研究	-13492
调查中	-13493
退税	-13494
一九五	-13495
右翼	-13496
TVB	-13497
尔摩	-13498
泄漏	-13499
观影	-13500
▁之后	-13501
每个月	-13502
公益诉讼	-13503
广播电台	-13504
斯里兰卡	-13505
▁中新社北京	-13506
信赖	-13507
创造性	-13508
在学校	-13509
所需的	-13510
新势力	-13511
之作	-13512
来回	-13513
真菌	-13514
邻里	-13515
顺畅	-13516
破裂	-13517
私有	-13518
莱茵	-13519
十七年	-13520
也门	-13521
要塞	-13522
区政府	-13523
非常重要	-13524
买到	-13525
伤者	-13526
概况	-13527
盛会	-13528
都已	-13529
继承人	-13530
点击查看	-13531
跟我	-13532
小学生	-13533
就必须	-13534
就行	-13535
数智	-13536
管网	-13537
可能有	-13538
▁分	-13539
前瞻	-13540
福田	-13541
边为	-13542
通勤	-13543
零件	-13544
的状况	-13545
稀缺	-13546
药店	-13547
连任	-13548
准决赛	-13549
台词	-13550
周的	-13551
走的	-13552
防洪	-13553
的理论	-13554
这些人	-13555
万亿美元	-13556
人士表示	-13557
El	-13558
上也	-13559
对标	-13560
德甲	-13561
草地	-13562
西区	-13563
留给	-13564
决战	-13565
魔术	-13566
的质量	-13567
flix	-13568
▁泰	-13569
大关	-13570
总署	-13571
惊人	-13572
日对	-13573
媒体记者	-13574
不小	-13575
大为	-13576
大通	-13577
本部	-13578
响起	-13579
清真	-13580
SM	-13581
时会	-13582
正德	-13583
住所	-13584
单身	-13585
哈里	-13586
移居	-13587
经开	-13588
类产品	-13589
航天员	-13590
协力	-13591
应在	-13592
并处罚	-13593
入职	-13594
公认	-13595
尼迪	-13596
成像	-13597
世界纪录	-13598
OL	-13599
年级	-13600
直通	-13601
一些人	-13602
重点项目	-13603
▁i	-13604
前任	-13605
海的	-13606
菲尔	-13607
马达	-13608
想不到	-13609
中国式现代化	-13610
大爷	-13611
耶律	-13612
追捧	-13613
以及对	-13614
培训机构	-13615
建设工程	-13616
精神文明	-13617
公用	-13618
几名	-13619
溶液	-13620
走红	-13621
沈阳市	-13622
一直没有	-13623
的主要原因	-13624
源治理	-13625
白皮书	-13626
盛宴	-13627
卫生部	-13628
并进行	-13629
高效的	-13630
万美元的	-13631
▁校	-13632
和美	-13633
建华	-13634
找出	-13635
孙女	-13636
招收	-13637
骗取	-13638
ler	-13639
负面影响	-13640
之夜	-13641
分发	-13642
封信	-13643
斯诺	-13644
突围	-13645
谈论	-13646
和安全	-13647
和投资	-13648
在一次	-13649
很强的	-13650
经历过	-13651
获得者	-13652
昆仑	-13653
你可以	-13654
高性能	-13655
目睹	-13656
▁乔	-13657
▁子	-13658
天桥	-13659
学部	-13660
言之	-13661
▁钱	-13662
与新	-13663
除外	-13664
的报告	-13665
的理由	-13666
他把	-13667
后市	-13668
路比为	-13669
义乌	-13670
Sc	-13671
仍旧	-13672
公车	-13673
参军	-13674
吞吐	-13675
濒危	-13676
ult	-13677
明治三十	-13678
澎湃新闻	-13679
尽早	-13680
脚下	-13681
雄性	-13682
不利于	-13683
原体	-13684
不相	-13685
得上	-13686
汲取	-13687
升格为	-13688
第十一	-13689
工程学院	-13690
一眼	-13691
光谱	-13692
强力	-13693
讽刺	-13694
公式	-13695
压实	-13696
西欧	-13697
面积约	-13698
广泛关注	-13699
调查发现	-13700
千人	-13701
边疆	-13702
ild	-13703
停留在	-13704
之乱	-13705
千岁	-13706
取消了	-13707
放弃了	-13708
招商引资	-13709
展品	-13710
球星	-13711
老婆	-13712
芜湖	-13713
不惜	-13714
则会	-13715
臀鳍	-13716
参赛者	-13717
地区和	-13718
▁据美国	-13719
停滞	-13720
平定	-13721
贷款利率	-13722
偷偷	-13723
拉的	-13724
▁星	-13725
圣殿	-13726
重仓	-13727
项目中	-13728
布伦	-13729
扩容	-13730
日程	-13731
硫酸	-13732
网页	-13733
Tok	-13734
▁文化	-13735
的实际	-13736
一书	-13737
封装	-13738
巡航	-13739
新规	-13740
婴幼儿	-13741
第二位	-13742
实实在在	-13743
是中	-13744
电缆	-13745
系数	-13746
而生	-13747
老师的	-13748
纽约时报	-13749
三区	-13750
做成	-13751
在同	-13752
您的	-13753
战舰	-13754
汕头	-13755
转而	-13756
ime	-13757
▁深圳	-13758
法治化	-13759
成立以来	-13760
社会保险	-13761
研究所所长	-13762
停火	-13763
全美	-13764
日中	-13765
板上	-13766
装配	-13767
发展中	-13768
网站上	-13769
将该	-13770
阵线	-13771
年全年	-13772
▁题	-13773
以致	-13774
其所	-13775
暴发	-13776
涡轮	-13777
的前身	-13778
各行	-13779
为导向	-13780
核电站	-13781
音乐剧	-13782
动摇	-13783
岭南	-13784
琼斯	-13785
阴影	-13786
便利店	-13787
医疗保险	-13788
存活	-13789
很小	-13790
得起	-13791
▁公开	-13792
中国与	-13793
变速箱	-13794
▁Col	-13795
迄今为止	-13796
为之	-13797
责任制	-13798
经营主体	-13799
之二	-13800
气势	-13801
的伟大	-13802
违反了	-13803
福岛	-13804
联防	-13805
栖息地	-13806
冲动	-13807
四位	-13808
一个小	-13809
张家口	-13810
倒闭	-13811
植被	-13812
落的	-13813
越高	-13814
Play	-13815
金融科技	-13816
RA	-13817
是新	-13818
非凡	-13819
构成了	-13820
关注的是	-13821
也未	-13822
力求	-13823
带队	-13824
伊斯兰教	-13825
全面建成	-13826
创新驱动	-13827
▁”	-13828
分布式	-13829
igh	-13830
便会	-13831
几家	-13832
激增	-13833
美人	-13834
船上	-13835
代表着	-13836
eter	-13837
执行董事	-13838
在自己	-13839
和不	-13840
多条	-13841
穿上	-13842
消防员	-13843
研究成果	-13844
侨联	-13845
连同	-13846
的措施	-13847
网站消息	-13848
查阅	-13849
蜿蜒	-13850
这只	-13851
▁山东	-13852
法律服务	-13853
临沂	-13854
争执	-13855
红星	-13856
▁证券	-13857
数量的	-13858
点球	-13859
由该	-13860
来进行	-13861
对付	-13862
网讯	-13863
年至今	-13864
依法向你	-13865
共治	-13866
后因	-13867
以至于	-13868
实干	-13869
菲特	-13870
飞往	-13871
教科文	-13872
族的	-13873
译为	-13874
二十五	-13875
na	-13876
暴雪	-13877
感受到了	-13878
冷链	-13879
到大	-13880
她与	-13881
数值	-13882
享受到	-13883
▁木	-13884
拉夫	-13885
新风	-13886
死亡病例	-13887
冶金	-13888
可疑	-13889
误导	-13890
双方的	-13891
等原因	-13892
坐落	-13893
拨款	-13894
进场	-13895
主唱	-13896
吉亚	-13897
容器	-13898
尽责	-13899
掌握了	-13900
Ro	-13901
编译	-13902
手续费	-13903
济南市	-13904
人造	-13905
变身	-13906
每当	-13907
转投	-13908
各式	-13909
布兰	-13910
抓捕	-13911
羊肉	-13912
襄阳	-13913
系统和	-13914
伤病	-13915
向下	-13916
妨碍	-13917
容忍	-13918
新低	-13919
第一轮	-13920
▁赛	-13921
一脸	-13922
日夜	-13923
枪击	-13924
背部	-13925
ros	-13926
斯大林	-13927
公款	-13928
拉升	-13929
军营	-13930
声誉	-13931
村级	-13932
的低	-13933
两款	-13934
影展	-13935
翅膀	-13936
里有	-13937
闵行	-13938
▁发行	-13939
对华	-13940
拉姆	-13941
首领	-13942
区法院	-13943
历史性	-13944
孤立	-13945
王后	-13946
迁至	-13947
干道	-13948
等单位	-13949
任何一个	-13950
手下	-13951
监事	-13952
站房	-13953
铺设	-13954
骨折	-13955
和生产	-13956
的网络	-13957
筹建	-13958
鼻子	-13959
▁广东	-13960
国内市场	-13961
国家发改委	-13962
寺庙	-13963
伯利亚	-13964
发展新	-13965
最重要	-13966
的动作	-13967
严格执行	-13968
整整	-13969
台中市	-13970
精神和	-13971
大小比为	-13972
▁Part	-13973
你看	-13974
在水	-13975
已进入	-13976
摄入	-13977
服从	-13978
跳舞	-13979
日期间	-13980
他会	-13981
更名	-13982
为公司	-13983
等项目	-13984
宫廷	-13985
撤出	-13986
我们需要	-13987
尺度	-13988
看重	-13989
落下	-13990
观摩	-13991
那边	-13992
pany	-13993
不分	-13994
撒冷	-13995
软条	-13996
一直到	-13997
门市	-13998
村集体	-13999
关键技术	-14000
出线	-14001
高龄	-14002
嘉定	-14003
师长	-14004
穿梭	-14005
红外	-14006
通州	-14007
加油站	-14008
村村民	-14009
艺术的	-14010
重大项目	-14011
征求意见稿	-14012
伴有	-14013
华中	-14014
大了	-14015
底气	-14016
惯例	-14017
抬头	-14018
英国的	-14019
公共场所	-14020
大力推进	-14021
采取措施	-14022
交管	-14023
深水	-14024
在没有	-14025
真的很	-14026
原生	-14027
好看	-14028
歌声	-14029
该位	-14030
row	-14031
出来了	-14032
占据了	-14033
新冠疫苗	-14034
办实事	-14035
披露的	-14036
委员会主任	-14037
▁▲	-14038
战败	-14039
晚间	-14040
鲜活	-14041
同时在	-14042
复出	-14043
都非常	-14044
从前	-14045
出厂	-14046
命题	-14047
对吧	-14048
引来	-14049
科室	-14050
厂长	-14051
追击	-14052
rig	-14053
今天上午	-14054
经济技术	-14055
乌兰	-14056
独角	-14057
终极	-14058
缓缓	-14059
迈进	-14060
人脸	-14061
带著	-14062
抱歉	-14063
溺水	-14064
加固	-14065
收于	-14066
陪审	-14067
研究室	-14068
▁除此之外	-14069
广岛	-14070
退还	-14071
此前的	-14072
第三个	-14073
综合体	-14074
在今	-14075
猛烈	-14076
自然的	-14077
世界各地	-14078
▁行政区划	-14079
illiam	-14080
大将	-14081
小吃	-14082
快车	-14083
也是一	-14084
将迎来	-14085
结束时	-14086
倒塌	-14087
紧缩	-14088
在整个	-14089
范围内的	-14090
死去	-14091
莉亚	-14092
诊所	-14093
鱼雷	-14094
规划和	-14095
赛事中	-14096
供奉	-14097
拿破	-14098
既往	-14099
的费用	-14100
失联	-14101
果断	-14102
耶路	-14103
系列的	-14104
▁实习生	-14105
人民解放军	-14106
二代	-14107
老鼠	-14108
保持了	-14109
切尔西	-14110
法律援助	-14111
抽象	-14112
水务	-14113
线性	-14114
▁──	-14115
半球	-14116
工部	-14117
沙滩	-14118
年度最佳	-14119
改设	-14120
计时	-14121
月份的	-14122
一如	-14123
国中	-14124
暂行	-14125
牧民	-14126
已累计	-14127
营业部	-14128
但实际上	-14129
劳动关系	-14130
德川	-14131
秋天	-14132
不只是	-14133
说明书	-14134
机上	-14135
美女	-14136
后发现	-14137
表现为	-14138
传销	-14139
挣扎	-14140
外包	-14141
汇丰	-14142
目标的	-14143
▁生态	-14144
科进士	-14145
五世	-14146
片尾	-14147
不足以	-14148
员外郎	-14149
共产党的	-14150
在被	-14151
序幕	-14152
日向	-14153
氨酸	-14154
养护	-14155
骗子	-14156
行政机关	-14157
奇数	-14158
孕妇	-14159
完颜	-14160
放送	-14161
难忘	-14162
主要以	-14163
旅游景区	-14164
甲级联赛	-14165
集团董事长	-14166
采纳	-14167
的胜利	-14168
存放	-14169
薪资	-14170
年欧洲	-14171
排名第一	-14172
明确提出	-14173
专案	-14174
后就	-14175
威力	-14176
灿烂	-14177
林肯	-14178
rid	-14179
质量安全	-14180
跻身	-14181
第一大	-14182
耶路撒冷	-14183
奇幻	-14184
轮椅	-14185
aur	-14186
同花顺	-14187
等各种	-14188
通讯社	-14189
Fran	-14190
矫正	-14191
降准	-14192
▁国务院	-14193
是世界上	-14194
社会科学	-14195
▁回	-14196
本田	-14197
秸秆	-14198
运力	-14199
▁摄影	-14200
▁向	-14201
借用	-14202
热衷	-14203
接见	-14204
责任人	-14205
为食	-14206
开来	-14207
为推动	-14208
交由	-14209
德州	-14210
悲观	-14211
邮报	-14212
配乐	-14213
顺治	-14214
高桥	-14215
才知道	-14216
敌人的	-14217
市场价格	-14218
充值	-14219
金银	-14220
总收入	-14221
旗舰店	-14222
▁袁	-14223
母舰	-14224
误解	-14225
多样的	-14226
普通人	-14227
买菜	-14228
勉强	-14229
年代的	-14230
丝路	-14231
分期	-14232
势必	-14233
警官	-14234
ック	-14235
标志性	-14236
徒步	-14237
高手	-14238
日中午	-14239
特有的	-14240
的范围	-14241
大规模的	-14242
后台	-14243
果园	-14244
拿破仑	-14245
疾控中心	-14246
ck	-14247
活泼	-14248
▁Pl	-14249
我们有	-14250
蓬勃发展	-14251
Ed	-14252
真凉	-14253
降雪	-14254
很好地	-14255
理查德	-14256
自然灾害	-14257
侵蚀	-14258
守住	-14259
干脆	-14260
是与	-14261
行道	-14262
▁蒋	-14263
均匀	-14264
时在	-14265
町村	-14266
大会堂	-14267
很高的	-14268
规模以上	-14269
球衣	-14270
▁这里	-14271
▁温	-14272
同业	-14273
焊接	-14274
提到的	-14275
my	-14276
此地	-14277
流畅	-14278
艾尔	-14279
谋求	-14280
流行病	-14281
疾病的	-14282
对局	-14283
费城	-14284
人员和	-14285
他们将	-14286
公安厅	-14287
消费市场	-14288
同时还	-14289
钢筋	-14290
密切接触者	-14291
几种	-14292
纽约市	-14293
▁声	-14294
向他	-14295
国语	-14296
兹别克	-14297
的决心	-14298
第四次	-14299
新华社记者	-14300
▁超	-14301
墙壁	-14302
的黄	-14303
最终在	-14304
的最佳	-14305
规模最大的	-14306
大胜	-14307
拿马	-14308
阻挡	-14309
亿元和	-14310
种植面积	-14311
左手	-14312
主要从事	-14313
▁姜	-14314
巧妙	-14315
约谈	-14316
请问	-14317
参观了	-14318
被列入	-14319
▁英	-14320
牧师	-14321
的圣	-14322
oph	-14323
射线	-14324
群书	-14325
▁沿革	-14326
向中国	-14327
重点领域	-14328
TM	-14329
三地	-14330
运维	-14331
两端	-14332
公子	-14333
南下	-14334
消费的	-14335
队员们	-14336
一至	-14337
仪表	-14338
到访	-14339
口感	-14340
山镇	-14341
数次	-14342
在印度	-14343
觉得自己	-14344
噪音	-14345
图形	-14346
绽放	-14347
过滤	-14348
第十四	-14349
专班	-14350
并将其	-14351
总冠军	-14352
在中国大陆	-14353
何况	-14354
惠州	-14355
拖累	-14356
筹划	-14357
工作站	-14358
▁程	-14359
王的	-14360
成本的	-14361
才发现	-14362
而这些	-14363
对冲	-14364
葫芦	-14365
新三板	-14366
断层	-14367
直线	-14368
你知道	-14369
即使是	-14370
年时间	-14371
计划于	-14372
表扬	-14373
要点	-14374
司法局	-14375
立项	-14376
起源于	-14377
加密货币	-14378
亚非	-14379
办的	-14380
勃勃	-14381
账款	-14382
在广州	-14383
我相信	-14384
鲍威尔	-14385
应用程序	-14386
这首歌	-14387
学系	-14388
宁市	-14389
托尔	-14390
消极	-14391
飓风	-14392
造就	-14393
▁声明	-14394
也有人	-14395
奥斯曼	-14396
的心态	-14397
信息系统	-14398
▁今	-14399
亚目	-14400
连结	-14401
▁作词	-14402
的情感	-14403
一个新的	-14404
的新能源	-14405
▁云	-14406
做为	-14407
打着	-14408
明清	-14409
注册制	-14410
法定代表	-14411
丁目	-14412
初始	-14413
取证	-14414
放量	-14415
楼层	-14416
都说	-14417
二等奖	-14418
▁App	-14419
中途	-14420
生产商	-14421
严格按照	-14422
奥古	-14423
顺德	-14424
▁把	-14425
居于	-14426
狂欢	-14427
▁女子	-14428
控制的	-14429
被并入	-14430
都知道	-14431
桃花	-14432
▁法院	-14433
为用户	-14434
促成	-14435
演示	-14436
PMI	-14437
低调	-14438
初年	-14439
曙光	-14440
降本	-14441
墓地	-14442
底盘	-14443
肯定会	-14444
国防部长	-14445
基层治理	-14446
稳固	-14447
馆长	-14448
加勒比	-14449
中国文化	-14450
优胜	-14451
据点	-14452
▁行情	-14453
两队	-14454
汇总	-14455
觉悟	-14456
追赶	-14457
▁模拟	-14458
的宣传	-14459
的话语	-14460
福州市	-14461
we	-14462
会馆	-14463
帕尔	-14464
新春	-14465
气压	-14466
肖像	-14467
的还有	-14468
医学观察	-14469
监督检查	-14470
竞争力的	-14471
底下	-14472
强军	-14473
投行	-14474
斯和	-14475
创新药	-14476
和相关	-14477
管理系统	-14478
想过	-14479
有限的	-14480
之事	-14481
中华文化	-14482
数量为	-14483
高低	-14484
光线	-14485
出赛	-14486
古籍	-14487
并把	-14488
房的	-14489
芒果	-14490
净买入	-14491
持续增长	-14492
华德	-14493
户型	-14494
桌上	-14495
闪电	-14496
曾担任	-14497
在东	-14498
忘了	-14499
亚洲杯	-14500
这是因为	-14501
▁全球	-14502
的女性	-14503
供货	-14504
营地	-14505
pct	-14506
净亏损	-14507
的官方	-14508
汽车行业	-14509
▁中新网北京	-14510
要比	-14511
议事	-14512
erm	-14513
在海外	-14514
乙烯	-14515
传记	-14516
公演	-14517
兵部	-14518
换取	-14519
金价	-14520
ign	-14521
标语	-14522
等新	-14523
对美国	-14524
被列为	-14525
中国国际	-14526
偏弱	-14527
和李	-14528
直选	-14529
只是在	-14530
动了	-14531
强奸	-14532
灯塔	-14533
存在的问题	-14534
出不	-14535
仍需	-14536
失利	-14537
热血	-14538
童话	-14539
贫穷	-14540
做出的	-14541
地方的	-14542
是全国	-14543
第三代	-14544
也随之	-14545
这使得	-14546
这对于	-14547
经营管理	-14548
两轮	-14549
入局	-14550
关卡	-14551
集约	-14552
一遍	-14553
四强	-14554
界限	-14555
结识	-14556
own	-14557
加强了	-14558
开玩笑	-14559
家庭教育	-14560
想像	-14561
挽救	-14562
施策	-14563
首秀	-14564
我们党	-14565
仓位	-14566
伤口	-14567
理赔	-14568
脱颖而出	-14569
某一	-14570
里昂	-14571
对自己的	-14572
丁堡	-14573
老公	-14574
利益的	-14575
兄长	-14576
前海	-14577
孤儿	-14578
并用	-14579
万张	-14580
绿城	-14581
rin	-14582
的认识	-14583
和西	-14584
好人	-14585
感激	-14586
气旋	-14587
丰富多彩	-14588
无视	-14589
所带来的	-14590
电子游戏	-14591
常务委员会	-14592
像素	-14593
在马	-14594
安检	-14595
星星	-14596
税率	-14597
转折	-14598
晓明	-14599
记住	-14600
普遍认为	-14601
物业服务	-14602
会以	-14603
其子	-14604
发音	-14605
投保	-14606
辅警	-14607
也已经	-14608
我没有	-14609
这部电影	-14610
▁宝	-14611
梅花	-14612
火炮	-14613
维和	-14614
不具备	-14615
节的	-14616
▁发展	-14617
▁技术	-14618
开展的	-14619
其顿	-14620
地主	-14621
就职	-14622
集的	-14623
▁人物	-14624
力量的	-14625
年底前	-14626
水平和	-14627
背面	-14628
选中	-14629
不肯	-14630
北向	-14631
家住	-14632
组组长	-14633
服务贸易	-14634
竞争优势	-14635
上空	-14636
少儿	-14637
或缺	-14638
播映	-14639
私家	-14640
▁热点	-14641
的商品	-14642
符合条件的	-14643
加装	-14644
草莓	-14645
更多地	-14646
之乡	-14647
在位	-14648
埃塞	-14649
著作权	-14650
音乐学院	-14651
眼光	-14652
集中的	-14653
我有	-14654
触发	-14655
饮品	-14656
对企业	-14657
受疫情影响	-14658
具有重要意义	-14659
在德国	-14660
结构调整	-14661
希拉	-14662
张玉	-14663
盘面	-14664
院所	-14665
kg	-14666
写下	-14667
尚有	-14668
乐坛	-14669
教研	-14670
有针对	-14671
▁New	-14672
▁国家队	-14673
和南	-14674
年是	-14675
的另一	-14676
市场监管局	-14677
三代	-14678
不喜欢	-14679
全日	-14680
字样	-14681
对战	-14682
开场	-14683
是非	-14684
这些都是	-14685
国人	-14686
均可	-14687
斩获	-14688
特许	-14689
配备了	-14690
领事馆	-14691
ft	-14692
彩虹	-14693
▁然后	-14694
博士生	-14695
的开发	-14696
被任命为	-14697
台币	-14698
经济合作	-14699
资源配置	-14700
绫濑	-14701
▁截至目前	-14702
关停	-14703
防务	-14704
▁Re	-14705
各单位	-14706
民党	-14707
选票	-14708
避开	-14709
失业率	-14710
的大量	-14711
百合	-14712
踏实	-14713
及周边	-14714
恢复正常	-14715
使之	-14716
昼夜	-14717
为该	-14718
首场	-14719
▁据中国	-14720
带走	-14721
追随	-14722
问询	-14723
主人公	-14724
双方在	-14725
大哥	-14726
掘金	-14727
当前的	-14728
我自己	-14729
的特征	-14730
偏向	-14731
线条	-14732
铸造	-14733
坏了	-14734
她还	-14735
开始的	-14736
恢复了	-14737
的车辆	-14738
帮助企业	-14739
▁杰	-14740
轮流	-14741
人员伤亡	-14742
杀了	-14743
田博	-14744
隐蔽	-14745
基因组	-14746
放射性	-14747
领导者	-14748
▁江苏省	-14749
全景	-14750
在三	-14751
地狱	-14752
粉碎	-14753
诉前	-14754
退伍	-14755
方程	-14756
肉类	-14757
参加过	-14758
提供商	-14759
在此之前	-14760
林区	-14761
皆为	-14762
为一个	-14763
历届	-14764
小额	-14765
巴特	-14766
横跨	-14767
问及	-14768
评论员	-14769
首先是	-14770
购入	-14771
Pad	-14772
▁经历	-14773
中获得	-14774
因为他们	-14775
的超	-14776
要去	-14777
连线	-14778
低收入	-14779
有风险	-14780
是否存在	-14781
已然	-14782
抗美	-14783
饮用水	-14784
鲜明的	-14785
对着	-14786
签下	-14787
Ge	-14788
墙上	-14789
宣誓	-14790
海滩	-14791
融媒体	-14792
大厂	-14793
对口	-14794
狙击	-14795
经验和	-14796
▁达	-14797
设置的	-14798
今天下午	-14799
万英镑	-14800
发行人	-14801
摄氏度	-14802
第一款	-14803
给事中	-14804
冷战	-14805
宜宾	-14806
烧烤	-14807
群的	-14808
追加	-14809
不宜	-14810
▁重庆	-14811
家用	-14812
一对一	-14813
酒业	-14814
▁基于	-14815
如果有	-14816
不说	-14817
受邀	-14818
四国	-14819
征战	-14820
滑坡	-14821
召开了	-14822
成品油	-14823
专人	-14824
坠毁	-14825
组六	-14826
武力	-14827
▁朝鲜	-14828
写字楼	-14829
发展有限公司	-14830
手套	-14831
求是	-14832
申花	-14833
调味	-14834
的现实	-14835
受体	-14836
总之	-14837
alk	-14838
▁应	-14839
可口	-14840
散发	-14841
有毒	-14842
配偶	-14843
NO	-14844
中金	-14845
就曾	-14846
贝格	-14847
越过	-14848
家村	-14849
状元	-14850
赤字	-14851
的唯一	-14852
绿色通道	-14853
全台	-14854
工商户	-14855
作画	-14856
康养	-14857
徘徊	-14858
暖心	-14859
本着	-14860
不久后	-14861
烧毁	-14862
版图	-14863
禁区	-14864
联谊	-14865
较长	-14866
前去	-14867
咸丰	-14868
等重要	-14869
应急响应	-14870
权和	-14871
氨基	-14872
的学习	-14873
老龄化	-14874
不同程度	-14875
市人民政府	-14876
CI	-14877
交织	-14878
你就	-14879
机身	-14880
老化	-14881
部委	-14882
隆重	-14883
会影响	-14884
资产的	-14885
帮助他们	-14886
众所	-14887
放假	-14888
法师	-14889
造福	-14890
伐利亚	-14891
ings	-14892
写真	-14893
解锁	-14894
伊丽莎白	-14895
四次	-14896
春风	-14897
水晶	-14898
沉重	-14899
稳中	-14900
限量	-14901
oss	-14902
斯在	-14903
较前	-14904
保护和	-14905
做一个	-14906
团队的	-14907
尼古拉	-14908
延伸至	-14909
法律的	-14910
自主研发	-14911
雷雨	-14912
Car	-14913
评论家	-14914
身边的	-14915
全是	-14916
如有	-14917
录影	-14918
▁本站	-14919
对他们	-14920
情况进行	-14921
リー	-14922
练兵	-14923
二十厅	-14924
殴打	-14925
各自的	-14926
党风	-14927
周日	-14928
色情	-14929
文学奖	-14930
原著	-14931
很低	-14932
顾虑	-14933
提到了	-14934
有关负责人	-14935
至少有	-14936
调整后	-14937
REIT	-14938
纷纷表示	-14939
利奥	-14940
百花	-14941
祈祷	-14942
实现的	-14943
的一部	-14944
的电话	-14945
统治者	-14946
经济运行	-14947
坚信	-14948
成名	-14949
没法	-14950
降到	-14951
首任	-14952
三期	-14953
人情	-14954
干劲	-14955
郡王	-14956
年上映	-14957
同比增速	-14958
偶数	-14959
前区	-14960
基调	-14961
性与	-14962
死的	-14963
生病	-14964
铃薯	-14965
几年的	-14966
占公司	-14967
的全球	-14968
中央军委	-14969
ps	-14970
下半场	-14971
在不同	-14972
有人说	-14973
特烈	-14974
隐形	-14975
▁原创	-14976
为一体	-14977
切身	-14978
前置	-14979
本名	-14980
一句话	-14981
驾驶人	-14982
OOOO	-14983
用自己的	-14984
投资有限公司	-14985
mi	-14986
万套	-14987
学界	-14988
索尔	-14989
小鹏汽车	-14990
拜访	-14991
特约	-14992
雍正	-14993
总市值	-14994
的信心	-14995
两只	-14996
会面	-14997
减灾	-14998
水分	-14999
知乎	-15000
输给	-15001
骑手	-15002
国家和地区的	-15003
一倍	-15004
的下	-15005
礼拜	-15006
世界冠军	-15007
国家标准	-15008
aj	-15009
高额	-15010
路德	-15011
的手机	-15012
▁比	-15013
哈特	-15014
肩负	-15015
了一套	-15016
出示	-15017
液化	-15018
日发行	-15019
的数字	-15020
的受访者	-15021
各行各	-15022
VS	-15023
周岁	-15024
实控	-15025
帆船	-15026
租车	-15027
乌拉圭	-15028
地铁站	-15029
拉特	-15030
队以	-15031
见证了	-15032
中的一个	-15033
大都	-15034
层级	-15035
组织了	-15036
国家战略	-15037
全国人大代表	-15038
TE	-15039
ny	-15040
不妨	-15041
讲好	-15042
预言	-15043
全垒打	-15044
食品药品	-15045
京城	-15046
对面	-15047
视听	-15048
车票	-15049
转身	-15050
野心	-15051
金字	-15052
微信群	-15053
可信	-15054
对这些	-15055
拖拉机	-15056
欧元区	-15057
▁汪	-15058
一杯	-15059
侵入	-15060
路人	-15061
BBC	-15062
ome	-15063
后不久	-15064
斯图	-15065
琉球	-15066
金沙	-15067
核心竞争力	-15068
儿科	-15069
后人	-15070
太祖	-15071
建制	-15072
散户	-15073
月和	-15074
翌年	-15075
前不久	-15076
延误	-15077
穿戴	-15078
落败	-15079
占有率	-15080
不可或缺	-15081
头痛	-15082
拒绝了	-15083
成为全球	-15084
行政长官	-15085
实惠	-15086
通过的	-15087
ous	-15088
腓特烈	-15089
GO	-15090
揭幕	-15091
优质的	-15092
太宗	-15093
收官	-15094
远超	-15095
发挥作用	-15096
工业大学	-15097
信长	-15098
先驱	-15099
逃亡	-15100
▁人口	-15101
人民群众的	-15102
中年	-15103
布罗	-15104
财产安全	-15105
全能	-15106
春耕	-15107
柳州	-15108
沿用	-15109
物语	-15110
保证了	-15111
案件中	-15112
从根本上	-15113
邮票	-15114
分析称	-15115
宁波市	-15116
犯罪的	-15117
我们已经	-15118
货币基金	-15119
并发	-15120
摸索	-15121
的年	-15122
ane	-15123
等领域的	-15124
午餐	-15125
小号	-15126
电线	-15127
sch	-15128
作为一名	-15129
航道	-15130
两千	-15131
用在	-15132
赶上	-15133
部下	-15134
问答	-15135
又一个	-15136
就需要	-15137
成为一名	-15138
南南	-15139
纾困	-15140
著称	-15141
该书	-15142
然后再	-15143
学士学位	-15144
▁维	-15145
停牌	-15146
折射	-15147
查找	-15148
淄博	-15149
离岸	-15150
越是	-15151
顺丰	-15152
首次在	-15153
难关	-15154
风气	-15155
oci	-15156
▁第六	-15157
动植物	-15158
可以将	-15159
不断增加	-15160
指挥中心	-15161
理工学院	-15162
倒是	-15163
公信	-15164
放入	-15165
棋盘	-15166
▁Co	-15167
并开始	-15168
我已经	-15169
打开了	-15170
pl	-15171
当他	-15172
打得	-15173
留意	-15174
技术与	-15175
收费站	-15176
是基于	-15177
问题和	-15178
俄乌冲突	-15179
国际市场	-15180
开关	-15181
不尽	-15182
悬崖	-15183
总额为	-15184
涵盖了	-15185
第二名	-15186
狩猎	-15187
里奇	-15188
视频号	-15189
不合	-15190
世卫	-15191
偏离	-15192
双碳	-15193
忙着	-15194
拜占	-15195
棕榈	-15196
踏上	-15197
平均每	-15198
科会试	-15199
萨克森	-15200
▁萧	-15201
怪物	-15202
决定将	-15203
增长点	-15204
高频	-15205
大剧院	-15206
动向	-15207
客家	-15208
万公里	-15209
国务卿	-15210
交接	-15211
几千	-15212
大纲	-15213
弯曲	-15214
马匹	-15215
五粮	-15216
单个	-15217
立面	-15218
▁同样	-15219
中国梦	-15220
本质上	-15221
不可避免	-15222
东北地区	-15223
有关方面	-15224
无偿	-15225
野蛮	-15226
驳回	-15227
债权人	-15228
更需要	-15229
利润率	-15230
红十字会	-15231
自公告之日起	-15232
八大	-15233
曼城	-15234
秉承	-15235
了一名	-15236
从今年	-15237
带动了	-15238
亿万	-15239
冰川	-15240
四名	-15241
走路	-15242
肯尼亚	-15243
▁等	-15244
宋代	-15245
月任	-15246
腺癌	-15247
平台和	-15248
业务收入	-15249
多亩	-15250
ren	-15251
一家人	-15252
年我国	-15253
道路上	-15254
个体工商户	-15255
工程院院士	-15256
握手	-15257
用餐	-15258
订购	-15259
闯入	-15260
▁阿尔	-15261
心中的	-15262
扣押	-15263
奥莉薇娅	-15264
学院院长	-15265
身着	-15266
把自己的	-15267
反转	-15268
统计显示	-15269
PU	-15270
工党	-15271
桂园	-15272
评定	-15273
ile	-15274
发现于	-15275
的影响力	-15276
和社会保障	-15277
联合创始人	-15278
转任	-15279
▁Be	-15280
公告显示	-15281
口袋	-15282
顽强	-15283
不属于	-15284
全国的	-15285
当地政府	-15286
进行调查	-15287
共创	-15288
半数	-15289
在天	-15290
柠檬	-15291
调任	-15292
型机车	-15293
企事业单位	-15294
cl	-15295
▁格	-15296
不息	-15297
▁会上	-15298
的制度	-15299
的第一个	-15300
公有	-15301
升值	-15302
召唤	-15303
最先	-15304
次郎	-15305
章程	-15306
排列三	-15307
普通话	-15308
演出的	-15309
感悟	-15310
星光	-15311
残奥	-15312
旅游局	-15313
的因素	-15314
名下	-15315
天花板	-15316
年代末	-15317
诉源治理	-15318
研究院院长	-15319
血统	-15320
我们现在	-15321
消费电子	-15322
血糖	-15323
严密	-15324
加里	-15325
逃脱	-15326
▁成都	-15327
建交	-15328
挤压	-15329
院的	-15330
第一季	-15331
点是	-15332
只剩下	-15333
极大地	-15334
的最新	-15335
支持力度	-15336
▁重	-15337
决胜	-15338
劝说	-15339
堆积	-15340
打仗	-15341
部门和	-15342
二甲	-15343
外形	-15344
小林	-15345
年之后	-15346
有更多	-15347
长沙市	-15348
创新能力	-15349
物理学家	-15350
入伍	-15351
多国	-15352
日与	-15353
神的	-15354
▁He	-15355
即便是	-15356
发出了	-15357
投入到	-15358
给予了	-15359
就好	-15360
我都	-15361
言语	-15362
事件中	-15363
充分的	-15364
低保	-15365
围观	-15366
工序	-15367
青藏	-15368
一年后	-15369
打造成	-15370
灾后	-15371
留存	-15372
ral	-15373
是法国	-15374
────	-15375
世界第一	-15376
已将	-15377
林场	-15378
他自己	-15379
国家重点	-15380
▁韦	-15381
不该	-15382
胰岛	-15383
阿克	-15384
以前的	-15385
十八年	-15386
这是一种	-15387
Hz	-15388
东道	-15389
化身	-15390
还与	-15391
参与的	-15392
资源优势	-15393
二楼	-15394
气味	-15395
特鲁	-15396
广大群众	-15397
卜杜	-15398
原作	-15399
去找	-15400
是该	-15401
装有	-15402
优美	-15403
创伤	-15404
微型	-15405
恩斯	-15406
油菜	-15407
其次是	-15408
刑事拘留	-15409
商事	-15410
的石	-15411
▁现场	-15412
几十年	-15413
哲学家	-15414
手臂	-15415
殿下	-15416
再转	-15417
孕育	-15418
对流	-15419
继位	-15420
▁al	-15421
全面的	-15422
村里的	-15423
网报道	-15424
破获	-15425
不少于	-15426
错误的	-15427
意义上的	-15428
性强	-15429
消费者对	-15430
同情	-15431
申办	-15432
蒂亚	-15433
▁企业	-15434
总产值	-15435
Apple	-15436
利安	-15437
遴选	-15438
的广告	-15439
国家足球队	-15440
卷入	-15441
水县	-15442
调试	-15443
头盔	-15444
电价	-15445
中小微企业	-15446
停工	-15447
看向	-15448
▁战后	-15449
中国移动	-15450
应急预案	-15451
华文	-15452
口服	-15453
多夫	-15454
拥挤	-15455
改组	-15456
问卷	-15457
马的	-15458
东方甄选	-15459
之人	-15460
南阳	-15461
多是	-15462
威海	-15463
护肤	-15464
最少	-15465
老实	-15466
考入	-15467
西汉	-15468
躲避	-15469
支持的	-15470
这个时候	-15471
使人	-15472
此剧	-15473
测评	-15474
和使用	-15475
的职业	-15476
工业生产	-15477
可比	-15478
安妮	-15479
乌兹别克	-15480
记者采访时	-15481
兼容	-15482
日为	-15483
肠道	-15484
万多元	-15485
的动力	-15486
研究机构	-15487
同伴	-15488
外表	-15489
庆典	-15490
找准	-15491
班组	-15492
▁没有	-15493
个月后	-15494
水电站	-15495
记者李	-15496
民主主义	-15497
七百	-15498
五位	-15499
优雅	-15500
名家	-15501
飞跃	-15502
代言人	-15503
▁→	-15504
三维	-15505
为本	-15506
台的	-15507
小小	-15508
融创	-15509
分左右	-15510
要让	-15511
总教区	-15512
进程中	-15513
witter	-15514
中非	-15515
交出	-15516
橙色	-15517
自救	-15518
▁Ph	-15519
心脏病	-15520
个交易日	-15521
扎实推进	-15522
统计数据显示	-15523
地板	-15524
战时	-15525
注定	-15526
焚烧	-15527
▁东京	-15528
科维奇	-15529
研发中心	-15530
/)	-15531
取暖	-15532
已从	-15533
LPR	-15534
vip	-15535
但后来	-15536
捷克斯	-15537
了大	-15538
停放	-15539
▁内容	-15540
的身体	-15541
编号为	-15542
而得名	-15543
自来水	-15544
虽然在	-15545
樱花	-15546
氧气	-15547
玛格	-15548
班级	-15549
祖母	-15550
所有制	-15551
运营的	-15552
搬运	-15553
让步	-15554
雅各	-15555
一年多	-15556
可分为	-15557
接驳	-15558
楼房	-15559
聆听	-15560
车位	-15561
作为一种	-15562
联邦政府	-15563
的模式产地	-15564
奇瑞	-15565
此处	-15566
风向	-15567
分钟的	-15568
BD	-15569
▁至	-15570
普林	-15571
混淆	-15572
一大批	-15573
当地人	-15574
应急管理	-15575
之王	-15576
侨胞	-15577
掩盖	-15578
提拔	-15579
源地	-15580
美景	-15581
豪宅	-15582
退款	-15583
等诸多	-15584
而对于	-15585
核心价值观	-15586
写信	-15587
密克	-15588
展馆	-15589
来做	-15590
议程	-15591
海淀区	-15592
的模样	-15593
的结构	-15594
同比上涨	-15595
借由	-15596
要将	-15597
新品种	-15598
四面	-15599
在以	-15600
文昌	-15601
牲畜	-15602
赔付	-15603
这么做	-15604
赶到现场	-15605
达成一致	-15606
▁丹	-15607
否决	-15608
罗那	-15609
电动机	-15610
的持续	-15611
卫生组织	-15612
纳斯达克	-15613
现代化建设	-15614
屠宰	-15615
调配	-15616
问候	-15617
从严治	-15618
比较大	-15619
丑闻	-15620
他所	-15621
发光	-15622
王府	-15623
的她	-15624
区域性	-15625
系统中	-15626
▁按	-15627
科教	-15628
街庄	-15629
ype	-15630
医疗队	-15631
年球季	-15632
在此期间	-15633
)/	-15634
丘陵	-15635
地层	-15636
山下	-15637
较量	-15638
不排除	-15639
有超过	-15640
吏部	-15641
核桃	-15642
者们	-15643
预料	-15644
年担任	-15645
碧桂园	-15646
高速铁路	-15647
一月	-15648
保育	-15649
宗室	-15650
情侣	-15651
身影	-15652
金色	-15653
遭到了	-15654
浦东新区	-15655
外交部发言人	-15656
生态文明建设	-15657
上层	-15658
丽丝	-15659
出征	-15660
年于	-15661
于今年	-15662
的巨大	-15663
第二代	-15664
翰林院	-15665
Je	-15666
上校	-15667
切割	-15668
在下	-15669
就得	-15670
攻占	-15671
IL	-15672
\_	-15673
历来	-15674
厨师	-15675
古镇	-15676
源源	-15677
黄某	-15678
他希望	-15679
兼具	-15680
数个	-15681
期为	-15682
阿姆	-15683
部分的	-15684
医用	-15685
较弱	-15686
▁社会	-15687
上海的	-15688
巴拿马	-15689
关乎	-15690
就可	-15691
注明	-15692
莉莉	-15693
首钢	-15694
最低气温	-15695
子弟	-15696
救出	-15697
街上	-15698
选用	-15699
大满贯	-15700
只是一个	-15701
FA	-15702
中游	-15703
特派	-15704
间断	-15705
审判决	-15706
和马	-15707
洞穴	-15708
礼包	-15709
集采	-15710
喜爱的	-15711
路透社	-15712
只得	-15713
瑞克	-15714
ere	-15715
了一家	-15716
等其他	-15717
ha	-15718
三菱	-15719
关东	-15720
柔性	-15721
红楼	-15722
在市场	-15723
或许是	-15724
曾经的	-15725
进一步的	-15726
一国	-15727
长寿	-15728
反对派	-15729
年增长	-15730
等一批	-15731
OpenAI	-15732
▁齐	-15733
俄方	-15734
理论上	-15735
库克	-15736
征信	-15737
打磨	-15738
榴弹	-15739
传教士	-15740
但还是	-15741
出生在	-15742
长期的	-15743
国籍	-15744
视力	-15745
赵某	-15746
人生的	-15747
民族的	-15748
法兰克福	-15749
▁乐	-15750
叶片	-15751
滨江	-15752
莱特	-15753
惊人的	-15754
智能网联	-15755
毒素	-15756
CS	-15757
实处	-15758
上升到	-15759
戴着	-15760
无穷	-15761
曾与	-15762
甲醇	-15763
纲领	-15764
而有	-15765
的人士	-15766
换电	-15767
提炼	-15768
李娜	-15769
▁re	-15770
书房	-15771
海峰	-15772
皇岛	-15773
的运动	-15774
农业大学	-15775
产学	-15776
展演	-15777
当月	-15778
普尔	-15779
松江	-15780
病虫	-15781
▁Ad	-15782
小提琴	-15783
的中心	-15784
沙特阿拉伯	-15785
南县	-15786
地里	-15787
施肥	-15788
翻新	-15789
可用于	-15790
年电影	-15791
Mich	-15792
为什么要	-15793
周年纪念	-15794
城乡居民	-15795
街道办事处	-15796
Fi	-15797
▁看	-15798
八强	-15799
加达	-15800
约会	-15801
戴维斯	-15802
中兴	-15803
浓郁	-15804
外国语	-15805
遇到的	-15806
▁俱乐部	-15807
南华	-15808
地段	-15809
武昌	-15810
琳娜	-15811
索赔	-15812
诺曼	-15813
代表作	-15814
和实践	-15815
嘉年华	-15816
这场比赛	-15817
▁来	-15818
之举	-15819
内务	-15820
想想	-15821
抢修	-15822
节前	-15823
不会有	-15824
也不知道	-15825
工业园区	-15826
平日	-15827
开店	-15828
遗失	-15829
和产品	-15830
为国	-15831
四千	-15832
城里	-15833
拳击	-15834
普罗	-15835
点亮	-15836
阐释	-15837
高昂	-15838
可能出现	-15839
铁路车站	-15840
丝毫	-15841
四种	-15842
民进	-15843
记者张	-15844
都不是	-15845
农业农村部	-15846
现依法向你	-15847
发货	-15848
报表	-15849
牛市	-15850
里面的	-15851
▁时	-15852
墨尔	-15853
家风	-15854
见于	-15855
▁南京	-15856
BL	-15857
▁蓝	-15858
时发现	-15859
等地的	-15860
全国政协	-15861
金的	-15862
保护法	-15863
公司于	-15864
可靠性	-15865
主教座堂	-15866
HO	-15867
散布	-15868
豆腐	-15869
▁当日	-15870
信证券	-15871
提质增效	-15872
公关	-15873
多发	-15874
时起	-15875
端午	-15876
双十一	-15877
拜占庭	-15878
的健康	-15879
中小学生	-15880
做起	-15881
量和	-15882
美国国家	-15883
年进入	-15884
出席会议	-15885
受限	-15886
贿赂	-15887
首部	-15888
▁资金流向	-15889
卢布	-15890
火的	-15891
▁越南	-15892
古希腊	-15893
年正式	-15894
Mac	-15895
代理人	-15896
家协会	-15897
就不能	-15898
理想汽车	-15899
揭晓	-15900
撤回	-15901
雌性	-15902
他们还	-15903
紧接着	-15904
朝鲜人民	-15905
委员会副主任	-15906
.)	-15907
后将	-15908
吸取	-15909
和田	-15910
守备	-15911
报废	-15912
横滨	-15913
电报	-15914
种群	-15915
已开始	-15916
游击队	-15917
的人类	-15918
的名义	-15919
Tube	-15920
紧缺	-15921
艰辛	-15922
体现出	-15923
名举人	-15924
和日本	-15925
处境	-15926
对方的	-15927
解释说	-15928
印证	-15929
海里	-15930
自制	-15931
媒体的	-15932
总量的	-15933
而成的	-15934
男单	-15935
脑袋	-15936
送至	-15937
服务站	-15938
告诉我们	-15939
违纪违法	-15940
大名	-15941
画卷	-15942
高了	-15943
中关村	-15944
一到	-15945
亟待	-15946
从不	-15947
和在	-15948
彗星	-15949
德堡	-15950
惩戒	-15951
投影	-15952
随后的	-15953
版权声明	-15954
伴侣	-15955
值守	-15956
献血	-15957
uper	-15958
联席会议	-15959
上市公司的	-15960
好多	-15961
心血管	-15962
所学校	-15963
的汽车	-15964
▁客户端	-15965
新社	-15966
杆菌	-15967
受影响	-15968
击退	-15969
天河	-15970
衣物	-15971
是根据	-15972
观察到	-15973
这些年	-15974
并处罚金	-15975
齿轮	-15976
rop	-15977
物业管理	-15978
离家	-15979
额为	-15980
深切	-15981
五粮液	-15982
名古屋	-15983
安全保障	-15984
社交平台	-15985
或称	-15986
结对	-15987
赎回	-15988
众所周	-15989
!(	-15990
寓意	-15991
眼神	-15992
饱满	-15993
▁国内	-15994
十八届	-15995
最小的	-15996
的大小	-15997
&#	-15998
亲情	-15999
保洁	-16000
八项	-16001
补齐	-16002
率领的	-16003
前辈	-16004
缩水	-16005
务段	-16006
肥胖	-16007
基本的	-16008
营利	-16009
齐聚	-16010
床位	-16011
名学生	-16012
夫斯基	-16013
小区的	-16014
艺术节	-16015
历史学家	-16016
国际足联	-16017
航空母舰	-16018
(?	-16019
叶子	-16020
太保	-16021
拖延	-16022
如果说	-16023
颁奖礼	-16024
服务质量	-16025
候补	-16026
四级	-16027
契约	-16028
接地	-16029
成长为	-16030
世界遗产	-16031
荣誉称号	-16032
忠实	-16033
河东	-16034
经营性	-16035
紧紧围绕	-16036
买的	-16037
劲爆	-16038
妮妮	-16039
年前三季度	-16040
接续	-16041
无缝	-16042
租界	-16043
肚子	-16044
▁De	-16045
▁电视	-16046
鄂尔多	-16047
重点工作	-16048
大增	-16049
有钱	-16050
游记	-16051
三号	-16052
其父	-16053
福冈	-16054
防灾	-16055
▁所有	-16056
专门的	-16057
关系到	-16058
本身的	-16059
记者王	-16060
办公室主任	-16061
三元	-16062
云端	-16063
欧亚	-16064
聚力	-16065
空间的	-16066
博览群书	-16067
中止	-16068
偏差	-16069
名胜	-16070
ict	-16071
款车型	-16072
清真寺	-16073
百余	-16074
高举	-16075
安宁	-16076
带的	-16077
廊坊	-16078
纳尔	-16079
风味	-16080
多小时	-16081
领导和	-16082
对记者说	-16083
’。	-16084
三日	-16085
三类	-16086
安卓	-16087
建立在	-16088
交替	-16089
分享了	-16090
大革命	-16091
智能驾驶	-16092
生产生活	-16093
争端	-16094
交融	-16095
优于	-16096
友人	-16097
公共文化	-16098
之势	-16099
史诗	-16100
威特	-16101
所述	-16102
诚意	-16103
都以	-16104
的销量	-16105
伪装	-16106
记者会	-16107
高速增长	-16108
依规	-16109
太湖	-16110
嵌入	-16111
悄然	-16112
php	-16113
有很大	-16114
的大力	-16115
公平正义	-16116
ikTok	-16117
一经	-16118
▁科技	-16119
县委书记	-16120
大幅增长	-16121
些年	-16122
水下	-16123
贵宾	-16124
让孩子	-16125
活动现场	-16126
你能	-16127
埃德	-16128
形目	-16129
背叛	-16130
赶往	-16131
中学校	-16132
贫困人口	-16133
公墓	-16134
妥协	-16135
要用	-16136
▁作曲	-16137
共同的	-16138
上岗	-16139
党派	-16140
新星	-16141
的脸	-16142
店员	-16143
西藏自治区	-16144
离去	-16145
的产业	-16146
规模为	-16147
▁Air	-16148
提供服务	-16149
不同意	-16150
取自	-16151
嫁给	-16152
野村	-16153
完全没有	-16154
相互作用	-16155
HP	-16156
不做	-16157
相识	-16158
者为	-16159
▁另据	-16160
他强调	-16161
所以我	-16162
拉尔	-16163
不符	-16164
俄亥	-16165
夏令	-16166
滞后	-16167
▁II	-16168
代表了	-16169
室的	-16170
▁参加	-16171
的竞争	-16172
那样的	-16173
二级市场	-16174
』,	-16175
串联	-16176
大号	-16177
拿地	-16178
疑惑	-16179
世界级	-16180
以确保	-16181
俄亥俄	-16182
的自然	-16183
部队的	-16184
三中全会	-16185
卡片	-16186
结晶	-16187
全文	-16188
基站	-16189
月度	-16190
海姆	-16191
和政策	-16192
救护车	-16193
消费者权益	-16194
充裕	-16195
对新	-16196
束缚	-16197
照料	-16198
ivo	-16199
往往是	-16200
两部	-16201
冷冻	-16202
寺院	-16203
想必	-16204
看守	-16205
和政治	-16206
联赛中	-16207
启动仪式	-16208
平壤	-16209
眼的	-16210
也存在	-16211
表面上	-16212
建立一个	-16213
医美	-16214
就餐	-16215
早盘	-16216
重工	-16217
定义为	-16218
收盘价	-16219
等进行	-16220
示范基地	-16221
一堂	-16222
击落	-16223
湿度	-16224
先后在	-16225
市盈率	-16226
之争	-16227
大额	-16228
洲际	-16229
这儿	-16230
风险的	-16231
妇女儿童	-16232
Pl	-16233
华丽	-16234
南开	-16235
重度	-16236
颜值	-16237
封控	-16238
往前	-16239
谅解	-16240
运气	-16241
音响	-16242
变更为	-16243
全民健身	-16244
刑事案件	-16245
森林公园	-16246
记者了解到	-16247
▁车	-16248
之所	-16249
围攻	-16250
沼泽	-16251
瘫痪	-16252
管家	-16253
采矿	-16254
刑警	-16255
近来	-16256
版本的	-16257
Rating	-16258
但有	-16259
喀什	-16260
年年	-16261
氯化	-16262
了新的	-16263
员工的	-16264
回来了	-16265
已全部	-16266
疫情的	-16267
零售商	-16268
▁先	-16269
基尔	-16270
枢机	-16271
阶梯	-16272
突破了	-16273
在这种情况下	-16274
后半	-16275
存货	-16276
毒性	-16277
盛典	-16278
克拉克	-16279
铁矿石	-16280
噪声	-16281
报社	-16282
白垩	-16283
阵亡	-16284
▁他的	-16285
而闻名	-16286
琉璃	-16287
只个股	-16288
行业中	-16289
天文学家	-16290
ux	-16291
天赋	-16292
学区	-16293
密克戎	-16294
行政村	-16295
可视	-16296
永乐	-16297
还对	-16298
兑付	-16299
挽回	-16300
教徒	-16301
时就	-16302
量达	-16303
等各类	-16304
▁业内人士	-16305
划归	-16306
诸侯	-16307
胰岛素	-16308
科研人员	-16309
一球	-16310
两层	-16311
停办	-16312
渲染	-16313
各国的	-16314
回乡	-16315
而死	-16316
语气	-16317
发生过	-16318
宣布将	-16319
的评价	-16320
by	-16321
亲近	-16322
并从	-16323
等着	-16324
▁人民	-16325
群体的	-16326
军事行动	-16327
提供更多	-16328
FF	-16329
▁区	-16330
▁毛	-16331
代工	-16332
会和	-16333
把我	-16334
洛特	-16335
外交官	-16336
给孩子	-16337
书屋	-16338
十二厅	-16339
不断发展	-16340
主题活动	-16341
phtml	-16342
德国的	-16343
日以来	-16344
来看看	-16345
▁模拟交易	-16346
Newest	-16347
一连	-16348
vIR	-16349
和教育	-16350
斗争的	-16351
▁自选股	-16352
▁热点栏目	-16353
▁行情中心	-16354
团圆	-16355
工程的	-16356
性问题	-16357
较多的	-16358
berg	-16359
▁据统计	-16360
计划生育	-16361
州立	-16362
线和	-16363
羡慕	-16364
独角兽	-16365
就是这样	-16366
同质	-16367
商机	-16368
延庆	-16369
月到	-16370
的一致	-16371
研发费用	-16372
角度来看	-16373
双人	-16374
变换	-16375
通航	-16376
界人士	-16377
评议	-16378
内心的	-16379
扩大到	-16380
漫长的	-16381
热烈的	-16382
硬棘	-16383
辩证	-16384
不仅有	-16385
可爱的	-16386
购买的	-16387
助学	-16388
土木	-16389
庄严	-16390
田中	-16391
神州	-16392
一会儿	-16393
的高端	-16394
顶层设计	-16395
冒充	-16396
原定	-16397
逃生	-16398
宋朝	-16399
当你	-16400
百计	-16401
off	-16402
▁安全	-16403
安东尼	-16404
抑郁症	-16405
传统文化的	-16406
三点	-16407
前端	-16408
蓄水	-16409
雪山	-16410
风吹	-16411
文化活动	-16412
SE	-16413
体质	-16414
▁预计	-16415
推动下	-16416
环路	-16417
低成本	-16418
内部的	-16419
地下水	-16420
巴伐利亚	-16421
大洋	-16422
特产	-16423
编织	-16424
创造的	-16425
固然	-16426
族人	-16427
盯着	-16428
绝望	-16429
乐章	-16430
怪兽	-16431
打法	-16432
深海	-16433
过世	-16434
不一定	-16435
▁帕	-16436
信中	-16437
奥利	-16438
白的	-16439
组团	-16440
的地下	-16441
税务局	-16442
布鲁塞尔	-16443
北汽	-16444
少年儿童	-16445
定律	-16446
六个月	-16447
ound	-16448
稳步推进	-16449
经贸合作	-16450
▁瓦	-16451
县市	-16452
说着	-16453
学研究	-16454
月上旬	-16455
的业绩	-16456
该组织	-16457
亿人民币	-16458
▁柳	-16459
同仁	-16460
带上	-16461
得不	-16462
技师	-16463
ull	-16464
收购了	-16465
服务机构	-16466
』。	-16467
出兵	-16468
空前	-16469
即日起	-16470
喜好	-16471
必定	-16472
打包	-16473
打扮	-16474
早前	-16475
虽说	-16476
覆盖率	-16477
技术研发	-16478
统计数据	-16479
如其	-16480
尖锐	-16481
尾数	-16482
接壤	-16483
无声	-16484
会见了	-16485
的理解	-16486
则被	-16487
剥削	-16488
卸任	-16489
捆绑	-16490
面部	-16491
马车	-16492
和政府	-16493
也给	-16494
此刻	-16495
积雪	-16496
该局	-16497
问道	-16498
DD	-16499
年就	-16500
忍受	-16501
全国性	-16502
制定的	-16503
▁广东省	-16504
侵占	-16505
兰德	-16506
中药材	-16507
的一段	-16508
等多项	-16509
福利来了	-16510
地和	-16511
无论如何	-16512
均未	-16513
谢尔	-16514
岗位上	-16515
也越来越	-16516
全网	-16517
可观	-16518
大败	-16519
灾情	-16520
厦门市	-16521
十大金股	-16522
职能部门	-16523
La	-16524
五代	-16525
佩斯	-16526
在各	-16527
最受	-16528
▁th	-16529
生产队	-16530
专业人士	-16531
北京冬奥会	-16532
Be	-16533
与小	-16534
伯克	-16535
剖析	-16536
基亚	-16537
巡演	-16538
成指	-16539
样式	-16540
苏里	-16541
避难	-16542
arg	-16543
已达到	-16544
珠三角	-16545
中农	-16546
议论	-16547
黄埔	-16548
升级为	-16549
-)	-16550
不来	-16551
日耳	-16552
机床	-16553
绿水青山	-16554
国内生产总值	-16555
BB	-16556
让其	-16557
出现过	-16558
控制在	-16559
有所下降	-16560
正在进一步	-16561
首席经济学家	-16562
广发	-16563
联会	-16564
▁特别	-16565
办公楼	-16566
roid	-16567
股东的净利润	-16568
总长	-16569
雇主	-16570
静脉	-16571
前身为	-16572
度假区	-16573
舞台剧	-16574
司法机关	-16575
明确表示	-16576
▁e	-16577
关门	-16578
威尔斯	-16579
坚实基础	-16580
行政部门	-16581
一键	-16582
对她	-16583
看台	-16584
的名称	-16585
这时候	-16586
公办	-16587
南美	-16588
残留	-16589
不正当	-16590
从这个	-16591
几乎是	-16592
三重	-16593
务必	-16594
思议	-16595
兰州市	-16596
经开区	-16597
鄂尔多斯	-16598
极高	-16599
纵深	-16600
第四届	-16601
这一年	-16602
哈尔滨市	-16603
之歌	-16604
寂寞	-16605
ike	-16606
完美的	-16607
的新冠	-16608
知识和	-16609
特斯	-16610
班次	-16611
等多家	-16612
级地震	-16613
读书报	-16614
中信证券	-16615
二等	-16616
比对	-16617
在其他	-16618
最长的	-16619
工商银行	-16620
武装力量	-16621
列斯	-16622
山谷	-16623
搞笑	-16624
特效	-16625
干部和	-16626
马其顿	-16627
派出所民警	-16628
电动自行车	-16629
”》	-16630
书摘	-16631
光禄	-16632
茨克	-16633
时报记者	-16634
区位	-16635
过分	-16636
键盘	-16637
限期	-16638
的青年	-16639
等业务	-16640
系列赛	-16641
艾滋病	-16642
▁塞	-16643
可知	-16644
念头	-16645
洋基	-16646
起身	-16647
跟上	-16648
驻守	-16649
在他们	-16650
ater	-16651
介于	-16652
兵器	-16653
分销	-16654
废止	-16655
适配	-16656
班主任	-16657
的提升	-16658
不着	-16659
偏远	-16660
夏日	-16661
黄牛	-16662
ma	-16663
掩护	-16664
植树	-16665
而至	-16666
也同样	-16667
习近平同志	-16668
冰岛	-16669
总站	-16670
战俘	-16671
等同	-16672
阅兵	-16673
龙门	-16674
?”“	-16675
管理者	-16676
城门	-16677
下一页	-16678
想办法	-16679
盲盒	-16680
中高端	-16681
王先生	-16682
电子信息	-16683
记者会上	-16684
不为	-16685
中枢	-16686
在职	-16687
宜兰	-16688
李佳	-16689
检方	-16690
麻醉	-16691
台南市	-16692
可以选择	-16693
ney	-16694
的创作	-16695
下周	-16696
硬币	-16697
都与	-16698
为目的	-16699
的主人	-16700
SaaS	-16701
ke	-16702
▁施	-16703
小项	-16704
怀念	-16705
的五	-16706
也更	-16707
劝阻	-16708
该车	-16709
长治	-16710
男演员	-16711
引力	-16712
该项	-16713
延伸到	-16714
肯定是	-16715
历史同期	-16716
政府工作报告	-16717
应届	-16718
测绘	-16719
霸权	-16720
反腐败	-16721
▁风险提示	-16722
广播电视台	-16723
做饭	-16724
在海	-16725
奠基	-16726
女士说	-16727
手中的	-16728
田博群	-16729
能看到	-16730
华西	-16731
吸血	-16732
媳妇	-16733
新药	-16734
玩耍	-16735
▁杭州	-16736
妮妮姆	-16737
满足了	-16738
(“	-16739
LC	-16740
优选	-16741
塞拜	-16742
还被	-16743
一并	-16744
向外	-16745
家家	-16746
构想	-16747
战役中	-16748
所有权	-16749
远高于	-16750
代表性的	-16751
强有力的	-16752
捷克斯洛伐克	-16753
神父	-16754
过错	-16755
苏州市	-16756
小康社会	-16757
缘故	-16758
也认为	-16759
马铃薯	-16760
承德	-16761
金龙	-16762
飞车	-16763
技能人才	-16764
会后	-16765
▁大家	-16766
可以直接	-16767
中华读书报	-16768
大帝	-16769
师团	-16770
▁此后	-16771
欧洲的	-16772
光是	-16773
宾夕	-16774
望着	-16775
模特儿	-16776
的事件	-16777
社会化	-16778
较小的	-16779
公司股票	-16780
旅客列车	-16781
万岁	-16782
巨型	-16783
礼部	-16784
贝拉	-16785
副总统	-16786
单项	-16787
他已经	-16788
对不起	-16789
文摘报	-16790
非常有	-16791
打下	-16792
眼泪	-16793
开设了	-16794
所以在	-16795
克里米亚	-16796
却又	-16797
沙龙	-16798
▁现代	-16799
或者说	-16800
家里的	-16801
▁y	-16802
了在	-16803
深情	-16804
▁Mc	-16805
副作用	-16806
李先生	-16807
奥密克戎	-16808
店主	-16809
得住	-16810
车门	-16811
制度和	-16812
高血压	-16813
亿的	-16814
大和	-16815
已与	-16816
蒸发	-16817
遥远	-16818
enc	-16819
民营经济	-16820
BP	-16821
企划	-16822
变相	-16823
疲惫	-16824
相声	-16825
](#	-16826
gmrb	-16827
.,	-16828
TT	-16829
列举	-16830
变的	-16831
和非	-16832
哈根	-16833
多头	-16834
侵略者	-16835
漫画家	-16836
落后的	-16837
用户体验	-16838
刊物	-16839
邪恶	-16840
霸王	-16841
匈奴	-16842
引流	-16843
▁图源	-16844
▁节目	-16845
大运河	-16846
相关政策	-16847
走弱	-16848
万港元	-16849
俄比亚	-16850
可实现	-16851
和人民	-16852
孩子们的	-16853
新兴市场	-16854
中型	-16855
审视	-16856
Rob	-16857
年首次	-16858
支持者	-16859
他们认为	-16860
各国人民	-16861
非洲国家	-16862
坐标	-16863
开阔	-16864
田野	-16865
粮油	-16866
纯电	-16867
缴获	-16868
解体	-16869
三十年	-16870
轨电车	-16871
工程项目	-16872
之多	-16873
奖的	-16874
意甲	-16875
挂在	-16876
枫桥	-16877
正统	-16878
武士	-16879
ari	-16880
了一张	-16881
有一条	-16882
根据地	-16883
及后	-16884
高丽	-16885
器和	-16886
编队	-16887
习主席	-16888
性疾病	-16889
第三名	-16890
经济复苏	-16891
▁塔	-16892
哥华	-16893
哪吒	-16894
城内	-16895
将要	-16896
已向	-16897
扭曲	-16898
格达	-16899
oft	-16900
各地区	-16901
因为我	-16902
的综合	-16903
达成了	-16904
▁Man	-16905
创业板指	-16906
可以帮助	-16907
引爆	-16908
钻研	-16909
单位和	-16910
联赛的	-16911
燃料电池	-16912
湖州	-16913
直营	-16914
葬于	-16915
贴心	-16916
辗转	-16917
秦皇岛	-16918
全都	-16919
私下	-16920
赛会	-16921
也逐渐	-16922
另一名	-16923
让观众	-16924
之于	-16925
收拾	-16926
汗水	-16927
热身	-16928
甜蜜	-16929
负于	-16930
仅仅是	-16931
固态	-16932
蝙蝠侠	-16933
文化建设	-16934
介石	-16935
会所	-16936
阿什	-16937
有媒体	-16938
甚至在	-16939
总建筑面积	-16940
劲歌	-16941
没事	-16942
谈起	-16943
风景区	-16944
高峰期	-16945
沙发	-16946
合组织	-16947
自卫队	-16948
不论是	-16949
驾驶证	-16950
的全部	-16951
服务能力	-16952
美丽乡村	-16953
▁省	-16954
理发	-16955
良种	-16956
长者	-16957
名单中	-16958
进一步优化	-16959
分拆	-16960
外星	-16961
青训	-16962
营业执照	-16963
会把	-16964
低端	-16965
张国	-16966
金星	-16967
范围的	-16968
教科文组织	-16969
红的	-16970
苗栗	-16971
霍夫	-16972
创新高	-16973
巡回赛	-16974
日举行的	-16975
一字	-16976
中以	-16977
▁这位	-16978
这方面	-16979
集团在	-16980
非常好	-16981
额外的	-16982
orth	-16983
特色产业	-16984
判处有期徒刑	-16985
七八	-16986
内幕	-16987
所言	-16988
几乎所有	-16989
David	-16990
士气	-16991
大类	-16992
更多的是	-16993
俄语	-16994
拐点	-16995
红灯	-16996
菜单	-16997
way	-16998
与世界	-16999
霍华德	-17000
安达	-17001
建言	-17002
真空	-17003
细腻	-17004
希望在	-17005
帝国的	-17006
附加值	-17007
加纳	-17008
发作	-17009
到目前为止	-17010
万象	-17011
刚性	-17012
▁组织	-17013
▁非	-17014
凡是	-17015
梦幻	-17016
车子	-17017
的特殊	-17018
人民大会堂	-17019
未婚	-17020
流星	-17021
王家	-17022
资格赛	-17023
南至	-17024
官司	-17025
超导	-17026
两年后	-17027
雅加达	-17028
▁天主教	-17029
光芒	-17030
昏迷	-17031
星级	-17032
村子	-17033
西西	-17034
墨尔本	-17035
对这个	-17036
的心理	-17037
设备和	-17038
年从	-17039
甲状	-17040
锦旗	-17041
▁事件	-17042
可以为	-17043
栖息在	-17044
的高级	-17045
前述	-17046
普陀	-17047
随身	-17048
小小的	-17049
比较好	-17050
TI	-17051
卡的	-17052
君安	-17053
短时	-17054
锈钢	-17055
当下的	-17056
柴油机	-17057
▁也	-17058
事记	-17059
会给	-17060
无形	-17061
超声	-17062
伊万	-17063
强硬	-17064
快的	-17065
主演的	-17066
乳业	-17067
当即	-17068
法拉	-17069
韦尔	-17070
VIP	-17071
▁早期	-17072
广大市民	-17073
Ne	-17074
侧重	-17075
扭亏	-17076
拜托	-17077
涉及的	-17078
地质灾害	-17079
曲折	-17080
独具	-17081
预示	-17082
上赛季	-17083
发生于	-17084
合唱团	-17085
大乐透	-17086
美国在	-17087
转向架	-17088
▁姚	-17089
严重影响	-17090
堵塞	-17091
沦为	-17092
三年的	-17093
但这些	-17094
宾夕法	-17095
很高兴	-17096
政府对	-17097
流媒体	-17098
中对	-17099
偏高	-17100
来袭	-17101
自卫	-17102
宝贵的	-17103
亲手	-17104
等都	-17105
▁武汉	-17106
她们的	-17107
▁****	-17108
▁风	-17109
上都	-17110
年薪	-17111
关西	-17112
芝麻	-17113
顺义	-17114
准备了	-17115
某种程度上	-17116
年及	-17117
点左右	-17118
字的	-17119
攻略	-17120
森堡	-17121
河湖	-17122
老牌	-17123
向世界	-17124
成年人	-17125
月正式	-17126
中性	-17127
如实	-17128
科大	-17129
霉素	-17130
招待会	-17131
电子烟	-17132
中国银行	-17133
淮南	-17134
监禁	-17135
场均	-17136
油脂	-17137
短途	-17138
等职	-17139
的反应	-17140
MI	-17141
围墙	-17142
星空	-17143
漫威	-17144
集市	-17145
房贷利率	-17146
进一步增强	-17147
Qu	-17148
但未	-17149
区段	-17150
负有	-17151
box	-17152
▁秋	-17153
三江	-17154
包头	-17155
压倒	-17156
同等	-17157
老乡	-17158
荔枝	-17159
装载	-17160
三角洲	-17161
固定的	-17162
之久	-17163
也应	-17164
南越	-17165
我军	-17166
无处	-17167
涉足	-17168
产学研	-17169
每股收益	-17170
这段时间	-17171
万千	-17172
仿真	-17173
或有	-17174
某的	-17175
领馆	-17176
的程度	-17177
经常性	-17178
自然科学	-17179
奖杯	-17180
日以	-17181
麦当	-17182
特别的	-17183
四分之一	-17184
环球时报	-17185
ision	-17186
市占	-17187
弘治	-17188
全运会	-17189
安全管理	-17190
土豆	-17191
支那	-17192
紧随	-17193
交叉口	-17194
沃尔沃	-17195
投资机构	-17196
行政复议	-17197
亚科	-17198
彼得堡	-17199
所属的	-17200
实施意见	-17201
环境污染	-17202
悲伤	-17203
棕色	-17204
科协	-17205
著的	-17206
领主	-17207
▁著名	-17208
使他们	-17209
化学品	-17210
截至今年	-17211
中称	-17212
凶手	-17213
她也	-17214
金像	-17215
对外贸易	-17216
众筹	-17217
大体	-17218
到一个	-17219
青年的	-17220
oe	-17221
三郎	-17222
乏力	-17223
爆竹	-17224
路与	-17225
级别的	-17226
行动中	-17227
本期预计	-17228
留守儿童	-17229
全额	-17230
得太	-17231
日是	-17232
盒马	-17233
ham	-17234
告诉他	-17235
多功能	-17236
相关工作	-17237
艰苦奋斗	-17238
女单	-17239
现役	-17240
的战争	-17241
故宫博物院	-17242
最重要的是	-17243
信件	-17244
内存	-17245
振奋	-17246
景色	-17247
西甲	-17248
为抓手	-17249
的改革	-17250
实际上是	-17251
供求	-17252
富力	-17253
产品线	-17254
体育局	-17255
可以指	-17256
如何在	-17257
研究者	-17258
和值	-17259
哥拉	-17260
应诉	-17261
果树	-17262
而下	-17263
说明了	-17264
先天	-17265
当我	-17266
改任	-17267
科技进步	-17268
商报	-17269
微观	-17270
进城	-17271
不平衡	-17272
为主体	-17273
年收入	-17274
的危险	-17275
保驾	-17276
减值	-17277
见效	-17278
▁IS	-17279
指数为	-17280
都必须	-17281
世家	-17282
互鉴	-17283
同城	-17284
年多	-17285
成份	-17286
抽调	-17287
早早	-17288
马尼	-17289
当事人的	-17290
骗局	-17291
匆匆	-17292
海鲜	-17293
纳州	-17294
议席	-17295
使用权	-17296
第一天	-17297
大幅下降	-17298
ors	-17299
去哪儿	-17300
ka	-17301
на	-17302
侮辱	-17303
恰好	-17304
瓦拉	-17305
盟军	-17306
遵义	-17307
新台币	-17308
抛售	-17309
联队	-17310
觉醒	-17311
消费升级	-17312
前五	-17313
并行	-17314
攀登	-17315
营业额	-17316
国会议员	-17317
投资者的	-17318
贵州茅台	-17319
DI	-17320
何种	-17321
名牌	-17322
扭矩	-17323
敏锐	-17324
新秀	-17325
自建	-17326
越好	-17327
逆势	-17328
在城市	-17329
不败	-17330
出圈	-17331
弹道	-17332
心想	-17333
而从	-17334
首选	-17335
与企业	-17336
在进行	-17337
牠们的	-17338
预计将	-17339
交响乐团	-17340
奋斗目标	-17341
年一季度	-17342
现在已经	-17343
开朗	-17344
捕获	-17345
模组	-17346
谎言	-17347
迪斯	-17348
ene	-17349
之外的	-17350
了一段	-17351
划分为	-17352
北美洲	-17353
说不定	-17354
业绩预告	-17355
摘要	-17356
煤气	-17357
三角形	-17358
石窟	-17359
▁坚持	-17360
不小心	-17361
保留了	-17362
宇航员	-17363
按察使	-17364
意见建议	-17365
案的	-17366
法则	-17367
Gre	-17368
居民区	-17369
有一位	-17370
交易中心	-17371
人民公社	-17372
Fl	-17373
河县	-17374
虐待	-17375
高职	-17376
只能在	-17377
安德烈	-17378
的贡献	-17379
等环节	-17380
在这方面	-17381
价差	-17382
南亚	-17383
硬化	-17384
花莲	-17385
常用的	-17386
核心区	-17387
控股有限公司	-17388
定理	-17389
期末	-17390
瞩目	-17391
而易	-17392
服务员	-17393
的旅游	-17394
的训练	-17395
发展趋势	-17396
卫国	-17397
夜里	-17398
年幼	-17399
无私	-17400
民企	-17401
联控	-17402
专案组	-17403
中国电影	-17404
▁利	-17405
滚动	-17406
和建议	-17407
积累了	-17408
罕见的	-17409
整洁	-17410
的本	-17411
特曼	-17412
近乎	-17413
高宗	-17414
使用者	-17415
的控制	-17416
铁路运输	-17417
be	-17418
交锋	-17419
历年	-17420
多点	-17421
援朝	-17422
将自己	-17423
畜牧业	-17424
建设工作	-17425
相通	-17426
▁许多	-17427
合肥市	-17428
收录于	-17429
斗争中	-17430
淘汰赛	-17431
大幅增加	-17432
就业岗位	-17433
巴塞罗那	-17434
受阻	-17435
▁股民	-17436
少年的	-17437
确定为	-17438
ement	-17439
RT	-17440
为题	-17441
到中	-17442
后世	-17443
老将	-17444
▁以上	-17445
吸引更多	-17446
应急处置	-17447
朝鲜半岛	-17448
▁新京报记者	-17449
写成	-17450
单人	-17451
山坡	-17452
自驾	-17453
▁自动	-17454
三季报	-17455
干细胞	-17456
比较高	-17457
众所周知	-17458
全党	-17459
达峰	-17460
高企	-17461
▁设计	-17462
https	-17463
三等	-17464
开往	-17465
还不够	-17466
已成	-17467
星云	-17468
沉没	-17469
黑白	-17470
周围的	-17471
记者问	-17472
持股比例	-17473
银保监会	-17474
创历史新高	-17475
或在	-17476
界定	-17477
连夜	-17478
本院受理	-17479
?》	-17480
▁继	-17481
印章	-17482
悬念	-17483
状的	-17484
罗门	-17485
航站	-17486
▁据外媒	-17487
增压	-17488
日间	-17489
测定	-17490
稳妥	-17491
饿了	-17492
年第一季度	-17493
很强	-17494
蘑菇	-17495
▁投资	-17496
江泽民	-17497
该男子	-17498
重要性	-17499
之都	-17500
朴素	-17501
石墨	-17502
脚踏	-17503
作为中国	-17504
贡献力量	-17505
进一步发展	-17506
▁孟	-17507
不强	-17508
元和	-17509
投顾	-17510
步步	-17511
武田	-17512
胞胎	-17513
药材	-17514
覆盖面	-17515
奉行	-17516
时效	-17517
持续的	-17518
星巴克	-17519
常住人口	-17520
报到	-17521
看望	-17522
到来的	-17523
纽约州	-17524
风险管理	-17525
不俗	-17526
其对	-17527
紧凑	-17528
','	-17529
ole	-17530
深厚的	-17531
的地点	-17532
交易平台	-17533
日发布的	-17534
相关企业	-17535
ст	-17536
到店	-17537
当家	-17538
滞留	-17539
一起来	-17540
任务是	-17541
的歌曲	-17542
抽签	-17543
缴存	-17544
订立	-17545
分钟内	-17546
角度看	-17547
数据分析	-17548
有所不同	-17549
社会主义建设	-17550
▁别	-17551
重任	-17552
重现	-17553
拥有的	-17554
LG	-17555
呼应	-17556
圣地	-17557
施加	-17558
有为	-17559
邢台	-17560
▁又	-17561
破门	-17562
动物的	-17563
一楼	-17564
同治	-17565
按钮	-17566
祖籍	-17567
落入	-17568
超人	-17569
城中村	-17570
日耳曼	-17571
都无法	-17572
保全	-17573
元朝	-17574
只剩	-17575
自查	-17576
和世界	-17577
的联系	-17578
▁Con	-17579
临港	-17580
名校	-17581
拼命	-17582
损益	-17583
概股	-17584
会造成	-17585
监管机构	-17586
相关人员	-17587
配套设施	-17588
但被	-17589
劣势	-17590
布什	-17591
张贴	-17592
斯达	-17593
流经	-17594
热火	-17595
礼堂	-17596
进修	-17597
提供给	-17598
资企业	-17599
采访了	-17600
(-	-17601
▁亚洲	-17602
塔利班	-17603
蒋介石	-17604
截至发稿	-17605
冠名	-17606
时而	-17607
▁You	-17608
教育培训	-17609
向其	-17610
少卿	-17611
插曲	-17612
约克	-17613
阴阳	-17614
黑客	-17615
GPU	-17616
学生在	-17617
检察长	-17618
最后一公里	-17619
十条	-17620
原址	-17621
德利	-17622
浮现	-17623
▁四川	-17624
不是一	-17625
发电机	-17626
现实的	-17627
宝山	-17628
志强	-17629
报送	-17630
比喻	-17631
讲堂	-17632
远方	-17633
了一座	-17634
亿千瓦	-17635
期开奖	-17636
」)	-17637
区县	-17638
明知	-17639
有其	-17640
检讨	-17641
破除	-17642
靠着	-17643
出版了	-17644
为中心的	-17645
座谈会上	-17646
te	-17647
划定	-17648
班人	-17649
鞍山	-17650
ree	-17651
准备好	-17652
摊位	-17653
清凉	-17654
为美国	-17655
的民族	-17656
赞助商	-17657
因素影响	-17658
丞相	-17659
寒冬	-17660
搜查	-17661
特地	-17662
站是	-17663
阻断	-17664
传承人	-17665
社区的	-17666
出新	-17667
寄生	-17668
快报	-17669
▁为此	-17670
亚特兰	-17671
阿卜杜	-17672
该公司的	-17673
研究中心主任	-17674
唤醒	-17675
宇文	-17676
封顶	-17677
月被	-17678
畜禽	-17679
这三个	-17680
陌生人	-17681
预选赛	-17682
有一定的	-17683
专卖	-17684
漫长	-17685
货源	-17686
ino	-17687
农民的	-17688
的人民	-17689
官方网站	-17690
AV	-17691
五六	-17692
降临	-17693
▁河南	-17694
并不多	-17695
王国的	-17696
与人	-17697
听众	-17698
和地方	-17699
的一所	-17700
内容包括	-17701
沿江	-17702
线是	-17703
近视	-17704
上半年的	-17705
不由	-17706
分店	-17707
北欧	-17708
快餐	-17709
总的	-17710
他们会	-17711
众多的	-17712
越南南方	-17713
▁瑞	-17714
山城	-17715
投稿	-17716
认罪	-17717
饥饿	-17718
一口气	-17719
中心和	-17720
mail	-17721
当地居民	-17722
奇妙	-17723
并肩	-17724
预见	-17725
还是会	-17726
列颠	-17727
灌木	-17728
狠抓	-17729
在这次	-17730
材料的	-17731
运动中	-17732
半月	-17733
重叠	-17734
为日本	-17735
战争期间	-17736
规划建设	-17737
在此基础上	-17738
万年	-17739
交割	-17740
取向	-17741
排序	-17742
泸州	-17743
战斗中	-17744
曾经在	-17745
西城区	-17746
责任的	-17747
就是为了	-17748
我们应该	-17749
ᅠᅠ	-17750
和王	-17751
回流	-17752
学堂	-17753
明尼	-17754
淋巴	-17755
史以来	-17756
继续在	-17757
专项资金	-17758
租赁住房	-17759
行政审批	-17760
密云	-17761
母婴	-17762
水市	-17763
脱欧	-17764
藏在	-17765
鳍鱼	-17766
▁Res	-17767
亦可	-17768
倒数	-17769
园艺	-17770
排斥	-17771
派驻	-17772
牧区	-17773
特质	-17774
翻倍	-17775
▁湖南	-17776
中科院	-17777
创新型	-17778
一则	-17779
再见	-17780
道教	-17781
释法	-17782
雷霆	-17783
饮用	-17784
同性恋	-17785
的男子	-17786
之变	-17787
任内	-17788
北纬	-17789
承销	-17790
猎人	-17791
关注度	-17792
到今年	-17793
元钱	-17794
孙杨	-17795
学前	-17796
时限	-17797
的我	-17798
眼查	-17799
谷物	-17800
高开	-17801
▁我的	-17802
东日本	-17803
公里处	-17804
星期六	-17805
Mark	-17806
ター	-17807
吾尔	-17808
掠夺	-17809
膝盖	-17810
要对	-17811
近似	-17812
些什么	-17813
自媒体	-17814
中国铁路	-17815
固定资产投资	-17816
剂量	-17817
吉隆	-17818
少林	-17819
西州	-17820
路军	-17821
送去	-17822
保护的	-17823
的员工	-17824
碳酸锂	-17825
不断优化	-17826
保驾护航	-17827
混合动力	-17828
社区居民	-17829
站位	-17830
而知	-17831
酿造	-17832
私募基金	-17833
各种各样的	-17834
WE	-17835
常驻	-17836
胶囊	-17837
评判	-17838
连连	-17839
页岩	-17840
在深圳	-17841
这一天	-17842
地势	-17843
心动	-17844
而他	-17845
药企	-17846
▁Ex	-17847
便利化	-17848
的时刻	-17849
突破口	-17850
部作品	-17851
系列产品	-17852
国际电影节	-17853
偏见	-17854
口头	-17855
大王	-17856
诺伊	-17857
路过	-17858
就在于	-17859
买单	-17860
内生	-17861
呵呵	-17862
更像	-17863
的陈	-17864
怎么说	-17865
设计了	-17866
工作人员表示	-17867
Ex	-17868
▁谭	-17869
余年	-17870
名城	-17871
救人	-17872
条纹	-17873
接种疫苗	-17874
智能汽车	-17875
生物学家	-17876
亩产	-17877
学和	-17878
此项	-17879
留住	-17880
ener	-17881
情况后	-17882
的游客	-17883
管理处	-17884
产业体系	-17885
经营活动	-17886
较上年同期	-17887
道路交通安全	-17888
安门	-17889
精华	-17890
龙虎	-17891
TCL	-17892
▁简历	-17893
司令员	-17894
这一问题	-17895
哈顿	-17896
副省长	-17897
已经从	-17898
建筑的	-17899
德里克	-17900
精神病	-17901
组织部	-17902
ition	-17903
AG	-17904
倒逼	-17905
就以	-17906
比武	-17907
造血	-17908
专家认为	-17909
之手	-17910
志明	-17911
息息	-17912
北部的	-17913
党建引领	-17914
分许	-17915
民居	-17916
▁登场	-17917
的地理	-17918
等人的	-17919
通常会	-17920
俄罗斯联邦	-17921
▁肖	-17922
写出	-17923
平的	-17924
抗洪	-17925
船长	-17926
野战	-17927
陷入了	-17928
iu	-17929
捕捞	-17930
疗效	-17931
站至	-17932
不过是	-17933
她表示	-17934
已经超过	-17935
发烧	-17936
总支	-17937
末年	-17938
美味	-17939
植物园	-17940
联盟的	-17941
央视新闻	-17942
情况来看	-17943
挪用	-17944
林的	-17945
督办	-17946
若是	-17947
很简单	-17948
新动能	-17949
正式发布	-17950
理想信念	-17951
犯规	-17952
重修	-17953
颇具	-17954
解决的	-17955
全面落实	-17956
林地	-17957
舟山	-17958
追问	-17959
▁部分	-17960
瞩目的	-17961
万一	-17962
句子	-17963
气管	-17964
▁角色	-17965
出台的	-17966
发挥着	-17967
科医生	-17968
不可思议	-17969
香港电影	-17970
云港	-17971
政绩	-17972
渡过	-17973
延长至	-17974
挑战赛	-17975
这个词	-17976
▁Wind	-17977
管理委员会	-17978
赶来	-17979
▁可以	-17980
从源头	-17981
元现金	-17982
指导员	-17983
深加工	-17984
的笑容	-17985
高技术	-17986
▁汤	-17987
下线	-17988
不好的	-17989
亚裔	-17990
接过	-17991
湖人	-17992
智慧城市	-17993
粮食生产	-17994
新发展格局	-17995
中了	-17996
二审	-17997
检出	-17998
离世	-17999
辛格	-18000
过境	-18001
频发	-18002
龙王	-18003
工作时	-18004
侧式	-18005
台州	-18006
始发	-18007
火花	-18008
腐蚀	-18009
催化剂	-18010
收获了	-18011
印象深刻	-18012
多岁	-18013
餐桌	-18014
鼓楼	-18015
和一些	-18016
总人口	-18017
措并举	-18018
确实是	-18019
抗美援朝	-18020
改革创新	-18021
HE	-18022
ра	-18023
▁克	-18024
上次	-18025
居多	-18026
比拼	-18027
译本	-18028
我们都	-18029
沙尼亚	-18030
经营权	-18031
颁发的	-18032
伊斯兰国	-18033
民间借贷	-18034
集团旗下	-18035
TikTok	-18036
托夫	-18037
毒株	-18038
藏书	-18039
▁ch	-18040
翡翠台	-18041
最高水平	-18042
勘察	-18043
年因	-18044
申诉	-18045
纸质	-18046
温哥华	-18047
港澳台	-18048
爆发后	-18049
试点工作	-18050
不仅在	-18051
句话说	-18052
人居环境	-18053
得到有效	-18054
有色金属	-18055
专攻	-18056
管局	-18057
降费	-18058
▁需要	-18059
商学院	-18060
外商投资	-18061
再来	-18062
炮弹	-18063
破碎	-18064
再融资	-18065
的父母	-18066
▁And	-18067
职业学院	-18068
表示感谢	-18069
原文	-18070
友情	-18071
微微	-18072
损毁	-18073
院内	-18074
黄山	-18075
▁到了	-18076
出不穷	-18077
并提供	-18078
车辆的	-18079
信息安全	-18080
控制系统	-18081
BI	-18082
探寻	-18083
点点	-18084
锂电	-18085
▁冠军	-18086
台湾的	-18087
应收账款	-18088
夜市	-18089
数月	-18090
站长	-18091
触摸	-18092
阻挠	-18093
应用的	-18094
比较多	-18095
的大门	-18096
科学校	-18097
万元以上	-18098
重要的作用	-18099
)」	-18100
UP	-18101
争吵	-18102
勒索	-18103
山洪	-18104
重构	-18105
que	-18106
》)。	-18107
方式的	-18108
有三个	-18109
暗杀	-18110
深感	-18111
牌子	-18112
蚌埠	-18113
雨量	-18114
▁直到	-18115
不仅可以	-18116
年夏天	-18117
的制作	-18118
进行全面	-18119
小哥	-18120
就没	-18121
广义	-18122
藏族	-18123
财政收入	-18124
型柴油机车	-18125
就很	-18126
莆田	-18127
雨雪	-18128
女歌手	-18129
扩大了	-18130
日本人	-18131
▁联合国	-18132
中央纪委	-18133
他的父亲	-18134
均是	-18135
篮子	-18136
统领	-18137
起床	-18138
银幕	-18139
▁参看	-18140
体长可达	-18141
中去	-18142
代号	-18143
▁东方	-18144
年实现	-18145
天气预报	-18146
开头	-18147
教委	-18148
air	-18149
完全是	-18150
地头	-18151
怀着	-18152
问世	-18153
国有资产	-18154
财富管理	-18155
那个时候	-18156
EO	-18157
协和	-18158
吴某	-18159
威斯	-18160
拆解	-18161
谋取	-18162
龙湖	-18163
影视作品	-18164
大势	-18165
完结	-18166
截然	-18167
CEP	-18168
双色球	-18169
音乐家	-18170
世卫组织	-18171
日方	-18172
角的	-18173
南部的	-18174
国产化	-18175
工商业	-18176
记者刘	-18177
体育总局	-18178
电信诈骗	-18179
张大	-18180
爱上	-18181
私自	-18182
等国家	-18183
选购	-18184
圣保罗	-18185
埃塞俄比亚	-18186
:"	-18187
乌尔	-18188
加索	-18189
千叶	-18190
呕吐	-18191
标配	-18192
依赖于	-18193
型基金	-18194
尽管如此	-18195
低下	-18196
便可	-18197
河市	-18198
积电	-18199
吞吐量	-18200
年之前	-18201
足协杯	-18202
丛书	-18203
审讯	-18204
到中国	-18205
陆战队	-18206
已经达到	-18207
ology	-18208
种草	-18209
▁出生	-18210
两年来	-18211
好声音	-18212
层出不穷	-18213
三省	-18214
为数	-18215
房地	-18216
沥青	-18217
误会	-18218
战场上	-18219
西伯利亚	-18220
上山	-18221
海滨	-18222
胸部	-18223
工商联	-18224
自去年	-18225
资本市场的	-18226
不觉	-18227
各县	-18228
周某	-18229
图文	-18230
把这些	-18231
邀请了	-18232
产业园区	-18233
[...]
