<unk>	0.0
<|im_start|>	0.0
<|im_end|>	0.0
<pad>	0.0
<user>	0.0
<bot>	0.0
<system>	0.0
<think>	0.0
</think>	0.0
<brief_think>	0.0
</brief_think>	0.0
<|endoftext|>	0.0
<|object_ref_start|>	0.0
<|object_ref_end|>	0.0
<|box_start|>	0.0
<|box_end|>	0.0
<|quad_start|>	0.0
<|quad_end|>	0.0
<|vision_start|>	0.0
<|vision_end|>	0.0
<|vision_pad|>	0.0
<|image_pad|>	0.0
<|video_pad|>	0.0
<tool_call>	0.0
</tool_call>	0.0
<|fim_prefix|>	0.0
<|fim_middle|>	0.0
<|fim_suffix|>	0.0
<|fim_pad|>	0.0
<|repo_name|>	0.0
<|file_sep|>	0.0
<tool_response>	0.0
</tool_response>	0.0
<|audio_start|>	0.0
<|audio_end|>	0.0
<tts_pad>	0.0
<tts_text_bos>	0.0
<tts_text_eod>	0.0
<tts_text_bos_single>	0.0
<|audio_pad|>	0.0
😀	0.0
😃	0.0
😄	0.0
😅	0.0
😂	0.0
😗	0.0
😙	0.0
😚	0.0
😊	0.0
🙃	0.0
🙂	0.0
😑	0.0
😐	0.0
🫢	0.0
🤭	0.0
🥱	0.0
🤗	0.0
🫣	0.0
😱	0.0
🤨	0.0
🧐	0.0
😒	0.0
😧	0.0
😟	0.0
🙄	0.0
😥	0.0
😦	0.0
😮‍💨	0.0
😢	0.0
😮	0.0
😤	0.0
☹️	0.0
😯	0.0
😠	0.0
🙁	0.0
😲	0.0
😡	0.0
🫤	0.0
😳	0.0
🤬	0.0
😕	0.0
🤯	0.0
🥵	0.0
🤢	0.0
🤮	0.0
😖	0.0
😣	0.0
😰	0.0
😨	0.0
😞	0.0
😓	0.0
😋	0.0
✌️	0.0
🫲	0.0
🫱	0.0
💪	0.0
👏	0.0
👍	0.0
👎	0.0
🤜	0.0
🤛	0.0
✊	0.0
👊	0.0
🥰	0.0
😍	0.0
🤪	0.0
🤓	0.0
🤖	0.0
👾	0.0
👻	0.0
🙌	0.0
👋	0.0
✋	0.0
🤲	0.0
🤝	0.0
🙏	0.0
💢	0.0
💥	0.0
💯	0.0
❤️	0.0
🐶	0.0
🐱	0.0
🐭	0.0
🐹	0.0
🐰	0.0
🦊	0.0
🐻	0.0
🐼	0.0
🐨	0.0
🐯	0.0
🦁	0.0
🐮	0.0
🐷	0.0
🐽	0.0
🐸	0.0
🐵	0.0
🐔	0.0
🐧	0.0
🐦	0.0
🍎	0.0
🍌	0.0
🍉	0.0
🍓	0.0
🍒	0.0
🍇	0.0
🍊	0.0
🍋	0.0
🍈	0.0
🥭	0.0
🥥	0.0
🥝	0.0
🍍	0.0
🍠	0.0
🍆	0.0
🥕	0.0
🥦	0.0
💔	0.0
💌	0.0
💕	0.0
💞	0.0
💓	0.0
💗	0.0
💖	0.0
💘	0.0
💝	0.0
⚠️	0.0
✅	0.0
❌	0.0
❓	0.0
⭐	0.0
Tower	0.0
tower	0.0
GPT	0.0
Midway	0.0

	0.0
		0.0
<0x00>	0.0
<0x01>	0.0
<0x02>	0.0
<0x03>	0.0
<0x04>	0.0
<0x05>	0.0
<0x06>	0.0
<0x07>	0.0
<0x08>	0.0
<0x09>	0.0
<0x0A>	0.0
<0x0B>	0.0
<0x0C>	0.0
<0x0D>	0.0
<0x0E>	0.0
<0x0F>	0.0
<0x10>	0.0
<0x11>	0.0
<0x12>	0.0
<0x13>	0.0
<0x14>	0.0
<0x15>	0.0
<0x16>	0.0
<0x17>	0.0
<0x18>	0.0
<0x19>	0.0
<0x1A>	0.0
<0x1B>	0.0
<0x1C>	0.0
<0x1D>	0.0
<0x1E>	0.0
<0x1F>	0.0
<0x20>	0.0
<0x21>	0.0
<0x22>	0.0
<0x23>	0.0
<0x24>	0.0
<0x25>	0.0
<0x26>	0.0
<0x27>	0.0
<0x28>	0.0
<0x29>	0.0
<0x2A>	0.0
<0x2B>	0.0
<0x2C>	0.0
<0x2D>	0.0
<0x2E>	0.0
<0x2F>	0.0
<0x30>	0.0
<0x31>	0.0
<0x32>	0.0
<0x33>	0.0
<0x34>	0.0
<0x35>	0.0
<0x36>	0.0
<0x37>	0.0
<0x38>	0.0
<0x39>	0.0
<0x3A>	0.0
<0x3B>	0.0
<0x3C>	0.0
<0x3D>	0.0
<0x3E>	0.0
<0x3F>	0.0
<0x40>	0.0
<0x41>	0.0
<0x42>	0.0
<0x43>	0.0
<0x44>	0.0
<0x45>	0.0
<0x46>	0.0
<0x47>	0.0
<0x48>	0.0
<0x49>	0.0
<0x4A>	0.0
<0x4B>	0.0
<0x4C>	0.0
<0x4D>	0.0
<0x4E>	0.0
<0x4F>	0.0
<0x50>	0.0
<0x51>	0.0
<0x52>	0.0
<0x53>	0.0
<0x54>	0.0
<0x55>	0.0
<0x56>	0.0
<0x57>	0.0
<0x58>	0.0
<0x59>	0.0
<0x5A>	0.0
<0x5B>	0.0
<0x5C>	0.0
<0x5D>	0.0
<0x5E>	0.0
<0x5F>	0.0
<0x60>	0.0
<0x61>	0.0
<0x62>	0.0
<0x63>	0.0
<0x64>	0.0
<0x65>	0.0
<0x66>	0.0
<0x67>	0.0
<0x68>	0.0
<0x69>	0.0
<0x6A>	0.0
<0x6B>	0.0
<0x6C>	0.0
<0x6D>	0.0
<0x6E>	0.0
<0x6F>	0.0
<0x70>	0.0
<0x71>	0.0
<0x72>	0.0
<0x73>	0.0
<0x74>	0.0
<0x75>	0.0
<0x76>	0.0
<0x77>	0.0
<0x78>	0.0
<0x79>	0.0
<0x7A>	0.0
<0x7B>	0.0
<0x7C>	0.0
<0x7D>	0.0
<0x7E>	0.0
<0x7F>	0.0
<0x80>	0.0
<0x81>	0.0
<0x82>	0.0
<0x83>	0.0
<0x84>	0.0
<0x85>	0.0
<0x86>	0.0
<0x87>	0.0
<0x88>	0.0
<0x89>	0.0
<0x8A>	0.0
<0x8B>	0.0
<0x8C>	0.0
<0x8D>	0.0
<0x8E>	0.0
<0x8F>	0.0
<0x90>	0.0
<0x91>	0.0
<0x92>	0.0
<0x93>	0.0
<0x94>	0.0
<0x95>	0.0
<0x96>	0.0
<0x97>	0.0
<0x98>	0.0
<0x99>	0.0
<0x9A>	0.0
<0x9B>	0.0
<0x9C>	0.0
<0x9D>	0.0
<0x9E>	0.0
<0x9F>	0.0
<0xA0>	0.0
<0xA1>	0.0
<0xA2>	0.0
<0xA3>	0.0
<0xA4>	0.0
<0xA5>	0.0
<0xA6>	0.0
<0xA7>	0.0
<0xA8>	0.0
<0xA9>	0.0
<0xAA>	0.0
<0xAB>	0.0
<0xAC>	0.0
<0xAD>	0.0
<0xAE>	0.0
<0xAF>	0.0
<0xB0>	0.0
<0xB1>	0.0
<0xB2>	0.0
<0xB3>	0.0
<0xB4>	0.0
<0xB5>	0.0
<0xB6>	0.0
<0xB7>	0.0
<0xB8>	0.0
<0xB9>	0.0
<0xBA>	0.0
<0xBB>	0.0
<0xBC>	0.0
<0xBD>	0.0
<0xBE>	0.0
<0xBF>	0.0
<0xC0>	0.0
<0xC1>	0.0
<0xC2>	0.0
<0xC3>	0.0
<0xC4>	0.0
<0xC5>	0.0
<0xC6>	0.0
<0xC7>	0.0
<0xC8>	0.0
<0xC9>	0.0
<0xCA>	0.0
<0xCB>	0.0
<0xCC>	0.0
<0xCD>	0.0
<0xCE>	0.0
<0xCF>	0.0
<0xD0>	0.0
<0xD1>	0.0
<0xD2>	0.0
<0xD3>	0.0
<0xD4>	0.0
<0xD5>	0.0
<0xD6>	0.0
<0xD7>	0.0
<0xD8>	0.0
<0xD9>	0.0
<0xDA>	0.0
<0xDB>	0.0
<0xDC>	0.0
<0xDD>	0.0
<0xDE>	0.0
<0xDF>	0.0
<0xE0>	0.0
<0xE1>	0.0
<0xE2>	0.0
<0xE3>	0.0
<0xE4>	0.0
<0xE5>	0.0
<0xE6>	0.0
<0xE7>	0.0
<0xE8>	0.0
<0xE9>	0.0
<0xEA>	0.0
<0xEB>	0.0
<0xEC>	0.0
<0xED>	0.0
<0xEE>	0.0
<0xEF>	0.0
<0xF0>	0.0
<0xF1>	0.0
<0xF2>	0.0
<0xF3>	0.0
<0xF4>	0.0
<0xF5>	0.0
<0xF6>	0.0
<0xF7>	0.0
<0xF8>	0.0
<0xF9>	0.0
<0xFA>	0.0
<0xFB>	0.0
<0xFC>	0.0
<0xFD>	0.0
<0xFE>	0.0
<0xFF>	0.0
可以	-0.0
一个	-1.0
我们	-2.0
in	-3.0
需要	-4.0
er	-5.0
▁t	-6.0
智能	-7.0
问题	-8.0
on	-9.0
以下	-10.0
一些	-11.0
▁a	-12.0
好的	-13.0
提供	-14.0
re	-15.0
这个	-16.0
使用	-17.0
en	-18.0
文本	-19.0
人工	-20.0
进行	-21.0
文章	-22.0
▁=	-23.0
人工智能	-24.0
at	-25.0
是一	-26.0
生成	-27.0
or	-28.0
he	-29.0
技术	-30.0
学习	-31.0
an	-32.0
st	-33.0
如果	-34.0
什么	-35.0
帮助	-36.0
句子	-37.0
根据	-38.0
可能	-39.0
le	-40.0
中的	-41.0
数据	-42.0
这些	-43.0
非常	-44.0
ou	-45.0
自己	-46.0
信息	-47.0
通过	-48.0
关于	-49.0
▁s	-50.0
他们	-51.0
计算	-52.0
小明	-53.0
it	-54.0
发展	-55.0
因此	-56.0
▁c	-57.0
应用	-58.0
▁-	-59.0
包括	-60.0
电影	-61.0
ar	-62.0
例如	-63.0
is	-64.0
时间	-65.0
人类	-66.0
不同	-67.0
重要	-68.0
▁d	-69.0
▁p	-70.0
es	-71.0
喜欢	-72.0
影响	-73.0
它们	-74.0
给定	-75.0
▁f	-76.0
ing	-77.0
领域	-78.0
选择	-79.0
al	-80.0
自然	-81.0
▁b	-82.0
生活	-83.0
环境	-84.0
建议	-85.0
语言	-86.0
▁the	-87.0
是一个	-88.0
如何	-89.0
健康	-90.0
▁"	-91.0
未来	-92.0
el	-93.0
描述	-94.0
提高	-95.0
▁w	-96.0
公司	-97.0
翻译	-98.0
应该	-99.0
▁m	-100.0
机器	-101.0
其他	-102.0
能够	-103.0
方式	-104.0
给我	-105.0
更加	-106.0
工作	-107.0
因为	-108.0
人们	-109.0
没有	-110.0
自己的	-111.0
方法	-112.0
同时	-113.0
ro	-114.0
方面	-115.0
ic	-116.0
每个	-117.0
文化	-118.0
世界	-119.0
一篇	-120.0
ion	-121.0
as	-122.0
处理	-123.0
主题	-124.0
或者	-125.0
ed	-126.0
一下	-127.0
et	-128.0
两个	-129.0
故事	-130.0
以及	-131.0
分析	-132.0
那么	-133.0
你的	-134.0
朋友	-135.0
中国	-136.0
社会	-137.0
▁to	-138.0
到了	-139.0
▁l	-140.0
现在	-141.0
保护	-142.0
新的	-143.0
城市	-144.0
活动	-145.0
``	-146.0
是一种	-147.0
am	-148.0
▁o	-149.0
当然	-150.0
之一	-151.0
系统	-152.0
您的	-153.0
分类	-154.0
回答	-155.0
具体	-156.0
▁n	-157.0
om	-158.0
数字	-159.0
情感	-160.0
推荐	-161.0
音乐	-162.0
AI	-163.0
但是	-164.0
▁in	-165.0
解决	-166.0
ent	-167.0
关键	-168.0
▁根据	-169.0
更多	-170.0
人的	-171.0
主要	-172.0
苹果	-173.0
许多	-174.0
单词	-175.0
▁将	-176.0
科技	-177.0
告诉	-178.0
减少	-179.0
th	-180.0
已经	-181.0
答案	-182.0
医疗	-183.0
生成一个	-184.0
nd	-185.0
产品	-186.0
服务	-187.0
研究	-188.0
所有	-189.0
环保	-190.0
内容	-191.0
之间	-192.0
所以	-193.0
ac	-194.0
此外	-195.0
动物	-196.0
▁请	-197.0
其中	-198.0
保持	-199.0
▁|	-200.0
了解	-201.0
通常	-202.0
天气	-203.0
▁y	-204.0
任务	-205.0
大的	-206.0
糖果	-207.0
安全	-208.0
我们的	-209.0
我的	-210.0
提取	-211.0
一种	-212.0
的人	-213.0
实现	-214.0
开始	-215.0
多少	-216.0
我想	-217.0
以下是	-218.0
成为	-219.0
给定的	-220.0
运动	-221.0
▁h	-222.0
历史	-223.0
能力	-224.0
可以帮助	-225.0
um	-226.0
▁+	-227.0
给出	-228.0
不同的	-229.0
模型	-230.0
情况	-231.0
身体	-232.0
然后	-233.0
全球	-234.0
的文章	-235.0
用户	-236.0
认为	-237.0
是否	-238.0
得到	-239.0
设计	-240.0
很多	-241.0
适合	-242.0
▁(	-243.0
天的	-244.0
lo	-245.0
相关	-246.0
等等	-247.0
告诉我	-248.0
比如	-249.0
带来	-250.0
。”	-251.0
:“	-252.0
更好	-253.0
de	-254.0
具有	-255.0
希望	-256.0
注意	-257.0
变化	-258.0
表达	-259.0
了一	-260.0
您可以	-261.0
发现	-262.0
结果	-263.0
请问	-264.0
机器学习	-265.0
理解	-266.0
il	-267.0
不断	-268.0
▁I	-269.0
对于	-270.0
计算机	-271.0
各种	-272.0
我们可以	-273.0
im	-274.0
科学	-275.0
一起	-276.0
▁is	-277.0
他的	-278.0
输入	-279.0
更好地	-280.0
这种	-281.0
的是	-282.0
se	-283.0
用于	-284.0
..	-285.0
▁S	-286.0
ut	-287.0
旅游	-288.0
写一篇	-289.0
__	-290.0
可能会	-291.0
英文	-292.0
过程	-293.0
句话	-294.0
旅行	-295.0
为您	-296.0
作为	-297.0
一段	-298.0
▁you	-299.0
算法	-300.0
的问题	-301.0
ct	-302.0
识别	-303.0
尝试	-304.0
无法	-305.0
考虑	-306.0
管理	-307.0
翻译成	-308.0
你可以	-309.0
数学	-310.0
是什么	-311.0
▁C	-312.0
地球	-313.0
ve	-314.0
个人	-315.0
中文	-316.0
介绍	-317.0
程序	-318.0
代码	-319.0
▁e	-320.0
知道	-321.0
任何	-322.0
自动	-323.0
教育	-324.0
▁re	-325.0
上的	-326.0
导致	-327.0
▁在	-328.0
游戏	-329.0
if	-330.0
ver	-331.0
的影响	-332.0
确保	-333.0
表示	-334.0
小说	-335.0
▁of	-336.0
的发展	-337.0
要求	-338.0
如果您	-339.0
▁and	-340.0
支持	-341.0
美国	-342.0
首先	-343.0
几个	-344.0
行为	-345.0
还有	-346.0
下面	-347.0
段落	-348.0
解释	-349.0
广泛	-350.0
数量	-351.0
这样	-352.0
摘要	-353.0
质量	-354.0
太阳	-355.0
色的	-356.0
ur	-357.0
诗歌	-358.0
这篇	-359.0
找到	-360.0
ce	-361.0
关系	-362.0
计划	-363.0
一首	-364.0
最后	-365.0
帮我	-366.0
类型	-367.0
准确	-368.0
完成	-369.0
ol	-370.0
▁A	-371.0
利用	-372.0
目标	-373.0
网络	-374.0
重要的	-375.0
哪些	-376.0
包含	-377.0
ge	-378.0
需求	-379.0
市场	-380.0
产生	-381.0
ad	-382.0
并且	-383.0
ap	-384.0
都是	-385.0
更多的	-386.0
输出	-387.0
qu	-388.0
错误	-389.0
增加	-390.0
简单	-391.0
正确	-392.0
感到	-393.0
▁g	-394.0
▁\	-395.0
存在	-396.0
的地	-397.0
积极	-398.0
yth	-399.0
今天	-400.0
之间的	-401.0
学生	-402.0
▁th	-403.0
ay	-404.0
un	-405.0
挑战	-406.0
如果你	-407.0
”。	-408.0
最近	-409.0
价格	-410.0
列表	-411.0
它的	-412.0
制作	-413.0
ri	-414.0
不是	-415.0
有趣	-416.0
--	-417.0
题目	-418.0
正在	-419.0
ython	-420.0
ot	-421.0
▁给定	-422.0
。\	-423.0
▁T	-424.0
交通	-425.0
我可以	-426.0
也可以	-427.0
ul	-428.0
获得	-429.0
从而	-430.0
效率	-431.0
措施	-432.0
饮食	-433.0
小红	-434.0
食物	-435.0
有关	-436.0
避免	-437.0
。"	-438.0
”,	-439.0
```	-440.0
ch	-441.0
的应用	-442.0
功能	-443.0
为了	-444.0
定的	-445.0
美丽	-446.0
他们的	-447.0
体验	-448.0
部分	-449.0
新闻	-450.0
控制	-451.0
出现	-452.0
▁P	-453.0
id	-454.0
加入	-455.0
知识	-456.0
经济	-457.0
传统	-458.0
名称	-459.0
日期	-460.0
能源	-461.0
自然语言	-462.0
才能	-463.0
资源	-464.0
训练	-465.0
艺术	-466.0
感受	-467.0
社交	-468.0
三个	-469.0
探索	-470.0
气候	-471.0
这篇文章	-472.0
也是	-473.0
▁'	-474.0
成功	-475.0
关键词	-476.0
治疗	-477.0
us	-478.0
创造	-479.0
的一	-480.0
当然可以	-481.0
持续	-482.0
餐厅	-483.0
随着	-484.0
水果	-485.0
▁生成一个	-486.0
爱情	-487.0
这是	-488.0
咖啡	-489.0
的信息	-490.0
现代	-491.0
家庭	-492.0
不能	-493.0
采取	-494.0
预测	-495.0
生命	-496.0
ow	-497.0
名字	-498.0
ig	-499.0
性和	-500.0
编程	-501.0
end	-502.0
还是	-503.0
平均	-504.0
污染	-505.0
标题	-506.0
有效	-507.0
od	-508.0
比较	-509.0
享受	-510.0
想要	-511.0
拥有	-512.0
确定	-513.0
起来	-514.0
了一个	-515.0
性的	-516.0
作用	-517.0
ate	-518.0
te	-519.0
阳光	-520.0
人工智能技术	-521.0
购买	-522.0
客户	-523.0
美食	-524.0
▁$	-525.0
),	-526.0
表现	-527.0
你能	-528.0
最终	-529.0
ist	-530.0
",	-531.0
可以通过	-532.0
工具	-533.0
关注	-534.0
就是	-535.0
一份	-536.0
创意	-537.0
)\	-538.0
发生	-539.0
深度	-540.0
▁B	-541.0
生物	-542.0
品牌	-543.0
来说	-544.0
▁生成	-545.0
力和	-546.0
风险	-547.0
基于	-548.0
放松	-549.0
方案	-550.0
量的	-551.0
ation	-552.0
价值	-553.0
的重要	-554.0
我们需要	-555.0
开发	-556.0
作品	-557.0
ke	-558.0
ame	-559.0
著名	-560.0
英语	-561.0
自然语言处理	-562.0
改变	-563.0
医生	-564.0
:-	-565.0
电子	-566.0
分钟	-567.0
北京	-568.0
心理	-569.0
int	-570.0
▁为	-571.0
因素	-572.0
建立	-573.0
这段	-574.0
阅读	-575.0
我会	-576.0
投资	-577.0
企业	-578.0
不仅	-579.0
风格	-580.0
商品	-581.0
怎么	-582.0
▁M	-583.0
剩下	-584.0
设备	-585.0
充满	-586.0
比赛	-587.0
来越	-588.0
ran	-589.0
事件	-590.0
▁do	-591.0
颜色	-592.0
有什么	-593.0
越来越	-594.0
将其	-595.0
▁for	-596.0
由于	-597.0
当地	-598.0
疾病	-599.0
元素	-600.0
准备	-601.0
详细	-602.0
技能	-603.0
的方法	-604.0
寻找	-605.0
变得	-606.0
▁写一篇	-607.0
中提取	-608.0
材料	-609.0
结构	-610.0
ith	-611.0
的句子	-612.0
这句话	-613.0
还可以	-614.0
▁be	-615.0
ir	-616.0
组织	-617.0
机会	-618.0
以下句子	-619.0
让我	-620.0
▁de	-621.0
思考	-622.0
ab	-623.0
这里	-624.0
在这个	-625.0
专业	-626.0
▁{	-627.0
公园	-628.0
生产	-629.0
个苹果	-630.0
它们的	-631.0
行业	-632.0
按照	-633.0
▁st	-634.0
特征	-635.0
独特	-636.0
pt	-637.0
汽车	-638.0
Python	-639.0
有一	-640.0
函数	-641.0
季节	-642.0
植物	-643.0
代表	-644.0
创作	-645.0
ple	-646.0
的故事	-647.0
兴趣	-648.0
pe	-649.0
技巧	-650.0
生态	-651.0
▁W	-652.0
▁给出	-653.0
场景	-654.0
的电影	-655.0
形式	-656.0
总结	-657.0
垃圾	-658.0
创新	-659.0
铅笔	-660.0
政府	-661.0
歌曲	-662.0
字符	-663.0
复杂	-664.0
机器人	-665.0
都有	-666.0
语法	-667.0
ue	-668.0
意思	-669.0
让我们	-670.0
手机	-671.0
具体的	-672.0
字母	-673.0
建筑	-674.0
化的	-675.0
)。	-676.0
一步	-677.0
蔬菜	-678.0
舒适	-679.0
时候	-680.0
意义	-681.0
是指	-682.0
行动	-683.0
努力	-684.0
气候变化	-685.0
oo	-686.0
位置	-687.0
温度	-688.0
。-	-689.0
每天	-690.0
诊断	-691.0
语音	-692.0
地区	-693.0
一次	-694.0
以便	-695.0
有很多	-696.0
中心	-697.0
):	-698.0
ly	-699.0
压力	-700.0
丰富	-701.0
自由	-702.0
小明有	-703.0
创建	-704.0
ers	-705.0
夏天	-706.0
网站	-707.0
食品	-708.0
感觉	-709.0
."	-710.0
参加	-711.0
媒体	-712.0
ld	-713.0
将会	-714.0
em	-715.0
让人	-716.0
以下文本	-717.0
elf	-718.0
制定	-719.0
法律	-720.0
未来的	-721.0
金融	-722.0
人类的	-723.0
这是一个	-724.0
res	-725.0
高的	-726.0
第二	-727.0
讲述	-728.0
大利	-729.0
图像	-730.0
xt	-731.0
深度学习	-732.0
是在	-733.0
The	-734.0
▁D	-735.0
ra	-736.0
销售	-737.0
虽然	-738.0
看到	-739.0
欢迎	-740.0
吸引	-741.0
练习	-742.0
孩子	-743.0
有一个	-744.0
决策	-745.0
改善	-746.0
文案	-747.0
原因	-748.0
国家	-749.0
本书	-750.0
事情	-751.0
共同	-752.0
▁H	-753.0
▁O	-754.0
快速	-755.0
如下	-756.0
效果	-757.0
情绪	-758.0
神经	-759.0
常见	-760.0
步骤	-761.0
的文本	-762.0
作者	-763.0
编写	-764.0
另外	-765.0
▁F	-766.0
公司的	-767.0
趋势	-768.0
▁pro	-769.0
每个人	-770.0
不会	-771.0
共有	-772.0
歧视	-773.0
排序	-774.0
基本	-775.0
可持续	-776.0
以下是一些	-777.0
判断	-778.0
以下是一	-779.0
est	-780.0
▁x	-781.0
▁v	-782.0
▁你	-783.0
项目	-784.0
有趣的	-785.0
速度	-786.0
空气	-787.0
采用	-788.0
个糖果	-789.0
观点	-790.0
ort	-791.0
特点	-792.0
实际	-793.0
▁*	-794.0
属于	-795.0
角色	-796.0
评论	-797.0
短语	-798.0
这是一	-799.0
特别	-800.0
one	-801.0
等方面	-802.0
条件	-803.0
这个问题	-804.0
造成	-805.0
目前	-806.0
一组	-807.0
▁j	-808.0
联系	-809.0
背景	-810.0
经历	-811.0
促进	-812.0
//	-813.0
职业	-814.0
的建议	-815.0
交流	-816.0
助于	-817.0
决定	-818.0
▁根据给定的	-819.0
出了	-820.0
▁#	-821.0
基础	-822.0
上最	-823.0
::	-824.0
编辑	-825.0
▁我	-826.0
小时	-827.0
多个	-828.0
以上	-829.0
使其	-830.0
▁L	-831.0
请你	-832.0
正确的	-833.0
整个	-834.0
然而	-835.0
文学	-836.0
受到	-837.0
锻炼	-838.0
ht	-839.0
团队	-840.0
下来	-841.0
文字	-842.0
一只	-843.0
负面	-844.0
组成	-845.0
经验	-846.0
经典	-847.0
呼吸	-848.0
▁[	-849.0
转换	-850.0
our	-851.0
()	-852.0
选项	-853.0
您需要	-854.0
的主要	-855.0
物质	-856.0
谢谢	-857.0
可以在	-858.0
必须	-859.0
景点	-860.0
▁G	-861.0
义词	-862.0
觉得	-863.0
请告诉我	-864.0
不要	-865.0
软件	-866.0
请提供	-867.0
操作	-868.0
的小	-869.0
▁E	-870.0
哪个	-871.0
nt	-872.0
著名的	-873.0
平台	-874.0
age	-875.0
过程中	-876.0
列出	-877.0
物品	-878.0
多种	-879.0
增强	-880.0
合作	-881.0
ew	-882.0
人工智能在	-883.0
有助于	-884.0
使得	-885.0
长度	-886.0
意大利	-887.0
喜欢的	-888.0
部电影	-889.0
名词	-890.0
而且	-891.0
人工智能的	-892.0
添加	-893.0
购物	-894.0
▁R	-895.0
讨论	-896.0
为什么	-897.0
总之	-898.0
联网	-899.0
一位	-900.0
驾驶	-901.0
水平	-902.0
加强	-903.0
令人	-904.0
相关的	-905.0
海洋	-906.0
更好的	-907.0
搜索	-908.0
情节	-909.0
and	-910.0
▁with	-911.0
美丽的	-912.0
▁it	-913.0
简单的	-914.0
可以使用	-915.0
意识	-916.0
概念	-917.0
▁从	-918.0
不错	-919.0
瑜伽	-920.0
满足	-921.0
者的	-922.0
系列	-923.0
涉及	-924.0
想法	-925.0
ps	-926.0
橙子	-927.0
降低	-928.0
神秘	-929.0
一直	-930.0
范围	-931.0
年轻	-932.0
方向	-933.0
▁qu	-934.0
▁an	-935.0
例子	-936.0
、《	-937.0
即可	-938.0
邮件	-939.0
▁写一篇关于	-940.0
行星	-941.0
我将	-942.0
位于	-943.0
睡眠	-944.0
美好	-945.0
os	-946.0
分享	-947.0
状态	-948.0
表明	-949.0
夏季	-950.0
我需要	-951.0
健身	-952.0
日本	-953.0
夏天的	-954.0
平衡	-955.0
距离	-956.0
样的	-957.0
力量	-958.0
流行	-959.0
社交媒体	-960.0
自我	-961.0
形成	-962.0
模式	-963.0
海滩	-964.0
重新	-965.0
检查	-966.0
对话	-967.0
习惯	-968.0
健康的	-969.0
某些	-970.0
同时也	-971.0
参与	-972.0
rint	-973.0
继续	-974.0
ord	-975.0
宇宙	-976.0
值得	-977.0
ub	-978.0
现实	-979.0
容易	-980.0
做出	-981.0
ass	-982.0
av	-983.0
焦虑	-984.0
ess	-985.0
',	-986.0
有些	-987.0
▁as	-988.0
不可	-989.0
医学	-990.0
字符串	-991.0
什么是	-992.0
▁“	-993.0
面积	-994.0
▁N	-995.0
调整	-996.0
无论	-997.0
ure	-998.0
优化	-999.0
ence	-1000.0
道德	-1001.0
数学题	-1002.0
to	-1003.0
有着	-1004.0
》、《	-1005.0
巧克	-1006.0
游泳	-1007.0
美味	-1008.0
独特的	-1009.0
特定	-1010.0
适当	-1011.0
年的	-1012.0
日常	-1013.0
进步	-1014.0
的情感	-1015.0
▁con	-1016.0
员工	-1017.0
分别	-1018.0
很好	-1019.0
情况下	-1020.0
,“	-1021.0
快乐	-1022.0
执行	-1023.0
隐私	-1024.0
的主题	-1025.0
空间	-1026.0
话题	-1027.0
标准	-1028.0
等领域	-1029.0
分给	-1030.0
后的	-1031.0
测试	-1032.0
温暖	-1033.0
ile	-1034.0
▁he	-1035.0
只有	-1036.0
评估	-1037.0
技术的	-1038.0
说明	-1039.0
还剩下	-1040.0
▁la	-1041.0
方程	-1042.0
获取	-1043.0
巧克力	-1044.0
探讨	-1045.0
的地方	-1046.0
顺序	-1047.0
pl	-1048.0
帮助您	-1049.0
ase	-1050.0
用的	-1051.0
排放	-1052.0
个性	-1053.0
ter	-1054.0
小学	-1055.0
应对	-1056.0
ult	-1057.0
符合	-1058.0
▁that	-1059.0
提供了	-1060.0
简短	-1061.0
ag	-1062.0
评价	-1063.0
我们应该	-1064.0
用来	-1065.0
高效	-1066.0
合适	-1067.0
受欢迎	-1068.0
out	-1069.0
面临	-1070.0
第一	-1071.0
iz	-1072.0
营养	-1073.0
这一	-1074.0
是的	-1075.0
▁给我	-1076.0
会议	-1077.0
到的	-1078.0
政策	-1079.0
女性	-1080.0
中最	-1081.0
森林	-1082.0
提供一些	-1083.0
类别	-1084.0
尊重	-1085.0
进一步	-1086.0
▁对	-1087.0
ore	-1088.0
宠物	-1089.0
修改	-1090.0
ant	-1091.0
报道	-1092.0
气温	-1093.0
科幻	-1094.0
人员	-1095.0
▁on	-1096.0
过去	-1097.0
电视	-1098.0
数为	-1099.0
直接	-1100.0
写作	-1101.0
鸡蛋	-1102.0
感谢	-1103.0
("	-1104.0
深入	-1105.0
当前	-1106.0
出来	-1107.0
严重	-1108.0
美好的	-1109.0
家居	-1110.0
她的	-1111.0
com	-1112.0
视觉	-1113.0
▁wh	-1114.0
牛奶	-1115.0
强调	-1116.0
定义	-1117.0
适应	-1118.0
▁le	-1119.0
学校	-1120.0
我喜欢	-1121.0
动作	-1122.0
翻译成中文	-1123.0
数的	-1124.0
:"	-1125.0
有所	-1126.0
人物	-1127.0
▁题目	-1128.0
纽约	-1129.0
其中的	-1130.0
策略	-1131.0
ath	-1132.0
文本中	-1133.0
美元	-1134.0
力的	-1135.0
ere	-1136.0
▁J	-1137.0
口感	-1138.0
记录	-1139.0
▁or	-1140.0
应用程序	-1141.0
幸福	-1142.0
生活方式	-1143.0
在线	-1144.0
常见的	-1145.0
年龄	-1146.0
有哪些	-1147.0
户外	-1148.0
思维	-1149.0
是多少	-1150.0
row	-1151.0
的最	-1152.0
缓解	-1153.0
绿色	-1154.0
量子	-1155.0
的时间	-1156.0
平等	-1157.0
的方式	-1158.0
____	-1159.0
电脑	-1160.0
这部电影	-1161.0
▁are	-1162.0
报告	-1163.0
随机	-1164.0
天空	-1165.0
针对	-1166.0
商业	-1167.0
限制	-1168.0
搭配	-1169.0
人们的	-1170.0
国际	-1171.0
地方	-1172.0
逐渐	-1173.0
▁li	-1174.0
里的	-1175.0
上海	-1176.0
神经网络	-1177.0
困难	-1178.0
公式	-1179.0
口味	-1180.0
相似	-1181.0
人生	-1182.0
self	-1183.0
良好的	-1184.0
▁以下是一	-1185.0
地点	-1186.0
词汇	-1187.0
的天气	-1188.0
相同	-1189.0
oc	-1190.0
物理	-1191.0
性能	-1192.0
可以让	-1193.0
for	-1194.0
足够	-1195.0
一定	-1196.0
推动	-1197.0
ert	-1198.0
ment	-1199.0
反应	-1200.0
时尚	-1201.0
应用于	-1202.0
引起	-1203.0
up	-1204.0
机构	-1205.0
五个	-1206.0
这个句子	-1207.0
寻求	-1208.0
ain	-1209.0
是由	-1210.0
这首	-1211.0
性别	-1212.0
鼓励	-1213.0
超过	-1214.0
的大	-1215.0
urn	-1216.0
变暖	-1217.0
答案是	-1218.0
种族	-1219.0
ect	-1220.0
太空	-1221.0
形容	-1222.0
所有的	-1223.0
下列	-1224.0
提供的	-1225.0
面的	-1226.0
简洁	-1227.0
红色	-1228.0
沟通	-1229.0
▁can	-1230.0
之前	-1231.0
思想	-1232.0
经常	-1233.0
▁{\	-1234.0
科学家	-1235.0
ine	-1236.0
责任	-1237.0
词语	-1238.0
尽管	-1239.0
广告	-1240.0
消费	-1241.0
塑料	-1242.0
因为它	-1243.0
数据集	-1244.0
并在	-1245.0
道小学	-1246.0
咨询	-1247.0
为我	-1248.0
学习和	-1249.0
;\	-1250.0
ind	-1251.0
▁÷	-1252.0
仍然	-1253.0
大量的	-1254.0
以确保	-1255.0
互联网	-1256.0
▁以下是一道小学	-1257.0
ick	-1258.0
制造	-1259.0
合理	-1260.0
世界上最	-1261.0
▁```	-1262.0
▁以下是一道小学数学题	-1263.0
颗糖果	-1264.0
不过	-1265.0
▁的	-1266.0
需要注意	-1267.0
art	-1268.0
意味	-1269.0
巴黎	-1270.0
某个	-1271.0
能否	-1272.0
环境保护	-1273.0
平方	-1274.0
我很	-1275.0
类型的	-1276.0
问题的	-1277.0
和文化	-1278.0
增长	-1279.0
多样	-1280.0
减轻	-1281.0
子的	-1282.0
▁al	-1283.0
其次	-1284.0
▁me	-1285.0
改进	-1286.0
短文	-1287.0
带来了	-1288.0
等于	-1289.0
状况	-1290.0
晚上	-1291.0
成本	-1292.0
细节	-1293.0
解决方案	-1294.0
提升	-1295.0
蛋糕	-1296.0
药物	-1297.0
动词	-1298.0
虚拟	-1299.0
明天	-1300.0
和其他	-1301.0
营销	-1302.0
书籍	-1303.0
事实	-1304.0
模拟	-1305.0
ry	-1306.0
▁给定一个	-1307.0
▁×	-1308.0
摄入	-1309.0
人名	-1310.0
体的	-1311.0
ang	-1312.0
排列	-1313.0
展示	-1314.0
深刻	-1315.0
追求	-1316.0
取得	-1317.0
混合	-1318.0
蛋白	-1319.0
提出	-1320.0
able	-1321.0
查询	-1322.0
vi	-1323.0
在一起	-1324.0
请给我	-1325.0
put	-1326.0
应的	-1327.0
来自	-1328.0
,\	-1329.0
饮料	-1330.0
去了	-1331.0
散步	-1332.0
ring	-1333.0
每个朋友	-1334.0
rom	-1335.0
必要	-1336.0
面包	-1337.0
意味着	-1338.0
美的	-1339.0
大学	-1340.0
:\	-1341.0
连接	-1342.0
接下来	-1343.0
ite	-1344.0
▁ch	-1345.0
完全	-1346.0
?”	-1347.0
清晰	-1348.0
一般	-1349.0
世纪	-1350.0
port	-1351.0
▁com	-1352.0
ime	-1353.0
课程	-1354.0
自动化	-1355.0
法语	-1356.0
夏日	-1357.0
随时	-1358.0
化学	-1359.0
一名	-1360.0
方面的	-1361.0
all	-1362.0
前往	-1363.0
并不	-1364.0
你需要	-1365.0
}\	-1366.0
也会	-1367.0
大自然	-1368.0
op	-1369.0
工程	-1370.0
预报	-1371.0
你认为	-1372.0
ox	-1373.0
公共	-1374.0
ook	-1375.0
合适的	-1376.0
、“	-1377.0
▁将以下	-1378.0
类似	-1379.0
声音	-1380.0
精神	-1381.0
接受	-1382.0
里有	-1383.0
女孩	-1384.0
规则	-1385.0
ill	-1386.0
概括	-1387.0
总是	-1388.0
适当的	-1389.0
的好	-1390.0
而不是	-1391.0
明确	-1392.0
在一个	-1393.0
返回	-1394.0
真正	-1395.0
衣服	-1396.0
家人	-1397.0
▁ex	-1398.0
的数量	-1399.0
替换	-1400.0
冥想	-1401.0
贡献	-1402.0
沙滩	-1403.0
找出	-1404.0
一样	-1405.0
全球变暖	-1406.0
度和	-1407.0
文化和	-1408.0
度的	-1409.0
下文	-1410.0
保健	-1411.0
除以	-1412.0
成长	-1413.0
支铅笔	-1414.0
相互	-1415.0
昨天	-1416.0
现象	-1417.0
一共有	-1418.0
app	-1419.0
相对	-1420.0
ould	-1421.0
目的地	-1422.0
....	-1423.0
turn	-1424.0
结合	-1425.0
哪里	-1426.0
主义	-1427.0
的技术	-1428.0
孤独	-1429.0
灵感	-1430.0
视频	-1431.0
香蕉	-1432.0
这两个	-1433.0
发布	-1434.0
的总	-1435.0
提供一个	-1436.0
语音识别	-1437.0
轻松	-1438.0
稳定	-1439.0
买了	-1440.0
味道	-1441.0
助手	-1442.0
聊天	-1443.0
打开	-1444.0
积极的	-1445.0
含义	-1446.0
推广	-1447.0
称为	-1448.0
梦想	-1449.0
达到	-1450.0
在家	-1451.0
是中国	-1452.0
足球	-1453.0
创建一个	-1454.0
成为了	-1455.0
ive	-1456.0
”、“	-1457.0
支付	-1458.0
至少	-1459.0
生活中	-1460.0
ack	-1461.0
第一个	-1462.0
多的	-1463.0
得出	-1464.0
竞争	-1465.0
古代	-1466.0
星期	-1467.0
ions	-1468.0
一些关于	-1469.0
安排	-1470.0
冒险	-1471.0
拼写	-1472.0
直到	-1473.0
自行	-1474.0
感受到	-1475.0
con	-1476.0
推理	-1477.0
发挥	-1478.0
eb	-1479.0
可能是	-1480.0
▁not	-1481.0
▁dog	-1482.0
num	-1483.0
大量	-1484.0
蓝色	-1485.0
分为	-1486.0
医疗领域	-1487.0
定期	-1488.0
自动驾驶	-1489.0
除了	-1490.0
act	-1491.0
特定的	-1492.0
可以帮助您	-1493.0
生态系统	-1494.0
▁r	-1495.0
▁:	-1496.0
方便	-1497.0
法国	-1498.0
low	-1499.0
左右	-1500.0
读者	-1501.0
实践	-1502.0
▁k	-1503.0
最佳	-1504.0
ell	-1505.0
转换为	-1506.0
oh	-1507.0
开放	-1508.0
智能家居	-1509.0
公里	-1510.0
生日	-1511.0
能量	-1512.0
面对	-1513.0
可持续发展	-1514.0
一款	-1515.0
我认为	-1516.0
SS	-1517.0
我无法	-1518.0
新鲜	-1519.0
主人	-1520.0
建议您	-1521.0
ode	-1522.0
▁/	-1523.0
本文	-1524.0
ave	-1525.0
演员	-1526.0
时期	-1527.0
。“	-1528.0
高兴	-1529.0
各个	-1530.0
掌握	-1531.0
原始	-1532.0
显示	-1533.0
正面	-1534.0
欣赏	-1535.0
爱的	-1536.0
重复	-1537.0
生存	-1538.0
这段文本	-1539.0
数据的	-1540.0
早上	-1541.0
▁un	-1542.0
社区	-1543.0
智慧	-1544.0
分到	-1545.0
披萨	-1546.0
语句	-1547.0
分类为	-1548.0
注重	-1549.0
▁i	-1550.0
丰富的	-1551.0
爱好	-1552.0
实验	-1553.0
东西	-1554.0
规划	-1555.0
浪漫	-1556.0
星球	-1557.0
让你	-1558.0
它可以	-1559.0
的时候	-1560.0
逻辑	-1561.0
▁num	-1562.0
写一个	-1563.0
ity	-1564.0
ice	-1565.0
一天	-1566.0
print	-1567.0
上升	-1568.0
坚持	-1569.0
受欢迎的	-1570.0
相信	-1571.0
的工作	-1572.0
给你	-1573.0
▁se	-1574.0
》。	-1575.0
完整	-1576.0
iv	-1577.0
同义词	-1578.0
cri	-1579.0
分成	-1580.0
都会	-1581.0
分配	-1582.0
的一个	-1583.0
为你	-1584.0
那些	-1585.0
进入	-1586.0
解答	-1587.0
name	-1588.0
上下文	-1589.0
进行分类	-1590.0
▁描述	-1591.0
歌词	-1592.0
最大	-1593.0
医疗保健	-1594.0
博物	-1595.0
并提供	-1596.0
一个人	-1597.0
时光	-1598.0
文件	-1599.0
——	-1600.0
的数据	-1601.0
周围	-1602.0
形的	-1603.0
娱乐	-1604.0
为您提供	-1605.0
笑话	-1606.0
还需要	-1607.0
设置	-1608.0
理论	-1609.0
XX	-1610.0
▁over	-1611.0
风景	-1612.0
编程语言	-1613.0
清单	-1614.0
论文	-1615.0
番茄	-1616.0
放入	-1617.0
时间和	-1618.0
ire	-1619.0
:```	-1620.0
独立	-1621.0
的诗歌	-1622.0
组合	-1623.0
ak	-1624.0
))	-1625.0
蛋白质	-1626.0
巨大的	-1627.0
非常好	-1628.0
"。	-1629.0
破坏	-1630.0
只是	-1631.0
第三	-1632.0
应该是	-1633.0
▁用	-1634.0
are	-1635.0
魔法	-1636.0
----	-1637.0
程度	-1638.0
家的	-1639.0
▁en	-1640.0
礼物	-1641.0
色彩	-1642.0
时代	-1643.0
跑步	-1644.0
语言模型	-1645.0
周末	-1646.0
的历史	-1647.0
女生	-1648.0
ohn	-1649.0
区块	-1650.0
高度	-1651.0
想象	-1652.0
放在	-1653.0
保证	-1654.0
ie	-1655.0
预算	-1656.0
重写	-1657.0
身心	-1658.0
句子中	-1659.0
收入	-1660.0
作为一个	-1661.0
互动	-1662.0
.《	-1663.0
足够的	-1664.0
心情	-1665.0
患者	-1666.0
ial	-1667.0
休息	-1668.0
最好的	-1669.0
人数	-1670.0
的重要性	-1671.0
移动	-1672.0
它是	-1673.0
工业	-1674.0
黑洞	-1675.0
的段落	-1676.0
▁ne	-1677.0
效率和	-1678.0
太阳系	-1679.0
优秀	-1680.0
当地的	-1681.0
循环	-1682.0
指导	-1683.0
经过	-1684.0
及时	-1685.0
可以被	-1686.0
哺乳	-1687.0
食材	-1688.0
男生	-1689.0
维护	-1690.0
有效的	-1691.0
中提取出	-1692.0
一本	-1693.0
英国	-1694.0
cl	-1695.0
ust	-1696.0
将它们	-1697.0
有许多	-1698.0
假设	-1699.0
得到了	-1700.0
事物	-1701.0
交易	-1702.0
美景	-1703.0
所在	-1704.0
核心	-1705.0
ng	-1706.0
健康饮食	-1707.0
我在	-1708.0
氧化	-1709.0
文章中	-1710.0
符号	-1711.0
一家	-1712.0
人民	-1713.0
▁使用	-1714.0
每个人都	-1715.0
自行车	-1716.0
有的	-1717.0
访问	-1718.0
帮我想	-1719.0
def	-1720.0
的内容	-1721.0
股票	-1722.0
变得更加	-1723.0
og	-1724.0
zy	-1725.0
示例	-1726.0
整数	-1727.0
电话	-1728.0
▁生成一首	-1729.0
表格	-1730.0
观众	-1731.0
**	-1732.0
优势	-1733.0
ob	-1734.0
rown	-1735.0
小的	-1736.0
ip	-1737.0
下午	-1738.0
ck	-1739.0
博物馆	-1740.0
展现	-1741.0
所需	-1742.0
病毒	-1743.0
▁根据以下	-1744.0
的意思	-1745.0
长的	-1746.0
威胁	-1747.0
区块链	-1748.0
篮球	-1749.0
可能的	-1750.0
特殊	-1751.0
不知道	-1752.0
清洁	-1753.0
实体	-1754.0
最新的	-1755.0
三角	-1756.0
尽力	-1757.0
最大的	-1758.0
房间	-1759.0
Th	-1760.0
目的	-1761.0
预防	-1762.0
和社会	-1763.0
你好	-1764.0
▁like	-1765.0
可以帮助你	-1766.0
存储	-1767.0
在未来	-1768.0
格式	-1769.0
最喜欢的	-1770.0
加上	-1771.0
喜好	-1772.0
的价格	-1773.0
的音乐	-1774.0
变成	-1775.0
一句话	-1776.0
ud	-1777.0
收集	-1778.0
的关键	-1779.0
愉快	-1780.0
▁《	-1781.0
▁帮我	-1782.0
抱歉	-1783.0
厘米	-1784.0
如此	-1785.0
最高	-1786.0
真的	-1787.0
智能化	-1788.0
调查	-1789.0
▁pl	-1790.0
满意	-1791.0
西班	-1792.0
回答问题	-1793.0
西班牙	-1794.0
▁给出一个	-1795.0
更准确	-1796.0
的主	-1797.0
均匀	-1798.0
是一部	-1799.0
我为您	-1800.0
查看	-1801.0
种类	-1802.0
rans	-1803.0
tt	-1804.0
lp	-1805.0
"\	-1806.0
:《	-1807.0
ove	-1808.0
男孩	-1809.0
领域的	-1810.0
旨在	-1811.0
再生	-1812.0
脂肪	-1813.0
真实	-1814.0
他在	-1815.0
▁小明	-1816.0
就业	-1817.0
entence	-1818.0
▁by	-1819.0
这本书	-1820.0
的选择	-1821.0
突然	-1822.0
检测	-1823.0
运行	-1824.0
相加	-1825.0
分析和	-1826.0
哺乳动物	-1827.0
表演	-1828.0
ard	-1829.0
▁end	-1830.0
密码	-1831.0
战争	-1832.0
ello	-1833.0
那里	-1834.0
气体	-1835.0
▁jum	-1836.0
症状	-1837.0
城市的	-1838.0
平均值	-1839.0
名为	-1840.0
表面	-1841.0
更好地理解	-1842.0
▁quick	-1843.0
愉悦	-1844.0
总的	-1845.0
黄色	-1846.0
ib	-1847.0
介绍了	-1848.0
这家	-1849.0
ma	-1850.0
业务	-1851.0
差异	-1852.0
品尝	-1853.0
也有	-1854.0
甚至	-1855.0
特色	-1856.0
聪明	-1857.0
▁im	-1858.0
感兴趣	-1859.0
大约	-1860.0
推荐一些	-1861.0
宣传	-1862.0
上面	-1863.0
来源	-1864.0
氛围	-1865.0
表达了	-1866.0
开头	-1867.0
▁The	-1868.0
总统	-1869.0
出的	-1870.0
小狗	-1871.0
葡萄	-1872.0
疫情	-1873.0
陈述	-1874.0
规律	-1875.0
这样的	-1876.0
ight	-1877.0
是一位	-1878.0
之后	-1879.0
可靠	-1880.0
大家	-1881.0
狐狸	-1882.0
环境的	-1883.0
?"	-1884.0
灾害	-1885.0
的食物	-1886.0
什麼	-1887.0
ia	-1888.0
text	-1889.0
相应的	-1890.0
内的	-1891.0
取决	-1892.0
取决于	-1893.0
这款	-1894.0
飞行	-1895.0
期间	-1896.0
ext	-1897.0
复杂的	-1898.0
度假	-1899.0
文本中的	-1900.0
orld	-1901.0
到达	-1902.0
记忆	-1903.0
解释一下	-1904.0
十分	-1905.0
一句	-1906.0
了许多	-1907.0
夜晚	-1908.0
▁brown	-1909.0
ff	-1910.0
呈现	-1911.0
提到了	-1912.0
物体	-1913.0
体育	-1914.0
探险	-1915.0
ject	-1916.0
扮演	-1917.0
翻译成英文	-1918.0
生命的	-1919.0
ost	-1920.0
▁你好	-1921.0
▁fox	-1922.0
非常重要的	-1923.0
潜在	-1924.0
写一篇关于	-1925.0
前景	-1926.0
长期	-1927.0
总的来说	-1928.0
tif	-1929.0
品质	-1930.0
ish	-1931.0
▁sh	-1932.0
另一个	-1933.0
尤其	-1934.0
产品的	-1935.0
大地	-1936.0
cript	-1937.0
穿着	-1938.0
张三	-1939.0
ata	-1940.0
ork	-1941.0
草莓	-1942.0
秋天的	-1943.0
认识	-1944.0
形容词	-1945.0
约翰	-1946.0
学会	-1947.0
有没有	-1948.0
传播	-1949.0
的城市	-1950.0
▁lazy	-1951.0
花园	-1952.0
充满了	-1953.0
一条	-1954.0
新闻报道	-1955.0
▁my	-1956.0
微风	-1957.0
肌肉	-1958.0
成员	-1959.0
搅拌	-1960.0
我们将	-1961.0
看起来	-1962.0
指的是	-1963.0
今天的	-1964.0
▁Y	-1965.0
统计	-1966.0
▁Ch	-1967.0
数列	-1968.0
使用的	-1969.0
解决问题	-1970.0
的结果	-1971.0
ava	-1972.0
神秘的	-1973.0
危险	-1974.0
元钱	-1975.0
简短的	-1976.0
对方	-1977.0
休闲	-1978.0
欧洲	-1979.0
▁have	-1980.0
回收	-1981.0
一共	-1982.0
内心	-1983.0
ast	-1984.0
原理	-1985.0
银行	-1986.0
区域	-1987.0
基因	-1988.0
rou	-1989.0
一篇文章	-1990.0
指令	-1991.0
领导	-1992.0
ex	-1993.0
气息	-1994.0
ach	-1995.0
ount	-1996.0
大气	-1997.0
老师	-1998.0
个橙子	-1999.0
get	-2000.0
查找	-2001.0
》(	-2002.0
我想知道	-2003.0
结束	-2004.0
附近	-2005.0
希望这些	-2006.0
身体健康	-2007.0
便利	-2008.0
早餐	-2009.0
花费	-2010.0
观察	-2011.0
被认为	-2012.0
流畅	-2013.0
。《	-2014.0
▁we	-2015.0
并没有	-2016.0
提示	-2017.0
尽可能	-2018.0
监测	-2019.0
财务	-2020.0
ous	-2021.0
态度	-2022.0
生长	-2023.0
度过	-2024.0
).	-2025.0
提到	-2026.0
的季节	-2027.0
装饰	-2028.0
小华	-2029.0
实时	-2030.0
rue	-2031.0
的事情	-2032.0
反馈	-2033.0
和不	-2034.0
▁this	-2035.0
▁if	-2036.0
品种	-2037.0
永远	-2038.0
请问您	-2039.0
遇到	-2040.0
公正	-2041.0
或其他	-2042.0
难以	-2043.0
运算	-2044.0
电子邮件	-2045.0
强烈	-2046.0
生素	-2047.0
大小	-2048.0
无限	-2049.0
角度	-2050.0
个朋友	-2051.0
ome	-2052.0
易于	-2053.0
可以用	-2054.0
必要的	-2055.0
编写一个	-2056.0
未知	-2057.0
人口	-2058.0
可再生	-2059.0
热门	-2060.0
形象	-2061.0
充分	-2062.0
烹饪	-2063.0
浪费	-2064.0
遇到了	-2065.0
有任何	-2066.0
疫苗	-2067.0
lease	-2068.0
紧张	-2069.0
农业	-2070.0
ace	-2071.0
涉及到	-2072.0
)、	-2073.0
看电影	-2074.0
酒店	-2075.0
可以考虑	-2076.0
]\	-2077.0
▁<	-2078.0
▁res	-2079.0
比例	-2080.0
参考	-2081.0
ber	-2082.0
小猫	-2083.0
自主	-2084.0
的风险	-2085.0
发明	-2086.0
温室	-2087.0
秋天	-2088.0
沙拉	-2089.0
use	-2090.0
社会的	-2091.0
return	-2092.0
现在请你	-2093.0
和发展	-2094.0
给了	-2095.0
可以根据	-2096.0
的话	-2097.0
per	-2098.0
留下	-2099.0
▁因此	-2100.0
过度	-2101.0
let	-2102.0
形状	-2103.0
用户的	-2104.0
攻击	-2105.0
重量	-2106.0
轻轻	-2107.0
▁和	-2108.0
▁如果	-2109.0
的具体	-2110.0
指出	-2111.0
彼此	-2112.0
专注	-2113.0
年来	-2114.0
负面影响	-2115.0
规模	-2116.0
MO	-2117.0
St	-2118.0
转化	-2119.0
更新	-2120.0
交互	-2121.0
哲学	-2122.0
变量	-2123.0
成语	-2124.0
构建	-2125.0
哪种	-2126.0
ies	-2127.0
Hello	-2128.0
保护环境	-2129.0
主语	-2130.0
序列	-2131.0
一部	-2132.0
ction	-2133.0
.\	-2134.0
结论	-2135.0
出色	-2136.0
产生了	-2137.0
他人	-2138.0
菜单	-2139.0
》,	-2140.0
可以选择	-2141.0
食谱	-2142.0
提醒	-2143.0
关键信息	-2144.0
▁jumps	-2145.0
曾经	-2146.0
▁us	-2147.0
帮助你	-2148.0
减去	-2149.0
ll	-2150.0
参数	-2151.0
Name	-2152.0
仿佛	-2153.0
似乎	-2154.0
分布	-2155.0
太阳能	-2156.0
之外	-2157.0
标志	-2158.0
讲述了	-2159.0
及其	-2160.0
小鸟	-2161.0
优点	-2162.0
和挑战	-2163.0
我没有	-2164.0
流程	-2165.0
和应用	-2166.0
眼睛	-2167.0
的新	-2168.0
看看	-2169.0
具备	-2170.0
美味的	-2171.0
小明手	-2172.0
的环境	-2173.0
措施来	-2174.0
勇敢	-2175.0
了一些	-2176.0
▁U	-2177.0
有多少	-2178.0
成就	-2179.0
▁def	-2180.0
的单词	-2181.0
▁go	-2182.0
form	-2183.0
儿童	-2184.0
节日	-2185.0
一杯	-2186.0
主角	-2187.0
▁ap	-2188.0
参观	-2189.0
姓名	-2190.0
天气预报	-2191.0
规定	-2192.0
可以提高	-2193.0
适量	-2194.0
菜肴	-2195.0
人在	-2196.0
可以将	-2197.0
环保的	-2198.0
▁your	-2199.0
day	-2200.0
费用	-2201.0
第二个	-2202.0
ep	-2203.0
list	-2204.0
评分	-2205.0
最好	-2206.0
深远	-2207.0
内部	-2208.0
的名字	-2209.0
les	-2210.0
化和	-2211.0
的能力	-2212.0
商品文案	-2213.0
意大利面	-2214.0
政治	-2215.0
体重	-2216.0
宗教	-2217.0
▁from	-2218.0
如果你喜欢	-2219.0
▁help	-2220.0
有一些	-2221.0
回忆	-2222.0
计算机科学	-2223.0
海边	-2224.0
设施	-2225.0
ype	-2226.0
sh	-2227.0
数值	-2228.0
食用	-2229.0
传统的	-2230.0
翻译成法语	-2231.0
语法错误	-2232.0
和治疗	-2233.0
等待	-2234.0
兔子	-2235.0
生活的	-2236.0
pro	-2237.0
倒入	-2238.0
有效地	-2239.0
单位	-2240.0
鸡肉	-2241.0
价值观	-2242.0
▁self	-2243.0
一场	-2244.0
办公	-2245.0
▁`	-2246.0
▁生成一个关于	-2247.0
ana	-2248.0
在这里	-2249.0
val	-2250.0
对人类	-2251.0
...	-2252.0
古老	-2253.0
)-	-2254.0
那个	-2255.0
的行为	-2256.0
勇气	-2257.0
▁编辑	-2258.0
权利	-2259.0
和一个	-2260.0
可再生能源	-2261.0
物理学	-2262.0
环境污染	-2263.0
并输出	-2264.0
在于	-2265.0
一张	-2266.0
游客	-2267.0
▁ar	-2268.0
python	-2269.0
部门	-2270.0
In	-2271.0
普及	-2272.0
中国的	-2273.0
乐意	-2274.0
菜品	-2275.0
改写	-2276.0
▁ab	-2277.0
数据分析	-2278.0
可以用于	-2279.0
维生素	-2280.0
心灵	-2281.0
标签	-2282.0
我们的生活	-2283.0
▁将以下句子	-2284.0
vide	-2285.0
数是	-2286.0
在这	-2287.0
你觉得	-2288.0
▁was	-2289.0
被广泛	-2290.0
研发	-2291.0
卫生	-2292.0
自信	-2293.0
分子	-2294.0
看法	-2295.0
小朋友	-2296.0
含有	-2297.0
身份	-2298.0
询问	-2299.0
看到了	-2300.0
则是	-2301.0
成分	-2302.0
数据和	-2303.0
以下几个	-2304.0
建设	-2305.0
一段文本	-2306.0
玩具	-2307.0
辅助	-2308.0
培训	-2309.0
出生	-2310.0
怎么样	-2311.0
一年	-2312.0
▁V	-2313.0
狗狗	-2314.0
柠檬	-2315.0
介绍一下	-2316.0
更容易	-2317.0
的使用	-2318.0
简要	-2319.0
给定的文本	-2320.0
小明和	-2321.0
重点	-2322.0
车辆	-2323.0
MOSS	-2324.0
给我一些	-2325.0
离开	-2326.0
当你	-2327.0
进展	-2328.0
就可以	-2329.0
ER	-2330.0
NA	-2331.0
吃了	-2332.0
知名	-2333.0
防止	-2334.0
期待	-2335.0
调味	-2336.0
基金	-2337.0
地上	-2338.0
电影的	-2339.0
一片	-2340.0
对象	-2341.0
而是	-2342.0
男性	-2343.0
被称为	-2344.0
刺激	-2345.0
熊猫	-2346.0
ror	-2347.0
不断发展	-2348.0
子里	-2349.0
之处	-2350.0
节奏	-2351.0
还剩	-2352.0
科技的	-2353.0
生成一首	-2354.0
缺乏	-2355.0
来实现	-2356.0
等问题	-2357.0
可以是	-2358.0
技术和	-2359.0
综合	-2360.0
尽量	-2361.0
物种	-2362.0
消费者	-2363.0
来解决	-2364.0
图像识别	-2365.0
ary	-2366.0
伦敦	-2367.0
伦理	-2368.0
证明	-2369.0
▁ma	-2370.0
地球的	-2371.0
切成	-2372.0
ark	-2373.0
偏好	-2374.0
集中	-2375.0
AP	-2376.0
视为	-2377.0
归类	-2378.0
路上	-2379.0
列举	-2380.0
节约	-2381.0
一项	-2382.0
牛肉	-2383.0
年代	-2384.0
tp	-2385.0
时刻	-2386.0
一道	-2387.0
ning	-2388.0
除法	-2389.0
叫做	-2390.0
细胞	-2391.0
是我	-2392.0
景色	-2393.0
tend	-2394.0
实施	-2395.0
非常感谢	-2396.0
灵活	-2397.0
听起来	-2398.0
和安全	-2399.0
带来的	-2400.0
ear	-2401.0
棕色	-2402.0
详细的	-2403.0
也很	-2404.0
室内	-2405.0
▁提供	-2406.0
只能	-2407.0
玩耍	-2408.0
这将	-2409.0
剧情	-2410.0
ug	-2411.0
与其他	-2412.0
文明	-2413.0
淇淋	-2414.0
约为	-2415.0
电池	-2416.0
oy	-2417.0
rand	-2418.0
计算机视觉	-2419.0
明显	-2420.0
('	-2421.0
冰淇淋	-2422.0
John	-2423.0
人工智能的发展	-2424.0
举行	-2425.0
▁=>	-2426.0
信仰	-2427.0
充足	-2428.0
的研究	-2429.0
下的	-2430.0
ated	-2431.0
非常重要	-2432.0
安装	-2433.0
和谐	-2434.0
出行	-2435.0
春天	-2436.0
同学	-2437.0
平面	-2438.0
▁provide	-2439.0
强大的	-2440.0
验证	-2441.0
和支持	-2442.0
兴奋	-2443.0
印度	-2444.0
美妙	-2445.0
的感觉	-2446.0
获得了	-2447.0
的一部分	-2448.0
需要注意的是	-2449.0
常常	-2450.0
动力	-2451.0
中有	-2452.0
取代	-2453.0
ory	-2454.0
:'	-2455.0
dd	-2456.0
虚拟现实	-2457.0
古诗	-2458.0
友谊	-2459.0
并将	-2460.0
使用了	-2461.0
培养	-2462.0
正常	-2463.0
ec	-2464.0
时间的	-2465.0
一件	-2466.0
你会	-2467.0
来计算	-2468.0
aram	-2469.0
克服	-2470.0
已知	-2471.0
▁sentence	-2472.0
rite	-2473.0
销售额	-2474.0
他想	-2475.0
让人们	-2476.0
的小说	-2477.0
好看	-2478.0
写一首	-2479.0
ft	-2480.0
注意力	-2481.0
推出	-2482.0
▁cl	-2483.0
▁个	-2484.0
宁静	-2485.0
的基本	-2486.0
的一种	-2487.0
还有其他	-2488.0
不断地	-2489.0
保障	-2490.0
个性化	-2491.0
的糖果	-2492.0
替代	-2493.0
▁是	-2494.0
英文句子	-2495.0
再次	-2496.0
黑色	-2497.0
生成商品文案	-2498.0
能力和	-2499.0
监督	-2500.0
也需要	-2501.0
的原因	-2502.0
认知	-2503.0
▁@	-2504.0
如果您需要	-2505.0
ail	-2506.0
自身	-2507.0
地的	-2508.0
极端	-2509.0
上述	-2510.0
热情	-2511.0
深呼吸	-2512.0
印象	-2513.0
▁print	-2514.0
就像	-2515.0
意见	-2516.0
hone	-2517.0
自然灾害	-2518.0
慢慢	-2519.0
犯罪	-2520.0
文档	-2521.0
机器学习算法	-2522.0
的水	-2523.0
ser	-2524.0
信任	-2525.0
给您	-2526.0
哈利	-2527.0
▁K	-2528.0
主人公	-2529.0
大自然的	-2530.0
即使	-2531.0
黑暗	-2532.0
手段	-2533.0
明白	-2534.0
山峰	-2535.0
讲一个	-2536.0
描述了	-2537.0
ize	-2538.0
""	-2539.0
反义词	-2540.0
需求和	-2541.0
烤箱	-2542.0
系统的	-2543.0
乘以	-2544.0
▁这个	-2545.0
Ch	-2546.0
氏度	-2547.0
法规	-2548.0
炎热	-2549.0
将在	-2550.0
very	-2551.0
每人	-2552.0
广泛的应用	-2553.0
gle	-2554.0
Java	-2555.0
免疫	-2556.0
洋葱	-2557.0
消耗	-2558.0
str	-2559.0
▁at	-2560.0
翻译为	-2561.0
公平	-2562.0
柔软	-2563.0
你们	-2564.0
描绘	-2565.0
ance	-2566.0
确认	-2567.0
货币	-2568.0
迅速	-2569.0
四个	-2570.0
冬季	-2571.0
学生的	-2572.0
听说	-2573.0
怎样	-2574.0
cc	-2575.0
传达	-2576.0
ich	-2577.0
最新	-2578.0
西班牙语	-2579.0
两种	-2580.0
玩家	-2581.0
手工	-2582.0
一切	-2583.0
的基础	-2584.0
都可以	-2585.0
值得一	-2586.0
ong	-2587.0
更快	-2588.0
一系列	-2589.0
口号	-2590.0
超市	-2591.0
如何在	-2592.0
vel	-2593.0
根据自己的	-2594.0
log	-2595.0
▁St	-2596.0
从文章	-2597.0
▁Th	-2598.0
支持和	-2599.0
利益	-2600.0
年份	-2601.0
遵守	-2602.0
rain	-2603.0
风吹	-2604.0
当今	-2605.0
教学	-2606.0
使其更加	-2607.0
我想要	-2608.0
的值	-2609.0
可能需要	-2610.0
▁ass	-2611.0
正式	-2612.0
适量的	-2613.0
和平	-2614.0
一個	-2615.0
地址	-2616.0
无人	-2617.0
很好的	-2618.0
概率	-2619.0
接着	-2620.0
生成的	-2621.0
续写	-2622.0
人士	-2623.0
克的	-2624.0
疑问	-2625.0
路线	-2626.0
▁文本	-2627.0
人心	-2628.0
近年来	-2629.0
大脑	-2630.0
版本	-2631.0
于是	-2632.0
orm	-2633.0
单词的	-2634.0
▁,	-2635.0
被认为是	-2636.0
户外活动	-2637.0
重视	-2638.0
▁回答	-2639.0
最近的	-2640.0
来的	-2641.0
东京	-2642.0
旋律	-2643.0
之间的关系	-2644.0
庆祝	-2645.0
发展的	-2646.0
涵盖	-2647.0
atch	-2648.0
▁so	-2649.0
):\	-2650.0
回家	-2651.0
导演	-2652.0
压力和	-2653.0
垃圾分类	-2654.0
不需要	-2655.0
生成一篇	-2656.0
中的应用	-2657.0
可爱	-2658.0
并将其	-2659.0
给我一个	-2660.0
亮的	-2661.0
等方式	-2662.0
经典的	-2663.0
下降	-2664.0
成绩	-2665.0
捷的	-2666.0
猫咪	-2667.0
白色	-2668.0
餐馆	-2669.0
释放	-2670.0
聚会	-2671.0
开心	-2672.0
理解和	-2673.0
身体和	-2674.0
取出	-2675.0
可以帮助我们	-2676.0
▁对于	-2677.0
ress	-2678.0
象征	-2679.0
恐怖	-2680.0
删除	-2681.0
的活动	-2682.0
每个人的	-2683.0
每次	-2684.0
文章的	-2685.0
%。	-2686.0
死亡	-2687.0
居民	-2688.0
重要的是	-2689.0
可能会导致	-2690.0
子和	-2691.0
缺点	-2692.0
ransl	-2693.0
饼干	-2694.0
更好地了解	-2695.0
明媚	-2696.0
ne	-2697.0
ens	-2698.0
du	-2699.0
的过程	-2700.0
万物	-2701.0
指定	-2702.0
是谁	-2703.0
tself	-2704.0
试图	-2705.0
我才能	-2706.0
大型	-2707.0
并给出	-2708.0
心理健康	-2709.0
元的	-2710.0
也就是	-2711.0
和服务	-2712.0
请帮我	-2713.0
▁将下面	-2714.0
力学	-2715.0
妈妈	-2716.0
但我	-2717.0
一定的	-2718.0
的安全	-2719.0
场所	-2720.0
vers	-2721.0
野生	-2722.0
的海	-2723.0
优惠	-2724.0
考试	-2725.0
偏见	-2726.0
很大的	-2727.0
我想了解	-2728.0
可以得到	-2729.0
我推荐	-2730.0
找到了	-2731.0
职位	-2732.0
次数	-2733.0
是否有	-2734.0
依赖	-2735.0
ener	-2736.0
范围内	-2737.0
预订	-2738.0
放松身心	-2739.0
▁把	-2740.0
确实	-2741.0
帮您	-2742.0
片段	-2743.0
eth	-2744.0
消息	-2745.0
和情感	-2746.0
],	-2747.0
共享	-2748.0
商务	-2749.0
pon	-2750.0
影像	-2751.0
公园里	-2752.0
取得了	-2753.0
两个句子	-2754.0
这意味着	-2755.0
的语言	-2756.0
打印	-2757.0
so	-2758.0
优质	-2759.0
是最	-2760.0
清新	-2761.0
世界的	-2762.0
如果你想	-2763.0
构成	-2764.0
▁||	-2765.0
展开	-2766.0
您想要	-2767.0
景观	-2768.0
谷歌	-2769.0
的情况	-2770.0
是如何	-2771.0
▁AI	-2772.0
是一名	-2773.0
探讨了	-2774.0
▁am	-2775.0
因为它们	-2776.0
心态	-2777.0
专业的	-2778.0
纽约市	-2779.0
运用	-2780.0
可能导致	-2781.0
▁el	-2782.0
This	-2783.0
▁new	-2784.0
://	-2785.0
可以尝试	-2786.0
和水	-2787.0
晚餐	-2788.0
你有什么	-2789.0
请将	-2790.0
关键字	-2791.0
机器翻译	-2792.0
的世界	-2793.0
消极	-2794.0
Con	-2795.0
强调了	-2796.0
▁but	-2797.0
萝卜	-2798.0
▁==	-2799.0
演讲	-2800.0
作家	-2801.0
转化为	-2802.0
唯一	-2803.0
保险	-2804.0
无论是	-2805.0
新型	-2806.0
非常有	-2807.0
......	-2808.0
维持	-2809.0
oogle	-2810.0
狗的	-2811.0
ild	-2812.0
归类为	-2813.0
是不	-2814.0
之旅	-2815.0
")	-2816.0
而言	-2817.0
有所帮助	-2818.0
整体	-2819.0
野餐	-2820.0
优秀的	-2821.0
会对	-2822.0
数字的	-2823.0
今年	-2824.0
恢复	-2825.0
智能手机	-2826.0
下一个	-2827.0
树叶	-2828.0
普通	-2829.0
请注意	-2830.0
的颜色	-2831.0
尼克	-2832.0
年轻的	-2833.0
合同	-2834.0
的一些	-2835.0
优先	-2836.0
群体	-2837.0
健康和	-2838.0
准确性	-2839.0
真正的	-2840.0
领域中	-2841.0
机制	-2842.0
信号	-2843.0
更有	-2844.0
图片	-2845.0
Ap	-2846.0
通常会	-2847.0
温室气体	-2848.0
的设计	-2849.0
这项	-2850.0
简约	-2851.0
的生活	-2852.0
提取出	-2853.0
古典	-2854.0
都在	-2855.0
已经成为	-2856.0
医院	-2857.0
感情	-2858.0
引擎	-2859.0
风暴	-2860.0
比赛中	-2861.0
▁has	-2862.0
顾客	-2863.0
穿越	-2864.0
身高	-2865.0
这只	-2866.0
可以为	-2867.0
ci	-2868.0
流行的	-2869.0
旅游景点	-2870.0
图书	-2871.0
潜力	-2872.0
心中	-2873.0
科普	-2874.0
进行了	-2875.0
成立	-2876.0
等技术	-2877.0
服装	-2878.0
剩余	-2879.0
文化的	-2880.0
cm	-2881.0
,"	-2882.0
互相	-2883.0
感染	-2884.0
民族	-2885.0
ample	-2886.0
和分析	-2887.0
观看	-2888.0
波特	-2889.0
tf	-2890.0
舞蹈	-2891.0
▁小明有	-2892.0
大多	-2893.0
官方	-2894.0
定制	-2895.0
更为	-2896.0
买了一	-2897.0
iP	-2898.0
原则	-2899.0
就会	-2900.0
引力	-2901.0
商店	-2902.0
传递	-2903.0
心和	-2904.0
这道	-2905.0
飞机	-2906.0
性质	-2907.0
原文	-2908.0
蝴蝶	-2909.0
▁->	-2910.0
生成一段	-2911.0
ph	-2912.0
岁月	-2913.0
红色的	-2914.0
▁des	-2915.0
身体的	-2916.0
笔记	-2917.0
appy	-2918.0
标记	-2919.0
纤维	-2920.0
:[	-2921.0
河流	-2922.0
公众	-2923.0
相反	-2924.0
并为	-2925.0
多样性	-2926.0
至关	-2927.0
鸟儿	-2928.0
下雨	-2929.0
能不能	-2930.0
每一个	-2931.0
字母顺序	-2932.0
产业	-2933.0
普遍	-2934.0
口语	-2935.0
合物	-2936.0
!”	-2937.0
广泛的	-2938.0
影片	-2939.0
个人的	-2940.0
模型的	-2941.0
融合	-2942.0
工程师	-2943.0
并不是	-2944.0
创造一个	-2945.0
喜欢吃	-2946.0
鸟类	-2947.0
重大	-2948.0
和朋友	-2949.0
规范	-2950.0
中性	-2951.0
通常是	-2952.0
另一	-2953.0
英雄	-2954.0
赢得	-2955.0
▁&	-2956.0
的机会	-2957.0
加法	-2958.0
多少钱	-2959.0
谓语	-2960.0
知识和	-2961.0
上有	-2962.0
出发	-2963.0
是人类	-2964.0
冲突	-2965.0
皮肤	-2966.0
精准	-2967.0
▁计算	-2968.0
异常	-2969.0
▁将以下文本	-2970.0
安静	-2971.0
德国	-2972.0
性格	-2973.0
修正	-2974.0
餐厅的	-2975.0
ram	-2976.0
数据库	-2977.0
监管	-2978.0
rap	-2979.0
舒适的	-2980.0
字的	-2981.0
▁no	-2982.0
my	-2983.0
总共	-2984.0
发现了	-2985.0
覆盖	-2986.0
里面	-2987.0
可以提供	-2988.0
range	-2989.0
质量和	-2990.0
旅程	-2991.0
的答案	-2992.0
供应	-2993.0
是关于	-2994.0
认真	-2995.0
在中国	-2996.0
string	-2997.0
che	-2998.0
回归	-2999.0
最多	-3000.0
摄氏度	-3001.0
豆腐	-3002.0
证据	-3003.0
情境	-3004.0
偶数	-3005.0
其他的	-3006.0
ule	-3007.0
水和	-3008.0
科幻小说	-3009.0
new	-3010.0
对环境	-3011.0
小明的	-3012.0
伤害	-3013.0
我不	-3014.0
诗人	-3015.0
场合	-3016.0
可能性	-3017.0
no	-3018.0
标点	-3019.0
还能	-3020.0
挑战和	-3021.0
只要	-3022.0
步行	-3023.0
自然的	-3024.0
花朵	-3025.0
个性化的	-3026.0
温馨	-3027.0
实际上	-3028.0
技术的发展	-3029.0
区别	-3030.0
橄榄	-3031.0
阶段	-3032.0
圆的	-3033.0
好处	-3034.0
适合自己的	-3035.0
我最近	-3036.0
我会尽力	-3037.0
数学问题	-3038.0
二氧化	-3039.0
他们在	-3040.0
不足	-3041.0
十年	-3042.0
损失	-3043.0
可以从	-3044.0
富有	-3045.0
地位	-3046.0
什么样的	-3047.0
英文文本	-3048.0
加速	-3049.0
宣布	-3050.0
风光	-3051.0
LE	-3052.0
享用	-3053.0
地区的	-3054.0
胡椒	-3055.0
fer	-3056.0
apple	-3057.0
芝士	-3058.0
非常适合	-3059.0
负责	-3060.0
变革	-3061.0
明了	-3062.0
您可以在	-3063.0
改为	-3064.0
ix	-3065.0
的任务	-3066.0
ww	-3067.0
当时	-3068.0
海平面	-3069.0
和工作	-3070.0
有一天	-3071.0
▁小	-3072.0
我們	-3073.0
中选择	-3074.0
种植	-3075.0
家具	-3076.0
大象	-3077.0
▁翻译	-3078.0
周长	-3079.0
最小	-3080.0
请随时	-3081.0
有点	-3082.0
纠正	-3083.0
▁解释	-3084.0
语气	-3085.0
魅力	-3086.0
篇关于	-3087.0
最低	-3088.0
减法	-3089.0
走了	-3090.0
举办	-3091.0
客服	-3092.0
iel	-3093.0
出现的	-3094.0
事故	-3095.0
愿意	-3096.0
等因素	-3097.0
的话题	-3098.0
ID	-3099.0
棕色狐狸	-3100.0
多元	-3101.0
试试	-3102.0
pec	-3103.0
交通工具	-3104.0
遗产	-3105.0
往往	-3106.0
你想	-3107.0
您好	-3108.0
照片	-3109.0
ines	-3110.0
请求	-3111.0
好了	-3112.0
泰坦	-3113.0
'\	-3114.0
不再	-3115.0
▁根据给定的文本	-3116.0
学科	-3117.0
火车	-3118.0
成功的	-3119.0
▁给定一组	-3120.0
ptions	-3121.0
用品	-3122.0
屏幕	-3123.0
或是	-3124.0
从小	-3125.0
ther	-3126.0
遵循	-3127.0
漫步	-3128.0
透明	-3129.0
引发	-3130.0
山脉	-3131.0
金额	-3132.0
保留	-3133.0
放弃	-3134.0
key	-3135.0
蓝色的	-3136.0
发送	-3137.0
und	-3138.0
人工智能在医疗领域	-3139.0
成果	-3140.0
蘑菇	-3141.0
anana	-3142.0
你能告诉我	-3143.0
now	-3144.0
加密	-3145.0
ign	-3146.0
今天天气	-3147.0
意识到	-3148.0
行的	-3149.0
化合物	-3150.0
tlet	-3151.0
神奇	-3152.0
扩展	-3153.0
其中包括	-3154.0
高级	-3155.0
▁他	-3156.0
道路	-3157.0
调节	-3158.0
晴朗	-3159.0
ree	-3160.0
有所不同	-3161.0
全面	-3162.0
肯定	-3163.0
使其更	-3164.0
数据进行	-3165.0
包容	-3166.0
素食	-3167.0
tim	-3168.0
专家	-3169.0
的含义	-3170.0
ange	-3171.0
修复	-3172.0
初学	-3173.0
利润	-3174.0
很有	-3175.0
拼写错误	-3176.0
泰坦尼克	-3177.0
环保的文章	-3178.0
一点	-3179.0
剩下的	-3180.0
设计一个	-3181.0
的名称	-3182.0
。(	-3183.0
这些问题	-3184.0
难忘	-3185.0
手表	-3186.0
显著	-3187.0
广泛应用	-3188.0
的日	-3189.0
频率	-3190.0
和时间	-3191.0
许多人	-3192.0
的目标	-3193.0
日常生活	-3194.0
泰坦尼克号	-3195.0
感和	-3196.0
阳光明媚	-3197.0
提出了	-3198.0
平均分给	-3199.0
终于	-3200.0
中文翻译	-3201.0
安全和	-3202.0
目的是	-3203.0
奶酪	-3204.0
喜剧	-3205.0
土豆	-3206.0
都能	-3207.0
的情况下	-3208.0
":	-3209.0
情感分析	-3210.0
感知	-3211.0
罗马	-3212.0
的歌曲	-3213.0
允许	-3214.0
合法	-3215.0
海浪	-3216.0
技能和	-3217.0
二氧化碳	-3218.0
亚洲	-3219.0
某种	-3220.0
非法	-3221.0
预计	-3222.0
卫星	-3223.0
问答	-3224.0
激发	-3225.0
ood	-3226.0
做一个	-3227.0
深远的影响	-3228.0
乐趣	-3229.0
障碍	-3230.0
同样	-3231.0
光线	-3232.0
tdef	-3233.0
事项	-3234.0
信息和	-3235.0
会导致	-3236.0
外套	-3237.0
活力	-3238.0
胜利	-3239.0
金属	-3240.0
水的	-3241.0
不错的选择	-3242.0
诗句	-3243.0
主题是	-3244.0
先进	-3245.0
常用的	-3246.0
跳过	-3247.0
出现了	-3248.0
树木	-3249.0
QL	-3250.0
old	-3251.0
高质量	-3252.0
申请	-3253.0
行驶	-3254.0
长时间	-3255.0
忠诚	-3256.0
它在	-3257.0
家园	-3258.0
患者的	-3259.0
我建议	-3260.0
非洲	-3261.0
紧急	-3262.0
出一个	-3263.0
我很乐意	-3264.0
回复	-3265.0
来提高	-3266.0
要注意	-3267.0
fig	-3268.0
协作	-3269.0
的位置	-3270.0
人体	-3271.0
胡萝卜	-3272.0
以提高	-3273.0
狮子	-3274.0
是我们	-3275.0
斯坦	-3276.0
伙伴	-3277.0
地图	-3278.0
男子	-3279.0
的特点	-3280.0
▁基于	-3281.0
体现	-3282.0
心脏	-3283.0
热量	-3284.0
最重要的	-3285.0
精确	-3286.0
年轻人	-3287.0
==	-3288.0
指南	-3289.0
辣椒	-3290.0
甜点	-3291.0
喜爱	-3292.0
分支	-3293.0
和行为	-3294.0
IT	-3295.0
我是	-3296.0
资料	-3297.0
太空探索	-3298.0
ink	-3299.0
边的	-3300.0
fr	-3301.0
燃料	-3302.0
%,	-3303.0
分别是	-3304.0
心理学	-3305.0
指标	-3306.0
消除	-3307.0
火星	-3308.0
反映	-3309.0
联合	-3310.0
就能	-3311.0
测量	-3312.0
水中	-3313.0
在家里	-3314.0
寿命	-3315.0
描写	-3316.0
纠错	-3317.0
创新的	-3318.0
输入的	-3319.0
老鼠	-3320.0
说话	-3321.0
▁man	-3322.0
革命	-3323.0
:(	-3324.0
以来	-3325.0
你能帮我	-3326.0
骑自行车	-3327.0
的天	-3328.0
冠军	-3329.0
▁love	-3330.0
我要	-3331.0
月份	-3332.0
大数据	-3333.0
▁mod	-3334.0
我可以为您	-3335.0
对其	-3336.0
保护我们的	-3337.0
也不	-3338.0
下面是	-3339.0
▁need	-3340.0
面料	-3341.0
回到	-3342.0
小红有	-3343.0
的社会	-3344.0
物联网	-3345.0
思念	-3346.0
起源	-3347.0
Re	-3348.0
景象	-3349.0
发出	-3350.0
提前	-3351.0
失去	-3352.0
孩子们	-3353.0
alse	-3354.0
听到	-3355.0
的动物	-3356.0
支笔	-3357.0
的关系	-3358.0
的过程中	-3359.0
我不能	-3360.0
同事	-3361.0
这组	-3362.0
了很多	-3363.0
小明和小红	-3364.0
讲述了一个	-3365.0
▁给	-3366.0
精彩	-3367.0
比喻	-3368.0
和管理	-3369.0
原子	-3370.0
做好	-3371.0
半径	-3372.0
收益	-3373.0
制成	-3374.0
球员	-3375.0
▁how	-3376.0
你对	-3377.0
电动	-3378.0
协议	-3379.0
尼亚	-3380.0
配料	-3381.0
做法	-3382.0
求解	-3383.0
我们可以使用	-3384.0
实用	-3385.0
的描述	-3386.0
讨论了	-3387.0
研究表明	-3388.0
以下是一个	-3389.0
也在	-3390.0
从这篇文章	-3391.0
恒星	-3392.0
三种	-3393.0
set	-3394.0
珍惜	-3395.0
富含	-3396.0
案例	-3397.0
不超过	-3398.0
通信	-3399.0
人类智能	-3400.0
突出	-3401.0
今天是	-3402.0
▁In	-3403.0
每年	-3404.0
月球	-3405.0
方程式	-3406.0
除此	-3407.0
科普文章	-3408.0
▁这	-3409.0
▁如何	-3410.0
并进行	-3411.0
▁分类	-3412.0
创造力	-3413.0
▁}	-3414.0
小明家	-3415.0
ide	-3416.0
匹配	-3417.0
尤其是	-3418.0
标点符号	-3419.0
帮你	-3420.0
ise	-3421.0
艺术家	-3422.0
▁more	-3423.0
命令	-3424.0
这首诗	-3425.0
在哪里	-3426.0
的首	-3427.0
该文本	-3428.0
失败	-3429.0
大多数	-3430.0
您提供	-3431.0
相等	-3432.0
敏捷的	-3433.0
红楼	-3434.0
除此之外	-3435.0
Sure	-3436.0
画面	-3437.0
组成的	-3438.0
根据您的	-3439.0
ollow	-3440.0
▁name	-3441.0
不仅仅	-3442.0
物的	-3443.0
.”	-3444.0
更高的	-3445.0
▁text	-3446.0
中央	-3447.0
感到非常	-3448.0
故事情节	-3449.0
外的	-3450.0
对手	-3451.0
春天的	-3452.0
读书	-3453.0
出色的	-3454.0
如果您喜欢	-3455.0
散文	-3456.0
▁est	-3457.0
▁cont	-3458.0
不太	-3459.0
带有	-3460.0
ical	-3461.0
事业	-3462.0
市中心	-3463.0
概述	-3464.0
是一项	-3465.0
是通过	-3466.0
向量	-3467.0
外观	-3468.0
接种	-3469.0
在某些	-3470.0
模仿	-3471.0
和人类	-3472.0
名叫	-3473.0
以其	-3474.0
几种	-3475.0
运输	-3476.0
锅中	-3477.0
bers	-3478.0
古老的	-3479.0
父母	-3480.0
落叶	-3481.0
word	-3482.0
所需的	-3483.0
位数	-3484.0
在过去	-3485.0
我希望	-3486.0
未来发展	-3487.0
采取行动	-3488.0
创业	-3489.0
lish	-3490.0
是美国	-3491.0
有氧	-3492.0
适用于	-3493.0
巨大	-3494.0
等式	-3495.0
稍等	-3496.0
组成部分	-3497.0
▁一	-3498.0
均衡	-3499.0
手术	-3500.0
等多个	-3501.0
的变化	-3502.0
\\	-3503.0
▁world	-3504.0
医疗行业	-3505.0
▁assist	-3506.0
疲劳	-3507.0
句子的	-3508.0
清凉	-3509.0
期望	-3510.0
定位	-3511.0
航空	-3512.0
▁import	-3513.0
教师	-3514.0
来看	-3515.0
准确地	-3516.0
中的所有	-3517.0
氧气	-3518.0
推断	-3519.0
以下问题	-3520.0
救赎	-3521.0
▁will	-3522.0
▁all	-3523.0
从而提高	-3524.0
各个领域	-3525.0
人工智能技术的	-3526.0
人际	-3527.0
日常生活中	-3528.0
生动	-3529.0
和数据	-3530.0
表达式	-3531.0
如何制作	-3532.0
大写	-3533.0
所述	-3534.0
气象	-3535.0
面粉	-3536.0
节能	-3537.0
▁out	-3538.0
绘画	-3539.0
激励	-3540.0
贸易	-3541.0
有些人	-3542.0
环保意识	-3543.0
图案	-3544.0
接触	-3545.0
创作一首	-3546.0
主题的	-3547.0
我们可以用	-3548.0
成一个	-3549.0
红楼梦	-3550.0
外星	-3551.0
海平面上升	-3552.0
国内	-3553.0
file	-3554.0
▁Wh	-3555.0
ask	-3556.0
突破	-3557.0
号码	-3558.0
和高	-3559.0
肖申	-3560.0
免费	-3561.0
明白了	-3562.0
和技术	-3563.0
便捷	-3564.0
力于	-3565.0
本身	-3566.0
▁?	-3567.0
浓郁	-3568.0
有一只	-3569.0
▁follow	-3570.0
':	-3571.0
观的	-3572.0
▁about	-3573.0
无尽	-3574.0
情感和	-3575.0
更准确地	-3576.0
量子力学	-3577.0
对您	-3578.0
框架	-3579.0
的产品	-3580.0
学习编程	-3581.0
可以用来	-3582.0
诊断和治疗	-3583.0
合并	-3584.0
土壤	-3585.0
当我们	-3586.0
▁元	-3587.0
▁today	-3588.0
ound	-3589.0
友好	-3590.0
Ex	-3591.0
和建议	-3592.0
io	-3593.0
厨房	-3594.0
有时	-3595.0
代入	-3596.0
是哪	-3597.0
送给	-3598.0
有机	-3599.0
橄榄油	-3600.0
材质	-3601.0
安全性	-3602.0
陪伴	-3603.0
电视剧	-3604.0
的阳光	-3605.0
以下段落	-3606.0
']	-3607.0
数组	-3608.0
为主	-3609.0
图书馆	-3610.0
更改	-3611.0
宾语	-3612.0
输出结果	-3613.0
律师	-3614.0
erm	-3615.0
很高兴	-3616.0
头脑	-3617.0
引人	-3618.0
学术	-3619.0
资金	-3620.0
iPhone	-3621.0
random	-3622.0
但不	-3623.0
原来	-3624.0
个月	-3625.0
面上	-3626.0
enc	-3627.0
历程	-3628.0
悬疑	-3629.0
计算出	-3630.0
path	-3631.0
▁int	-3632.0
有限	-3633.0
幽默	-3634.0
ition	-3635.0
这是因为	-3636.0
班级	-3637.0
制品	-3638.0
名言	-3639.0
特性	-3640.0
钢琴	-3641.0
和小	-3642.0
完美	-3643.0
ca	-3644.0
ield	-3645.0
▁---	-3646.0
AR	-3647.0
亚马	-3648.0
你想要	-3649.0
的需求	-3650.0
网上	-3651.0
这些信息	-3652.0
节目	-3653.0
野生动物	-3654.0
的帮助	-3655.0
让人感到	-3656.0
▁up	-3657.0
会在	-3658.0
be	-3659.0
你在	-3660.0
闻名	-3661.0
Path	-3662.0
也将	-3663.0
完善	-3664.0
reat	-3665.0
秋风	-3666.0
扩大	-3667.0
每一	-3668.0
双方	-3669.0
招聘	-3670.0
ool	-3671.0
敏捷的棕色狐狸	-3672.0
关于夏天的	-3673.0
家族	-3674.0
亚马逊	-3675.0
提供更	-3676.0
ss	-3677.0
广阔	-3678.0
▁请将	-3679.0
建议吗	-3680.0
我正在	-3681.0
明天的	-3682.0
易懂	-3683.0
每周	-3684.0
这座	-3685.0
▁大	-3686.0
玫瑰	-3687.0
严格	-3688.0
多彩	-3689.0
打造	-3690.0
担心	-3691.0
语法和	-3692.0
▁写	-3693.0
玛丽	-3694.0
angu	-3695.0
这些都是	-3696.0
下面的	-3697.0
最喜欢	-3698.0
名词短语	-3699.0
▁Pro	-3700.0
整除	-3701.0
工作效率	-3702.0
出门	-3703.0
邀请	-3704.0
ource	-3705.0
洛杉	-3706.0
这次	-3707.0
ian	-3708.0
不起	-3709.0
玻璃	-3710.0
谢谢你	-3711.0
远程	-3712.0
正方	-3713.0
饮食习惯	-3714.0
少年	-3715.0
汤姆	-3716.0
人工智能和	-3717.0
感激	-3718.0
▁我们	-3719.0
长度为	-3720.0
题材	-3721.0
列表中	-3722.0
和理解	-3723.0
处于	-3724.0
对待	-3725.0
我已经	-3726.0
▁中	-3727.0
投入	-3728.0
洛杉矶	-3729.0
pect	-3730.0
得分	-3731.0
的摘要	-3732.0
ik	-3733.0
汉语	-3734.0
欢乐	-3735.0
阿甘	-3736.0
吸收	-3737.0
现代社会	-3738.0
有益	-3739.0
机场	-3740.0
);\	-3741.0
秘密	-3742.0
。'	-3743.0
天然	-3744.0
忘记	-3745.0
Google	-3746.0
的数字	-3747.0
长城	-3748.0
我来	-3749.0
海鲜	-3750.0
如同	-3751.0
款式	-3752.0
Pro	-3753.0
之中	-3754.0
提到的	-3755.0
出去	-3756.0
小球	-3757.0
管理和	-3758.0
种族歧视	-3759.0
区块链技术	-3760.0
ful	-3761.0
世界各	-3762.0
比如说	-3763.0
接近	-3764.0
播放	-3765.0
珠穆	-3766.0
相比	-3767.0
三角形	-3768.0
时的	-3769.0
生机	-3770.0
专注于	-3771.0
分数	-3772.0
珠穆朗	-3773.0
用途	-3774.0
您可以尝试	-3775.0
星星	-3776.0
一起去	-3777.0
你可以尝试	-3778.0
有人	-3779.0
沙发	-3780.0
搜索引擎	-3781.0
被视为	-3782.0
珠穆朗玛	-3783.0
旅行的	-3784.0
进行摘要	-3785.0
新产品	-3786.0
他人的	-3787.0
体系	-3788.0
▁return	-3789.0
red	-3790.0
學習	-3791.0
语境	-3792.0
致力于	-3793.0
倾向	-3794.0
au	-3795.0
但他	-3796.0
带着	-3797.0
肉类	-3798.0
是一家	-3799.0
账户	-3800.0
ake	-3801.0
Script	-3802.0
电器	-3803.0
工作和	-3804.0
相关信息	-3805.0
西瓜	-3806.0
▁par	-3807.0
样本	-3808.0
蜜蜂	-3809.0
记得	-3810.0
总数	-3811.0
环境问题	-3812.0
悲伤	-3813.0
我还	-3814.0
有害	-3815.0
历史上	-3816.0
珠穆朗玛峰	-3817.0
南极	-3818.0
▁sp	-3819.0
包含了	-3820.0
面临着	-3821.0
微笑	-3822.0
真是	-3823.0
的摄入	-3824.0
层次	-3825.0
的概念	-3826.0
▁Python	-3827.0
ax	-3828.0
新鲜的	-3829.0
不确定	-3830.0
上映	-3831.0
地震	-3832.0
的书	-3833.0
机遇	-3834.0
请稍等	-3835.0
这样我才能	-3836.0
光芒	-3837.0
准确的	-3838.0
听音乐	-3839.0
深刻的	-3840.0
北极	-3841.0
多少个	-3842.0
违反	-3843.0
特别是	-3844.0
▁val	-3845.0
日益	-3846.0
资产	-3847.0
桌子	-3848.0
表现出	-3849.0
奥运	-3850.0
自动驾驶汽车	-3851.0
一个问题	-3852.0
上了	-3853.0
每个人都应该	-3854.0
术语	-3855.0
这段文字	-3856.0
克的救赎	-3857.0
入手	-3858.0
寒冷	-3859.0
我觉得	-3860.0
奇数	-3861.0
yst	-3862.0
分解	-3863.0
的风格	-3864.0
定律	-3865.0
徒步	-3866.0
▁sum	-3867.0
ash	-3868.0
▁su	-3869.0
替换为	-3870.0
的形式	-3871.0
设定	-3872.0
严重的	-3873.0
不用	-3874.0
笔记本	-3875.0
土地	-3876.0
的声音	-3877.0
地理	-3878.0
我对	-3879.0
肖申克的救赎	-3880.0
▁人工智能	-3881.0
希腊	-3882.0
数据中	-3883.0
出版	-3884.0
协调	-3885.0
开展	-3886.0
▁创建一个	-3887.0
幫助	-3888.0
相同的	-3889.0
一篇关于	-3890.0
自然语言处理技术	-3891.0
橘子	-3892.0
He	-3893.0
理念	-3894.0
良好	-3895.0
合理的	-3896.0
华盛	-3897.0
很抱歉	-3898.0
坐在	-3899.0
也非常	-3900.0
相当	-3901.0
两人	-3902.0
云计算	-3903.0
最适合	-3904.0
za	-3905.0
在医疗领域	-3906.0
会有	-3907.0
通知	-3908.0
几个苹果	-3909.0
CT	-3910.0
关闭	-3911.0
派对	-3912.0
///	-3913.0
▁首先	-3914.0
燃烧	-3915.0
华盛顿	-3916.0
潮流	-3917.0
很棒	-3918.0
温柔	-3919.0
需要考虑	-3920.0
可以去	-3921.0
▁为什么	-3922.0
世界上	-3923.0
大规模	-3924.0
超级	-3925.0
信用	-3926.0
精力	-3927.0
详细信息	-3928.0
▁word	-3929.0
始终	-3930.0
歌手	-3931.0
文章中的	-3932.0
谢谢你的	-3933.0
程序员	-3934.0
大战	-3935.0
线性	-3936.0
传统文化	-3937.0
描述一下	-3938.0
秋季	-3939.0
来进行	-3940.0
ption	-3941.0
警察	-3942.0
一直在	-3943.0
错误的	-3944.0
综上	-3945.0
Er	-3946.0
星际	-3947.0
是非常	-3948.0
ific	-3949.0
众多	-3950.0
立即	-3951.0
胜地	-3952.0
cess	-3953.0
有氧运动	-3954.0
ual	-3955.0
挖掘	-3956.0
您可以考虑	-3957.0
球队	-3958.0
根铅笔	-3959.0
类似于	-3960.0
高效的	-3961.0
深处	-3962.0
不良	-3963.0
的主要观点	-3964.0
你是	-3965.0
制度	-3966.0
水果和	-3967.0
宝宝	-3968.0
排名	-3969.0
需要进行	-3970.0
人工智能可以	-3971.0
▁following	-3972.0
mod	-3973.0
花香	-3974.0
苹果公司	-3975.0
运动员	-3976.0
旅游目的地	-3977.0
:$	-3978.0
input	-3979.0
essage	-3980.0
战斗	-3981.0
aut	-3982.0
小明现在	-3983.0
悠久	-3984.0
这样可以	-3985.0
但它	-3986.0
代替	-3987.0
加热	-3988.0
的力量	-3989.0
一个新的	-3990.0
生活中的	-3991.0
坚果	-3992.0
简化	-3993.0
该公司	-3994.0
备受	-3995.0
ml	-3996.0
这位	-3997.0
的功能	-3998.0
result	-3999.0
五言	-4000.0
颗糖	-4001.0
人工智能的应用	-4002.0
是因为	-4003.0
尽快	-4004.0
沉浸	-4005.0
疾病的	-4006.0
)```	-4007.0
优雅	-4008.0
宝藏	-4009.0
小型	-4010.0
协助	-4011.0
简介	-4012.0
等多种	-4013.0
ee	-4014.0
Tom	-4015.0
存在的	-4016.0
人类活动	-4017.0
上面的问题	-4018.0
越来越多的	-4019.0
能够在	-4020.0
帝国	-4021.0
强化	-4022.0
癌症	-4023.0
盐和	-4024.0
需要我	-4025.0
文学作品	-4026.0
自然环境	-4027.0
問題	-4028.0
更大的	-4029.0
北京市	-4030.0
这个故事	-4031.0
早晨	-4032.0
基本的	-4033.0
ok	-4034.0
ght	-4035.0
最著名的	-4036.0
AB	-4037.0
强的	-4038.0
身边	-4039.0
陌生	-4040.0
成功地	-4041.0
nglish	-4042.0
▁range	-4043.0
指示	-4044.0
而不	-4045.0
数字化	-4046.0
和经济	-4047.0
▁test	-4048.0
睡觉	-4049.0
▁one	-4050.0
搅拌均匀	-4051.0
▁tr	-4052.0
治疗方案	-4053.0
▁Q	-4054.0
办公室	-4055.0
即将	-4056.0
语义	-4057.0
过的	-4058.0
assert	-4059.0
逗号	-4060.0
也能	-4061.0
牛仔	-4062.0
别人	-4063.0
tr	-4064.0
并使用	-4065.0
indow	-4066.0
進行	-4067.0
恐龙	-4068.0
科技发展	-4069.0
周期	-4070.0
您可以使用	-4071.0
强大	-4072.0
水分	-4073.0
问题或	-4074.0
婚礼	-4075.0
空中	-4076.0
面试	-4077.0
然后将	-4078.0
▁How	-4079.0
热爱	-4080.0
财富	-4081.0
瞬间	-4082.0
奶油	-4083.0
李明	-4084.0
SQL	-4085.0
但在	-4086.0
reate	-4087.0
跟踪	-4088.0
强度	-4089.0
乘法	-4090.0
相遇	-4091.0
联盟	-4092.0
鞋子	-4093.0
后果	-4094.0
给予	-4095.0
成熟	-4096.0
的高	-4097.0
番茄酱	-4098.0
▁请根据	-4099.0
给我提供一些	-4100.0
颜色的	-4101.0
伟大的	-4102.0
物流	-4103.0
的狗	-4104.0
兴趣爱好	-4105.0
春节	-4106.0
演奏	-4107.0
和目标	-4108.0
先生	-4109.0
有意义	-4110.0
命运	-4111.0
尺寸	-4112.0
own	-4113.0
▁It	-4114.0
非常喜欢	-4115.0
英尺	-4116.0
ull	-4117.0
原句	-4118.0
而异	-4119.0
香港	-4120.0
ient	-4121.0
监控	-4122.0
ings	-4123.0
痛苦	-4124.0
你能否	-4125.0
在那里	-4126.0
以帮助	-4127.0
动画	-4128.0
受伤	-4129.0
▁ro	-4130.0
ST	-4131.0
▁.	-4132.0
该怎么	-4133.0
▁time	-4134.0
的天气预报	-4135.0
ystem	-4136.0
son	-4137.0
给人	-4138.0
几年	-4139.0
尊敬	-4140.0
焦虑和	-4141.0
我们可以通过	-4142.0
房屋	-4143.0
高的山峰	-4144.0
▁list	-4145.0
过于	-4146.0
做起	-4147.0
誉为	-4148.0
领域的应用	-4149.0
让我来	-4150.0
▁te	-4151.0
平静	-4152.0
克斯	-4153.0
地名	-4154.0
来到	-4155.0
问题和	-4156.0
明月	-4157.0
姿势	-4158.0
导致了	-4159.0
是一款	-4160.0
▁day	-4161.0
的文化	-4162.0
作业	-4163.0
拍摄	-4164.0
!"	-4165.0
▁z	-4166.0
启发	-4167.0
led	-4168.0
仔细	-4169.0
姆斯	-4170.0
比亚	-4171.0
ict	-4172.0
出处	-4173.0
理想	-4174.0
▁es	-4175.0
技術	-4176.0
多云	-4177.0
乘坐	-4178.0
服务员	-4179.0
附近的	-4180.0
▁get	-4181.0
保暖	-4182.0
建造	-4183.0
母亲	-4184.0
文章内容	-4185.0
);	-4186.0
明治	-4187.0
建立一个	-4188.0
以下几个方面	-4189.0
改变了	-4190.0
提供帮助	-4191.0
担任	-4192.0
途径	-4193.0
很快	-4194.0
并解释	-4195.0
具体来说	-4196.0
在这个句子中	-4197.0
了什么	-4198.0
它们之间的	-4199.0
自然风光	-4200.0
这是一种	-4201.0
特别的	-4202.0
补充	-4203.0
▁生成一段	-4204.0
深深	-4205.0
月亮	-4206.0
沙漠	-4207.0
做什么	-4208.0
旅途	-4209.0
也可能	-4210.0
▁want	-4211.0
▁Please	-4212.0
第一次	-4213.0
{\	-4214.0
pan	-4215.0
”,“	-4216.0
受到了	-4217.0
句子中的	-4218.0
ponse	-4219.0
中华	-4220.0
很难	-4221.0
那么他	-4222.0
['	-4223.0
和我	-4224.0
引导	-4225.0
的代表	-4226.0
Wh	-4227.0
提供的文本	-4228.0
变得越来越	-4229.0
大熊猫	-4230.0
需要在	-4231.0
升高	-4232.0
面条	-4233.0
它们在	-4234.0
毫升	-4235.0
爱情的	-4236.0
▁。	-4237.0
test	-4238.0
带来更多的	-4239.0
是非常重要的	-4240.0
他們	-4241.0
废弃	-4242.0
较为	-4243.0
综上所述	-4244.0
化石	-4245.0
本质	-4246.0
eng	-4247.0
▁cat	-4248.0
教育和	-4249.0
是世界上最	-4250.0
居住	-4251.0
▁You	-4252.0
和对	-4253.0
订单	-4254.0
小明还剩下	-4255.0
传输	-4256.0
全部	-4257.0
打算	-4258.0
▁transl	-4259.0
It	-4260.0
co	-4261.0
▁一个	-4262.0
世界杯	-4263.0
造成了	-4264.0
远处	-4265.0
这份	-4266.0
总体	-4267.0
请为我	-4268.0
▁what	-4269.0
arg	-4270.0
vent	-4271.0
ML	-4272.0
争议	-4273.0
文艺	-4274.0
的睡眠	-4275.0
熟悉	-4276.0
燕麦	-4277.0
▁>	-4278.0
很大	-4279.0
sum	-4280.0
主演	-4281.0
小镇	-4282.0
中找到	-4283.0
的例子	-4284.0
quest	-4285.0
如果您有	-4286.0
刚刚	-4287.0
奇怪	-4288.0
iss	-4289.0
ates	-4290.0
优美	-4291.0
▁打开	-4292.0
Ar	-4293.0
面团	-4294.0
初学者	-4295.0
▁%	-4296.0
浏览	-4297.0
聊聊	-4298.0
也是一个	-4299.0
原始文本	-4300.0
动态	-4301.0
▁为给定的	-4302.0
($	-4303.0
不应该	-4304.0
让计算机	-4305.0
这是一部	-4306.0
三明治	-4307.0
写的	-4308.0
消失	-4309.0
米饭	-4310.0
案件	-4311.0
草原	-4312.0
来帮助	-4313.0
湖泊	-4314.0
和使用	-4315.0
▁以	-4316.0
折扣	-4317.0
汉堡	-4318.0
经理	-4319.0
这个词	-4320.0
可以帮助医生	-4321.0
▁根据以下文本	-4322.0
今天的天气	-4323.0
防晒	-4324.0
表示为	-4325.0
命名	-4326.0
请问您需要	-4327.0
如果您想	-4328.0
旅游的	-4329.0
表述	-4330.0
露营	-4331.0
add	-4332.0
ock	-4333.0
碳排放	-4334.0
呈现出	-4335.0
和学习	-4336.0
上午	-4337.0
王星	-4338.0
资源的	-4339.0
清晨	-4340.0
这首歌	-4341.0
待遇	-4342.0
惊喜	-4343.0
渠道	-4344.0
马拉	-4345.0
read	-4346.0
传说	-4347.0
柔和	-4348.0
转换成	-4349.0
▁any	-4350.0
treturn	-4351.0
难题	-4352.0
很不错	-4353.0
的健康	-4354.0
人和	-4355.0
显得	-4356.0
被誉为	-4357.0
父亲	-4358.0
香气	-4359.0
奥运会	-4360.0
这段话	-4361.0
乐器	-4362.0
形态	-4363.0
花了	-4364.0
人们可以	-4365.0
不得	-4366.0
需要帮助	-4367.0
危害	-4368.0
ans	-4369.0
李白	-4370.0
全新的	-4371.0
▁将给定的	-4372.0
形式的	-4373.0
你也可以	-4374.0
选择一个	-4375.0
航班	-4376.0
为人类	-4377.0
的最佳	-4378.0
做的	-4379.0
这场	-4380.0
追逐	-4381.0
体积	-4382.0
血压	-4383.0
完成任务	-4384.0
照顾	-4385.0
纪念	-4386.0
三角形的	-4387.0
大于	-4388.0
贵的	-4389.0
祝福	-4390.0
▁pe	-4391.0
的速度	-4392.0
结构和	-4393.0
短故事	-4394.0
NN	-4395.0
以上是	-4396.0
果汁	-4397.0
或缺	-4398.0
石头	-4399.0
调料	-4400.0
越来越多	-4401.0
西红	-4402.0
圆形	-4403.0
工作的	-4404.0
意外	-4405.0
指数	-4406.0
▁加入	-4407.0
西红柿	-4408.0
采取措施	-4409.0
llo	-4410.0
去年	-4411.0
),\	-4412.0
李四	-4413.0
需要我们	-4414.0
全国	-4415.0
善良	-4416.0
一致	-4417.0
属性	-4418.0
旋转	-4419.0
来了	-4420.0
宇宙的	-4421.0
未来的发展	-4422.0
在这种	-4423.0
比萨	-4424.0
ern	-4425.0
人工智能将	-4426.0
拓展	-4427.0
▁add	-4428.0
科技创新	-4429.0
和健康	-4430.0
的所有	-4431.0
Al	-4432.0
ose	-4433.0
让他们	-4434.0
比特	-4435.0
激烈	-4436.0
温室气体排放	-4437.0
敏捷的棕色狐狸跳过	-4438.0
我们必须	-4439.0
▁X	-4440.0
的人物	-4441.0
推进	-4442.0
通过对	-4443.0
干净	-4444.0
简历	-4445.0
细腻	-4446.0
菲尔	-4447.0
准备好	-4448.0
让您	-4449.0
DNA	-4450.0
投资者	-4451.0
以下是我为您	-4452.0
lock	-4453.0
快速发展	-4454.0
▁主题	-4455.0
需要将	-4456.0
机票	-4457.0
限于	-4458.0
沙滩上	-4459.0
衬衫	-4460.0
标注	-4461.0
追溯	-4462.0
我将为您	-4463.0
让它	-4464.0
▁play	-4465.0
并返回	-4466.0
col	-4467.0
重要的作用	-4468.0
anguage	-4469.0
RO	-4470.0
白云	-4471.0
的钱	-4472.0
密度	-4473.0
恐惧	-4474.0
数百	-4475.0
(:	-4476.0
夏威	-4477.0
枫叶	-4478.0
夏威夷	-4479.0
思考和	-4480.0
拯救	-4481.0
病人	-4482.0
受众	-4483.0
矛盾	-4484.0
翻炒	-4485.0
成语出处	-4486.0
frac	-4487.0
干扰	-4488.0
铁塔	-4489.0
害怕	-4490.0
另一种	-4491.0
▁_	-4492.0
蔬菜和	-4493.0
间的	-4494.0
头脑风暴	-4495.0
传感	-4496.0
如果我们	-4497.0
(&	-4498.0
艺术品	-4499.0
你知道	-4500.0
填写	-4501.0
▁问题	-4502.0
相似度	-4503.0
storm	-4504.0
近期	-4505.0
SE	-4506.0
ts	-4507.0
独自	-4508.0
非常好的	-4509.0
当我	-4510.0
人们在	-4511.0
ah	-4512.0
way	-4513.0
房子	-4514.0
银河	-4515.0
人们对	-4516.0
人工智能的文章	-4517.0
有用	-4518.0
最受欢迎的	-4519.0
[:	-4520.0
品牌的	-4521.0
黄瓜	-4522.0
▁}\	-4523.0
和他的	-4524.0
记住	-4525.0
通常在	-4526.0
放置	-4527.0
这两	-4528.0
tem	-4529.0
机器学习和	-4530.0
帮忙	-4531.0
您想	-4532.0
栖息	-4533.0
鱼类	-4534.0
的代码	-4535.0
▁从以下	-4536.0
从文章中提取	-4537.0
的前	-4538.0
中国古代	-4539.0
探测	-4540.0
ven	-4541.0
意思是	-4542.0
不可或缺	-4543.0
监督学习	-4544.0
not	-4545.0
其中一个	-4546.0
可以分到	-4547.0
为主题	-4548.0
翻译成西班牙语	-4549.0
失业	-4550.0
进行排序	-4551.0
清洗	-4552.0
用水	-4553.0
简洁明了	-4554.0
让我们一起	-4555.0
选择合适的	-4556.0
小块	-4557.0
奇幻	-4558.0
一些人	-4559.0
城堡	-4560.0
渐渐	-4561.0
的主要内容	-4562.0
jour	-4563.0
美国总统	-4564.0
激情	-4565.0
减轻压力	-4566.0
eter	-4567.0
lect	-4568.0
木星	-4569.0
清楚	-4570.0
少数	-4571.0
出现在	-4572.0
but	-4573.0
▁some	-4574.0
丽的	-4575.0
发表	-4576.0
已成为	-4577.0
CO	-4578.0
大大	-4579.0
已经在	-4580.0
他把	-4581.0
奖励	-4582.0
遗传	-4583.0
Error	-4584.0
超越	-4585.0
吃的	-4586.0
times	-4587.0
太棒	-4588.0
蜂蜜	-4589.0
性问题	-4590.0
和人	-4591.0
思路	-4592.0
user	-4593.0
这些技术	-4594.0
较低	-4595.0
压力和焦虑	-4596.0
不少	-4597.0
过滤	-4598.0
的同时	-4599.0
inese	-4600.0
合成	-4601.0
itt	-4602.0
有多	-4603.0
rainstorm	-4604.0
酸奶	-4605.0
引起的	-4606.0
数量为	-4607.0
葡萄酒	-4608.0
情感分类	-4609.0
太棒了	-4610.0
unction	-4611.0
家里	-4612.0
ems	-4613.0
素质	-4614.0
▁最后	-4615.0
▁在给定的	-4616.0
对您有所帮助	-4617.0
绽放	-4618.0
和创新	-4619.0
}{	-4620.0
保持良好的	-4621.0
现场	-4622.0
较高	-4623.0
▁根据提供的	-4624.0
博客	-4625.0
各自	-4626.0
鲸鱼	-4627.0
▁quest	-4628.0
▁work	-4629.0
最重要的是	-4630.0
ru	-4631.0
工艺	-4632.0
以获取	-4633.0
中使用	-4634.0
减少对	-4635.0
能够帮助	-4636.0
抽象	-4637.0
地铁	-4638.0
人际关系	-4639.0
西兰	-4640.0
之情	-4641.0
线上	-4642.0
APP	-4643.0
bject	-4644.0
af	-4645.0
军事	-4646.0
经验和	-4647.0
一座	-4648.0
阿里	-4649.0
你喜欢	-4650.0
它将	-4651.0
传感器	-4652.0
的领域	-4653.0
共同努力	-4654.0
在我	-4655.0
根据题目	-4656.0
▁please	-4657.0
购物清单	-4658.0
加剧	-4659.0
这句	-4660.0
为我们	-4661.0
您希望	-4662.0
人工智能是一种	-4663.0
整理	-4664.0
绿色的	-4665.0
的作用	-4666.0
提供更好的	-4667.0
▁English	-4668.0
创造出	-4669.0
四季	-4670.0
▁红	-4671.0
的步骤	-4672.0
同时也可以	-4673.0
逐步	-4674.0
NL	-4675.0
筛选	-4676.0
配置	-4677.0
电子商务	-4678.0
如今	-4679.0
塑料袋	-4680.0
暗示	-4681.0
提问	-4682.0
新闻文章	-4683.0
AN	-4684.0
AT	-4685.0
。""	-4686.0
好朋友	-4687.0
行程	-4688.0
▁class	-4689.0
早期	-4690.0
用了	-4691.0
ank	-4692.0
回答这个问题	-4693.0
方的	-4694.0
推荐一本	-4695.0
跳跃	-4696.0
透气	-4697.0
ations	-4698.0
求出	-4699.0
女子	-4700.0
泄露	-4701.0
游览	-4702.0
等信息	-4703.0
以避免	-4704.0
的特征	-4705.0
一段文字	-4706.0
可能会对	-4707.0
可以帮助人们	-4708.0
這個	-4709.0
没有任何	-4710.0
”(	-4711.0
一次性	-4712.0
健身房	-4713.0
的主旨	-4714.0
科技的发展	-4715.0
gh	-4716.0
图形	-4717.0
星空	-4718.0
美洲	-4719.0
绝对	-4720.0
新闻标题	-4721.0
?\	-4722.0
IN	-4723.0
平方米	-4724.0
而闻名	-4725.0
me	-4726.0
罗斯	-4727.0
更高	-4728.0
和道德	-4729.0
有时候	-4730.0
我们可以将	-4731.0
▁true	-4732.0
这个人	-4733.0
▁into	-4734.0
我今天	-4735.0
和需求	-4736.0
请输入	-4737.0
硬币	-4738.0
硬件	-4739.0
血管	-4740.0
▁阅读	-4741.0
进制	-4742.0
的氛围	-4743.0
在公园里	-4744.0
科学家们	-4745.0
提供更多的	-4746.0
凉爽	-4747.0
指定的	-4748.0
data	-4749.0
我想了解一下	-4750.0
减缓	-4751.0
▁would	-4752.0
可视	-4753.0
连续	-4754.0
ify	-4755.0
▁code	-4756.0
更正	-4757.0
》:	-4758.0
冬天	-4759.0
和资源	-4760.0
直径	-4761.0
文本内容	-4762.0
不到	-4763.0
展现了	-4764.0
▁book	-4765.0
天体	-4766.0
减少使用	-4767.0
老虎	-4768.0
而成	-4769.0
饮品	-4770.0
不同类型的	-4771.0
减压	-4772.0
产生的	-4773.0
我是一个	-4774.0
升级	-4775.0
撒上	-4776.0
精致	-4777.0
澳大利	-4778.0
演唱	-4779.0
营造	-4780.0
新款	-4781.0
海岸	-4782.0
街道	-4783.0
文本进行	-4784.0
相互作用	-4785.0
寂静	-4786.0
运营	-4787.0
▁know	-4788.0
不够	-4789.0
客户的	-4790.0
的大小	-4791.0
加工	-4792.0
大海	-4793.0
奥斯	-4794.0
星系	-4795.0
职场	-4796.0
有不同的	-4797.0
这篇文章中	-4798.0
正传	-4799.0
陈述句	-4800.0
并确保	-4801.0
的场景	-4802.0
BA	-4803.0
Web	-4804.0
支出	-4805.0
性别歧视	-4806.0
mer	-4807.0
涵盖了	-4808.0
减肥	-4809.0
您的问题	-4810.0
▁编写一个	-4811.0
备用	-4812.0
广场	-4813.0
页面	-4814.0
ense	-4815.0
片刻	-4816.0
男士	-4817.0
▁让	-4818.0
ault	-4819.0
劳动	-4820.0
机械	-4821.0
▁mo	-4822.0
建筑物	-4823.0
考虑到	-4824.0
个体	-4825.0
名的	-4826.0
的味道	-4827.0
的答案是	-4828.0
科技公司	-4829.0
在此	-4830.0
uild	-4831.0
澳大利亚	-4832.0
▁烤	-4833.0
mand	-4834.0
极端天气	-4835.0
quire	-4836.0
解决这个问题	-4837.0
有了	-4838.0
的平方	-4839.0
煮熟	-4840.0
节省	-4841.0
给我们	-4842.0
▁here	-4843.0
Com	-4844.0
优先级	-4845.0
去公园	-4846.0
提供更加	-4847.0
完整的	-4848.0
操作系统	-4849.0
创始	-4850.0
英里	-4851.0
▁提供一个	-4852.0
电影名称	-4853.0
至关重要	-4854.0
从中	-4855.0
摇滚	-4856.0
烧烤	-4857.0
边长	-4858.0
锻炼身体	-4859.0
承受	-4860.0
ren	-4861.0
太阳的	-4862.0
erson	-4863.0
看着	-4864.0
xx	-4865.0
阐述	-4866.0
前的	-4867.0
一共有多少	-4868.0
▁et	-4869.0
在全球	-4870.0
喜悦	-4871.0
节点	-4872.0
英寸	-4873.0
和个人	-4874.0
成为一个	-4875.0
人们的生活	-4876.0
但也	-4877.0
否则	-4878.0
承担	-4879.0
特殊的	-4880.0
巴厘	-4881.0
拂面	-4882.0
向我	-4883.0
撰写	-4884.0
花开	-4885.0
ertain	-4886.0
sw	-4887.0
草地上	-4888.0
。”“	-4889.0
易于理解	-4890.0
ife	-4891.0
无尽的	-4892.0
难忘的	-4893.0
".	-4894.0
人都	-4895.0
橙色	-4896.0
的吗	-4897.0
▁文章	-4898.0
▁通过	-4899.0
从小到	-4900.0
编码	-4901.0
之一是	-4902.0
是个	-4903.0
最大值	-4904.0
的效果	-4905.0
对话内容	-4906.0
冰川	-4907.0
ebook	-4908.0
这家餐厅	-4909.0
您可以选择	-4910.0
请用	-4911.0
尊敬的	-4912.0
零食	-4913.0
▁pre	-4914.0
生态环境	-4915.0
有两个	-4916.0
识别出	-4917.0
人群	-4918.0
是一年	-4919.0
清澈	-4920.0
福利	-4921.0
需要的	-4922.0
表达方式	-4923.0
ethod	-4924.0
金黄	-4925.0
技术来	-4926.0
▁per	-4927.0
海拔	-4928.0
你能给我	-4929.0
如果您有任何	-4930.0
好奇	-4931.0
花儿	-4932.0
后的句子	-4933.0
需要更多的	-4934.0
erv	-4935.0
保持健康的	-4936.0
对应的	-4937.0
波动	-4938.0
做一些	-4939.0
value	-4940.0
你可以考虑	-4941.0
每份	-4942.0
集合	-4943.0
和处理	-4944.0
更深入	-4945.0
到来	-4946.0
min	-4947.0
小组	-4948.0
幅画	-4949.0
几个糖果	-4950.0
失望	-4951.0
拥堵	-4952.0
收获	-4953.0
新冠	-4954.0
对社会	-4955.0
现状	-4956.0
这么	-4957.0
难度	-4958.0
马尔	-4959.0
准确性和	-4960.0
如何使用	-4961.0
的核心	-4962.0
答案为	-4963.0
izza	-4964.0
▁John	-4965.0
住宿	-4966.0
自然界	-4967.0
▁det	-4968.0
接收	-4969.0
英文单词	-4970.0
好友	-4971.0
亿美元	-4972.0
pr	-4973.0
多次	-4974.0
主要观点	-4975.0
宽松	-4976.0
要点	-4977.0
增添	-4978.0
繁荣	-4979.0
date	-4980.0
阿甘正传	-4981.0
朋友们	-4982.0
▁This	-4983.0
ux	-4984.0
盖茨	-4985.0
闪烁	-4986.0
小说的	-4987.0
一个关于	-4988.0
')	-4989.0
irect	-4990.0
ON	-4991.0
一周	-4992.0
分散	-4993.0
吃掉	-4994.0
提高了	-4995.0
山区	-4996.0
人生的	-4997.0
帮我想一些	-4998.0
医学影像	-4999.0
ier	-5000.0
学习新	-5001.0
wo	-5002.0
揭示	-5003.0
理由	-5004.0
roup	-5005.0
外部	-5006.0
点击	-5007.0
糖尿	-5008.0
青春	-5009.0
保持健康	-5010.0
提高自己的	-5011.0
回报	-5012.0
总和	-5013.0
玉米	-5014.0
按字母顺序	-5015.0
响应	-5016.0
隐藏	-5017.0
关注和	-5018.0
▁Can	-5019.0
▁eat	-5020.0
其实	-5021.0
高速	-5022.0
和环境	-5023.0
引起了	-5024.0
是为了	-5025.0
定理	-5026.0
▁pr	-5027.0
巴厘岛	-5028.0
Cl	-5029.0
轨道	-5030.0
拒绝	-5031.0
糖尿病	-5032.0
夕阳	-5033.0
▁happy	-5034.0
乔治	-5035.0
或不	-5036.0
发生在	-5037.0
强烈的	-5038.0
科幻电影	-5039.0
适宜	-5040.0
一个人的	-5041.0
起了	-5042.0
我听说	-5043.0
后来	-5044.0
碳水	-5045.0
by	-5046.0
制造业	-5047.0
▁Chinese	-5048.0
友情	-5049.0
跟我	-5050.0
队伍	-5051.0
来表达	-5052.0
的游戏	-5053.0
保存	-5054.0
▁与	-5055.0
懒狗	-5056.0
并根据	-5057.0
▁else	-5058.0
那只	-5059.0
进程	-5060.0
营销策略	-5061.0
碳水化合物	-5062.0
高温	-5063.0
信息的	-5064.0
▁read	-5065.0
黄油	-5066.0
没有提供	-5067.0
這些	-5068.0
和放松	-5069.0
下去	-5070.0
影響	-5071.0
午餐	-5072.0
型的	-5073.0
小李	-5074.0
可以使	-5075.0
不变	-5076.0
等方面的	-5077.0
还有一些	-5078.0
发生的	-5079.0
we	-5080.0
yp	-5081.0
也应该	-5082.0
美食和	-5083.0
敏感	-5084.0
CE	-5085.0
惊叹	-5086.0
ms	-5087.0
▁她	-5088.0
抑郁	-5089.0
耐心	-5090.0
发电	-5091.0
黑胡椒	-5092.0
的运动	-5093.0
就业机会	-5094.0
its	-5095.0
ased	-5096.0
不断进步	-5097.0
之和	-5098.0
qual	-5099.0
的意思是	-5100.0
志愿	-5101.0
融入	-5102.0
error	-5103.0
随着技术的	-5104.0
ble	-5105.0
灯光	-5106.0
tps	-5107.0
空气中	-5108.0
毕业	-5109.0
技术在	-5110.0
tpub	-5111.0
摄影	-5112.0
相对论	-5113.0
riend	-5114.0
总共有	-5115.0
方法来	-5116.0
算法和	-5117.0
的长度	-5118.0
还有很多	-5119.0
以便我	-5120.0
可乐	-5121.0
或服务	-5122.0
--------	-5123.0
My	-5124.0
点子	-5125.0
黄金	-5126.0
的定义	-5127.0
危机	-5128.0
▁输出	-5129.0
叶子	-5130.0
战略	-5131.0
抽取	-5132.0
或者是	-5133.0
▁不	-5134.0
我也	-5135.0
建議	-5136.0
和组织	-5137.0
是正确的	-5138.0
窗户	-5139.0
pen	-5140.0
XXX	-5141.0
最初	-5142.0
道德和	-5143.0
https	-5144.0
公斤	-5145.0
头发	-5146.0
教程	-5147.0
绿树	-5148.0
我现在	-5149.0
寿司	-5150.0
技巧和	-5151.0
百年	-5152.0
下周	-5153.0
分别为	-5154.0
irst	-5155.0
提高生产	-5156.0
加拿	-5157.0
诗吧	-5158.0
计算机程序	-5159.0
其他人	-5160.0
可读	-5161.0
您在	-5162.0
的好处	-5163.0
草地	-5164.0
生物学	-5165.0
户外运动	-5166.0
美国的	-5167.0
能分到	-5168.0
岗位	-5169.0
---	-5170.0
空气污染	-5171.0
山水	-5172.0
权益	-5173.0
()\	-5174.0
▁重写	-5175.0
▁生成一个关于夏天的	-5176.0
可口	-5177.0
携带	-5178.0
代谢	-5179.0
认可	-5180.0
疑问句	-5181.0
中间	-5182.0
公元	-5183.0
还要	-5184.0
ari	-5185.0
将这些	-5186.0
▁World	-5187.0
穿过	-5188.0
徒步旅行	-5189.0
机器人的	-5190.0
几何	-5191.0
研究人员	-5192.0
▁为以下	-5193.0
思绪	-5194.0
千克	-5195.0
围绕	-5196.0
▁fe	-5197.0
喜欢在	-5198.0
谨慎	-5199.0
来解决这个问题	-5200.0
小王	-5201.0
汉字	-5202.0
渴望	-5203.0
line	-5204.0
气氛	-5205.0
这也	-5206.0
昆虫	-5207.0
春风	-5208.0
智能化的	-5209.0
▁给定两个	-5210.0
失落	-5211.0
改革	-5212.0
生活在	-5213.0
的未来	-5214.0
rent	-5215.0
几点	-5216.0
故宫	-5217.0
▁输入	-5218.0
企鹅	-5219.0
完美的	-5220.0
作为一名	-5221.0
被广泛应用于	-5222.0
每组	-5223.0
改正	-5224.0
泰国	-5225.0
清爽	-5226.0
type	-5227.0
She	-5228.0
安全的	-5229.0
尊重和	-5230.0
金黄色	-5231.0
此时	-5232.0
▁利用	-5233.0
▁句子	-5234.0
环境中	-5235.0
不好	-5236.0
密的	-5237.0
que	-5238.0
▁result	-5239.0
更换	-5240.0
音频	-5241.0
▁\(	-5242.0
减少污染	-5243.0
一般来说	-5244.0
▁spec	-5245.0
照耀	-5246.0
率和	-5247.0
你可以在	-5248.0
都非常	-5249.0
给定文本	-5250.0
而在	-5251.0
分到的	-5252.0
是一个非常	-5253.0
鲜花	-5254.0
赢得了	-5255.0
停止	-5256.0
和决策	-5257.0
》-	-5258.0
界面	-5259.0
需要根据	-5260.0
前进	-5261.0
武器	-5262.0
启示	-5263.0
唱歌	-5264.0
谈论	-5265.0
矿物质	-5266.0
IM	-5267.0
与人类	-5268.0
明显的	-5269.0
请给出	-5270.0
Le	-5271.0
ger	-5272.0
您对	-5273.0
▁which	-5274.0
ude	-5275.0
给我想	-5276.0
Je	-5277.0
以免	-5278.0
优美的	-5279.0
▁请帮我	-5280.0
说法	-5281.0
url	-5282.0
展示了	-5283.0
▁lear	-5284.0
下载	-5285.0
的想法	-5286.0
您也可以	-5287.0
流浪	-5288.0
周围的	-5289.0
爱情故事	-5290.0
暴力	-5291.0
辐射	-5292.0
的衣服	-5293.0
您还可以	-5294.0
感恩	-5295.0
时间管理	-5296.0
登山	-5297.0
烤箱中	-5298.0
都有着	-5299.0
详细回答	-5300.0
视野	-5301.0
▁set	-5302.0
重要作用	-5303.0
在这种情况下	-5304.0
人工智能可以通过	-5305.0
翅膀	-5306.0
引人入	-5307.0
文本分类	-5308.0
链接	-5309.0
▁Re	-5310.0
聊天机器人	-5311.0
可爱的	-5312.0
地球上	-5313.0
从而实现	-5314.0
▁apple	-5315.0
之作	-5316.0
型号	-5317.0
新兴	-5318.0
存在一些	-5319.0
的苹果	-5320.0
来确定	-5321.0
的服务	-5322.0
还会	-5323.0
人性	-5324.0
菲尔铁塔	-5325.0
!(	-5326.0
主动	-5327.0
</	-5328.0
音乐会	-5329.0
需要使用	-5330.0
向前	-5331.0
都很	-5332.0
我有一个	-5333.0
对你	-5334.0
加入一些	-5335.0
发现自己	-5336.0
▁从以下文本	-5337.0
月的	-5338.0
用餐	-5339.0
br	-5340.0
▁very	-5341.0
温暖的	-5342.0
更具	-5343.0
pos	-5344.0
杰克	-5345.0
但它们	-5346.0
尽情	-5347.0
昨晚	-5348.0
走进	-5349.0
了一场	-5350.0
数据隐私	-5351.0
灵魂	-5352.0
试着	-5353.0
我们要	-5354.0
▁file	-5355.0
墨西	-5356.0
李华	-5357.0
热带	-5358.0
兴趣和	-5359.0
▁dis	-5360.0
几乎	-5361.0
▁智能	-5362.0
墨西哥	-5363.0
ner	-5364.0
引人入胜	-5365.0
把这句话	-5366.0
顺序排列	-5367.0
哈哈	-5368.0
并通过	-5369.0
卷积	-5370.0
我喜欢在	-5371.0
去看	-5372.0
风雨	-5373.0
元素的	-5374.0
极大的	-5375.0
▁根据输入	-5376.0
保持身体健康	-5377.0
首次	-5378.0
和家人	-5379.0
你能不能	-5380.0
动机	-5381.0
预期	-5382.0
海滩上	-5383.0
算法的	-5384.0
▁use	-5385.0
小数	-5386.0
模拟人类智能	-5387.0
冷静	-5388.0
公司名称	-5389.0
湿度	-5390.0
PS	-5391.0
南京	-5392.0
懒惰	-5393.0
穿上	-5394.0
ina	-5395.0
ont	-5396.0
埃及	-5397.0
远离	-5398.0
机器学习是一种	-5399.0
促销	-5400.0
啤酒	-5401.0
开车	-5402.0
爸爸	-5403.0
时间内	-5404.0
研究和	-5405.0
公交	-5406.0
当代	-5407.0
角落	-5408.0
事件的	-5409.0
推荐的	-5410.0
现在请	-5411.0
生活质量	-5412.0
驱动	-5413.0
自然景观	-5414.0
结尾	-5415.0
量和	-5416.0
pre	-5417.0
本地	-5418.0
ribut	-5419.0
题意	-5420.0
日的	-5421.0
融化	-5422.0
▁col	-5423.0
专门	-5424.0
同一	-5425.0
咖啡馆	-5426.0
稳定性	-5427.0
中的一个	-5428.0
生成摘要	-5429.0
org	-5430.0
追溯到	-5431.0
欢快	-5432.0
可靠性	-5433.0
卓越	-5434.0
集成	-5435.0
▁个苹果	-5436.0
以后	-5437.0
right	-5438.0
和一	-5439.0
mut	-5440.0
并提高	-5441.0
客厅	-5442.0
写出	-5443.0
tre	-5444.0
可以减少	-5445.0
依然	-5446.0
▁写一篇介绍	-5447.0
关心	-5448.0
##	-5449.0
内存	-5450.0
展览	-5451.0
ike	-5452.0
Sh	-5453.0
清理	-5454.0
达成	-5455.0
mat	-5456.0
创始人	-5457.0
使计算机	-5458.0
以此	-5459.0
西亚	-5460.0
分隔	-5461.0
奔跑	-5462.0
好像	-5463.0
水上	-5464.0
HT	-5465.0
▁总	-5466.0
植物的	-5467.0
人间	-5468.0
家乡	-5469.0
清新的	-5470.0
座位	-5471.0
菜谱	-5472.0
歌曲的	-5473.0
文案生成	-5474.0
的重要组成部分	-5475.0
羽毛	-5476.0
老人	-5477.0
顺利	-5478.0
工作中	-5479.0
了一系列	-5480.0
包装	-5481.0
婴儿	-5482.0
感动	-5483.0
预热	-5484.0
各种各	-5485.0
是什么意思	-5486.0
世界中	-5487.0
alk	-5488.0
希望您	-5489.0
ET	-5490.0
GB	-5491.0
坚定	-5492.0
饮用	-5493.0
的距离	-5494.0
客人	-5495.0
故障	-5496.0
永恒	-5497.0
落在	-5498.0
设计和	-5499.0
fore	-5500.0
plic	-5501.0
明亮	-5502.0
老板	-5503.0
▁au	-5504.0
些什么	-5505.0
家和	-5506.0
免疫力	-5507.0
广泛应用于	-5508.0
流动	-5509.0
如果有	-5510.0
填空	-5511.0
我们会	-5512.0
gram	-5513.0
可能包括	-5514.0
智商	-5515.0
漂亮的	-5516.0
唐代	-5517.0
财产	-5518.0
香草	-5519.0
人工智能技术的发展	-5520.0
支撑	-5521.0
非常广泛	-5522.0
wh	-5523.0
小心	-5524.0
并对	-5525.0
ely	-5526.0
身上	-5527.0
本小说	-5528.0
To	-5529.0
网站上	-5530.0
识别和	-5531.0
电话号码	-5532.0
创新和	-5533.0
你可以使用	-5534.0
心理咨询	-5535.0
更多信息	-5536.0
环境和	-5537.0
ents	-5538.0
▁pos	-5539.0
从文章中提取出	-5540.0
火锅	-5541.0
线条	-5542.0
ars	-5543.0
File	-5544.0
网页	-5545.0
▁▁	-40000.0
奇妙	-5547.0
个单词	-5548.0
的表现	-5549.0
团队合作	-5550.0
:",	-5551.0
count	-5552.0
NLP	-5553.0
采用了	-5554.0
icro	-5555.0
如果你想要	-5556.0
物体的	-5557.0
儿子	-5558.0
担忧	-5559.0
警方	-5560.0
▁Sh	-5561.0
专业人士	-5562.0
手法	-5563.0
可用于	-5564.0
政府和	-5565.0
发音	-5566.0
无需	-5567.0
这三个	-5568.0
高质量的	-5569.0
挫折	-5570.0
漂亮	-5571.0
▁there	-5572.0
从事	-5573.0
杯子	-5574.0
病情	-5575.0
ator	-5576.0
duct	-5577.0
iven	-5578.0
Options	-5579.0
情人	-5580.0
感冒	-5581.0
故事的	-5582.0
我们在	-5583.0
▁将下列	-5584.0
通常用于	-5585.0
烤盘	-5586.0
百分	-5587.0
观念	-5588.0
您可以通过	-5589.0
sort	-5590.0
流水	-5591.0
一个小	-5592.0
孩子的	-5593.0
神经元	-5594.0
以下步骤	-5595.0
应用场景	-5596.0
冰箱	-5597.0
婚姻	-5598.0
想到	-5599.0
時間	-5600.0
蓝天	-5601.0
配合	-5602.0
不必要的	-5603.0
后的文本	-5604.0
▁stud	-5605.0
▁狗	-5606.0
修身	-5607.0
逃脱	-5608.0
客户服务	-5609.0
Res	-5610.0
导致的	-5611.0
新技术	-5612.0
发射	-5613.0
导航	-5614.0
口罩	-5615.0
并用	-5616.0
对未来	-5617.0
关联	-5618.0
只需要	-5619.0
▁Be	-5620.0
怎么说	-5621.0
应该如何	-5622.0
tassert	-5623.0
ray	-5624.0
▁let	-5625.0
一些有趣的	-5626.0
ertainly	-5627.0
办法	-5628.0
清风	-5629.0
灭绝	-5630.0
的最大	-5631.0
ames	-5632.0
分给他的	-5633.0
第四	-5634.0
请确保	-5635.0
呼吁	-5636.0
工资	-5637.0
救援	-5638.0
花卉	-5639.0
错别	-5640.0
是否会	-5641.0
ream	-5642.0
我建议您	-5643.0
="	-5644.0
rt	-5645.0
鸡胸	-5646.0
是一个充满	-5647.0
aw	-5648.0
修饰	-5649.0
经营	-5650.0
频繁	-5651.0
春季	-5652.0
经济发展	-5653.0
▁inter	-5654.0
BM	-5655.0
粒子	-5656.0
走向	-5657.0
增加了	-5658.0
慢慢地	-5659.0
两只	-5660.0
复仇	-5661.0
ied	-5662.0
▁He	-5663.0
最小值	-5664.0
indows	-5665.0
▁天	-5666.0
els	-5667.0
服务器	-5668.0
文献	-5669.0
质数	-5670.0
在使用	-5671.0
沮丧	-5672.0
oint	-5673.0
走在	-5674.0
男人	-5675.0
的学生	-5676.0
________	-5677.0
打破	-5678.0
▁und	-5679.0
讲述了一	-5680.0
笔记本电脑	-5681.0
▁请为我	-5682.0
如果您的	-5683.0
灾难	-5684.0
没问题	-5685.0
cont	-5686.0
▁根据所	-5687.0
urrent	-5688.0
可视化	-5689.0
充电	-5690.0
是基于	-5691.0
的不同	-5692.0
全麦	-5693.0
全球气候变化	-5694.0
二十	-5695.0
情景	-5696.0
遭受	-5697.0
▁string	-5698.0
总部	-5699.0
贝尔	-5700.0
的笑话	-5701.0
复古	-5702.0
爆发	-5703.0
跳舞	-5704.0
▁编写	-5705.0
或短语	-5706.0
年人	-5707.0
化石燃料	-5708.0
多吃	-5709.0
从前	-5710.0
假期	-5711.0
轻便	-5712.0
为用户	-5713.0
收到	-5714.0
▁does	-5715.0
交换	-5716.0
任意	-5717.0
语态	-5718.0
目标和	-5719.0
给出的	-5720.0
▁his	-5721.0
个字	-5722.0
探究	-5723.0
森林里	-5724.0
发生了	-5725.0
更喜欢	-5726.0
这就是	-5727.0
错别字	-5728.0
下面的问题	-5729.0
复制	-5730.0
order	-5731.0
教授	-5732.0
▁所以	-5733.0
否定	-5734.0
火山	-5735.0
ible	-5736.0
牛排	-5737.0
可以让你	-5738.0
反思	-5739.0
弥漫	-5740.0
描述一个	-5741.0
千米	-5742.0
人数为	-5743.0
work	-5744.0
依据	-5745.0
以及如何	-5746.0
并与	-5747.0
方法是	-5748.0
▁写一个	-5749.0
这部	-5750.0
飞翔	-5751.0
文本错误	-5752.0
愉快的	-5753.0
目标是	-5754.0
真好	-5755.0
爱好者	-5756.0
)=	-5757.0
kg	-5758.0
和海	-5759.0
的元素	-5760.0
法律法规	-5761.0
气球	-5762.0
爱你	-5763.0
矩阵	-5764.0
黑客	-5765.0
每个人都有	-5766.0
选项中选择	-5767.0
交往	-5768.0
节约能源	-5769.0
插入	-5770.0
發展	-5771.0
站在	-5772.0
以下文章	-5773.0
反对	-5774.0
公共交通	-5775.0
更多关于	-5776.0
药物研发	-5777.0
是否为	-5778.0
想象力	-5779.0
最高的	-5780.0
企业的	-5781.0
可以告诉我	-5782.0
▁列出	-5783.0
下面的句子	-5784.0
才华	-5785.0
电影院	-5786.0
量子计算	-5787.0
Certainly	-5788.0
行政	-5789.0
每个小朋友	-5790.0
fl	-5791.0
无穷	-5792.0
错过	-5793.0
变成了	-5794.0
plo	-5795.0
如果是	-5796.0
鸡胸肉	-5797.0
语言的	-5798.0
▁生成一句	-5799.0
下面的文本	-5800.0
擅长	-5801.0
时空	-5802.0
缓解压力	-5803.0
活力和	-5804.0
负担	-5805.0
它是一种	-5806.0
原本	-5807.0
损害	-5808.0
文本的	-5809.0
ov	-5810.0
ics	-5811.0
内心的	-5812.0
篇文章	-5813.0
什么类型的	-5814.0
信念	-5815.0
日落	-5816.0
ages	-5817.0
告诉我们	-5818.0
好看的电影	-5819.0
▁制定	-5820.0
这表明	-5821.0
无数	-5822.0
韩国	-5823.0
▁don	-5824.0
面向	-5825.0
ek	-5826.0
共和	-5827.0
无限的	-5828.0
分得	-5829.0
执导	-5830.0
个人信息	-5831.0
部的	-5832.0
传承	-5833.0
ails	-5834.0
慢跑	-5835.0
夏日的	-5836.0
面临的	-5837.0
许多领域	-5838.0
倾听	-5839.0
ally	-5840.0
语音助手	-5841.0
固定	-5842.0
空格	-5843.0
装备	-5844.0
▁生成一篇	-5845.0
空调	-5846.0
完成了	-5847.0
我最喜欢的	-5848.0
++	-5849.0
干燥	-5850.0
明星	-5851.0
尾巴	-5852.0
手工艺	-5853.0
睡眠质量	-5854.0
乘积	-5855.0
应当	-5856.0
oin	-5857.0
创作的	-5858.0
▁bet	-5859.0
糖分	-5860.0
动物的	-5861.0
▁找到	-5862.0
DI	-5863.0
长方	-5864.0
可以实现	-5865.0
Apple	-5866.0
干旱	-5867.0
风味	-5868.0
的人名	-5869.0
沿着	-5870.0
爆炸	-5871.0
请您	-5872.0
ily	-5873.0
吸引了	-5874.0
它们是	-5875.0
▁按照	-5876.0
JavaScript	-5877.0
可持续性	-5878.0
我去	-5879.0
相应	-5880.0
闪耀	-5881.0
市场的	-5882.0
竞争力	-5883.0
禁止	-5884.0
可以追溯到	-5885.0
俄罗斯	-5886.0
帮助人们	-5887.0
分割	-5888.0
气质	-5889.0
马克	-5890.0
att	-5891.0
有趣的故事	-5892.0
风格和	-5893.0
寻求帮助	-5894.0
更好地管理	-5895.0
不停	-5896.0
各国	-5897.0
装修	-5898.0
重力	-5899.0
生理	-5900.0
进化	-5901.0
以获得	-5902.0
生物多样性	-5903.0
您可以根据自己的	-5904.0
尤其是在	-5905.0
电子产品	-5906.0
rit	-5907.0
文化遗产	-5908.0
这件	-5909.0
重要性	-5910.0
ai	-5911.0
含量	-5912.0
灿烂	-5913.0
餐具	-5914.0
▁针对	-5915.0
流行音乐	-5916.0
一颗	-5917.0
生的	-5918.0
火灾	-5919.0
香味	-5920.0
怎样的	-5921.0
让自己	-5922.0
世界上最高的山峰	-5923.0
在这个季节	-5924.0
华为	-5925.0
www	-5926.0
一段话	-5927.0
ater	-5928.0
也没有	-5929.0
rainstorming	-5930.0
困境	-5931.0
▁中国	-5932.0
告诉你	-5933.0
平等和	-5934.0
阿尔	-5935.0
满意度	-5936.0
猫的	-5937.0
hello	-5938.0
注册	-5939.0
洪水	-5940.0
点的	-5941.0
浪漫的	-5942.0
RE	-5943.0
不懈	-5944.0
大部分	-5945.0
有几个	-5946.0
平均数	-5947.0
垃圾邮件	-5948.0
容量	-5949.0
那我	-5950.0
yn	-5951.0
感叹	-5952.0
起床	-5953.0
走过	-5954.0
牛仔裤	-5955.0
▁New	-5956.0
生成一份	-5957.0
村庄	-5958.0
该电影	-5959.0
都应该	-5960.0
其中一些	-5961.0
▁它	-5962.0
也要	-5963.0
吃饭	-5964.0
地面	-5965.0
▁选择	-5966.0
国家的	-5967.0
的经典	-5968.0
量子计算机	-5969.0
是一只	-5970.0
们的	-5971.0
客气	-5972.0
什么是人工智能	-5973.0
oud	-5974.0
交流和	-5975.0
行业的	-5976.0
上文	-5977.0
式的	-5978.0
教练	-5979.0
紫色	-5980.0
mon	-5981.0
心脏病	-5982.0
教堂	-5983.0
感受到了	-5984.0
智能手表	-5985.0
umn	-5986.0
第三个	-5987.0
闰年	-5988.0
了一种	-5989.0
放松和	-5990.0
生成器	-5991.0
ature	-5992.0
acebook	-5993.0
女神	-5994.0
手中	-5995.0
更是	-5996.0
我昨天	-5997.0
网络安全	-5998.0
贫困	-5999.0
比赛的	-6000.0
花园里	-6001.0
咖啡因	-6002.0
这些方法	-6003.0
ellig	-6004.0
他是	-6005.0
前行	-6006.0
短暂	-6007.0
造成的	-6008.0
round	-6009.0
人民币	-6010.0
努力和	-6011.0
保护地球	-6012.0
tit	-6013.0
请提取	-6014.0
代码片段	-6015.0
繁殖	-6016.0
公寓	-6017.0
的物品	-6018.0
让我想	-6019.0
两个数字	-6020.0
切成小块	-6021.0
巴西	-6022.0
我和	-6023.0
红酒	-6024.0
两个人	-6025.0
一封	-6026.0
吸烟	-6027.0
月光	-6028.0
稳定的	-6029.0
滑雪	-6030.0
白色的	-6031.0
拥抱	-6032.0
用户体验	-6033.0
浮宫	-6034.0
市场上	-6035.0
栖息地	-6036.0
成为一名	-6037.0
毛发	-6038.0
观测	-6039.0
▁准备	-6040.0
主要是	-6041.0
产生影响	-6042.0
立方	-6043.0
并且在	-6044.0
这使得	-6045.0
实现了	-6046.0
翻译成英语	-6047.0
炎炎	-6048.0
神话	-6049.0
这里的	-6050.0
进行修改	-6051.0
无线	-6052.0
沐浴	-6053.0
选举	-6054.0
您的需求	-6055.0
视觉效果	-6056.0
学院	-6057.0
椅子	-6058.0
然后再	-6059.0
按钮	-6060.0
鲜艳	-6061.0
方式和	-6062.0
哪个城市	-6063.0
帮助医生	-6064.0
▁banana	-6065.0
人工智能在医疗领域的应用	-6066.0
结局	-6067.0
其中最	-6068.0
那请问	-6069.0
饮食和	-6070.0
▁str	-6071.0
条款	-6072.0
以上的	-6073.0
卢浮宫	-6074.0
做了	-6075.0
她在	-6076.0
对比	-6077.0
路径	-6078.0
里斯	-6079.0
▁che	-6080.0
请稍等片刻	-6081.0
对方的	-6082.0
ople	-6083.0
是一种非常	-6084.0
从未	-6085.0
它会	-6086.0
烤鸭	-6087.0
爵士	-6088.0
以实现	-6089.0
还没有	-6090.0
▁make	-6091.0
色调	-6092.0
衣裙	-6093.0
家庭成员	-6094.0
竞争对手	-6095.0
封闭	-6096.0
物和	-6097.0
▁dif	-6098.0
电子设备	-6099.0
日程	-6100.0
经历了	-6101.0
soft	-6102.0
芒果	-6103.0
很多人	-6104.0
希望这些建议	-6105.0
numbers	-6106.0
何时	-6107.0
奖项	-6108.0
一部分	-6109.0
的状态	-6110.0
陷入	-6111.0
▁提取	-6112.0
轻松地	-6113.0
疗法	-6114.0
路程	-6115.0
orre	-6116.0
计算它们的	-6117.0
可得	-6118.0
医疗服务	-6119.0
付出	-6120.0
地产	-6121.0
积分	-6122.0
lic	-6123.0
日本的	-6124.0
选择适合自己的	-6125.0
享受着	-6126.0
大气层	-6127.0
还有许多	-6128.0
param	-6129.0
酱油	-6130.0
推荐吗	-6131.0
vid	-6132.0
聚类	-6133.0
风能	-6134.0
其中包含	-6135.0
ys	-6136.0
停车	-6137.0
很有趣	-6138.0
调味料	-6139.0
将其中的	-6140.0
智力	-6141.0
该文章	-6142.0
我们可以从	-6143.0
IP	-6144.0
无聊	-6145.0
贷款	-6146.0
version	-6147.0
顾问	-6148.0
但不限于	-6149.0
人工智能技术在	-6150.0
都需要	-6151.0
class	-6152.0
膳食	-6153.0
人工智能领域	-6154.0
the	-6155.0
▁可以	-6156.0
▁data	-6157.0
▁language	-6158.0
上班	-6159.0
果实	-6160.0
算出	-6161.0
ins	-6162.0
历史上最	-6163.0
隐私保护	-6164.0
靠近	-6165.0
标准差	-6166.0
SA	-6167.0
其它	-6168.0
让他	-6169.0
心血管	-6170.0
联合国	-6171.0
推荐一部	-6172.0
更加注重	-6173.0
化妆	-6174.0
认识到	-6175.0
这句话的	-6176.0
身材	-6177.0
奥斯卡	-6178.0
序排列	-6179.0
▁year	-6180.0
宝石	-6181.0
中位数	-6182.0
有可能	-6183.0
不适	-6184.0
让你的	-6185.0
造型	-6186.0
牛顿	-6187.0
无比	-6188.0
有用的	-6189.0
连衣裙	-6190.0
今天早上	-6191.0
我可以帮您	-6192.0
启动	-6193.0
请随时告诉我	-6194.0
州的	-6195.0
▁who	-6196.0
在不同的	-6197.0
运动和	-6198.0
load	-6199.0
另一方面	-6200.0
提供的信息	-6201.0
▁every	-6202.0
设计的	-6203.0
应该怎么	-6204.0
你最喜欢的	-6205.0
也许	-6206.0
厚的	-6207.0
无法确定	-6208.0
▁写一篇关于环保的文章	-6209.0
和历史	-6210.0
不仅可以	-6211.0
丰富多彩	-6212.0
各种各样的	-6213.0
工厂	-6214.0
數據	-6215.0
埃菲尔铁塔	-6216.0
不在	-6217.0
德语	-6218.0
一定要	-6219.0
您觉得	-6220.0
因为他们	-6221.0
和优化	-6222.0
loat	-6223.0
有很多种	-6224.0
环保问题	-6225.0
能夠	-6226.0
好玩	-6227.0
斯拉	-6228.0
更准确的	-6229.0
来描述	-6230.0
去除	-6231.0
選擇	-6232.0
▁数据	-6233.0
在美国	-6234.0
更具体的	-6235.0
画家	-6236.0
调用	-6237.0
所以他	-6238.0
else	-6239.0
inst	-6240.0
ef	-6241.0
遥远	-6242.0
降雨	-6243.0
▁($	-6244.0
决策树	-6245.0
特朗	-6246.0
相机	-6247.0
个数	-6248.0
问我	-6249.0
较高的	-6250.0
临床	-6251.0
的解	-6252.0
的餐厅	-6253.0
尽可能地	-6254.0
ather	-6255.0
重要的角色	-6256.0
ower	-6257.0
治理	-6258.0
深受	-6259.0
零售	-6260.0
aime	-6261.0
古典音乐	-6262.0
自转	-6263.0
一定会	-6264.0
升起	-6265.0
猴子	-6266.0
因斯坦	-6267.0
能够更好地	-6268.0
API	-6269.0
那么请你	-6270.0
SC	-6271.0
一辆	-6272.0
猫和	-6273.0
权利和	-6274.0
至今	-6275.0
疼痛	-6276.0
会影响	-6277.0
和教育	-6278.0
开始了	-6279.0
▁seems	-6280.0
反转	-6281.0
流量	-6282.0
私人	-6283.0
药品	-6284.0
青年	-6285.0
列举一些	-6286.0
人脸	-6287.0
容器	-6288.0
强化学习	-6289.0
少的	-6290.0
戏剧	-6291.0
这有助于	-6292.0
机器学习技术	-6293.0
▁生成一个有关	-6294.0
电商	-6295.0
吸引力	-6296.0
ural	-6297.0
取消	-6298.0
密切	-6299.0
")\	-6300.0
ody	-6301.0
星球大战	-6302.0
太多	-6303.0
请再	-6304.0
违法	-6305.0
两位	-6306.0
▁ad	-6307.0
以下是我	-6308.0
▁when	-6309.0
改变我们的	-6310.0
效应	-6311.0
移民	-6312.0
共鸣	-6313.0
黑色的	-6314.0
igh	-6315.0
那请你	-6316.0
盛开	-6317.0
先进的	-6318.0
的角色	-6319.0
我不知道	-6320.0
让我感到	-6321.0
ui	-6322.0
白天	-6323.0
迎接	-6324.0
连贯	-6325.0
能源消耗	-6326.0
ush	-6327.0
和信息	-6328.0
主菜	-6329.0
利于	-6330.0
紧密	-6331.0
正面的	-6332.0
以下是几个	-6333.0
岁的	-6334.0
","	-6335.0
面积为	-6336.0
季度	-6337.0
的东西	-6338.0
积累	-6339.0
来完成	-6340.0
健康问题	-6341.0
积极参与	-6342.0
民主	-6343.0
代表着	-6344.0
的质量	-6345.0
▁tra	-6346.0
趣味	-6347.0
你有	-6348.0
细菌	-6349.0
生态平衡	-6350.0
sq	-6351.0
珊瑚	-6352.0
做出贡献	-6353.0
sp	-6354.0
上学	-6355.0
▁pizza	-6356.0
客观	-6357.0
伴侣	-6358.0
天文学	-6359.0
治疗方法	-6360.0
中的关键词	-6361.0
慈善	-6362.0
烦恼	-6363.0
处理器	-6364.0
把这些	-6365.0
团队成员	-6366.0
低碳	-6367.0
绝句	-6368.0
鸭子	-6369.0
Val	-6370.0
女性在	-6371.0
icrosoft	-6372.0
的技巧	-6373.0
特别是在	-6374.0
生菜	-6375.0
的和	-6376.0
乐队	-6377.0
人与	-6378.0
的最新	-6379.0
大陆	-6380.0
ache	-6381.0
水果和蔬菜	-6382.0
他要	-6383.0
青椒	-6384.0
我相信	-6385.0
请根据	-6386.0
可以得出	-6387.0
给了小红	-6388.0
)/	-6389.0
表情	-6390.0
▁+=	-6391.0
风格的	-6392.0
该句子	-6393.0
在未来的	-6394.0
飞舞	-6395.0
个水果	-6396.0
混合物	-6397.0
网站或	-6398.0
化简	-6399.0
的气息	-6400.0
这是一篇	-6401.0
甜蜜	-6402.0
相关的问题	-6403.0
照亮	-6404.0
系統	-6405.0
肌肤	-6406.0
配方	-6407.0
▁保持	-6408.0
和活动	-6409.0
字体	-6410.0
年级	-6411.0
___	-6412.0
ond	-6413.0
加起来	-6414.0
可以看	-6415.0
给我讲一个	-6416.0
▁random	-6417.0
一幅	-6418.0
忽视	-6419.0
是否正确	-6420.0
OR	-6421.0
追踪	-6422.0
做出了	-6423.0
eq	-6424.0
一旦	-6425.0
开启	-6426.0
arch	-6427.0
火腿	-6428.0
run	-6429.0
clude	-6430.0
至于	-6431.0
可用	-6432.0
小于	-6433.0
真相	-6434.0
把它们	-6435.0
个小朋友	-6436.0
▁good	-6437.0
冲浪	-6438.0
前来	-6439.0
▁这是	-6440.0
如果我	-6441.0
电影评论	-6442.0
信心	-6443.0
同意	-6444.0
护理	-6445.0
最佳的	-6446.0
詹姆斯	-6447.0
请对	-6448.0
无人驾驶	-6449.0
三体	-6450.0
公开	-6451.0
通過	-6452.0
产生了深远的影响	-6453.0
天地	-6454.0
领袖	-6455.0
到了一个	-6456.0
▁bl	-6457.0
▁避免	-6458.0
更快地	-6459.0
包括但不限于	-6460.0
缩写	-6461.0
进而	-6462.0
dex	-6463.0
已经被	-6464.0
价为	-6465.0
以减少	-6466.0
功能和	-6467.0
您是否	-6468.0
reak	-6469.0
广州	-6470.0
缓慢	-6471.0
▁\\	-6472.0
有望	-6473.0
引入	-6474.0
故乡	-6475.0
领先	-6476.0
对我们的	-6477.0
爱因斯坦	-6478.0
男生人数	-6479.0
▁part	-6480.0
下一	-6481.0
以前	-6482.0
都要	-6483.0
代码的	-6484.0
时期的	-6485.0
市场营销	-6486.0
banana	-6487.0
平等的	-6488.0
清洁能源	-6489.0
生涯	-6490.0
大写字母	-6491.0
以便更好地	-6492.0
采取措施来	-6493.0
ces	-6494.0
加拿大	-6495.0
圣母	-6496.0
金星	-6497.0
来获取	-6498.0
的部分	-6499.0
介绍一些	-6500.0
战胜	-6501.0
极其	-6502.0
灰色	-6503.0
试验	-6504.0
内涵	-6505.0
可可	-6506.0
欺诈	-6507.0
为一个	-6508.0
和影响	-6509.0
的美丽	-6510.0
篇小说	-6511.0
从此	-6512.0
惩罚	-6513.0
科学研究	-6514.0
代词	-6515.0
自己和	-6516.0
哈利波特	-6517.0
潜在的	-6518.0
演化	-6519.0
谜语	-6520.0
饮酒	-6521.0
了一只	-6522.0
资源和	-6523.0
实际情况	-6524.0
男女	-6525.0
香料	-6526.0
')\	-6527.0
可以再	-6528.0
的计算	-6529.0
值得一看	-6530.0
副词	-6531.0
加快	-6532.0
小吃	-6533.0
失去了	-6534.0
是一本	-6535.0
▁sub	-6536.0
电动汽车	-6537.0
万元	-6538.0
正文	-6539.0
向上	-6540.0
斯特	-6541.0
任务中	-6542.0
每小时	-6543.0
▁del	-6544.0
自己的梦想	-6545.0
▁Could	-6546.0
▁给定一篇文章	-6547.0
一生	-6548.0
已经开始	-6549.0
未来科技	-6550.0
树枝	-6551.0
优质的	-6552.0
入门	-6553.0
画作	-6554.0
这条	-6555.0
发现了一个	-6556.0
机器学习的	-6557.0
人工智能应用	-6558.0
版型	-6559.0
▁Un	-6560.0
员工的	-6561.0
将成为	-6562.0
所以小明	-6563.0
债券	-6564.0
边缘	-6565.0
算法来	-6566.0
这个名字	-6567.0
非常有趣	-6568.0
法院	-6569.0
消化	-6570.0
选手	-6571.0
joy	-6572.0
提交	-6573.0
现有	-6574.0
而又	-6575.0
String	-6576.0
这个文本	-6577.0
verse	-6578.0
AM	-6579.0
和你	-6580.0
游泳池	-6581.0
街头	-6582.0
沟通和	-6583.0
今晚	-6584.0
Param	-6585.0
▁总结	-6586.0
价格为	-6587.0
▁Z	-6588.0
▁表示	-6589.0
阳光下	-6590.0
模块	-6591.0
和智能	-6592.0
明确的	-6593.0
塑料污染	-6594.0
了多少	-6595.0
分给小红	-6596.0
烘焙	-6597.0
▁fn	-6598.0
全面的	-6599.0
地球上的	-6600.0
是否存在	-6601.0
推移	-6602.0
需要支付	-6603.0
摇曳	-6604.0
缺失	-6605.0
以满足	-6606.0
行走	-6607.0
餐饮	-6608.0
cre	-6609.0
达到了	-6610.0
我喜欢吃	-6611.0
man	-6612.0
形成了	-6613.0
静静	-6614.0
挑选	-6615.0
ors	-6616.0
的重量	-6617.0
出现次数	-6618.0
▁question	-6619.0
(\	-6620.0
家中	-6621.0
演出	-6622.0
酒吧	-6623.0
奋斗	-6624.0
的食品	-6625.0
蓝莓	-6626.0
配备	-6627.0
影响了	-6628.0
气体的	-6629.0
with	-6630.0
几天	-6631.0
加强对	-6632.0
勇气和	-6633.0
不仅仅是	-6634.0
▁number	-6635.0
▁多	-6636.0
将于	-6637.0
▁给出以下	-6638.0
卧室	-6639.0
品味	-6640.0
我的心	-6641.0
制定一个	-6642.0
空气质量	-6643.0
提高工作效率	-6644.0
▁苹果	-6645.0
例子中	-6646.0
题目中	-6647.0
古风	-6648.0
抓住	-6649.0
括号	-6650.0
提及	-6651.0
▁ph	-6652.0
是一個	-6653.0
更加高效	-6654.0
随着时间的	-6655.0
▁should	-6656.0
的作品	-6657.0
疲惫	-6658.0
iful	-6659.0
▁value	-6660.0
困惑	-6661.0
的中心	-6662.0
▁two	-6663.0
实际应用	-6664.0
表现出色	-6665.0
好听	-6666.0
授权	-6667.0
▁建立	-6668.0
的词语	-6669.0
这也是	-6670.0
承诺	-6671.0
维修	-6672.0
▁friend	-6673.0
透过	-6674.0
十二	-6675.0
花瓣	-6676.0
解析	-6677.0
寻求专业	-6678.0
南极洲	-6679.0
满了	-6680.0
复仇者	-6681.0
icial	-6682.0
宇航	-6683.0
▁美国	-6684.0
一群	-6685.0
乘客	-6686.0
变为	-6687.0
沉浸在	-6688.0
光合	-6689.0
农民	-6690.0
太平	-6691.0
ures	-6692.0
这种情况	-6693.0
对应	-6694.0
布斯	-6695.0
线索	-6696.0
它能够	-6697.0
如果您想要	-6698.0
OS	-6699.0
瀑布	-6700.0
▁Al	-6701.0
彼此的	-6702.0
设计师	-6703.0
atus	-6704.0
formation	-6705.0
批评	-6706.0
草木	-6707.0
分类器	-6708.0
▁What	-6709.0
感人	-6710.0
有价值	-6711.0
提取出来	-6712.0
打击	-6713.0
潺潺	-6714.0
ais	-6715.0
任务的	-6716.0
开放式	-6717.0
更加智能化	-6718.0
不见	-6719.0
百搭	-6720.0
▁下面	-6721.0
如果你有	-6722.0
引用	-6723.0
ues	-6724.0
享受到	-6725.0
黄色的	-6726.0
True	-6727.0
点缀	-6728.0
鲨鱼	-6729.0
一开始	-6730.0
您所在	-6731.0
扮演着	-6732.0
宗教信仰	-6733.0
▁been	-6734.0
環境	-6735.0
和预测	-6736.0
盖茨比	-6737.0
大厦	-6738.0
可以利用	-6739.0
elligence	-6740.0
拉斯	-6741.0
主题和	-6742.0
▁Write	-6743.0
体型	-6744.0
勇敢的	-6745.0
中文文本	-6746.0
观赏	-6747.0
公主	-6748.0
探索和	-6749.0
被用于	-6750.0
ative	-6751.0
py	-6752.0
利亚	-6753.0
可供	-6754.0
巴巴	-6755.0
的人口	-6756.0
进行翻译	-6757.0
▁或	-6758.0
把它	-6759.0
粘贴	-6760.0
▁分析	-6761.0
▁制作	-6762.0
是哪个	-6763.0
▁这是一个	-6764.0
压缩	-6765.0
成了	-6766.0
蚂蚁	-6767.0
集团	-6768.0
疫苗接种	-6769.0
▁有	-6770.0
切碎	-6771.0
每种	-6772.0
音乐和	-6773.0
▁our	-6774.0
越来越广泛	-6775.0
一门	-6776.0
十个	-6777.0
名单	-6778.0
喝水	-6779.0
盒子	-6780.0
"、	-6781.0
万里	-6782.0
对抗	-6783.0
处理和	-6784.0
我非常	-6785.0
复仇者联盟	-6786.0
自己喜欢的	-6787.0
▁u	-6788.0
活動	-6789.0
的夜晚	-6790.0
▁减少	-6791.0
的日期	-6792.0
营养素	-6793.0
审查	-6794.0
病例	-6795.0
在不同	-6796.0
更具体	-6797.0
正方形	-6798.0
我需要知道	-6799.0
cription	-6800.0
Un	-6801.0
交叉	-6802.0
宇宙中	-6803.0
我去了	-6804.0
▁art	-6805.0
抽取出	-6806.0
▁que	-6807.0
进行的	-6808.0
下了	-6809.0
烤肉	-6810.0
存在着	-6811.0
失踪	-6812.0
岛屿	-6813.0
翩翩	-6814.0
与他人	-6815.0
fo	-6816.0
海滨	-6817.0
红烧	-6818.0
时间表	-6819.0
科动物	-6820.0
====	-6821.0
家用	-6822.0
分词	-6823.0
糟糕	-6824.0
▁猫	-6825.0
现金	-6826.0
Type	-6827.0
$,	-6828.0
音乐的	-6829.0
参与者	-6830.0
查一下	-6831.0
那么现在	-6832.0
"]	-6833.0
精度	-6834.0
像是	-6835.0
到你	-6836.0
社會	-6837.0
复兴	-6838.0
因为他	-6839.0
平台上	-6840.0
想知道	-6841.0
ccess	-6842.0
人工智能将会	-6843.0
▁给定一段文本	-6844.0
松鼠	-6845.0
autiful	-6846.0
乐观	-6847.0
仅仅	-6848.0
的不	-6849.0
反映了	-6850.0
的体验	-6851.0
的英文	-6852.0
推荐一个	-6853.0
数目	-6854.0
花生	-6855.0
par	-6856.0
▁▁▁▁	-40001.0
外貌	-6858.0
水星	-6859.0
通常由	-6860.0
豪华	-6861.0
未知的	-6862.0
懒惰的狗	-6863.0
的同义词	-6864.0
还有什么	-6865.0
年度	-6866.0
找到一个	-6867.0
().	-6868.0
名称和	-6869.0
宝玉	-6870.0
是将	-6871.0
柠檬汁	-6872.0
帮我想一个	-6873.0
多项	-6874.0
烤制	-6875.0
更高效	-6876.0
字数	-6877.0
爬行	-6878.0
韩版	-6879.0
黛玉	-6880.0
猜测	-6881.0
▁its	-6882.0
字段	-6883.0
▁请为	-6884.0
是全球	-6885.0
健康状况	-6886.0
方法可以	-6887.0
个球	-6888.0
之美	-6889.0
最为	-6890.0
枝头	-6891.0
缺少	-6892.0
忙碌	-6893.0
并列出	-6894.0
房地产	-6895.0
耳朵	-6896.0
在家中	-6897.0
具体情况	-6898.0
蝉鸣	-6899.0
人工智能发展	-6900.0
便宜	-6901.0
约会	-6902.0
莎士	-6903.0
公共交通工具	-6904.0
繁华	-6905.0
统一	-6906.0
的列表	-6907.0
raph	-6908.0
▁their	-6909.0
ny	-6910.0
心的	-6911.0
的口感	-6912.0
它是一个	-6913.0
?“	-6914.0
带上	-6915.0
微软	-6916.0
air	-6917.0
Sp	-6918.0
卡路	-6919.0
伴随着	-6920.0
▁给我一个	-6921.0
香肠	-6922.0
可靠的	-6923.0
无人机	-6924.0
海洋生物	-6925.0
▁find	-6926.0
人工智能是	-6927.0
古迹	-6928.0
塑造	-6929.0
来表示	-6930.0
直角	-6931.0
ABC	-6932.0
▁学习	-6933.0
展现出	-6934.0
令人惊叹	-6935.0
为了帮助您	-6936.0
是一年中最	-6937.0
电力	-6938.0
例如在	-6939.0
的比例	-6940.0
▁they	-6941.0
树林	-6942.0
地了解	-6943.0
青少年	-6944.0
莎士比亚	-6945.0
主意	-6946.0
之路	-6947.0
要去	-6948.0
▁input	-6949.0
五种	-6950.0
西方	-6951.0
ait	-6952.0
形成的	-6953.0
历史上的	-6954.0
能告诉我	-6955.0
天数	-6956.0
▁--	-6957.0
万美元	-6958.0
是一座	-6959.0
的存在	-6960.0
▁生成一个描述	-6961.0
单元	-6962.0
扫描	-6963.0
拿铁	-6964.0
生产力	-6965.0
知名的	-6966.0
付款	-6967.0
团结	-6968.0
可回收	-6969.0
成立于	-6970.0
能力的	-6971.0
和感受	-6972.0
的知识	-6973.0
通过使用	-6974.0
?(	-6975.0
布局	-6976.0
被动	-6977.0
动物园	-6978.0
更适合	-6979.0
给我讲	-6980.0
需要用	-6981.0
pert	-6982.0
最高温度	-6983.0
业绩	-6984.0
▁**	-6985.0
▁!	-6986.0
反射	-6987.0
份额	-6988.0
纪录	-6989.0
不知	-6990.0
吉他	-6991.0
ane	-6992.0
慢性	-6993.0
一遍	-6994.0
极性	-6995.0
一样的	-6996.0
你有没有	-6997.0
和一些	-6998.0
巧克力蛋糕	-6999.0
NBA	-7000.0
化学反应	-7001.0
猪肉	-7002.0
词性	-7003.0
政策和	-7004.0
让读者	-7005.0
充足的睡眠	-7006.0
公民	-7007.0
天空中	-7008.0
▁None	-7009.0
尼斯	-7010.0
捕捉	-7011.0
活动的	-7012.0
让用户	-7013.0
卷积神经网络	-7014.0
对环境的影响	-7015.0
很高的	-7016.0
第一位	-7017.0
坐标	-7018.0
纸张	-7019.0
游戏的	-7020.0
已经成为了	-7021.0
珂珂	-7022.0
种子	-7023.0
▁请用	-7024.0
一种新的	-7025.0
海报	-7026.0
虚构	-7027.0
钥匙	-7028.0
和尊重	-7029.0
效益	-7030.0
跨越	-7031.0
便利和	-7032.0
在金融	-7033.0
的旅行	-7034.0
td	-7035.0
正义	-7036.0
rid	-7037.0
咖啡店	-7038.0
erry	-7039.0
树上	-7040.0
▁If	-7041.0
计算机系统	-7042.0
最喜欢的电影	-7043.0
流淌	-7044.0
▁找出	-7045.0
社会中	-7046.0
\)	-7047.0
和大	-7048.0
在该	-7049.0
事实上	-7050.0
情感的	-7051.0
DP	-7052.0
近日	-7053.0
请回答	-7054.0
如果一个	-7055.0
历史和文化	-7056.0
抒情	-7057.0
推断出	-7058.0
比小红	-7059.0
Cont	-7060.0
估计	-7061.0
值为	-7062.0
离子	-7063.0
耳机	-7064.0
女性的	-7065.0
高品质	-7066.0
拟合	-7067.0
个字符	-7068.0
我知道	-7069.0
列表中的	-7070.0
$$	-7071.0
.'	-7072.0
不如	-7073.0
我有	-7074.0
转移	-7075.0
ery	-7076.0
土星	-7077.0
摄像	-7078.0
疯狂	-7079.0
衣物	-7080.0
都被	-7081.0
严格的	-7082.0
优缺点	-7083.0
去中心	-7084.0
很容易	-7085.0
您认为	-7086.0
类型和	-7087.0
行为和	-7088.0
nect	-7089.0
进行分析	-7090.0
归纳	-7091.0
交通拥堵	-7092.0
你还可以	-7093.0
向您	-7094.0
随意	-7095.0
▁Ap	-7096.0
太好了	-7097.0
旅途中	-7098.0
这个城市	-7099.0
ech	-7100.0
共和国	-7101.0
▁¥	-7102.0
通讯	-7103.0
先将	-7104.0
▁answ	-7105.0
tfn	-7106.0
press	-7107.0
哪一个	-7108.0
或者在	-7109.0
中等	-7110.0
▁确定	-7111.0
的平均	-7112.0
给我一些关于	-7113.0
App	-7114.0
材料和	-7115.0
给人们	-7116.0
古诗续写	-7117.0
lement	-7118.0
实例	-7119.0
职责	-7120.0
雨林	-7121.0
作者对	-7122.0
是星期	-7123.0
排序后的	-7124.0
歌唱	-7125.0
与家人	-7126.0
并要求	-7127.0
mail	-7128.0
他们一起	-7129.0
ien	-7130.0
学习的	-7131.0
随着时间的推移	-7132.0
兄弟	-7133.0
内置	-7134.0
利率	-7135.0
加利	-7136.0
彩虹	-7137.0
Get	-7138.0
和提高	-7139.0
多样化	-7140.0
但这	-7141.0
航天	-7142.0
▁北京	-7143.0
icle	-7144.0
发光	-7145.0
可行	-7146.0
商场	-7147.0
▁从给定的	-7148.0
学生的学习	-7149.0
na	-7150.0
马拉雅	-7151.0
周五	-7152.0
我所	-7153.0
钓鱼	-7154.0
rad	-7155.0
。”\	-7156.0
在这些	-7157.0
几只	-7158.0
脚本	-7159.0
解题	-7160.0
部位	-7161.0
阿里巴巴	-7162.0
主观	-7163.0
拼音	-7164.0
糖和	-7165.0
纷纷	-7166.0
的美食	-7167.0
额外的	-7168.0
作出	-7169.0
cat	-7170.0
off	-7171.0
▁因为	-7172.0
我可以帮你	-7173.0
▁生成一首关于	-7174.0
格兰	-7175.0
▁关键词	-7176.0
帮助我们	-7177.0
的主题和	-7178.0
也就是说	-7179.0
如画	-7180.0
它还	-7181.0
直线	-7182.0
黄昏	-7183.0
该如何	-7184.0
社交媒体上	-7185.0
公交车	-7186.0
在医疗	-7187.0
给小红	-7188.0
lear	-7189.0
▁run	-7190.0
过来	-7191.0
阿凡	-7192.0
▁her	-7193.0
以下是一篇关于	-7194.0
不想	-7195.0
美观	-7196.0
价值和	-7197.0
圣母院	-7198.0
年前	-7199.0
静谧	-7200.0
喜马拉雅	-7201.0
养成	-7202.0
长颈	-7203.0
将继续	-7204.0
学家	-7205.0
田野	-7206.0
不喜欢	-7207.0
志愿者	-7208.0
如果需要	-7209.0
余数	-7210.0
▁id	-7211.0
▁重新	-7212.0
让我们来	-7213.0
乡村	-7214.0
然后在	-7215.0
的标题	-7216.0
首字母	-7217.0
,《	-7218.0
Ad	-7219.0
四川	-7220.0
最早	-7221.0
注释	-7222.0
短信	-7223.0
帮助我	-7224.0
日历	-7225.0
日至	-7226.0
爱和	-7227.0
▁判断	-7228.0
的天气情况	-7229.0
人才	-7230.0
oot	-7231.0
▁bu	-7232.0
信用卡	-7233.0
可以说	-7234.0
温暖和	-7235.0
mith	-7236.0
这种行为	-7237.0
情侣	-7238.0
门口	-7239.0
▁sk	-7240.0
与朋友	-7241.0
我们对	-7242.0
ouse	-7243.0
erver	-7244.0
温和	-7245.0
像人类	-7246.0
中最大的	-7247.0
特斯拉	-7248.0
的人数	-7249.0
废物	-7250.0
自由和	-7251.0
阿凡达	-7252.0
这些数据	-7253.0
请提供您想要	-7254.0
储存	-7255.0
将是	-7256.0
常用	-7257.0
舒缓	-7258.0
血液	-7259.0
金色	-7260.0
的有效	-7261.0
▁act	-7262.0
帮助用户	-7263.0
▁char	-7264.0
Object	-7265.0
▁以下	-7266.0
都有其	-7267.0
再来	-7268.0
應用	-7269.0
杂志	-7270.0
和维护	-7271.0
它通过	-7272.0
冰块	-7273.0
拍打	-7274.0
文化中	-7275.0
▁请回答	-7276.0
上涨	-7277.0
舒服	-7278.0
键盘	-7279.0
lst	-7280.0
真的很	-7281.0
▁under	-7282.0
ym	-7283.0
爬山	-7284.0
过敏	-7285.0
我会推荐	-7286.0
example	-7287.0
根本	-7288.0
转型	-7289.0
降临	-7290.0
并保持	-7291.0
▁Com	-7292.0
即可享用	-7293.0
▁context	-7294.0
CP	-7295.0
心理医生	-7296.0
数字列表	-7297.0
ength	-7298.0
',\	-7299.0
的效率和	-7300.0
唐诗	-7301.0
是一门	-7302.0
水资源	-7303.0
橡皮	-7304.0
深情	-7305.0
",\	-7306.0
****	-7307.0
▁cal	-7308.0
如何提高	-7309.0
▁只	-7310.0
百度	-7311.0
迷路	-7312.0
通顺	-7313.0
光合作用	-7314.0
数字是	-7315.0
的公司	-7316.0
更有效地	-7317.0
通常需要	-7318.0
非常感谢你的	-7319.0
寂寞	-7320.0
▁请问	-7321.0
同样的	-7322.0
并将它们	-7323.0
候选	-7324.0
拂过	-7325.0
洗衣	-7326.0
邪恶	-7327.0
max	-7328.0
国家和	-7329.0
▁many	-7330.0
海水	-7331.0
潜水	-7332.0
的概率	-7333.0
近义词	-7334.0
类型的电影	-7335.0
▁爱	-7336.0
一边	-7337.0
场地	-7338.0
彻底	-7339.0
看待	-7340.0
了一家	-7341.0
取代人类	-7342.0
请问他	-7343.0
?-	-7344.0
出租	-7345.0
▁som	-7346.0
▁本	-7347.0
初始	-7348.0
复合	-7349.0
日出	-7350.0
ift	-7351.0
这个过程	-7352.0
走到	-7353.0
几十年	-7354.0
的作者	-7355.0
▁给定一段	-7356.0
▁▁▁	-40002.0
裤子	-7358.0
惊人的	-7359.0
现在的	-7360.0
背景和	-7361.0
从数据中	-7362.0
必备	-7363.0
浓缩	-7364.0
游戏中	-7365.0
迷人的	-7366.0
外出	-7367.0
两句话	-7368.0
加入适量的	-7369.0
丽莎	-7370.0
看见	-7371.0
快乐和	-7372.0
的发生	-7373.0
的价格是	-7374.0
冷却	-7375.0
的美好	-7376.0
▁根据标题	-7377.0
orrect	-7378.0
你要	-7379.0
个小时	-7380.0
音乐家	-7381.0
减少浪费	-7382.0
军队	-7383.0
恶意	-7384.0
▁ent	-7385.0
给出一个	-7386.0
第五	-7387.0
繁忙	-7388.0
以及对	-7389.0
可以自动	-7390.0
改编	-7391.0
Mod	-7392.0
情人节	-7393.0
活动和	-7394.0
历史事件	-7395.0
产品和服务	-7396.0
产品或服务	-7397.0
是不是	-7398.0
它也	-7399.0
麻辣	-7400.0
▁Ex	-7401.0
宇航员	-7402.0
这是一段	-7403.0
如果你需要	-7404.0
与之	-7405.0
晴天	-7406.0
了这个	-7407.0
以保持	-7408.0
一些新的	-7409.0
哪些方面	-7410.0
维生素和	-7411.0
▁words	-7412.0
只需	-7413.0
解读	-7414.0
重的	-7415.0
青山	-7416.0
这首歌曲	-7417.0
一层	-7418.0
圣诞	-7419.0
料理	-7420.0
運動	-7421.0
tificial	-7422.0
可读性	-7423.0
的创意	-7424.0
回答您的问题	-7425.0
▁function	-7426.0
或中性	-7427.0
地理位置	-7428.0
▁other	-7429.0
做到	-7430.0
善于	-7431.0
还可以通过	-7432.0
台灣	-7433.0
分布式	-7434.0
长颈鹿	-7435.0
ular	-7436.0
在过去的	-7437.0
的糖果数	-7438.0
训练模型	-7439.0
避免过度	-7440.0
歧视和	-7441.0
▁人	-7442.0
简单易	-7443.0
旅游胜地	-7444.0
在城市	-7445.0
ta	-7446.0
恰当	-7447.0
日子	-7448.0
眼前	-7449.0
碗中	-7450.0
获胜	-7451.0
向量机	-7452.0
这些措施	-7453.0
里程	-7454.0
麻烦	-7455.0
▁Is	-7456.0
当前的	-7457.0
▁Con	-7458.0
对其进行	-7459.0
热水	-7460.0
ware	-7461.0
星际穿越	-7462.0
文化和历史	-7463.0
伯特	-7464.0
加利福	-7465.0
的投资	-7466.0
▁让我们	-7467.0
你可以选择	-7468.0
分离	-7469.0
可以进行	-7470.0
推荐系统	-7471.0
自然保护	-7472.0
失眠	-7473.0
岩石	-7474.0
心肺	-7475.0
豆类	-7476.0
智能客服	-7477.0
我无法提供	-7478.0
的故事情节	-7479.0
▁people	-7480.0
意图	-7481.0
艺术作品	-7482.0
▁count	-7483.0
回答上面的问题	-7484.0
是对	-7485.0
性能和	-7486.0
过多的	-7487.0
其他问题	-7488.0
AC	-7489.0
冲击	-7490.0
门票	-7491.0
如果我想	-7492.0
这家餐厅的	-7493.0
Facebook	-7494.0
模板	-7495.0
用法	-7496.0
▁请从	-7497.0
了一份	-7498.0
法律和	-7499.0
艺术形式	-7500.0
生成商品文案输入	-7501.0
▁帮我生成商品文案输入	-7502.0
复苏	-7503.0
宜人	-7504.0
金色的	-7505.0
中国传统	-7506.0
天气情况	-7507.0
onjour	-7508.0
后面	-7509.0
很高	-7510.0
误解	-7511.0
▁att	-7512.0
神怡	-7513.0
我不会	-7514.0
颜色和	-7515.0
主要包括	-7516.0
的发展和	-7517.0
▁回答问题	-7518.0
微观	-7519.0
▁em	-7520.0
气候变化的	-7521.0
女士	-7522.0
激动	-7523.0
选用	-7524.0
不断的	-7525.0
得到的	-7526.0
加利福尼亚	-7527.0
生态系统的	-7528.0
侵犯	-7529.0
误差	-7530.0
亲爱的	-7531.0
应用领域	-7532.0
))\	-7533.0
我就能	-7534.0
令人兴奋	-7535.0
小明买了	-7536.0
最高气温	-7537.0
建议你	-7538.0
▁off	-7539.0
生成文案	-7540.0
tc	-7541.0
夜空	-7542.0
议题	-7543.0
Log	-7544.0
raw	-7545.0
微信	-7546.0
进了	-7547.0
品牌和	-7548.0
回应	-7549.0
每天早上	-7550.0
从这篇文章中提取	-7551.0
准则	-7552.0
投資	-7553.0
永不	-7554.0
生产和	-7555.0
解决问题的	-7556.0
分钟的	-7557.0
的书籍	-7558.0
▁learning	-7559.0
IS	-7560.0
尊严	-7561.0
len	-7562.0
结果为	-7563.0
▁Int	-7564.0
▁pass	-7565.0
声明	-7566.0
飘落	-7567.0
时间是	-7568.0
留下了	-7569.0
的情节	-7570.0
Write	-7571.0
深圳	-7572.0
產品	-7573.0
个鸡蛋	-7574.0
公元前	-7575.0
在进行	-7576.0
如果要	-7577.0
▁bel	-7578.0
赞美	-7579.0
所有人	-7580.0
olut	-7581.0
他对	-7582.0
投票	-7583.0
治愈	-7584.0
皇帝	-7585.0
越来越多的人	-7586.0
密斯	-7587.0
照明	-7588.0
▁she	-7589.0
我们需要将	-7590.0
叙述	-7591.0
特朗普	-7592.0
一则	-7593.0
陶醉	-7594.0
"、"	-7595.0
不可或缺的一部分	-7596.0
为其	-7597.0
佛教	-7598.0
cel	-7599.0
旷神怡	-7600.0
的日子	-7601.0
▁对于给定的	-7602.0
头痛	-7603.0
聚集	-7604.0
乔布斯	-7605.0
咖啡豆	-7606.0
被用来	-7607.0
可能会影响	-7608.0
与你	-7609.0
占据	-7610.0
点和	-7611.0
相处	-7612.0
看了	-7613.0
者和	-7614.0
高峰	-7615.0
两个数	-7616.0
▁She	-7617.0
手工艺品	-7618.0
uc	-7619.0
等地	-7620.0
去海边	-7621.0
随机数	-7622.0
▁个糖果	-7623.0
数字货币	-7624.0
混合在一起	-7625.0
▁using	-7626.0
az	-7627.0
简明	-7628.0
动作片	-7629.0
在我的	-7630.0
▁gener	-7631.0
vo	-7632.0
代数	-7633.0
家长	-7634.0
開始	-7635.0
来选择	-7636.0
不受	-7637.0
器官	-7638.0
的那	-7639.0
项目的	-7640.0
tex	-7641.0
自然语言处理和	-7642.0
工具和	-7643.0
的生物	-7644.0
▁htt	-7645.0
生成一个关于	-7646.0
衡量	-7647.0
智慧和	-7648.0
cept	-7649.0
我很高兴	-7650.0
确切	-7651.0
远方	-7652.0
▁ag	-7653.0
实用的	-7654.0
ital	-7655.0
可以增加	-7656.0
可以应用于	-7657.0
主旨	-7658.0
个人隐私	-7659.0
虚拟现实技术	-7660.0
轻盈	-7661.0
骑士	-7662.0
实验室	-7663.0
文本中的关键词	-7664.0
东方	-7665.0
有更多的	-7666.0
中文翻译是	-7667.0
习俗	-7668.0
并以	-7669.0
拜登	-7670.0
牙齿	-7671.0
▁我的	-7672.0
主题为	-7673.0
字典	-7674.0
是指在	-7675.0
您有什么	-7676.0
空白	-7677.0
play	-7678.0
块巧克力	-7679.0
职业发展	-7680.0
复杂的问题	-7681.0
委员	-7682.0
艾米	-7683.0
fter	-7684.0
plit	-7685.0
▁告诉我	-7686.0
散发	-7687.0
心旷神怡	-7688.0
▁than	-7689.0
所示	-7690.0
有何	-7691.0
行各	-7692.0
为人们	-7693.0
角色的	-7694.0
ey	-7695.0
两边	-7696.0
她们	-7697.0
Set	-7698.0
优点和	-7699.0
极大地	-7700.0
的自然	-7701.0
的应用程序	-7702.0
夜幕	-7703.0
宽度	-7704.0
我能	-7705.0
因此可以	-7706.0
世界各地的	-7707.0
得以	-7708.0
供应链	-7709.0
的智能	-7710.0
生日礼物	-7711.0
表达自己的	-7712.0
自在	-7713.0
适合的	-7714.0
世界各地	-7715.0
生成任务	-7716.0
守护	-7717.0
这种技术	-7718.0
ences	-7719.0
讲解	-7720.0
一本书	-7721.0
是地球	-7722.0
过去的	-7723.0
should	-7724.0
▁start	-7725.0
一半	-7726.0
虚假	-7727.0
运动鞋	-7728.0
首先需要	-7729.0
忽略	-7730.0
去哪里	-7731.0
一个句子	-7732.0
我很喜欢	-7733.0
图表	-7734.0
实惠	-7735.0
级别	-7736.0
遭遇	-7737.0
金钱	-7738.0
骑行	-7739.0
病人的	-7740.0
▁car	-7741.0
可持续的	-7742.0
最好的朋友	-7743.0
并非	-7744.0
的高度	-7745.0
但同时也	-7746.0
化学物质	-7747.0
▁该	-7748.0
▁随着	-7749.0
激烈的	-7750.0
音乐节	-7751.0
文艺复兴	-7752.0
是很	-7753.0
不同种类	-7754.0
▁从以下句子	-7755.0
人工智能可以帮助	-7756.0
乐园	-7757.0
海豚	-7758.0
漫画	-7759.0
票房	-7760.0
跟着	-7761.0
可以对	-7762.0
行各业	-7763.0
支持向量机	-7764.0
持久	-7765.0
活力的	-7766.0
这本小说	-7767.0
口碑	-7768.0
必需	-7769.0
▁对以下	-7770.0
因此无法	-7771.0
这段代码	-7772.0
写下	-7773.0
斐波	-7774.0
浓郁的	-7775.0
:"))	-7776.0
夏季旅游	-7777.0
▁great	-7778.0
小熊	-7779.0
的意义	-7780.0
两个朋友	-7781.0
人类社会	-7782.0
最低温度	-7783.0
ating	-7784.0
这两个句子	-7785.0
config	-7786.0
基础设施	-7787.0
温室气体的	-7788.0
入侵	-7789.0
大概	-7790.0
样式	-7791.0
和保护	-7792.0
的态度	-7793.0
可以看到	-7794.0
各行各业	-7795.0
▁新	-7796.0
装置	-7797.0
要素	-7798.0
来预测	-7799.0
能提供	-7800.0
环保措施	-7801.0
万人	-7802.0
声誉	-7803.0
文言	-7804.0
王五	-7805.0
童话	-7806.0
那契	-7807.0
金山	-7808.0
类似的	-7809.0
▁used	-7810.0
两次	-7811.0
建模	-7812.0
了一段	-7813.0
你应该	-7814.0
在一些	-7815.0
特点和	-7816.0
表达对	-7817.0
道德的	-7818.0
医疗诊断	-7819.0
斐波那契	-7820.0
区分	-7821.0
惊讶	-7822.0
惊险	-7823.0
cal	-7824.0
阳光和	-7825.0
斯林	-7826.0
流感	-7827.0
ton	-7828.0
设备的	-7829.0
orrow	-7830.0
有助于提高	-7831.0
PI	-7832.0
li	-7833.0
中立	-7834.0
质感	-7835.0
并输出结果	-7836.0
在这个例子中	-7837.0
▁details	-7838.0
不安	-7839.0
日语	-7840.0
小兔子	-7841.0
和更	-7842.0
石油	-7843.0
喝咖啡	-7844.0
方面的应用	-7845.0
我很乐意帮助您	-7846.0
当他	-7847.0
联邦	-7848.0
▁时间	-7849.0
不错的	-7850.0
出来的	-7851.0
史密斯	-7852.0
是积极的	-7853.0
诊断疾病	-7854.0
▁创作一首	-7855.0
引领	-7856.0
意式	-7857.0
流派	-7858.0
火箭	-7859.0
较大	-7860.0
.""	-7861.0
制作的	-7862.0
柔软的	-7863.0
五言绝句	-7864.0
还有哪些	-7865.0
▁水	-7866.0
检索	-7867.0
模糊	-7868.0
轻轻地	-7869.0
利的	-7870.0
视角	-7871.0
震撼	-7872.0
▁Get	-7873.0
我建议你	-7874.0
tm	-7875.0
▁那	-7876.0
隔离	-7877.0
的朋友	-7878.0
塑料制品	-7879.0
现代科技	-7880.0
DE	-7881.0
构造	-7882.0
别人的	-7883.0
可行的	-7884.0
教育领域	-7885.0
发行	-7886.0
起伏	-7887.0
想了解	-7888.0
要计算	-7889.0
更多的人	-7890.0
▁float	-7891.0
▁response	-7892.0
YY	-7893.0
指代	-7894.0
荡漾	-7895.0
小男孩	-7896.0
表达出	-7897.0
▁请给我	-7898.0
▁生成一份	-7899.0
女儿	-7900.0
女生人数	-7901.0
然后使用	-7902.0
社交网络	-7903.0
易读	-7904.0
酱汁	-7905.0
折叠	-7906.0
▁电影	-7907.0
气候变化对	-7908.0
]。	-7909.0
拍照	-7910.0
还在	-7911.0
以确定	-7912.0
和控制	-7913.0
字左右	-7914.0
中文句子	-7915.0
坚持不懈	-7916.0
从这篇文章中提取出	-7917.0
倡导	-7918.0
认证	-7919.0
了不起	-7920.0
和交通	-7921.0
▁had	-7922.0
以下几点	-7923.0
这个世界	-7924.0
Windows	-7925.0
俱乐	-7926.0
南方	-7927.0
原料	-7928.0
▁摘要	-7929.0
明亮的	-7930.0
等功能	-7931.0
LECT	-7932.0
爱情的诗歌	-7933.0
生成一些	-7934.0
百年孤独	-7935.0
你可以通过	-7936.0
与我	-7937.0
意志	-7938.0
曲线	-7939.0
包括了	-7940.0
数的和	-7941.0
外国	-7942.0
常规	-7943.0
耐用	-7944.0
准确率	-7945.0
小故事	-7946.0
文言文	-7947.0
設計	-7948.0
为基础	-7949.0
二进制	-7950.0
模式和	-7951.0
等活动	-7952.0
();\	-7953.0
缓解焦虑	-7954.0
En	-7955.0
Me	-7956.0
结交	-7957.0
生活习惯	-7958.0
边界	-7959.0
关注的	-7960.0
炎热的	-7961.0
▁什么是	-7962.0
社交媒体平台	-7963.0
出口	-7964.0
或许	-7965.0
历史和	-7966.0
happy	-7967.0
小芳	-7968.0
根據	-7969.0
sub	-7970.0
运算符	-7971.0
time	-7972.0
推荐一款	-7973.0
会上	-7974.0
家电	-7975.0
缩短	-7976.0
股市	-7977.0
比特币	-7978.0
当您	-7979.0
诸多	-7980.0
()`	-7981.0
amb	-7982.0
口味和	-7983.0
▁年	-7984.0
无声	-7985.0
绿叶	-7986.0
系统中	-7987.0
中最重要的	-7988.0
减排	-7989.0
口味的	-7990.0
在这个季节里	-7991.0
卡片	-7992.0
和有	-7993.0
Net	-7994.0
到一个	-7995.0
的学习	-7996.0
能帮我	-7997.0
炒饭	-7998.0
拖延	-7999.0
结婚	-8000.0
最多的	-8001.0
金字	-8002.0
鸡翅	-8003.0
▁爱情	-8004.0
等任务	-8005.0
研究发现	-8006.0
英语口语	-8007.0
arget	-8008.0
为您提供帮助	-8009.0
校园	-8010.0
自然资源	-8011.0
ument	-8012.0
从而更好地	-8013.0
商家	-8014.0
相伴	-8015.0
太平洋	-8016.0
废弃物	-8017.0
打篮球	-8018.0
不管	-8019.0
下面是一	-8020.0
软件开发	-8021.0
▁à	-8022.0
噪音	-8023.0
困扰	-8024.0
的首都	-8025.0
这幅画	-8026.0
的一个重要	-8027.0
净化	-8028.0
金字塔	-8029.0
进行计算	-8030.0
南部	-8031.0
来临	-8032.0
▁定期	-8033.0
美妙的	-8034.0
也带来了	-8035.0
深入了解	-8036.0
辅助医生	-8037.0
我可以帮助您	-8038.0
与此	-8039.0
架构	-8040.0
壮观的	-8041.0
晒太阳	-8042.0
医学图像	-8043.0
思维方式	-8044.0
知识和技能	-8045.0
都市	-8046.0
在全球范围内	-8047.0
收藏	-8048.0
你希望	-8049.0
是由于	-8050.0
▁information	-8051.0
夜间	-8052.0
活跃	-8053.0
args	-8054.0
环保行动	-8055.0
分组	-8056.0
创立	-8057.0
力度	-8058.0
瑞士	-8059.0
行为的	-8060.0
记者	-8061.0
发动机	-8062.0
方法和	-8063.0
ited	-8064.0
科技新闻	-8065.0
蔬菜和水果	-8066.0
并按照	-8067.0
size	-8068.0
内在	-8069.0
农村	-8070.0
手臂	-8071.0
梦境	-8072.0
可能对	-8073.0
提高效率	-8074.0
未来城市	-8075.0
UT	-8076.0
高中	-8077.0
语言和	-8078.0
太阳系中	-8079.0
消费者的	-8080.0
焦虑和压力	-8081.0
给我推荐一些	-8082.0
我国	-8083.0
克里斯	-8084.0
avor	-8085.0
根据题意	-8086.0
▁also	-8087.0
非常感谢您的	-8088.0
▁program	-8089.0
找回	-8090.0
▁ve	-8091.0
公正的	-8092.0
变得更	-8093.0
作为一种	-8094.0
该公司的	-8095.0
非常出色	-8096.0
每日	-8097.0
江南	-8098.0
过多	-8099.0
程度上	-8100.0
Test	-8101.0
小写	-8102.0
进口	-8103.0
读者的	-8104.0
▁only	-8105.0
='	-8106.0
极地	-8107.0
红球	-8108.0
薯片	-8109.0
Col	-8110.0
和脂肪	-8111.0
▁sun	-8112.0
可能存在	-8113.0
我们的产品	-8114.0
美丽的海滩	-8115.0
四大	-8116.0
时节	-8117.0
问候	-8118.0
▁min	-8119.0
▁module	-8120.0
描绘了	-8121.0
摄像头	-8122.0
贾宝玉	-8123.0
这里有	-8124.0
▁mat	-8125.0
▁rec	-8126.0
感谢您的	-8127.0
的摄入量	-8128.0
还是其他	-8129.0
▁week	-8130.0
区的	-8131.0
ape	-8132.0
动植物	-8133.0
可爱的小	-8134.0
器材	-8135.0
對於	-8136.0
游记	-8137.0
You	-8138.0
和研究	-8139.0
幸福感	-8140.0
心中的	-8141.0
总结一下	-8142.0
续写古诗	-8143.0
自制	-8144.0
茶叶	-8145.0
雨水	-8146.0
快速的	-8147.0
▁写一首	-8148.0
结果表明	-8149.0
送给小红	-8150.0
发掘	-8151.0
电源	-8152.0
紧凑	-8153.0
出一些	-8154.0
成荫	-8155.0
法式	-8156.0
飞船	-8157.0
行业中	-8158.0
▁sup	-8159.0
义务	-8160.0
手指	-8161.0
高端	-8162.0
决赛	-8163.0
极限	-8164.0
谁是	-8165.0
医生的	-8166.0
力量训练	-8167.0
能够帮助您	-8168.0
大幅	-8169.0
女人	-8170.0
煸炒	-8171.0
表中	-8172.0
它不仅	-8173.0
>\	-8174.0
三文	-8175.0
荷兰	-8176.0
lib	-8177.0
很重要	-8178.0
的情绪	-8179.0
不同的人	-8180.0
热门话题	-8181.0
pi	-8182.0
惊悚	-8183.0
艰难	-8184.0
▁你的	-8185.0
减少碳排放	-8186.0
La	-8187.0
加大	-8188.0
文中	-8189.0
采集	-8190.0
sible	-8191.0
活泼	-8192.0
立体	-8193.0
全麦面包	-8194.0
翻译为中文	-8195.0
唐朝	-8196.0
洗手	-8197.0
脚步	-8198.0
制造商	-8199.0
穆斯林	-8200.0
现代社会中	-8201.0
英文句子翻译成中文	-8202.0
他送	-8203.0
去的	-8204.0
而非	-8205.0
可以增强	-8206.0
有一定的	-8207.0
好好	-8208.0
寺庙	-8209.0
狗和	-8210.0
▁di	-8211.0
▁sm	-8212.0
的一项	-8213.0
吹拂	-8214.0
等级	-8215.0
般的	-8216.0
:\[	-8217.0
▁fl	-8218.0
卡路里	-8219.0
可能有	-8220.0
坚韧	-8221.0
损坏	-8222.0
配上	-8223.0
友好的	-8224.0
历史悠久	-8225.0
市民	-8226.0
绘制	-8227.0
每个朋友可以分到	-8228.0
黑洞的	-8229.0
▁state	-8230.0
云南	-8231.0
益处	-8232.0
鲜美	-8233.0
arr	-8234.0
orry	-8235.0
ception	-8236.0
巴塞	-8237.0
音樂	-8238.0
▁检查	-8239.0
设备和	-8240.0
流行歌曲	-8241.0
经济增长	-8242.0
Bonjour	-8243.0
嬉戏	-8244.0
健身计划	-8245.0
平均分配	-8246.0
自由女神	-8247.0
II	-8248.0
随后	-8249.0
也是一种	-8250.0
▁inst	-8251.0
毛衣	-8252.0
登录	-8253.0
企业家	-8254.0
这种方法	-8255.0
▁写一篇有关	-8256.0
我们应该尊重	-8257.0
多年	-8258.0
进行比较	-8259.0
各种不同的	-8260.0
▁完成	-8261.0
您应该	-8262.0
並且	-8263.0
印刷	-8264.0
手里	-8265.0
料酒	-8266.0
用词	-8267.0
算式	-8268.0
走路	-8269.0
服务和	-8270.0
林黛玉	-8271.0
了吗	-8272.0
主要内容	-8273.0
我们也需要	-8274.0
好评	-8275.0
朵花	-8276.0
警惕	-8277.0
它使用	-8278.0
比其他	-8279.0
形成一个	-8280.0
问他	-8281.0
方式来	-8282.0
身心健康	-8283.0
最终的答案是	-8284.0
▁answer	-8285.0
人力	-8286.0
保护和	-8287.0
副作用	-8288.0
▁从以下文本中提取	-8289.0
一支	-8290.0
是从	-8291.0
怎么办	-8292.0
人脸识别	-8293.0
足球比赛	-8294.0
▁look	-8295.0
▁给定以下	-8296.0
平等的机会	-8297.0
力量和	-8298.0
新能源	-8299.0
几颗糖果	-8300.0
心理咨询师	-8301.0
亲密	-8302.0
搞笑	-8303.0
我感到	-8304.0
HTML	-8305.0
日记	-8306.0
明智	-8307.0
▁技术	-8308.0
喜好和	-8309.0
违反了	-8310.0
ped	-8311.0
将这个	-8312.0
推动了	-8313.0
▁order	-8314.0
As	-8315.0
事务	-8316.0
俯卧	-8317.0
如何影响	-8318.0
购物中心	-8319.0
可是	-8320.0
和无	-8321.0
所未	-8322.0
梦中	-8323.0
环节	-8324.0
▁<<	-8325.0
是一道	-8326.0
在这篇文章中	-8327.0
掌控	-8328.0
雕塑	-8329.0
net	-8330.0
了不起的	-8331.0
推理过程	-8332.0
依次	-8333.0
单独	-8334.0
wit	-8335.0
希望能	-8336.0
要保持	-8337.0
可以分为	-8338.0
▁feel	-8339.0
LO	-8340.0
千里	-8341.0
菠萝	-8342.0
迭代	-8343.0
可以采取	-8344.0
身体状况	-8345.0
其在	-8346.0
平板	-8347.0
欢笑	-8348.0
一下吗	-8349.0
三文鱼	-8350.0
应该被	-8351.0
聪明的	-8352.0
伦理问题	-8353.0
可以被分类为	-8354.0
为止	-8355.0
热点	-8356.0
草坪	-8357.0
lex	-8358.0
▁Cl	-8359.0
主要的	-8360.0
的开头	-8361.0
的铅笔	-8362.0
航空公司	-8363.0
这部电影的	-8364.0
▁orange	-8365.0
售价	-8366.0
深刻地	-8367.0
▁message	-8368.0
ROM	-8369.0
ird	-8370.0
主题或	-8371.0
精美的	-8372.0
▁way	-8373.0
根据你的	-8374.0
请问有什么	-8375.0
每个朋友可以得到	-8376.0
可信	-8377.0
理财	-8378.0
家庭的	-8379.0
日期是	-8380.0
进行调整	-8381.0
国王	-8382.0
浓度	-8383.0
谈谈	-8384.0
阻止	-8385.0
来自于	-8386.0
usic	-8387.0
index	-8388.0
import	-8389.0
算术	-8390.0
▁然后	-8391.0
在夏天	-8392.0
该问题	-8393.0
▁going	-8394.0
▁引	-8395.0
诺贝尔	-8396.0
puter	-8397.0
可以更好地	-8398.0
俯卧撑	-8399.0
和自我	-8400.0
单词列表	-8401.0
正方形的	-8402.0
#{	-8403.0
中式	-8404.0
了一次	-8405.0
▁une	-8406.0
通过分析	-8407.0
一个简单的	-8408.0
$。	-8409.0
愤怒	-8410.0
的方向	-8411.0
第三方	-8412.0
当地美食	-8413.0
南瓜	-8414.0
市场份额	-8415.0
用户输入	-8416.0
充实	-8417.0
过了	-8418.0
俱乐部	-8419.0
公正和	-8420.0
▁生成一首诗歌	-8421.0
oe	-8422.0
件人	-8423.0
少量	-8424.0
以下句子进行	-8425.0
原价	-8426.0
开源	-8427.0
礼貌	-8428.0
中添加	-8429.0
有多少个	-8430.0
太阳能电池	-8431.0
何处	-8432.0
所给	-8433.0
排球	-8434.0
游玩	-8435.0
的山	-8436.0
的长	-8437.0
黄山	-8438.0
再加上	-8439.0
那里的	-8440.0
那么这个	-8441.0
传奇	-8442.0
▁给你	-8443.0
人名和	-8444.0
但我可以	-8445.0
最低气温	-8446.0
范围内的	-8447.0
与其	-8448.0
厨师	-8449.0
用作	-8450.0
骨头	-8451.0
of	-8452.0
sc	-8453.0
备份	-8454.0
演示	-8455.0
。”"	-8456.0
即可得到	-8457.0
喜马拉雅山脉	-8458.0
])	-8459.0
回来	-8460.0
摆脱	-8461.0
系数	-8462.0
缺陷	-8463.0
体现了	-8464.0
和未来	-8465.0
一些问题	-8466.0
增强现实	-8467.0
毅力	-8468.0
适用	-8469.0
▁公司	-8470.0
外星人	-8471.0
的商品	-8472.0
gest	-8473.0
尽量避免	-8474.0
浓缩咖啡	-8475.0
Id	-8476.0
▁秋	-8477.0
权力	-8478.0
不公平	-8479.0
这是我	-8480.0
▁first	-8481.0
极具	-8482.0
小猫咪	-8483.0
创造力和	-8484.0
Microsoft	-8485.0
勇士	-8486.0
在学校	-8487.0
ices	-8488.0
true	-8489.0
▁key	-8490.0
可以降低	-8491.0
他还	-8492.0
平底	-8493.0
王国	-8494.0
醒来	-8495.0
opy	-8496.0
建筑和	-8497.0
比小明	-8498.0
陌生人	-8499.0
▁tem	-8500.0
特的	-8501.0
膨胀	-8502.0
被告	-8503.0
酒精	-8504.0
可以采用	-8505.0
祝您	-8506.0
赞扬	-8507.0
的精神	-8508.0
inal	-8509.0
▁beautiful	-8510.0
天堂	-8511.0
押韵	-8512.0
言论	-8513.0
进度	-8514.0
▁An	-8515.0
欣赏到	-8516.0
遇到的	-8517.0
▁...	-8518.0
它们可以	-8519.0
每个单词	-8520.0
了一项	-8521.0
影响力	-8522.0
代入公式	-8523.0
遍历	-8524.0
HER	-8525.0
方便地	-8526.0
相结合	-8527.0
这里是	-8528.0
▁user	-8529.0
愿望	-8530.0
遗迹	-8531.0
CEO	-8532.0
计划和	-8533.0
▁fil	-8534.0
的主题是	-8535.0
简短的摘要	-8536.0
病历	-8537.0
ote	-8538.0
去旅行	-8539.0
斐波那契数列	-8540.0
肿瘤	-8541.0
随风	-8542.0
pet	-8543.0
孤独的	-8544.0
塑料垃圾	-8545.0
以下是一篇	-8546.0
供您	-8547.0
条件下	-8548.0
▁reg	-8549.0
▁sur	-8550.0
这些活动	-8551.0
击败	-8552.0
旁边	-8553.0
起舞	-8554.0
珍贵的	-8555.0
西兰花	-8556.0
sqrt	-8557.0
小明今天	-8558.0
table	-8559.0
请在	-8560.0
不得不	-8561.0
的词汇	-8562.0
▁Smith	-8563.0
作者的	-8564.0
和改进	-8565.0
首先要	-8566.0
format	-8567.0
>>	-8568.0
丰收	-8569.0
前面	-8570.0
壮观	-8571.0
action	-8572.0
族裔	-8573.0
泊尔	-8574.0
原因是	-8575.0
投资组合	-8576.0
社交活动	-8577.0
像人类一样	-8578.0
中秋	-8579.0
你所	-8580.0
好书	-8581.0
火焰	-8582.0
和探索	-8583.0
应用的	-8584.0
积极的情感	-8585.0
绳子	-8586.0
还将	-8587.0
maz	-8588.0
共同的	-8589.0
其中有	-8590.0
北京的	-8591.0
耐心和	-8592.0
平均分给他的	-8593.0
原创	-8594.0
液体	-8595.0
芯片	-8596.0
在他的	-8597.0
自身的	-8598.0
帮助他们	-8599.0
▁tell	-8600.0
上去	-8601.0
他决定	-8602.0
促进了	-8603.0
苹果和	-8604.0
英文短语	-8605.0
AD	-8606.0
书店	-8607.0
买到	-8608.0
嫌疑	-8609.0
帽子	-8610.0
珠宝	-8611.0
▁__	-8612.0
弥漫着	-8613.0
▁max	-8614.0
)^	-8615.0
赋予	-8616.0
回家的	-8617.0
快速地	-8618.0
旧金山	-8619.0
▁当	-8620.0
听众	-8621.0
税收	-8622.0
统治	-8623.0
探险家	-8624.0
最多可以	-8625.0
英语句子	-8626.0
这段文本中	-8627.0
他们的对话内容	-8628.0
充分的	-8629.0
故事中	-8630.0
ference	-8631.0
涂上	-8632.0
和主题	-8633.0
是否是	-8634.0
翻译的	-8635.0
人工智能系统	-8636.0
分辨	-8637.0
咳嗽	-8638.0
样子	-8639.0
进球	-8640.0
不客气	-8641.0
化妆品	-8642.0
因为我	-8643.0
大量数据	-8644.0
ething	-8645.0
IMD	-8646.0
在许多	-8647.0
ball	-8648.0
▁try	-8649.0
以上是一些	-8650.0
▁给定一个句子	-8651.0
手动	-8652.0
模拟人类	-8653.0
._	-8654.0
特效	-8655.0
And	-8656.0
起源于	-8657.0
表达了对	-8658.0
住在	-8659.0
赛事	-8660.0
倾向于	-8661.0
平均值为	-8662.0
是否需要	-8663.0
▁高	-8664.0
上市	-8665.0
十足	-8666.0
无关	-8667.0
▁上海	-8668.0
人性的	-8669.0
独立的	-8670.0
各个方面	-8671.0
的时间和	-8672.0
我们需要采取	-8673.0
使命	-8674.0
妻子	-8675.0
局限	-8676.0
帅气	-8677.0
日期信息	-8678.0
被动语态	-8679.0
我将帮助您	-8680.0
([	-8681.0
la	-8682.0
免受	-8683.0
唯一的	-8684.0
的冒险	-8685.0
▁did	-8686.0
爬行动物	-8687.0
元音	-8688.0
yes	-8689.0
添加到	-8690.0
叶斯	-8691.0
杯中	-8692.0
跑了	-8693.0
阿拉	-8694.0
比分	-8695.0
竹子	-8696.0
那就	-8697.0
高达	-8698.0
非常棒	-8699.0
绿树成荫	-8700.0
▁fact	-8701.0
之下	-8702.0
依旧	-8703.0
唯有	-8704.0
标语	-8705.0
舞台	-8706.0
akes	-8707.0
▁fam	-8708.0
少数民族	-8709.0
请给我一些	-8710.0
点点	-8711.0
確保	-8712.0
玩游戏	-8713.0
生成一个包含	-8714.0
▁假	-8715.0
一对	-8716.0
肥胖	-8717.0
把这个	-8718.0
最具	-8719.0
▁je	-8720.0
问一下	-8721.0
ming	-8722.0
▁mon	-8723.0
外表	-8724.0
差距	-8725.0
滋润	-8726.0
發現	-8727.0
并尝试	-8728.0
的人生	-8729.0
银河系	-8730.0
iron	-8731.0
你的问题	-8732.0
他开始	-8733.0
join	-8734.0
▁山	-8735.0
影响到	-8736.0
抗氧化	-8737.0
描述的	-8738.0
▁log	-8739.0
交响	-8740.0
伸展	-8741.0
哑铃	-8742.0
cul	-8743.0
函数的	-8744.0
这些因素	-8745.0
会被	-8746.0
安慰	-8747.0
清晰的	-8748.0
less	-8749.0
安全性和	-8750.0
以内	-8751.0
去世	-8752.0
加速度	-8753.0
填入	-8754.0
带领	-8755.0
星光	-8756.0
贝叶斯	-8757.0
会儿	-8758.0
变形	-8759.0
外面	-8760.0
湛蓝	-8761.0
监狱	-8762.0
还原	-8763.0
预定	-8764.0
Int	-8765.0
回到了	-8766.0
巴塞罗	-8767.0
职业生涯	-8768.0
该怎么办	-8769.0
产生负面影响	-8770.0
健康的生活方式	-8771.0
享有	-8772.0
地说	-8773.0
洗净	-8774.0
而来	-8775.0
递归	-8776.0
不断学习和	-8777.0
▁provid	-8778.0
▁根据提供的文本	-8779.0
从高	-8780.0
截止	-8781.0
每只	-8782.0
诉讼	-8783.0
这对	-8784.0
我将尽力	-8785.0
相思	-8786.0
被困	-8787.0
▁du	-8788.0
人类和	-8789.0
的一切	-8790.0
给我几个	-8791.0
▁Java	-8792.0
▁type	-8793.0
机器学习是	-8794.0
以下句子中的	-8795.0
因其	-8796.0
秋冬	-8797.0
▁加强	-8798.0
热门的	-8799.0
的年龄	-8800.0
希望能够	-8801.0
We	-8802.0
全谷	-8803.0
想起	-8804.0
散射	-8805.0
类的	-8806.0
ats	-8807.0
选项中	-8808.0
都具有	-8809.0
▁mor	-8810.0
巴塞罗那	-8811.0
通常包括	-8812.0
他又	-8813.0
将来	-8814.0
并提出	-8815.0
预测和	-8816.0
▁对给定的	-8817.0
从小到大的	-8818.0
top	-8819.0
的地区	-8820.0
我的朋友	-8821.0
自由女神像	-8822.0
弯曲	-8823.0
得很	-8824.0
农历	-8825.0
一部电影	-8826.0
▁请告诉我	-8827.0
的关键信息	-8828.0
意为	-8829.0
野外	-8830.0
▁//	-8831.0
▁今天	-8832.0
星期五	-8833.0
的普及	-8834.0
mo	-8835.0
糖果数	-8836.0
上下文信息	-8837.0
我可以为你	-8838.0
人称	-8839.0
光滑	-8840.0
决心	-8841.0
天下	-8842.0
竞技	-8843.0
并不能	-8844.0
許多	-8845.0
跳绳	-8846.0
需要进一步	-8847.0
是一种常见的	-8848.0
人们会	-8849.0
在处理	-8850.0
尼泊尔	-8851.0
这可能	-8852.0
tfor	-8853.0
你可以去	-8854.0
撰写一篇	-8855.0
机器学习模型	-8856.0
生气	-8857.0
行李	-8858.0
将文本	-8859.0
红烧肉	-8860.0
器的	-8861.0
相乘	-8862.0
调试	-8863.0
运作	-8864.0
和美食	-8865.0
数学书	-8866.0
ique	-8867.0
新冠病毒	-8868.0
更多的信息	-8869.0
等多个领域	-8870.0
到您	-8871.0
协同	-8872.0
钱包	-8873.0
将所有	-8874.0
比萨饼	-8875.0
个小	-8876.0
常数	-8877.0
漏洞	-8878.0
腌制	-8879.0
▁sent	-8880.0
得知	-8881.0
包裹	-8882.0
已有	-8883.0
畅销	-8884.0
听到了	-8885.0
从小到大	-8886.0
rough	-8887.0
了不起的盖茨比	-8888.0
维生素和矿物质	-8889.0
次方	-8890.0
适中	-8891.0
der	-8892.0
以达到	-8893.0
可以促进	-8894.0
等于多少	-8895.0
▁false	-8896.0
▁expect	-8897.0
因人	-8898.0
打败	-8899.0
电磁	-8900.0
今年的	-8901.0
有关的	-8902.0
如下所示	-8903.0
作物	-8904.0
切片	-8905.0
稍微	-8906.0
正在寻找	-8907.0
也可以通过	-8908.0
任何形式的	-8909.0
排除	-8910.0
见解	-8911.0
起点	-8912.0
了他的	-8913.0
ways	-8914.0
这是一款	-8915.0
随着人工智能技术的	-8916.0
深邃	-8917.0
时间为	-8918.0
能源的	-8919.0
发现了一	-8920.0
进行选择	-8921.0
Value	-8922.0
我非常喜欢	-8923.0
SV	-8924.0
一块	-8925.0
产权	-8926.0
男生和	-8927.0
关于如何	-8928.0
当今社会	-8929.0
我会为您	-8930.0
velop	-8931.0
好看的小说	-8932.0
更好地理解和	-8933.0
索引	-8934.0
见面	-8935.0
诚实	-8936.0
诸如	-8937.0
轻柔	-8938.0
部署	-8939.0
将更加	-8940.0
的温度	-8941.0
的第一	-8942.0
demy	-8943.0
当下	-8944.0
敌人	-8945.0
种种	-8946.0
Ver	-8947.0
灵活性	-8948.0
的美景	-8949.0
胡椒粉	-8950.0
可以包括	-8951.0
智能交通	-8952.0
分裂	-8953.0
▁介绍	-8954.0
进行训练	-8955.0
滥用	-8956.0
▁我想	-8957.0
真实的	-8958.0
alth	-8959.0
iter	-8960.0
科技进步	-8961.0
随着科技的	-8962.0
五年	-8963.0
很久	-8964.0
服務	-8965.0
源于	-8966.0
吸引更多的	-8967.0
人工智能在医疗行业	-8968.0
发酵	-8969.0
家有	-8970.0
恋爱	-8971.0
狩猎	-8972.0
都不	-8973.0
ons	-8974.0
在选择	-8975.0
并采取	-8976.0
快乐的	-8977.0
让观众	-8978.0
▁enjoy	-8979.0
一台	-8980.0
奇迹	-8981.0
您所	-8982.0
her	-8983.0
可重复	-8984.0
系统和	-8985.0
总部位于	-8986.0
▁where	-8987.0
长达	-8988.0
anc	-8989.0
ung	-8990.0
Inst	-8991.0
▁rel	-8992.0
的糖果数量	-8993.0
减少温室气体排放	-8994.0
EN	-8995.0
两组	-8996.0
反向	-8997.0
或使用	-8998.0
▁movi	-8999.0
resent	-9000.0
加油	-9001.0
后代	-9002.0
▁sc	-9003.0
和歧视	-9004.0
建立了	-9005.0
旅行中	-9006.0
重新排列	-9007.0
得了	-9008.0
拿着	-9009.0
鸡丁	-9010.0
黑人	-9011.0
▁单词	-9012.0
rate	-9013.0
▁为一个	-9014.0
自己的情绪	-9015.0
集中注意力	-9016.0
叫声	-9017.0
这张	-9018.0
前所未	-9019.0
ments	-9020.0
icense	-9021.0
▁在给定的文本中	-9022.0
加厚	-9023.0
注入	-9024.0
营业	-9025.0
街上	-9026.0
高于	-9027.0
对不起	-9028.0
的措施	-9029.0
的基础上	-9030.0
深度学习技术	-9031.0
司机	-9032.0
地下	-9033.0
更大	-9034.0
落日	-9035.0
预警	-9036.0
不平等	-9037.0
历史的	-9038.0
相似的	-9039.0
reen	-9040.0
鼓励人们	-9041.0
这是一篇关于	-9042.0
,`	-9043.0
哥伦	-9044.0
终点	-9045.0
饺子	-9046.0
▁De	-9047.0
手里有	-9048.0
根据这个	-9049.0
联系方式	-9050.0
那么请问	-9051.0
achine	-9052.0
得到广泛应用	-9053.0
焦点	-9054.0
蒸汽	-9055.0
BMI	-9056.0
als	-9057.0
但是在	-9058.0
的动作	-9059.0
的短文	-9060.0
写的文章	-9061.0
仪式	-9062.0
奶泡	-9063.0
队的	-9064.0
lob	-9065.0
安全问题	-9066.0
▁could	-9067.0
以下是一些可能	-9068.0
电影中	-9069.0
相当于	-9070.0
等都是	-9071.0
实体识别	-9072.0
缤纷	-9073.0
VID	-9074.0
世界里	-9075.0
使我们	-9076.0
标志性	-9077.0
的出现	-9078.0
创作一个	-9079.0
电视节目	-9080.0
的主要观点是	-9081.0
。[	-9082.0
遇见	-9083.0
雇主	-9084.0
骑车	-9085.0
▁概括	-9086.0
出生于	-9087.0
改写成	-9088.0
的面积	-9089.0
交通方式	-9090.0
全球气温	-9091.0
负面情绪	-9092.0
ublic	-9093.0
对你有所帮助	-9094.0
解释一下什么是	-9095.0
].	-9096.0
大众	-9097.0
的心	-9098.0
线路	-9099.0
▁答案	-9100.0
听力	-9101.0
每月	-9102.0
粉丝	-9103.0
ref	-9104.0
明天的天气	-9105.0
;-	-9106.0
▁)	-9107.0
两者	-9108.0
作曲	-9109.0
好吧	-9110.0
怀疑	-9111.0
樱花	-9112.0
的花	-9113.0
的制作	-9114.0
的趋势	-9115.0
不断提高	-9116.0
三分	-9117.0
依靠	-9118.0
公路	-9119.0
友善	-9120.0
汤匙	-9121.0
是一件	-9122.0
象征着	-9123.0
▁And	-9124.0
相似之处	-9125.0
▁person	-9126.0
专辑	-9127.0
field	-9128.0
ha	-9129.0
的分类	-9130.0
速度和	-9131.0
rase	-9132.0
▁loc	-9133.0
▁ver	-9134.0
尝试新的	-9135.0
降低成本	-9136.0
ervice	-9137.0
世界上最大的	-9138.0
斗争	-9139.0
要有	-9140.0
健康生活	-9141.0
如果没有	-9142.0
今天天气真好	-9143.0
为一	-9144.0
对我	-9145.0
黄河	-9146.0
但我们	-9147.0
应该在	-9148.0
中的重要	-9149.0
计算一下	-9150.0
ential	-9151.0
的影响的文章	-9152.0
某人	-9153.0
看来	-9154.0
很乐意	-9155.0
交通运输	-9156.0
▁walk	-9157.0
秋天的诗歌	-9158.0
▁request	-9159.0
意境	-9160.0
构思	-9161.0
颗粒	-9162.0
人数的	-9163.0
心理治疗	-9164.0
节约用水	-9165.0
ession	-9166.0
▁请生成一个	-9167.0
可以被归类为	-9168.0
▁回答以下问题	-9169.0
保护我们的地球	-9170.0
。。	-9171.0
口袋	-9172.0
型男	-9173.0
威尔	-9174.0
精细	-9175.0
统计学	-9176.0
这个任务	-9177.0
需要采取	-9178.0
ourse	-9179.0
因素的影响	-9180.0
▁table	-9181.0
待办	-9182.0
砍伐	-9183.0
纳米	-9184.0
鸟语	-9185.0
▁Ar	-9186.0
打电话	-9187.0
。```	-9188.0
因人而异	-9189.0
人民共和国	-9190.0
][	-9191.0
咖喱	-9192.0
绿茶	-9193.0
起到	-9194.0
以适应	-9195.0
建议和	-9196.0
感受和	-9197.0
code	-9198.0
全球经济	-9199.0
是珠穆朗玛峰	-9200.0
bl	-9201.0
機器	-9202.0
逃离	-9203.0
但最终	-9204.0
▁cap	-9205.0
小明手里有	-9206.0
▁config	-9207.0
▁product	-9208.0
打折	-9209.0
选出	-9210.0
的天空	-9211.0
的总数	-9212.0
基因编辑	-9213.0
是多	-9214.0
env	-9215.0
不属于	-9216.0
他想要	-9217.0
valid	-9218.0
▁rest	-9219.0
人工智能已经	-9220.0
今日	-9221.0
深的	-9222.0
质地	-9223.0
防水	-9224.0
首都	-9225.0
▁ext	-9226.0
tWrite	-9227.0
感官	-9228.0
眼神	-9229.0
防护	-9230.0
总结出	-9231.0
防晒霜	-9232.0
▁never	-9233.0
人机	-9234.0
加坡	-9235.0
短缺	-9236.0
新西兰	-9237.0
以及其他	-9238.0
ns	-9239.0
说的	-9240.0
闪闪	-9241.0
鳄鱼	-9242.0
▁牛奶	-9243.0
或多个	-9244.0
是一首	-9245.0
的经历	-9246.0
可以帮我	-9247.0
关于夏天的诗歌	-9248.0
拿出	-9249.0
深夜	-9250.0
dir	-9251.0
和测试	-9252.0
才能够	-9253.0
的现象	-9254.0
的可能性	-9255.0
plication	-9256.0
花费了	-9257.0
静静地	-9258.0
Text	-9259.0
听起来不错	-9260.0
这篇文章的	-9261.0
▁before	-9262.0
列车	-9263.0
省份	-9264.0
黑白	-9265.0
CNN	-9266.0
个数字	-9267.0
有机会	-9268.0
Item	-9269.0
from	-9270.0
这是一本	-9271.0
的应用场景	-9272.0
起始	-9273.0
青蛙	-9274.0
为主要	-9275.0
公司在	-9276.0
▁ser	-9277.0
▁sort	-9278.0
帮我想一下	-9279.0
美好的未来	-9280.0
借助	-9281.0
做饭	-9282.0
五言诗	-9283.0
有利于	-9284.0
解方程	-9285.0
听听	-9286.0
蜘蛛	-9287.0
你最近	-9288.0
▁len	-9289.0
工作压力	-9290.0
周边	-9291.0
短期	-9292.0
可能在	-9293.0
委员会	-9294.0
短篇小说	-9295.0
这些单词	-9296.0
大蒜	-9297.0
沉默	-9298.0
铁路	-9299.0
根据个人	-9300.0
之间的距离	-9301.0
大量的数据	-9302.0
我可以为您提供	-9303.0
AL	-9304.0
珍贵	-9305.0
▁sa	-9306.0
找一个	-9307.0
深度学习算法	-9308.0
立场	-9309.0
aur	-9310.0
三个人	-9311.0
匆匆	-9312.0
印花	-9313.0
将被	-9314.0
广东	-9315.0
店铺	-9316.0
谜题	-9317.0
ets	-9318.0
▁现在	-9319.0
是一種	-9320.0
的总和	-9321.0
在我们的	-9322.0
构建一个	-9323.0
▁春	-9324.0
光明	-9325.0
迷人	-9326.0
等各种	-9327.0
营养成分	-9328.0
▁favor	-9329.0
去过	-9330.0
名人	-9331.0
羊肉	-9332.0
他喜欢	-9333.0
第二次	-9334.0
问题需要	-9335.0
ision	-9336.0
但她	-9337.0
各地	-9338.0
接口	-9339.0
给他	-9340.0
更多地	-9341.0
ains	-9342.0
gener	-9343.0
提供个性化的	-9344.0
可见	-9345.0
设立	-9346.0
面前	-9347.0
风情	-9348.0
amp	-9349.0
和音乐	-9350.0
什么时候	-9351.0
以下公式	-9352.0
的价格为	-9353.0
这取决于	-9354.0
按照字母顺序	-9355.0
填充	-9356.0
女主角	-9357.0
我们来	-9358.0
▁rem	-9359.0
Is	-9360.0
一把	-9361.0
倍数	-9362.0
姑娘	-9363.0
犹豫	-9364.0
璀璨	-9365.0
笑容	-9366.0
音箱	-9367.0
峡谷	-9368.0
杏仁	-9369.0
队员	-9370.0
ius	-9371.0
会议上	-9372.0
特色的	-9373.0
现有的	-9374.0
的要求	-9375.0
英文文章	-9376.0
▁example	-9377.0
商标	-9378.0
干预	-9379.0
rem	-9380.0
自由的	-9381.0
传统节日	-9382.0
出自	-9383.0
彼得	-9384.0
深厚	-9385.0
添加一些	-9386.0
输出结果为	-9387.0
传来	-9388.0
快递	-9389.0
藝術	-9390.0
New	-9391.0
免费的	-9392.0
init	-9393.0
UR	-9394.0
桃花	-9395.0
用电	-9396.0
豆瓣	-9397.0
不仅是	-9398.0
个小球	-9399.0
和风险	-9400.0
都能够	-9401.0
▁Par	-9402.0
也为	-9403.0
大楼	-9404.0
▁mu	-9405.0
浏览器	-9406.0
我们知道	-9407.0
时间和精力	-9408.0
翻译成现代	-9409.0
秒钟	-9410.0
糖醋	-9411.0
GDP	-9412.0
让我们的	-9413.0
到低	-9414.0
存款	-9415.0
整洁	-9416.0
有很大的	-9417.0
治疗效果	-9418.0
注意事项	-9419.0
▁best	-9420.0
De	-9421.0
TI	-9422.0
一股	-9423.0
眼镜	-9424.0
简述	-9425.0
这片	-9426.0
▁寻找	-9427.0
历史文化	-9428.0
巴黎圣母院	-9429.0
余晖	-9430.0
毁灭	-9431.0
疾病诊断	-9432.0
这个季节	-9433.0
另一种语言	-9434.0
星座	-9435.0
王子	-9436.0
和自然	-9437.0
和饮料	-9438.0
幸福的	-9439.0
魔法师	-9440.0
atic	-9441.0
▁article	-9442.0
床上	-9443.0
恶劣	-9444.0
晚宴	-9445.0
车型	-9446.0
威尼斯	-9447.0
必不可	-9448.0
这道菜	-9449.0
之間	-9450.0
出租车	-9451.0
有一种	-9452.0
ious	-9453.0
▁将一段	-9454.0
在某些情况下	-9455.0
保護	-9456.0
杭州	-9457.0
创意的	-9458.0
▁mult	-9459.0
将其分类为	-9460.0
公约	-9461.0
因果	-9462.0
个学生	-9463.0
制成的	-9464.0
基因组	-9465.0
组织和	-9466.0
ized	-9467.0
他的作品	-9468.0
深度学习和	-9469.0
append	-9470.0
▁better	-9471.0
士尼	-9472.0
素材	-9473.0
是哪里	-9474.0
特征和	-9475.0
现代化	-9476.0
目前的	-9477.0
迪士尼	-9478.0
需要对	-9479.0
logy	-9480.0
▁在一个	-9481.0
给我列出	-9482.0
可以帮助我	-9483.0
的重要因素	-9484.0
不论	-9485.0
到底	-9486.0
听着	-9487.0
最有	-9488.0
个橘子	-9489.0
研究的	-9490.0
ango	-9491.0
An	-9492.0
储蓄	-9493.0
快捷	-9494.0
清明	-9495.0
▁鸡蛋	-9496.0
更详细	-9497.0
相似性	-9498.0
以下几种	-9499.0
学位	-9500.0
实木	-9501.0
援助	-9502.0
韵律	-9503.0
人类对	-9504.0
来减少	-9505.0
HERE	-9506.0
cond	-9507.0
按字母顺序排序	-9508.0
防御	-9509.0
和问题	-9510.0
為什麼	-9511.0
纤维素	-9512.0
需要多	-9513.0
一个有趣的	-9514.0
人工智能助手	-9515.0
▁morning	-9516.0
▁海	-9517.0
》;	-9518.0
联赛	-9519.0
陶瓷	-9520.0
雨伞	-9521.0
会不会	-9522.0
的人们	-9523.0
自适应	-9524.0
tuse	-9525.0
代表性的	-9526.0
do	-9527.0
出售	-9528.0
反复	-9529.0
学的	-9530.0
延长	-9531.0
是我的	-9532.0
的饮食	-9533.0
重大的	-9534.0
一组数字	-9535.0
最后一个	-9536.0
金融服务	-9537.0
▁cult	-9538.0
▁dist	-9539.0
每个朋友能分到	-9540.0
加州	-9541.0
去处	-9542.0
想去	-9543.0
正则	-9544.0
油画	-9545.0
漂流	-9546.0
防范	-9547.0
不能被	-9548.0
应该得到	-9549.0
▁something	-9550.0
不久	-9551.0
所属	-9552.0
▁学会	-9553.0
揭示了	-9554.0
使用一些	-9555.0
▁创造一个	-9556.0
▁重写以下句子	-9557.0
看过	-9558.0
因此在	-9559.0
每年的	-9560.0
▁error	-9561.0
认同	-9562.0
来判断	-9563.0
注意到	-9564.0
这个短语	-9565.0
▁根据输入的	-9566.0
把握	-9567.0
期限	-9568.0
罗琳	-9569.0
预处理	-9570.0
view	-9571.0
它由	-9572.0
著作	-9573.0
stru	-9574.0
交通事故	-9575.0
商品描述	-9576.0
市场趋势	-9577.0
▁just	-9578.0
这篇文章主要	-9579.0
工人	-9580.0
气味	-9581.0
清水	-9582.0
这时	-9583.0
神奇的	-9584.0
一种新型	-9585.0
的代表作	-9586.0
的信息和	-9587.0
人工智能在医学	-9588.0
仰卧	-9589.0
命题	-9590.0
map	-9591.0
总体来说	-9592.0
自动化和	-9593.0
问题的答案	-9594.0
作息	-9595.0
夫妻	-9596.0
权重	-9597.0
梦幻	-9598.0
DIY	-9599.0
而有所不同	-9600.0
说说	-9601.0
的背景	-9602.0
营造出	-9603.0
▁ask	-9604.0
我们才能	-9605.0
弟弟	-9606.0
途中	-9607.0
骨骼	-9608.0
也无法	-9609.0
学生们	-9610.0
了自己的	-9611.0
提供各种	-9612.0
非常受欢迎的	-9613.0
发达	-9614.0
悠悠	-9615.0
杀手	-9616.0
珍珠	-9617.0
部和	-9618.0
龙虾	-9619.0
▁水果	-9620.0
朋友的	-9621.0
的食谱	-9622.0
装饰品	-9623.0
▁correct	-9624.0
▁Sentence	-9625.0
db	-9626.0
加以	-9627.0
杜甫	-9628.0
下一步	-9629.0
物质的	-9630.0
nder	-9631.0
正确答案	-9632.0
▁field	-9633.0
▁given	-9634.0
手上	-9635.0
额外	-9636.0
Host	-9637.0
ocol	-9638.0
圆的面积	-9639.0
你是否	-9640.0
图像和	-9641.0
集中在	-9642.0
▁went	-9643.0
Em	-9644.0
使它	-9645.0
柔韧	-9646.0
餐桌	-9647.0
的挑战	-9648.0
请计算	-9649.0
▁acc	-9650.0
▁FROM	-9651.0
我们可以得出	-9652.0
健康饮食的文章	-9653.0
举个	-9654.0
勃勃	-9655.0
如果您对	-9656.0
▁无	-9657.0
持有	-9658.0
笑语	-9659.0
问句	-9660.0
发展和	-9661.0
本文介绍了	-9662.0
orange	-9663.0
协商	-9664.0
指的	-9665.0
电流	-9666.0
礼仪	-9667.0
数量的	-9668.0
comm	-9669.0
是一种基于	-9670.0
是中国古代	-9671.0
通常指的是	-9672.0
El	-9673.0
是以	-9674.0
组织的	-9675.0
这样做	-9676.0
▁根据以下输入	-9677.0
暴露	-9678.0
古希腊	-9679.0
智能机器人	-9680.0
在日常生活中	-9681.0
▁热	-9682.0
存在于	-9683.0
小女孩	-9684.0
运动的	-9685.0
您的要求	-9686.0
弹性	-9687.0
爪子	-9688.0
><	-9689.0
以为	-9690.0
排骨	-9691.0
湿润	-9692.0
落下	-9693.0
div	-9694.0
head	-9695.0
▁York	-9696.0
▁去	-9697.0
心里	-9698.0
配菜	-9699.0
品尝到	-9700.0
html	-9701.0
zure	-9702.0
我想知道如何	-9703.0
的历史和文化	-9704.0
灯泡	-9705.0
率为	-9706.0
那样	-9707.0
执行任务	-9708.0
▁翻译成中文	-9709.0
温室气体的排放	-9710.0
文具	-9711.0
日在	-9712.0
极为	-9713.0
秩序	-9714.0
时间段	-9715.0
相对较	-9716.0
是否符合	-9717.0
有趣的事情	-9718.0
这样我就能	-9719.0
▁numbers	-9720.0
两条	-9721.0
▁张三	-9722.0
实现的	-9723.0
▁trad	-9724.0
环境保护的文章	-9725.0
ón	-9726.0
据说	-9727.0
红叶	-9728.0
▁指令	-9729.0
世纪初	-9730.0
人物的	-9731.0
和方法	-9732.0
股票价格	-9733.0
这座城市	-9734.0
中华人民共和国	-9735.0
投诉	-9736.0
酱料	-9737.0
饲养	-9738.0
riv	-9739.0
yle	-9740.0
中包含	-9741.0
政府的	-9742.0
▁mut	-9743.0
软件工程师	-9744.0
佩戴	-9745.0
天赋	-9746.0
碰撞	-9747.0
它具有	-9748.0
只有一个	-9749.0
就业市场	-9750.0
避免使用	-9751.0
一个字符串	-9752.0
翻译成现代文	-9753.0
书法	-9754.0
公布	-9755.0
菠菜	-9756.0
多样性和	-9757.0
洗发	-9758.0
烈日	-9759.0
語言	-9760.0
表面的	-9761.0
可能会有	-9762.0
金融机构	-9763.0
需要多少	-9764.0
生成一篇关于	-9765.0
不已	-9766.0
从大	-9767.0
德里	-9768.0
截至	-9769.0
▁see	-9770.0
尝试一些	-9771.0
盐和黑胡椒	-9772.0
修辞	-9773.0
套装	-9774.0
辆车	-9775.0
离开了	-9776.0
是什么时候	-9777.0
场上	-9778.0
热的	-9779.0
都将	-9780.0
房间里	-9781.0
第二天	-9782.0
需要通过	-9783.0
全力	-9784.0
发育	-9785.0
寓意	-9786.0
建于	-9787.0
晚饭	-9788.0
短句	-9789.0
飓风	-9790.0
▁他们	-9791.0
▁进行	-9792.0
会发生	-9793.0
多样化的	-9794.0
度假胜地	-9795.0
telse	-9796.0
北京的天气	-9797.0
整合	-9798.0
泡沫	-9799.0
若干	-9800.0
▁sim	-9801.0
回答一个	-9802.0
上述文本进行	-9803.0
二次	-9804.0
领导者	-9805.0
高血压	-9806.0
可以找到	-9807.0
流浪地球	-9808.0
前所未有的	-9809.0
与您	-9810.0
几次	-9811.0
雪花	-9812.0
▁We	-9813.0
探测器	-9814.0
的旅程	-9815.0
的目的	-9816.0
让您的	-9817.0
可以带来	-9818.0
可以看出	-9819.0
response	-9820.0
名和	-9821.0
中获得	-9822.0
的一部	-9823.0
的细节	-9824.0
的表演	-9825.0
vert	-9826.0
产品名称	-9827.0
提取一下	-9828.0
学习新技能	-9829.0
水源	-9830.0
渗透	-9831.0
的歌	-9832.0
肤色	-9833.0
赔偿	-9834.0
为客户	-9835.0
好吃的	-9836.0
的结构	-9837.0
start	-9838.0
写一篇文章	-9839.0
翻译成文言文	-9840.0
bu	-9841.0
报表	-9842.0
背包	-9843.0
同一个	-9844.0
的时刻	-9845.0
经典之作	-9846.0
训练数据	-9847.0
上述文本进行纠错	-9848.0
夜色	-9849.0
手环	-9850.0
美术	-9851.0
远足	-9852.0
Mac	-9853.0
▁增加	-9854.0
一方面	-9855.0
心情愉悦	-9856.0
中午	-9857.0
厉害	-9858.0
实力	-9859.0
岛上	-9860.0
马斯	-9861.0
应用到	-9862.0
http	-9863.0
正确的答案	-9864.0
SP	-9865.0
回文	-9866.0
强壮	-9867.0
朴素	-9868.0
各种任务	-9869.0
▁last	-9870.0
深度学习模型	-9871.0
士兵	-9872.0
暴雨	-9873.0
透露	-9874.0
度过了	-9875.0
▁yes	-9876.0
能够通过	-9877.0
▁them	-9878.0
放松身体和	-9879.0
殖民	-9880.0
真诚	-9881.0
背后	-9882.0
钻石	-9883.0
orn	-9884.0
我们已经	-9885.0
目标语言	-9886.0
▁specific	-9887.0
da	-9888.0
在了	-9889.0
未來	-9890.0
签署	-9891.0
花落	-9892.0
鹦鹉	-9893.0
鼻子	-9894.0
发布的	-9895.0
取得成功	-9896.0
机器学习在	-9897.0
上海市	-9898.0
说话者	-9899.0
文化背景	-9900.0
正面情感	-9901.0
财务状况	-9902.0
这篇论文	-9903.0
ustom	-9904.0
TA	-9905.0
幸运	-9906.0
微波	-9907.0
竞赛	-9908.0
米的	-9909.0
中秋节	-9910.0
发挥着	-9911.0
的景点	-9912.0
下列句子	-9913.0
功效	-9914.0
我只	-9915.0
时分	-9916.0
面部	-9917.0
但是它	-9918.0
开发的	-9919.0
负面的	-9920.0
原始句子	-9921.0
模拟人类的	-9922.0
崩溃	-9923.0
新颖	-9924.0
欺骗	-9925.0
比賽	-9926.0
水量	-9927.0
行人	-9928.0
优惠券	-9929.0
的材料	-9930.0
中国传统文化	-9931.0
上衣	-9932.0
代夫	-9933.0
花草	-9934.0
陆地	-9935.0
旅行者	-9936.0
的水果	-9937.0
通常被	-9938.0
从而减少	-9939.0
美好的季节	-9940.0
至关重要的	-9941.0
gs	-9942.0
受益	-9943.0
相爱	-9944.0
通用	-9945.0
在学习	-9946.0
森林中	-9947.0
还剩下多少	-9948.0
心率	-9949.0
是有	-9950.0
梨子	-9951.0
穿戴	-9952.0
马上	-9953.0
我想去	-9954.0
显著的	-9955.0
▁create	-9956.0
敏捷的棕色狐狸跳过了	-9957.0
与该	-9958.0
住了	-9959.0
拉丁	-9960.0
水晶	-9961.0
特区	-9962.0
界的	-9963.0
缓缓	-9964.0
美感	-9965.0
轻拂	-9966.0
简单地	-9967.0
ward	-9968.0
▁Res	-9969.0
数据科学	-9970.0
步骤如下	-9971.0
马尔代夫	-9972.0
▁process	-9973.0
交织	-9974.0
同時	-9975.0
坚强	-9976.0
通常使用	-9977.0
乐曲	-9978.0
占总	-9979.0
木材	-9980.0
连词	-9981.0
和舒适	-9982.0
标志着	-9983.0
环境下	-9984.0
的事实	-9985.0
翻译是	-9986.0
pany	-9987.0
做的事情	-9988.0
待办事项	-9989.0
我们公司	-9990.0
▁请将以下	-9991.0
向你	-9992.0
川菜	-9993.0
平时	-9994.0
道的	-9995.0
黄叶	-9996.0
▁注意	-9997.0
原来有	-9998.0
口感和	-9999.0
感觉到	-10000.0
推出了	-10001.0
Data	-10002.0
▁may	-10003.0
添加一个	-10004.0
这句话中	-10005.0
人工智能对	-10006.0
▁sorry	-10007.0
市場	-10008.0
抵抗	-10009.0
飘荡	-10010.0
bug	-10011.0
字母表	-10012.0
开发者	-10013.0
的科学	-10014.0
▁spe	-10015.0
四溢	-10016.0
充分利用	-10017.0
▁请回答下面的问题	-10018.0
?《	-10019.0
古城	-10020.0
对称	-10021.0
课堂	-10022.0
随之	-10023.0
▁Le	-10024.0
▁Sp	-10025.0
我们还	-10026.0
ness	-10027.0
▁translation	-10028.0
;(	-10029.0
熟透	-10030.0
越南	-10031.0
邻居	-10032.0
下个月	-10033.0
他发现	-10034.0
固定的	-10035.0
社会和	-10036.0
人类语言	-10037.0
从高到低	-10038.0
过程中的	-10039.0
ility	-10040.0
System	-10041.0
ersion	-10042.0
好奇心	-10043.0
在给定的	-10044.0
生成一句	-10045.0
▁文本纠错	-10046.0
合并成一个	-10047.0
No	-10048.0
映照	-10049.0
说出	-10050.0
时代的	-10051.0
技能和知识	-10052.0
最优	-10053.0
ken	-10054.0
带来一些	-10055.0
这些地方	-10056.0
低于	-10057.0
入睡	-10058.0
实行	-10059.0
尔斯	-10060.0
沉醉	-10061.0
金牌	-10062.0
ann	-10063.0
Open	-10064.0
pass	-10065.0
不确定性	-10066.0
我们一起	-10067.0
现在我想	-10068.0
等方式来	-10069.0
美好的回忆	-10070.0
Parameter	-10071.0
小雨	-10072.0
淡的	-10073.0
血糖	-10074.0
很喜欢	-10075.0
深深地	-10076.0
可以幫助	-10077.0
或者其他	-10078.0
目标受众	-10079.0
和可持续发展	-10080.0
提供一些关于	-10081.0
进行情感分类	-10082.0
人工智能在医疗	-10083.0
因為	-10084.0
洞穴	-10085.0
和技巧	-10086.0
ling	-10087.0
▁red	-10088.0
遇到了一个	-10089.0
▁▁▁▁▁▁▁	-40003.0
推销	-10091.0
oad	-10092.0
关键点	-10093.0
控制和	-10094.0
List	-10095.0
所带来的	-10096.0
我需要您提供	-10097.0
一人	-10098.0
午后	-10099.0
台湾	-10100.0
放到	-10101.0
时态	-10102.0
煮沸	-10103.0
的第	-10104.0
西安	-10105.0
论坛	-10106.0
但是我	-10107.0
和娱乐	-10108.0
小明还剩	-10109.0
的历史和	-10110.0
使用可再生能源	-10111.0
潮湿	-10112.0
中加入	-10113.0
精准的	-10114.0
cribe	-10115.0
数据分析和	-10116.0
▁after	-10117.0
|\	-10118.0
在一	-10119.0
掉了	-10120.0
收纳	-10121.0
照射	-10122.0
解決	-10123.0
据报道	-10124.0
roll	-10125.0
这个句子的	-10126.0
▁param	-10127.0
▁对文本错误	-10128.0
你有什么建议吗	-10129.0
你将	-10130.0
可选	-10131.0
在你	-10132.0
寻常	-10133.0
段子	-10134.0
资本	-10135.0
轻易	-10136.0
再给我	-10137.0
原来的	-10138.0
新朋友	-10139.0
数据挖掘	-10140.0
蛋白质和	-10141.0
建立良好的	-10142.0
我有一个问题	-10143.0
ization	-10144.0
相连	-10145.0
几分钟	-10146.0
创造性	-10147.0
和焦虑	-10148.0
天王星	-10149.0
然后用	-10150.0
经济学	-10151.0
cause	-10152.0
在这个过程中	-10153.0
BC	-10154.0
Qu	-10155.0
人为	-10156.0
多层	-10157.0
的诗	-10158.0
警告	-10159.0
的地理	-10160.0
他们可以	-10161.0
官方网站	-10162.0
自己的话	-10163.0
平凡	-10164.0
脸上	-10165.0
荣誉	-10166.0
的人群	-10167.0
高科技	-10168.0
back	-10169.0
wrap	-10170.0
接下来的	-10171.0
线性回归	-10172.0
▁task	-10173.0
我就	-10174.0
损伤	-10175.0
林匹	-10176.0
电路	-10177.0
数百万	-10178.0
观众的	-10179.0
全球气候	-10180.0
药物治疗	-10181.0
你可以帮我	-10182.0
使其更加流畅	-10183.0
)(	-10184.0
▁夏天	-10185.0
我们也	-10186.0
服务的	-10187.0
免疫系统	-10188.0
尝试一下	-10189.0
提高医疗	-10190.0
更加便捷	-10191.0
输入文本	-10192.0
需要具备	-10193.0
phant	-10194.0
▁store	-10195.0
新年	-10196.0
象棋	-10197.0
描述为	-10198.0
中的错误	-10199.0
放松心情	-10200.0
最合适的	-10201.0
perty	-10202.0
中餐	-10203.0
向往	-10204.0
更长	-10205.0
涌现	-10206.0
风中	-10207.0
以保护	-10208.0
等方法	-10209.0
thor	-10210.0
也有一些	-10211.0
!!	-10212.0
常识	-10213.0
开了	-10214.0
樱桃	-10215.0
橙汁	-10216.0
画卷	-10217.0
续航	-10218.0
薯条	-10219.0
证实	-10220.0
Bob	-10221.0
ron	-10222.0
情况和	-10223.0
是不可	-10224.0
机会和	-10225.0
计算器	-10226.0
▁描述一个	-10227.0
丢失	-10228.0
双手	-10229.0
年至	-10230.0
How	-10231.0
史上的	-10232.0
文明的	-10233.0
正确地	-10234.0
品牌形象	-10235.0
iness	-10236.0
▁第	-10237.0
卫衣	-10238.0
只鸟	-10239.0
底部	-10240.0
您能	-10241.0
心灵的	-10242.0
改写为	-10243.0
希望这些信息	-10244.0
uration	-10245.0
京都	-10246.0
周六	-10247.0
以下的	-10248.0
我爱你	-10249.0
适合您的	-10250.0
arent	-10251.0
▁food	-10252.0
团体	-10253.0
园林	-10254.0
性价	-10255.0
薄荷	-10256.0
轮胎	-10257.0
hui	-10258.0
他们会	-10259.0
会议室	-10260.0
每天都	-10261.0
能量和	-10262.0
较大的	-10263.0
写作技巧	-10264.0
数千	-10265.0
Can	-10266.0
和语法	-10267.0
我们所	-10268.0
一些有关	-10269.0
学习如何	-10270.0
思考一下	-10271.0
更详细的	-10272.0
brainstorming	-10273.0
变换	-10274.0
拉克	-10275.0
网球	-10276.0
鸡腿	-10277.0
hes	-10278.0
的顺序	-10279.0
▁这句话	-10280.0
不断变化	-10281.0
的情感和	-10282.0
心血管疾病	-10283.0
苹果公司的	-10284.0
》《	-10285.0
小花	-10286.0
程度的	-10287.0
度过一个	-10288.0
挑战性的	-10289.0
去公园散步	-10290.0
ij	-10291.0
口红	-10292.0
夫妇	-10293.0
权限	-10294.0
▁ac	-10295.0
▁ke	-10296.0
希望和	-10297.0
每一次	-10298.0
▁differ	-10299.0
。)	-10300.0
条纹	-10301.0
粉色	-10302.0
dog	-10303.0
多元化	-10304.0
新加坡	-10305.0
还能够	-10306.0
item	-10307.0
▁请提供	-10308.0
你喜欢的	-10309.0
地球表面	-10310.0
环保的重要性	-10311.0
▁米	-10312.0
的光	-10313.0
了一位	-10314.0
以便在	-10315.0
小明买	-10316.0
观点和	-10317.0
NASA	-10318.0
vice	-10319.0
因此需要	-10320.0
新产品的	-10321.0
aking	-10322.0
mazon	-10323.0
给我一些创意	-10324.0
勤奋	-10325.0
厦门	-10326.0
受害	-10327.0
多芬	-10328.0
家务	-10329.0
沒有	-10330.0
著称	-10331.0
▁请对	-10332.0
去探索	-10333.0
表明了	-10334.0
▁were	-10335.0
▁将以下句子翻译成法语	-10336.0
有个	-10337.0
Ste	-10338.0
内容和	-10339.0
come	-10340.0
初学者的	-10341.0
学习新的	-10342.0
▁back	-10343.0
▁你能帮我	-10344.0
▁此外	-10345.0
▁练习	-10346.0
内部的	-10347.0
吸引着	-10348.0
水平的	-10349.0
的家庭	-10350.0
长期的	-10351.0
▁proble	-10352.0
不佳	-10353.0
吸引人的	-10354.0
有限公司	-10355.0
▁high	-10356.0
美好的时光	-10357.0
关于人工智能的	-10358.0
不禁	-10359.0
体内	-10360.0
池塘	-10361.0
生抽	-10362.0
篡改	-10363.0
以增加	-10364.0
进行总结	-10365.0
使人	-10366.0
海上	-10367.0
温泉	-10368.0
)]\	-10369.0
再利用	-10370.0
▁prom	-10371.0
的主要原因	-10372.0
招牌	-10373.0
等多	-10374.0
长江	-10375.0
充满着	-10376.0
北极熊	-10377.0
名字是	-10378.0
百分比	-10379.0
split	-10380.0
▁meet	-10381.0
隐私和安全	-10382.0
lephant	-10383.0
产生深远的影响	-10384.0
▁because	-10385.0
`,	-10386.0
▁▁▁▁▁▁▁▁▁▁▁	-40004.0
宫保	-10388.0
尚未	-10389.0
肺炎	-10390.0
芬芳	-10391.0
希望你	-10392.0
有帮助	-10393.0
来获得	-10394.0
适合在	-10395.0
可以改善	-10396.0
您提供的	-10397.0
等多个方面	-10398.0
北欧	-10399.0
资格	-10400.0
ara	-10401.0
去海滩	-10402.0
和法律	-10403.0
学会了	-10404.0
您喜欢	-10405.0
的地点	-10406.0
食物的	-10407.0
的数量为	-10408.0
我无法直接	-10409.0
与人	-10410.0
从你	-10411.0
归为	-10412.0
文物	-10413.0
复杂性	-10414.0
land	-10415.0
block	-10416.0
jourd	-10417.0
▁对以下文本	-10418.0
▁travel	-10419.0
▁through	-10420.0
城镇	-10421.0
承认	-10422.0
涂抹	-10423.0
星球上	-10424.0
ever	-10425.0
▁vous	-10426.0
▁check	-10427.0
trequire	-10428.0
已被	-10429.0
按时	-10430.0
也能够	-10431.0
并最终	-10432.0
一杯咖啡	-10433.0
营养物质	-10434.0
Fi	-10435.0
一双	-10436.0
海底	-10437.0
熟练	-10438.0
處理	-10439.0
fil	-10440.0
巴黎的	-10441.0
来保护	-10442.0
来处理	-10443.0
在线教育	-10444.0
猫科动物	-10445.0
完成的任务	-10446.0
积极的心态	-10447.0
商人	-10448.0
葱姜	-10449.0
薪资	-10450.0
重述	-10451.0
风筝	-10452.0
功能的	-10453.0
它位于	-10454.0
牛奶和	-10455.0
我可以帮助你	-10456.0
此次	-10457.0
的色彩	-10458.0
做出决策	-10459.0
出行方式	-10460.0
irectory	-10461.0
▁生成一个关于夏天的诗歌	-10462.0
[i	-40005.0
版权	-10464.0
纠缠	-10465.0
reg	-10466.0
▁但是	-10467.0
数据点	-10468.0
演讲稿	-10469.0
的因素	-10470.0
开放性问题	-10471.0
停留	-10472.0
有几	-10473.0
美式	-10474.0
切碎的	-10475.0
的效率	-10476.0
能得到	-10477.0
贝多芬	-10478.0
自然风景	-10479.0
著名景点	-10480.0
雇佣	-10481.0
Word	-10482.0
在线课程	-10483.0
无法提供	-10484.0
全球范围内	-10485.0
ftware	-10486.0
加深	-10487.0
小刚	-10488.0
携手	-10489.0
精心	-10490.0
长袖	-10491.0
和价值	-10492.0
在你的	-10493.0
还包括	-10494.0
可以按照	-10495.0
出现的次数	-10496.0
▁content	-10497.0
▁possible	-10498.0
ze	-10499.0
一套	-10500.0
夹克	-10501.0
置身	-10502.0
候选人	-10503.0
和实践	-10504.0
夏季的	-10505.0
意义的	-10506.0
运动会	-10507.0
小明家有	-10508.0
布鲁	-10509.0
拼接	-10510.0
绚烂	-10511.0
每天的	-10512.0
lean	-10513.0
举个例子	-10514.0
进行一些	-10515.0
可能会出现	-10516.0
书写	-10517.0
前提	-10518.0
可知	-10519.0
如水	-10520.0
密集	-10521.0
汇总	-10522.0
混乱	-10523.0
狗是	-10524.0
要将	-10525.0
和冥想	-10526.0
极高的	-10527.0
应该采取	-10528.0
请问您有什么	-10529.0
"(	-10530.0
斯科	-10531.0
降解	-10532.0
依赖于	-10533.0
全世界	-10534.0
舒适和	-10535.0
Code	-10536.0
▁typ	-10537.0
正面评价	-10538.0
夏天的诗歌	-10539.0
之地	-10540.0
从句	-10541.0
妹妹	-10542.0
时尚的	-10543.0
来到了	-10544.0
计划在	-10545.0
中央公园	-10546.0
在阳光下	-10547.0
效率和质量	-10548.0
谈到	-10549.0
飞速	-10550.0
不符合	-10551.0
以了解	-10552.0
学习计划	-10553.0
知识产权	-10554.0
给我五个	-10555.0
不满	-10556.0
初步	-10557.0
cho	-10558.0
▁bo	-10559.0
网站的	-10560.0
群体的	-10561.0
老年人	-10562.0
rape	-10563.0
一段时间	-10564.0
它们都是	-10565.0
市场需求	-10566.0
放松技巧	-10567.0
超级英雄	-10568.0
小孩	-10569.0
式子	-10570.0
特质	-10571.0
谈判	-10572.0
谋杀	-10573.0
起坐	-10574.0
通风	-10575.0
在一次	-10576.0
并开始	-10577.0
态度和	-10578.0
杰出的	-10579.0
elle	-10580.0
相信自己	-10581.0
▁long	-10582.0
发挥重要作用	-10583.0
连接到	-10584.0
▁是一个	-10585.0
提供了一个	-10586.0
人工智能正在	-10587.0
TP	-10588.0
奥秘	-10589.0
崛起	-10590.0
柏林	-10591.0
标识	-10592.0
ica	-10593.0
mar	-10594.0
▁数字	-10595.0
参加一些	-10596.0
针对性的	-10597.0
ified	-10598.0
▁将以下段落	-10599.0
未来发展趋势	-10600.0
VR	-10601.0
全身	-10602.0
爱意	-10603.0
代表了	-10604.0
公式为	-10605.0
建议在	-10606.0
是什麼	-10607.0
材料的	-10608.0
可以让您	-10609.0
的问题或	-10610.0
▁park	-10611.0
条腿	-10612.0
美容	-10613.0
肺癌	-10614.0
的文字	-10615.0
的旋律	-10616.0
这包括	-10617.0
以下代码	-10618.0
平均分成	-10619.0
是太阳系	-10620.0
用来描述	-10621.0
▁等	-10622.0
墙壁	-10623.0
桥梁	-10624.0
目標	-10625.0
▁面包	-10626.0
的决策	-10627.0
nums	-10628.0
和朋友们	-10629.0
可以让人们	-10630.0
变色	-10631.0
消防	-10632.0
离别	-10633.0
精选	-10634.0
微生物	-10635.0
污染物	-10636.0
法国的	-10637.0
相对于	-10638.0
不同之处	-10639.0
与此同时	-10640.0
合约	-10641.0
攀登	-10642.0
也不会	-10643.0
从大到	-10644.0
吸引人	-10645.0
污染和	-10646.0
给自己	-10647.0
能否告诉我	-10648.0
verage	-10649.0
▁current	-10650.0
FI	-10651.0
明年	-10652.0
硬盘	-10653.0
hed	-10654.0
从英语	-10655.0
如果你的	-10656.0
让我想想	-10657.0
这些电影	-10658.0
相关的信息	-10659.0
▁doing	-10660.0
写成	-10661.0
漫长	-10662.0
税务	-10663.0
继承	-10664.0
dis	-10665.0
的景象	-10666.0
商业模式	-10667.0
人权	-10668.0
淀粉	-10669.0
解得	-10670.0
摄入量	-10671.0
问题是	-10672.0
升序排列	-10673.0
智能医疗	-10674.0
极端天气事件	-10675.0
两侧	-10676.0
冰激	-10677.0
单一	-10678.0
纹理	-10679.0
后的结果	-10680.0
这个段落	-10681.0
神经网络的	-10682.0
例句	-10683.0
新生	-10684.0
燃油	-10685.0
(),	-10686.0
充足的	-10687.0
我们有	-10688.0
的角度	-10689.0
宫保鸡丁	-10690.0
object	-10691.0
减少对环境的	-10692.0
减少使用一次性	-10693.0
fe	-10694.0
一代	-10695.0
修理	-10696.0
手套	-10697.0
"""\	-10698.0
性的问题	-10699.0
应对气候变化	-10700.0
Pl	-10701.0
五入	-10702.0
基地	-10703.0
看书	-10704.0
组件	-10705.0
ves	-10706.0
迷路了	-10707.0
▁将下面句子	-10708.0
自然语言处理等	-10709.0
其余	-10710.0
剧本	-10711.0
哈姆	-10712.0
自助	-10713.0
燕麦片	-10714.0
的行动	-10715.0
代表作品	-10716.0
我被	-10717.0
tes	-10718.0
来增加	-10719.0
的饮料	-10720.0
需要有	-10721.0
提取其中的	-10722.0
请提供具体的	-10723.0
||	-10724.0
公转	-10725.0
由此	-10726.0
的开	-10727.0
盈利	-10728.0
▁为了	-10729.0
▁或者	-10730.0
举一个	-10731.0
任何其他	-10732.0
将其转换为	-10733.0
Be	-10734.0
四舍	-10735.0
声和	-10736.0
夜景	-10737.0
民间	-10738.0
甜味	-10739.0
租赁	-10740.0
企业和	-10741.0
基础上	-10742.0
洗衣机	-10743.0
▁请描述	-10744.0
这将有助于	-10745.0
不易	-10746.0
乌龟	-10747.0
棵树	-10748.0
ler	-10749.0
对我们	-10750.0
的生命	-10751.0
以更好地	-10752.0
可供选择	-10753.0
四舍五入	-10754.0
正确的单词	-10755.0
自然语言生成	-10756.0
忘了	-10757.0
摘录	-10758.0
改成	-10759.0
▁请你	-10760.0
典型的	-10761.0
自信心	-10762.0
小明一共	-10763.0
和语法错误	-10764.0
描述了一个	-10765.0
底蕴	-10766.0
高山	-10767.0
Out	-10768.0
▁gu	-10769.0
▁寻求	-10770.0
但由于	-10771.0
无数的	-10772.0
我们不能	-10773.0
每个同学	-10774.0
第一句话	-10775.0
背景信息	-10776.0
这个项目	-10777.0
根据给定的	-10778.0
▁while	-10779.0
:<	-10780.0
为此	-10781.0
国外	-10782.0
減少	-10783.0
那里有	-10784.0
▁hav	-10785.0
tfrom	-10786.0
▁form	-10787.0
让人感受到	-10788.0
▁method	-10789.0
炸鸡	-10790.0
裙子	-10791.0
读取	-10792.0
可以满足	-10793.0
重大影响	-10794.0
可以有效地	-10795.0
的准确性和	-10796.0
▁上	-10797.0
偏差	-10798.0
杰伦	-10799.0
鲜明	-10800.0
Add	-10801.0
中的一种	-10802.0
ester	-10803.0
以下是一些建议	-10804.0
可怕	-10805.0
和蔬菜	-10806.0
如果他	-10807.0
它们都	-10808.0
的简短	-10809.0
思考过程	-10810.0
的环境中	-10811.0
大数据分析	-10812.0
加利福尼亚州	-10813.0
精灵	-10814.0
追寻	-10815.0
uss	-10816.0
综合考虑	-10817.0
史蒂	-10818.0
官员	-10819.0
暂时	-10820.0
礼品	-10821.0
危险的	-10822.0
要求的	-10823.0
None	-10824.0
带来了许多	-10825.0
ES	-10826.0
快餐	-10827.0
成為	-10828.0
音响	-10829.0
不可能	-10830.0
段文本	-10831.0
电视机	-10832.0
pend	-10833.0
发生变化	-10834.0
节能减排	-10835.0
▁well	-10836.0
贝壳	-10837.0
▁QA	-10838.0
感到很	-10839.0
训练集	-10840.0
数据处理	-10841.0
的准确性	-10842.0
eters	-10843.0
生成一首诗歌	-10844.0
技术的不断发展	-10845.0
也被	-10846.0
住宅	-10847.0
场面	-10848.0
宫殿	-10849.0
在中文	-10850.0
在我们	-10851.0
小王子	-10852.0
What	-10853.0
仰卧起坐	-10854.0
图像处理	-10855.0
我明白了	-10856.0
负面情感	-10857.0
你可以根据自己的	-10858.0
三国	-10859.0
便携	-10860.0
光的	-10861.0
晨曦	-10862.0
gin	-10863.0
供应商	-10864.0
和调整	-10865.0
学校的	-10866.0
林匹克	-10867.0
的看法	-10868.0
研究中	-10869.0
让机器	-10870.0
超过了	-10871.0
使用环保	-10872.0
如何处理	-10873.0
▁found	-10874.0
感的	-10875.0
拌匀	-10876.0
音符	-10877.0
剩余的	-10878.0
影响着	-10879.0
训练一个	-10880.0
并不意味着	-10881.0
▁break	-10882.0
▁options	-10883.0
后续	-10884.0
安迪	-10885.0
层的	-10886.0
悲剧	-10887.0
犹如	-10888.0
芳香	-10889.0
让她	-10890.0
篮子里	-10891.0
颗行星	-10892.0
制作一个	-10893.0
价钱	-10894.0
在水	-10895.0
帖子	-10896.0
彰显	-10897.0
您将	-10898.0
成年	-10899.0
既有	-10900.0
盎然	-10901.0
繁星	-10902.0
其主要	-10903.0
周杰伦	-10904.0
和压力	-10905.0
收件人	-10906.0
销售量	-10907.0
哥伦比亚	-10908.0
这首诗歌	-10909.0
sorted	-10910.0
斑斓	-10911.0
最爱	-10912.0
简称	-10913.0
▁在此	-10914.0
▁编辑下面	-10915.0
器和	-10916.0
绝佳	-10917.0
一切都	-10918.0
使其更具	-10919.0
关怀	-10920.0
声声	-10921.0
多余	-10922.0
平分	-10923.0
淘宝	-10924.0
跟随	-10925.0
部件	-10926.0
▁这些	-10927.0
冬天的	-10928.0
的时光	-10929.0
这需要	-10930.0
和价值观	-10931.0
▁most	-10932.0
▁摘要生成	-10933.0
ackage	-10934.0
外语	-10935.0
感悟	-10936.0
阵阵	-10937.0
冰激凌	-10938.0
认为是	-10939.0
评论者	-10940.0
不断增加	-10941.0
讲述一个	-10942.0
可能是因为	-10943.0
unwrap	-10944.0
策划	-10945.0
茫茫	-10946.0
ale	-10947.0
▁为我	-10948.0
地进行	-10949.0
有一位	-10950.0
热情和	-10951.0
的科技	-10952.0
能够满足	-10953.0
▁comple	-10954.0
和弦	-10955.0
應該	-10956.0
sin	-10957.0
合法的	-10958.0
在现代	-10959.0
工具来	-10960.0
班里有	-10961.0
建筑之一	-10962.0
这个数字	-10963.0
ities	-10964.0
少女	-10965.0
▁运动	-10966.0
桌子上	-10967.0
将会更加	-10968.0
都有其独特的	-10969.0
ironment	-10970.0
不容	-10971.0
关爱	-10972.0
彩色	-10973.0
致命	-10974.0
赞誉	-10975.0
迎来	-10976.0
在工作	-10977.0
比小明多	-10978.0
注意力和	-10979.0
生命的意义	-10980.0
十五	-10981.0
很好地	-10982.0
一同	-10983.0
了他	-10984.0
春秋	-10985.0
请从	-10986.0
边境	-10987.0
afe	-10988.0
▁假设	-10989.0
标题和	-10990.0
host	-10991.0
ough	-10992.0
还有一个	-10993.0
,,	-10994.0
康复	-10995.0
望远	-10996.0
关系的	-10997.0
是一次	-10998.0
的优势	-10999.0
知识的	-11000.0
Life	-11001.0
社会问题	-11002.0
当地的美食	-11003.0
请给我一个	-11004.0
______	-11005.0
使之	-11006.0
口腔	-11007.0
容纳	-11008.0
里奥	-11009.0
▁提高	-11010.0
▁香蕉	-11011.0
宠物狗	-11012.0
幸福和	-11013.0
确定的	-11014.0
语言学	-11015.0
Chat	-11016.0
出生日期	-11017.0
句号	-11018.0
妇女	-11019.0
晋升	-11020.0
猎物	-11021.0
了解到	-11022.0
和交流	-11023.0
和思考	-11024.0
在其中	-11025.0
ists	-11026.0
是怎样的	-11027.0
的关键词	-11028.0
能够提供	-11029.0
rench	-11030.0
▁always	-11031.0
励志	-11032.0
放学	-11033.0
映射	-11034.0
矩形	-11035.0
配送	-11036.0
黑夜	-11037.0
也称为	-11038.0
的种类	-11039.0
之间存在	-11040.0
的目的是	-11041.0
ything	-11042.0
▁王	-11043.0
带入	-11044.0
库存	-11045.0
房价	-11046.0
考验	-11047.0
论点	-11048.0
每分钟	-11049.0
的主语	-11050.0
自信和	-11051.0
▁vis	-11052.0
atural	-11053.0
海洋生态系统	-11054.0
三只	-11055.0
感慨	-11056.0
动作的	-11057.0
和高效	-11058.0
哈姆雷	-11059.0
城市之一	-11060.0
并且可以	-11061.0
▁weather	-11062.0
协会	-11063.0
形势	-11064.0
普吉	-11065.0
有力	-11066.0
约束	-11067.0
评级	-11068.0
lab	-11069.0
中找出	-11070.0
人类在	-11071.0
技术将	-11072.0
的旅游	-11073.0
圆的周长	-11074.0
place	-11075.0
每个单词的	-11076.0
再将	-11077.0
转向	-11078.0
▁iP	-11079.0
他们对	-11080.0
Time	-11081.0
截止日期	-11082.0
东南	-11083.0
住房	-11084.0
喉咙	-11085.0
大致	-11086.0
放下	-11087.0
相關	-11088.0
着你	-11089.0
的数学	-11090.0
▁根据提供	-11091.0
有着广泛的应用	-11092.0
机器学习和深度学习	-11093.0
▁é	-11094.0
兰克	-11095.0
听取	-11096.0
数和	-11097.0
沉迷	-11098.0
深蹲	-11099.0
队在	-11100.0
ute	-11101.0
每个月	-11102.0
的优点	-11103.0
风吹过	-11104.0
同时也是	-11105.0
▁白	-11106.0
进攻	-11107.0
ube	-11108.0
的一天	-11109.0
中文翻译为	-11110.0
健康的饮食	-11111.0
default	-11112.0
告知	-11113.0
Rec	-11114.0
和各种	-11115.0
想法和	-11116.0
更多人	-11117.0
▁now	-11118.0
▁在以下	-11119.0
工作经验	-11120.0
inter	-11121.0
stand	-11122.0
▁sing	-11123.0
方面的问题	-11124.0
▁years	-11125.0
从那	-11126.0
博士	-11127.0
忠实	-11128.0
▁{}	-11129.0
▁角色	-11130.0
不用谢	-11131.0
会产生	-11132.0
几个月	-11133.0
微风拂面	-11134.0
通常情况下	-11135.0
”?	-11136.0
他说	-11137.0
好笑	-11138.0
想问	-11139.0
账号	-11140.0
rop	-11141.0
▁Pl	-11142.0
▁ra	-11143.0
可可粉	-11144.0
感谢您	-11145.0
是人们	-11146.0
并将结果	-11147.0
非常美味	-11148.0
处的	-11149.0
奶茶	-11150.0
残疾	-11151.0
大小的	-11152.0
ager	-11153.0
做些什么	-11154.0
圆的半径	-11155.0
平方厘米	-11156.0
和工作方式	-11157.0
我们还可以	-11158.0
我可以给你	-11159.0
▁Google	-11160.0
三次	-11161.0
幻想	-11162.0
深海	-11163.0
赛季	-11164.0
oun	-11165.0
传达了	-11166.0
体验到	-11167.0
城市化	-11168.0
适应性	-11169.0
马拉松	-11170.0
高脂肪	-11171.0
蓝天白云	-11172.0
需要准备	-11173.0
▁life	-11174.0
云彩	-11175.0
展望	-11176.0
教父	-11177.0
曲子	-11178.0
洒在	-11179.0
經濟	-11180.0
脊椎	-11181.0
西装	-11182.0
api	-11183.0
column	-11184.0
▁向	-11185.0
不当	-11186.0
则有	-11187.0
喧嚣	-11188.0
并向	-11189.0
未经	-11190.0
毫米	-11191.0
用心	-11192.0
了一款	-11193.0
小华有	-11194.0
精致的	-11195.0
ason	-11196.0
互联网上	-11197.0
绿色能源	-11198.0
▁must	-11199.0
优点和缺点	-11200.0
我们也可以	-11201.0
▁请写一篇关于	-11202.0
▁指	-11203.0
傍晚	-11204.0
拓宽	-11205.0
精美	-11206.0
以保证	-11207.0
但他们	-11208.0
矩形的	-11209.0
这一点	-11210.0
您没有提供	-11211.0
歌曲的歌词	-11212.0
给出具体的	-11213.0
头部	-11214.0
辅导	-11215.0
ric	-11216.0
▁参加	-11217.0
之前的	-11218.0
的身体	-11219.0
atab	-11220.0
ffect	-11221.0
UN	-11222.0
世间	-11223.0
主流	-11224.0
加哥	-11225.0
拿了	-11226.0
繁琐	-11227.0
进去	-11228.0
勇敢地	-11229.0
的爱情	-11230.0
ieve	-11231.0
膳食纤维	-11232.0
ensor	-11233.0
所有的人名	-11234.0
利息	-11235.0
动人	-11236.0
巫师	-11237.0
星辰	-11238.0
植树	-11239.0
羽绒	-11240.0
默默	-11241.0
▁控制	-11242.0
男主角	-11243.0
,$	-11244.0
上下	-11245.0
体温	-11246.0
小白	-11247.0
欣喜	-11248.0
环绕	-11249.0
细致	-11250.0
▁函数	-11251.0
洗发水	-11252.0
芝加哥	-11253.0
ateg	-11254.0
imes	-11255.0
现代艺术	-11256.0
这是一首	-11257.0
三星	-11258.0
凸显	-11259.0
患有	-11260.0
摧毁	-11261.0
磁场	-11262.0
货物	-11263.0
任何人	-11264.0
大约在	-11265.0
逗号分隔	-11266.0
的科普文章	-11267.0
RI	-11268.0
中所	-11269.0
的风	-11270.0
袋子	-11271.0
erc	-11272.0
ott	-11273.0
位置和	-11274.0
商品的	-11275.0
城市中	-11276.0
的天体	-11277.0
长长的	-11278.0
咨询医生	-11279.0
无论是在	-11280.0
是错误的	-11281.0
▁study	-11282.0
可以根据自己的	-11283.0
很少	-11284.0
"""	-11285.0
购买的	-11286.0
各种领域	-11287.0
将有助于	-11288.0
应用的文章	-11289.0
售后	-11290.0
未能	-11291.0
info	-11292.0
例如使用	-11293.0
和反义词	-11294.0
夏天是一年中最	-11295.0
将其翻译成中文	-11296.0
▁without	-11297.0
代理	-11298.0
强制	-11299.0
快的	-11300.0
所得	-11301.0
月色	-11302.0
去超市	-11303.0
度假村	-11304.0
性价比	-11305.0
科幻片	-11306.0
这个主题	-11307.0
ivers	-11308.0
”:	-11309.0
护肤	-11310.0
调研	-11311.0
便捷的	-11312.0
来评估	-11313.0
是什么呢	-11314.0
自我意识	-11315.0
js	-11316.0
十一	-11317.0
取向	-11318.0
地毯	-11319.0
小张	-11320.0
桃子	-11321.0
配件	-11322.0
分析了	-11323.0
期待着	-11324.0
可以随时	-11325.0
困难和挑战	-11326.0
包括机器学习	-11327.0
▁gl	-11328.0
减少了	-11329.0
在任何	-11330.0
大学生	-11331.0
它是由	-11332.0
请使用	-11333.0
oday	-11334.0
探索新的	-11335.0
▁each	-11336.0
才能更好地	-11337.0
不同的文化和	-11338.0
解决这些问题	-11339.0
人工智能还可以	-11340.0
保养	-11341.0
审美	-11342.0
CSS	-11343.0
成年人	-11344.0
为您生成	-11345.0
环保事业	-11346.0
需要了解	-11347.0
技术的应用	-11348.0
解释什么是	-11349.0
中位	-11350.0
扩张	-11351.0
身體	-11352.0
将两个	-11353.0
珊瑚礁	-11354.0
的两个	-11355.0
的形状	-11356.0
我可以推荐	-11357.0
减轻压力和焦虑	-11358.0
rc	-11359.0
主张	-11360.0
直至	-11361.0
垃圾桶	-11362.0
深入的	-11363.0
▁在这个	-11364.0
代码实现	-11365.0
希望这个	-11366.0
解决的问题	-11367.0
▁friends	-11368.0
不幸	-11369.0
传染	-11370.0
侦探	-11371.0
格外	-11372.0
看似	-11373.0
预约	-11374.0
▁价格	-11375.0
▁创建	-11376.0
以及在	-11377.0
喜爱的	-11378.0
手中的	-11379.0
收到了	-11380.0
漫长的	-11381.0
的正确	-11382.0
红色和	-11383.0
问题吗	-11384.0
风吹拂	-11385.0
编写一篇	-11386.0
子句	-11387.0
目光	-11388.0
驾车	-11389.0
▁尝试	-11390.0
有关于	-11391.0
的算法	-11392.0
更加美好	-11393.0
风险承受	-11394.0
有没有什么	-11395.0
▁different	-11396.0
If	-11397.0
共度	-11398.0
理性	-11399.0
篮子	-11400.0
走出	-11401.0
长为	-11402.0
事做起	-11403.0
休闲裤	-11404.0
和指导	-11405.0
完成后	-11406.0
是使用	-11407.0
燕麦粥	-11408.0
现在他	-11409.0
那如果	-11410.0
leep	-11411.0
选择一些	-11412.0
为人	-11413.0
大雨	-11414.0
用语	-11415.0
▁po	-11416.0
南美洲	-11417.0
复杂度	-11418.0
所在的	-11419.0
这些都	-11420.0
文化交流	-11421.0
文章标题	-11422.0
method	-11423.0
▁write	-11424.0
参赛	-11425.0
天际	-11426.0
學生	-11427.0
欢声	-11428.0
盎司	-11429.0
和算法	-11430.0
这些数字	-11431.0
write	-11432.0
▁fran	-11433.0
您需要提供	-11434.0
▁对以下句子进行	-11435.0
典型	-11436.0
实习	-11437.0
小米	-11438.0
排版	-11439.0
los	-11440.0
一段对话	-11441.0
可以获得	-11442.0
计算两个	-11443.0
▁做	-11444.0
天涯	-11445.0
排斥	-11446.0
最少	-11447.0
盗梦	-11448.0
谚语	-11449.0
▁['	-11450.0
序排序	-11451.0
一个好的	-11452.0
层面	-11453.0
每晚	-11454.0
渐进	-11455.0
瑞典	-11456.0
目录	-11457.0
糖浆	-11458.0
▁SE	-11459.0
小写字母	-11460.0
这个地方	-11461.0
offee	-11462.0
环保的科普文章	-11463.0
▁但	-11464.0
以使	-11465.0
▁My	-11466.0
小说中	-11467.0
很好吃	-11468.0
base	-11469.0
城市规划	-11470.0
天气状况	-11471.0
文本数据	-11472.0
▁≈	-11473.0
固醇	-11474.0
过量	-11475.0
ola	-11476.0
这道题	-11477.0
Flow	-11478.0
农业生产	-11479.0
独立战争	-11480.0
▁take	-11481.0
政府和企业	-11482.0
以下文本中的	-11483.0
严峻	-11484.0
并未	-11485.0
演变	-11486.0
老年	-11487.0
现在有	-11488.0
简洁的	-11489.0
能够自动	-11490.0
伤亡	-11491.0
分开	-11492.0
司法	-11493.0
忘怀	-11494.0
食肉	-11495.0
For	-11496.0
个同学	-11497.0
但是他	-11498.0
数学家	-11499.0
本文将	-11500.0
通常有	-11501.0
down	-11502.0
▁意大利	-11503.0
以下单词	-11504.0
简单易懂	-11505.0
▁version	-11506.0
▁其	-11507.0
▁Ad	-11508.0
体验和	-11509.0
知名度	-11510.0
热的季节	-11511.0
您提供的信息	-11512.0
伟大	-11513.0
国籍	-11514.0
指引	-11515.0
秋日	-11516.0
赞赏	-11517.0
你今天	-11518.0
已经有	-11519.0
的象征	-11520.0
内心深处	-11521.0
words	-11522.0
▁License	-11523.0
Of	-11524.0
SU	-11525.0
["	-11526.0
一口	-11527.0
亚历	-11528.0
农场	-11529.0
外线	-11530.0
多人	-11531.0
检验	-11532.0
精湛	-11533.0
莉莉	-11534.0
▁Me	-11535.0
一个月	-11536.0
发布了	-11537.0
json	-11538.0
个苹果和	-11539.0
更广泛的	-11540.0
科技领域	-11541.0
升水	-11542.0
声响	-11543.0
成的	-11544.0
要在	-11545.0
比小红多	-11546.0
▁comment	-11547.0
器械	-11548.0
地域	-11549.0
家庭和	-11550.0
成长和	-11551.0
的建筑	-11552.0
reet	-11553.0
ting	-11554.0
可以有效	-11555.0
心肺功能	-11556.0
所有人都	-11557.0
quare	-11558.0
▁down	-11559.0
写一首关于	-11560.0
吞噬	-11561.0
惬意	-11562.0
任总统	-11563.0
着一个	-11564.0
促销活动	-11565.0
这个产品	-11566.0
使其更加简洁明了	-11567.0
欲望	-11568.0
表現	-11569.0
音效	-11570.0
不稳定	-11571.0
准确和	-11572.0
则可以	-11573.0
旅游业	-11574.0
的评论	-11575.0
也越来越	-11576.0
减少垃圾	-11577.0
去看电影	-11578.0
尽情享受	-11579.0
我们可以看到	-11580.0
电子邮件地址	-11581.0
二战	-11582.0
公益	-11583.0
凯特	-11584.0
斯蒂	-11585.0
穿梭	-11586.0
資料	-11587.0
▁研究	-11588.0
在海边	-11589.0
块糖果	-11590.0
多功能	-11591.0
整数的	-11592.0
可以给我	-11593.0
翻炒均匀	-11594.0
chool	-11595.0
▁next	-11596.0
▁China	-11597.0
.)	-11598.0
中國	-11599.0
您有	-11600.0
电能	-11601.0
阶乘	-11602.0
SON	-11603.0
car	-11604.0
pty	-11605.0
中没有	-11606.0
在水中	-11607.0
的植物	-11608.0
▁如果你	-11609.0
基础知识	-11610.0
▁True	-11611.0
Config	-11612.0
刻板	-11613.0
卡布	-11614.0
河边	-11615.0
的钱数	-11616.0
▁aut	-11617.0
发挥作用	-11618.0
可重复使用的	-11619.0
▁Transl	-11620.0
▁require	-11621.0
从来	-11622.0
判决	-11623.0
梯度	-11624.0
此刻	-11625.0
她喜欢	-11626.0
怎么做	-11627.0
推出的	-11628.0
主要用于	-11629.0
Message	-11630.0
不住	-11631.0
写诗	-11632.0
毫无	-11633.0
肉食	-11634.0
感人的	-11635.0
ause	-11636.0
title	-11637.0
第二个句子	-11638.0
cademy	-11639.0
(-	-11640.0
偶然	-11641.0
大方	-11642.0
它对	-11643.0
客戶	-11644.0
已經	-11645.0
抑制	-11646.0
笼罩	-11647.0
轻薄	-11648.0
邮箱	-11649.0
LED	-11650.0
参加了	-11651.0
场比赛	-11652.0
年龄段	-11653.0
最多能	-11654.0
有力的	-11655.0
检查和	-11656.0
在文本中	-11657.0
模拟人类智能的技术	-11658.0
北部	-11659.0
国的	-11660.0
山东	-11661.0
战术	-11662.0
批判	-11663.0
比尔	-11664.0
写一段	-11665.0
散发着	-11666.0
的增加	-11667.0
夏日炎炎	-11668.0
支持和帮助	-11669.0
▁https	-11670.0
▁night	-11671.0
我们可以用除法	-11672.0
会员	-11673.0
在他	-11674.0
并列	-11675.0
牺牲	-11676.0
風險	-11677.0
了整个	-11678.0
存储在	-11679.0
clud	-11680.0
part	-11681.0
▁API	-11682.0
生命中的	-11683.0
witter	-11684.0
生成一个摘要	-11685.0
go	-11686.0
大师	-11687.0
彗星	-11688.0
蓝球	-11689.0
被迫	-11690.0
创造了	-11691.0
在文章中	-11692.0
COVID	-11693.0
params	-11694.0
▁provided	-11695.0
HE	-11696.0
icy	-11697.0
的价值	-11698.0
的工具	-11699.0
▁bus	-11700.0
开发人员	-11701.0
现代化的	-11702.0
隐私问题	-11703.0
的意思是什么	-11704.0
威廉	-11705.0
对此	-11706.0
悉尼	-11707.0
游乐	-11708.0
▁As	-11709.0
代码中	-11710.0
劳动力	-11711.0
更注重	-11712.0
的歌词	-11713.0
我的回答	-11714.0
迅速发展	-11715.0
▁head	-11716.0
各类	-11717.0
封建	-11718.0
某一	-11719.0
划分为	-11720.0
和艺术	-11721.0
纪录片	-11722.0
代码如下	-11723.0
▁hand	-11724.0
▁pour	-11725.0
带来的影响	-11726.0
▁const	-11727.0
▁请根据以下	-11728.0
上传	-11729.0
花和	-11730.0
蝙蝠	-11731.0
重建	-11732.0
的乐趣	-11733.0
加工食品	-11734.0
这个成语	-11735.0
▁vari	-11736.0
智能家居系统	-11737.0
续写他们的对话内容	-11738.0
MM	-11739.0
po	-11740.0
垂直	-11741.0
曲目	-11742.0
编号	-11743.0
霍格	-11744.0
场景中	-11745.0
年上映	-11746.0
引发了	-11747.0
是法国	-11748.0
给出了	-11749.0
而言之	-11750.0
▁say	-11751.0
进一步的	-11752.0
create	-11753.0
仙人	-11754.0
假日	-11755.0
公告	-11756.0
同性	-11757.0
奇诺	-11758.0
我爱	-11759.0
无边	-11760.0
正是	-11761.0
财政	-11762.0
制作出	-11763.0
名词和	-11764.0
圆形的	-11765.0
在空中	-11766.0
我应该	-11767.0
元音字母	-11768.0
得出答案	-11769.0
为用户提供	-11770.0
日期和时间	-11771.0
这家餐厅的食物	-11772.0
Or	-11773.0
酥脆	-11774.0
GAN	-11775.0
在某个	-11776.0
清晰地	-11777.0
结果是	-11778.0
问题中	-11779.0
▁接下来	-11780.0
印象深刻	-11781.0
number	-11782.0
随着技术的不断发展	-11783.0
▁马	-11784.0
介词	-11785.0
凝聚	-11786.0
山川	-11787.0
睡前	-11788.0
脆弱	-11789.0
小明需要	-11790.0
On	-11791.0
一无	-11792.0
划分	-11793.0
针织	-11794.0
高档	-11795.0
麻婆	-11796.0
bit	-11797.0
城市和	-11798.0
方方面	-11799.0
阿拉伯	-11800.0
▁dec	-11801.0
盗梦空间	-11802.0
这个函数	-11803.0
Alice	-11804.0
我们公司的	-11805.0
机遇和挑战	-11806.0
请续写他们的对话内容	-11807.0
长久	-11808.0
里程碑	-11809.0
高热量	-11810.0
学习一门	-11811.0
的首都是	-11812.0
给我三个	-11813.0
这个单词	-11814.0
国家和地区	-11815.0
在医疗领域的应用	-11816.0
为食	-11817.0
您要	-11818.0
步伐	-11819.0
小小的	-11820.0
接受的	-11821.0
peri	-11822.0
语法和拼写错误	-11823.0
▁每	-11824.0
乒乓	-11825.0
交谈	-11826.0
人們	-11827.0
旅客	-11828.0
流逝	-11829.0
牧羊	-11830.0
▁"$	-11831.0
的程序	-11832.0
看起来很	-11833.0
麻婆豆腐	-11834.0
ty	-11835.0
求职	-11836.0
湖人	-11837.0
了我的	-11838.0
第一段	-11839.0
瑜伽练习	-11840.0
电影类型	-11841.0
提供了一些	-11842.0
身体和心理	-11843.0
体检	-11844.0
沙子	-11845.0
嫌疑人	-11846.0
能量的	-11847.0
庆祝活动	-11848.0
疫情期间	-11849.0
了解自己的	-11850.0
和易于理解	-11851.0
这是一个非常	-11852.0
▁object	-11853.0
史上	-11854.0
才是	-11855.0
深沉	-11856.0
清除	-11857.0
湖水	-11858.0
蝉声	-11859.0
Num	-11860.0
可以先	-11861.0
开发和	-11862.0
汽车的	-11863.0
▁les	-11864.0
万物复苏	-11865.0
▁then	-11866.0
(n	-40006.0
复习	-11868.0
新奇	-11869.0
请把	-11870.0
不停地	-11871.0
拥有的	-11872.0
相关性	-11873.0
选择和	-11874.0
问题时	-11875.0
IMDb	-11876.0
▁Tom	-11877.0
▁area	-11878.0
▁free	-11879.0
▁回答上面的问题	-11880.0
▁q	-11881.0
权威	-11882.0
请教	-11883.0
des	-11884.0
lor	-11885.0
中性的	-11886.0
选择的	-11887.0
Book	-11888.0
以下三个	-11889.0
哈姆雷特	-11890.0
感激之情	-11891.0
的建议吗	-11892.0
计算机技术	-11893.0
钢铁	-11894.0
ams	-11895.0
引人注	-11896.0
生活和	-11897.0
▁impl	-11898.0
改变我们的生活	-11899.0
▁李	-11900.0
▁金	-11901.0
宪法	-11902.0
路由	-11903.0
为他们	-11904.0
使人们	-11905.0
实际的	-11906.0
局限性	-11907.0
的一半	-11908.0
拿铁咖啡	-11909.0
的发展趋势	-11910.0
进行情感分析	-11911.0
▁questions	-11912.0
攀岩	-11913.0
的词	-11914.0
证券	-11915.0
转折	-11916.0
▁商品	-11917.0
▁要求	-11918.0
美丽和	-11919.0
rist	-11920.0
合作伙伴	-11921.0
它们之间	-11922.0
可以让我们	-11923.0
完整的句子	-11924.0
负面或中性	-11925.0
length	-11926.0
这个问题的答案	-11927.0
wn	-11928.0
之战	-11929.0
鉴别	-11930.0
▁建议	-11931.0
为学生	-11932.0
分解成	-11933.0
思想和	-11934.0
的传统	-11935.0
的成功	-11936.0
一些创意	-11937.0
回收利用	-11938.0
▁Hello	-11939.0
我们可以采取	-11940.0
推荐一些适合	-11941.0
人工智能和机器学习	-11942.0
尾酒	-11943.0
明朝	-11944.0
茄子	-11945.0
采购	-11946.0
osh	-11947.0
会根据	-11948.0
余数为	-11949.0
笑话吧	-11950.0
该产品	-11951.0
备受关注	-11952.0
▁tech	-11953.0
使其更加简洁	-11954.0
context	-11955.0
人工智能对未来	-11956.0
''	-11957.0
壮丽	-11958.0
意愿	-11959.0
荷花	-11960.0
抑郁症	-11961.0
特征提取	-11962.0
马尔克斯	-11963.0
在自然语言处理	-11964.0
未来的发展方向	-11965.0
卡通	-11966.0
外交	-11967.0
有序	-11968.0
着重	-11969.0
送到	-11970.0
选取	-11971.0
])\	-11972.0
▁教育	-11973.0
有三个	-11974.0
这只是	-11975.0
---|	-11976.0
▁fin	-11977.0
▁sol	-11978.0
产品质量	-11979.0
可以作为	-11980.0
永远不会	-11981.0
带来了很多	-11982.0
Server	-11983.0
▁system	-11984.0
外卖	-11985.0
数十	-11986.0
Not	-11987.0
▁Do	-11988.0
交响曲	-11989.0
的光芒	-11990.0
适度的	-11991.0
▁支铅笔	-11992.0
世界大战	-11993.0
温暖的阳光	-11994.0
atabase	-11995.0
esterday	-11996.0
宽敞	-11997.0
情況	-11998.0
拥挤	-11999.0
贺卡	-12000.0
躺在	-12001.0
配饰	-12002.0
麦田	-12003.0
仿佛在	-12004.0
的传播	-12005.0
背后的	-12006.0
ween	-12007.0
帮助学生	-12008.0
这是一道	-12009.0
通常具有	-12010.0
闪闪发光	-12011.0
▁给定一篇	-12012.0
对人类社会	-12013.0
巨大的影响	-12014.0
名胜	-12015.0
孤单	-12016.0
帶來	-12017.0
指控	-12018.0
龙头	-12019.0
告诉他	-12020.0
方程组	-12021.0
融合了	-12022.0
这对于	-12023.0
具有重要	-12024.0
几个橙子	-12025.0
最常见的	-12026.0
积极情感	-12027.0
olution	-12028.0
▁帮我生成一个	-12029.0
不尽	-12030.0
剧院	-12031.0
拉面	-12032.0
无疑	-12033.0
領域	-12034.0
▁ed	-12035.0
▁设计	-12036.0
是如此	-12037.0
的天数	-12038.0
ract	-12039.0
side	-12040.0
各种问题	-12041.0
方方面面	-12042.0
经济和社会	-12043.0
许多不同的	-12044.0
aurant	-12045.0
姐姐	-12046.0
热闹	-12047.0
饭店	-12048.0
为您的	-12049.0
共同点	-12050.0
其含义	-12051.0
华氏度	-12052.0
的区别	-12053.0
生存环境	-12054.0
▁给出两个	-12055.0
让我们开始	-12056.0
▁model	-12057.0
▁将给定的文本	-12058.0
_list	-40007.0
华丽	-12060.0
汇率	-12061.0
除数	-12062.0
雨天	-12063.0
来学习	-12064.0
那么在	-12065.0
休息时间	-12066.0
卡布奇诺	-12067.0
用户可以	-12068.0
进行一次	-12069.0
工作和生活	-12070.0
不及	-12071.0
摩擦	-12072.0
湖南	-12073.0
花坛	-12074.0
配以	-12075.0
从一个	-12076.0
在网上	-12077.0
并获得	-12078.0
广告语	-12079.0
根据我的	-12080.0
意大利面条	-12081.0
生活和工作	-12082.0
Wi	-12083.0
bo	-12084.0
mm	-12085.0
一路	-12086.0
定时	-12087.0
短裤	-12088.0
细雨	-12089.0
非凡	-12090.0
预防措施	-12091.0
根据最新的	-12092.0
请问你需要	-12093.0
推荐一本好看的小说	-12094.0
CD	-12095.0
前途	-12096.0
大力	-12097.0
耐力	-12098.0
薄片	-12099.0
更快的	-12100.0
的女孩	-12101.0
的观点	-12102.0
霍格沃	-12103.0
wift	-12104.0
提供信息	-12105.0
政府应该	-12106.0
人工智能技术的应用	-12107.0
悠扬	-12108.0
慷慨	-12109.0
Key	-12110.0
中进行	-12111.0
奇怪的	-12112.0
并生成	-12113.0
水污染	-12114.0
漫步在	-12115.0
为一句话	-12116.0
保持积极	-12117.0
是指通过	-12118.0
特色美食	-12119.0
提升自己的	-12120.0
#[	-12121.0
又有	-12122.0
导师	-12123.0
百万	-12124.0
翱翔	-12125.0
urs	-12126.0
主义者	-12127.0
和价格	-12128.0
多喝水	-12129.0
夜晚的	-12130.0
大约是	-12131.0
并减少	-12132.0
爵士乐	-12133.0
生命中	-12134.0
国际象棋	-12135.0
数据结构	-12136.0
查询一下	-12137.0
撰写一篇关于	-12138.0
request	-12139.0
▁favorite	-12140.0
一瓶	-12141.0
势力	-12142.0
舞动	-12143.0
芬奇	-12144.0
迷失	-12145.0
▁ob	-12146.0
圣诞节	-12147.0
是怎么	-12148.0
ving	-12149.0
也被称为	-12150.0
我是一名	-12151.0
昨天晚上	-12152.0
我需要看到	-12153.0
不时	-12154.0
热浪	-12155.0
自豪	-12156.0
▁适量	-12157.0
吃掉了	-12158.0
鸡尾酒	-12159.0
的人来说	-12160.0
▁trans	-12161.0
Py	-12162.0
▁–	-12163.0
余弦	-12164.0
夜思	-12165.0
布拉	-12166.0
跑得	-12167.0
辉煌	-12168.0
阴影	-12169.0
不道德	-12170.0
和口感	-12171.0
是英国	-12172.0
替换成	-12173.0
这一天	-12174.0
保持身体	-12175.0
output	-12176.0
ME	-12177.0
▁→	-12178.0
▁某	-12179.0
书名	-12180.0
亮点	-12181.0
十六	-12182.0
doc	-12183.0
▁co	-12184.0
负责任	-12185.0
飞行员	-12186.0
长方形的	-12187.0
_____	-12188.0
人工智能会	-12189.0
]$	-12190.0
一词	-12191.0
将军	-12192.0
当天	-12193.0
怀抱	-12194.0
是要	-12195.0
植被	-12196.0
肥料	-12197.0
花椒	-12198.0
踏上	-12199.0
卓越的	-12200.0
史上最	-12201.0
对身体	-12202.0
经济的	-12203.0
苹果数	-12204.0
jango	-12205.0
未来的世界	-12206.0
朴素贝叶斯	-12207.0
进行分析和	-12208.0
仍在	-12209.0
遗址	-12210.0
鼓舞	-12211.0
ony	-12212.0
实践中	-12213.0
现在是	-12214.0
规律的	-12215.0
Mary	-12216.0
User	-12217.0
一些简单的	-12218.0
光照	-12219.0
典礼	-12220.0
在本	-12221.0
意面	-12222.0
拼图	-12223.0
无处	-12224.0
时机	-12225.0
的三	-12226.0
立刻	-12227.0
转变	-12228.0
普吉岛	-12229.0
的安全性	-12230.0
大桥	-12231.0
小丽	-12232.0
微博	-12233.0
挑戰	-12234.0
清华	-12235.0
锈钢	-12236.0
arm	-12237.0
以防止	-12238.0
并制定	-12239.0
我经常	-12240.0
长方形	-12241.0
null	-12242.0
大规模的	-12243.0
下面是一个	-12244.0
可能是一个	-12245.0
气候变化的影响	-12246.0
争取	-12247.0
台上	-12248.0
同步	-12249.0
和最	-12250.0
地板	-12251.0
室外	-12252.0
惊奇	-12253.0
求和	-12254.0
绿草	-12255.0
麦克	-12256.0
Man	-12257.0
▁(-	-12258.0
小学生	-12259.0
要求吗	-12260.0
server	-12261.0
回答以下问题	-12262.0
噪声	-12263.0
恶化	-12264.0
悄悄	-12265.0
慈欣	-12266.0
毛巾	-12267.0
短袖	-12268.0
莫扎	-12269.0
账单	-12270.0
总人数	-12271.0
推荐几	-12272.0
改变着	-12273.0
udio	-12274.0
他是一个	-12275.0
强烈推荐	-12276.0
负面评价	-12277.0
uring	-12278.0
▁comm	-12279.0
▁编辑以下句子	-12280.0
词语是什么意思	-12281.0
Artificial	-12282.0
佛罗	-12283.0
女友	-12284.0
實現	-12285.0
放心	-12286.0
活着	-12287.0
计数	-12288.0
▁av	-12289.0
▁模仿	-12290.0
和解决	-12291.0
有一次	-12292.0
等措施	-12293.0
学习方法	-12294.0
感兴趣的	-12295.0
这个表格	-12296.0
▁interest	-12297.0
▁张	-12298.0
▁阿	-12299.0
主持	-12300.0
加绒	-12301.0
房产	-12302.0
极度	-12303.0
洞察	-12304.0
粮食	-12305.0
对健康	-12306.0
没有人	-12307.0
也很重要	-12308.0
可能会被	-12309.0
呼吸练习	-12310.0
英语单词	-12311.0
▁blue	-12312.0
▁home	-12313.0
修剪	-12314.0
天上	-12315.0
点到	-12316.0
电荷	-12317.0
遗憾	-12318.0
乒乓球	-12319.0
华丽的	-12320.0
规则和	-12321.0
采取了	-12322.0
医疗机构	-12323.0
我们无法	-12324.0
的平均值	-12325.0
▁line	-12326.0
▁描述一下	-12327.0
告诉我一些	-12328.0
按字母顺序排列	-12329.0
尺码	-12330.0
往事	-12331.0
拉伸	-12332.0
根廷	-12333.0
祈使	-12334.0
窗外	-12335.0
篇幅	-12336.0
舒畅	-12337.0
irl	-12338.0
编写代码	-12339.0
Command	-12340.0
)+	-12341.0
云朵	-12342.0
入口	-12343.0
吃完	-12344.0
祝你	-12345.0
落地	-12346.0
言语	-12347.0
镜头	-12348.0
鸽子	-12349.0
▁La	-12350.0
微积分	-12351.0
智能的	-12352.0
更健康	-12353.0
选择了	-12354.0
一步一步	-12355.0
是否可以	-12356.0
给人一种	-12357.0
这个电影	-12358.0
还可以帮助	-12359.0
tS	-12360.0
保湿	-12361.0
各有	-12362.0
浙江	-12363.0
购买了	-12364.0
娱乐活动	-12365.0
切割	-12366.0
刚才	-12367.0
套餐	-12368.0
爷爷	-12369.0
风力	-12370.0
饥饿	-12371.0
饮水	-12372.0
不一定	-12373.0
消极的	-12374.0
小明手里	-12375.0
建立联系	-12376.0
文本摘要	-12377.0
简要介绍	-12378.0
风险管理	-12379.0
可能会受到	-12380.0
所以答案是	-12381.0
英文翻译成中文	-12382.0
ua	-12383.0
在心	-12384.0
河水	-12385.0
."?	-12386.0
▁假装	-12387.0
个性和	-12388.0
刘慈欣	-12389.0
的日子里	-12390.0
的结果是	-12391.0
这种做法	-12392.0
▁city	-12393.0
查阅	-12394.0
bin	-12395.0
会增加	-12396.0
这可以	-12397.0
保持冷静	-12398.0
全球性的	-12399.0
如何应对	-12400.0
建议使用	-12401.0
ittle	-12402.0
定了	-12403.0
正宗	-12404.0
沿海	-12405.0
皇家	-12406.0
碎片	-12407.0
等人	-12408.0
一天的	-12409.0
常用于	-12410.0
经验的	-12411.0
ping	-12412.0
大气污染	-12413.0
阳光灿烂	-12414.0
在那	-12415.0
它能	-12416.0
机密	-12417.0
气和	-12418.0
海风	-12419.0
烘烤	-12420.0
甲烷	-12421.0
行為	-12422.0
较小	-12423.0
远的	-12424.0
在夏季	-12425.0
大学的	-12426.0
风险和	-12427.0
▁too	-12428.0
值得一读	-12429.0
HO	-12430.0
HP	-12431.0
周一	-12432.0
将它	-12433.0
日葵	-12434.0
青菜	-12435.0
uby	-12436.0
为患者	-12437.0
仍然是	-12438.0
你所在	-12439.0
和评估	-12440.0
的计划	-12441.0
进行编辑	-12442.0
False	-12443.0
每个朋友分到	-12444.0
▁develop	-12445.0
三年	-12446.0
结识	-12447.0
感受着	-12448.0
或主题	-12449.0
真是太	-12450.0
基于以上	-12451.0
那么如果	-12452.0
太阳能电池板	-12453.0
延迟	-12454.0
iew	-12455.0
和短语	-12456.0
宝贵的	-12457.0
思维和	-12458.0
特点是	-12459.0
这项技术	-12460.0
▁Some	-12461.0
越来越重要的作用	-12462.0
uk	-12463.0
开支	-12464.0
蓝牙	-12465.0
一首诗	-12466.0
失业率	-12467.0
将一个	-12468.0
葱姜蒜	-12469.0
该函数	-12470.0
char	-12471.0
未来世界	-12472.0
至金黄色	-12473.0
销售数据	-12474.0
ember	-12475.0
环境保护的	-12476.0
数字的平均值	-12477.0
▁intelligence	-12478.0
不被	-12479.0
处罚	-12480.0
期的	-12481.0
诞生	-12482.0
这封	-12483.0
阻碍	-12484.0
一只猫	-12485.0
Azure	-12486.0
▁franç	-12487.0
▁日	-12488.0
画画	-12489.0
窗口	-12490.0
讲讲	-12491.0
许可	-12492.0
诗意	-12493.0
原材料	-12494.0
来改善	-12495.0
海岸线	-12496.0
iled	-12497.0
夜幕降临	-12498.0
市中心的	-12499.0
拥有许多	-12500.0
某个特定	-12501.0
深远影响	-12502.0
▁path	-12503.0
一位年轻的	-12504.0
哪种类型的	-12505.0
机器人技术	-12506.0
▁course	-12507.0
保密	-12508.0
回顾	-12509.0
团队的	-12510.0
正式的	-12511.0
精确的	-12512.0
需要从	-12513.0
寻找新的	-12514.0
音乐作品	-12515.0
▁mean	-12516.0
's	-40008.0
人造	-12518.0
摄取	-12519.0
油脂	-12520.0
."\	-12521.0
met	-12522.0
ris	-12523.0
▁小红	-12524.0
条件的	-12525.0
表现为	-12526.0
重复性	-12527.0
非常高	-12528.0
▁长	-12529.0
专利	-12530.0
但却	-12531.0
养生	-12532.0
大街	-12533.0
纸巾	-12534.0
而出	-12535.0
迈克	-12536.0
rix	-12537.0
看电视	-12538.0
▁top	-12539.0
世界上最高的山峰是珠穆朗玛峰	-12540.0
乳腺	-12541.0
在山	-12542.0
对该	-12543.0
江苏	-12544.0
而定	-12545.0
茶匙	-12546.0
▁红色	-12547.0
会出现	-12548.0
你们的	-12549.0
决定的	-12550.0
食物和	-12551.0
鸡蛋和	-12552.0
ases	-12553.0
值得注意	-12554.0
我需要你	-12555.0
每个句子	-12556.0
▁sign	-12557.0
改变我们的生活方式	-12558.0
`。	-12559.0
不了	-12560.0
向下	-12561.0
尽管他	-12562.0
应该有	-12563.0
是目前	-12564.0
标准的	-12565.0
仍然存在	-12566.0
例如通过	-12567.0
明天早上	-12568.0
认真思考	-12569.0
uture	-12570.0
▁even	-12571.0
识别出文本中的关键词	-12572.0
},	-12573.0
丛中	-12574.0
充滿	-12575.0
前沿	-12576.0
发言	-12577.0
成都	-12578.0
语料	-12579.0
这类	-12580.0
高楼	-12581.0
多年的	-12582.0
英格兰	-12583.0
这两种	-12584.0
▁nil	-12585.0
不要忘记	-12586.0
希望以上	-12587.0
潜在客户	-12588.0
霍格沃茨	-12589.0
▁build	-12590.0
▁cannot	-12591.0
▁playing	-12592.0
_t	-40009.0
催化	-12594.0
悠闲	-12595.0
曝光	-12596.0
了一部	-12597.0
科学的	-12598.0
证明了	-12599.0
现在请将	-12600.0
build	-12601.0
更好地应对	-12602.0
自己的目标	-12603.0
▁您	-12604.0
四处	-12605.0
应急	-12606.0
该句	-12607.0
box	-12608.0
ino	-12609.0
人类与	-12610.0
使它们	-12611.0
地思考	-12612.0
罗伯特	-12613.0
写作能力	-12614.0
或者使用	-12615.0
是一部由	-12616.0
他们一共有	-12617.0
给我一个创意	-12618.0
自动驾驶技术	-12619.0
▁给定一组数字	-12620.0
以下是一些常见的	-12621.0
唤醒	-12622.0
教材	-12623.0
是用	-12624.0
浴室	-12625.0
离不	-12626.0
退休	-12627.0
逛街	-12628.0
▁开始	-12629.0
告诉您	-12630.0
在线学习	-12631.0
开发一个	-12632.0
正在进行	-12633.0
每人分到	-12634.0
▁在以下文本	-12635.0
(test	-40010.0
变异	-12637.0
破解	-12638.0
置信	-12639.0
评定	-12640.0
irc	-12641.0
喜剧片	-12642.0
在北京	-12643.0
水平和	-12644.0
细节和	-12645.0
保持联系	-12646.0
影响力的	-12647.0
物理学家	-12648.0
▁根据下列	-12649.0
人工智能可以帮助医生	-12650.0
凉意	-12651.0
如梦	-12652.0
流失	-12653.0
生病	-12654.0
rag	-12655.0
▁模型	-12656.0
的名言	-12657.0
研究了	-12658.0
聊聊天	-12659.0
胆固醇	-12660.0
dele	-12661.0
翩翩起舞	-12662.0
富含维生素	-12663.0
的重要性和	-12664.0
▁music	-12665.0
智能家居设备	-12666.0
计算它们之间的	-12667.0
不利	-12668.0
习性	-12669.0
天文	-12670.0
战役	-12671.0
手感	-12672.0
煮至	-12673.0
▁日本	-12674.0
和颜色	-12675.0
完成的	-12676.0
来控制	-12677.0
来源于	-12678.0
避免在	-12679.0
idth	-12680.0
可以表示为	-12681.0
▁False	-12682.0
Version	-12683.0
下文中的关键词	-12684.0
▁pa	-12685.0
一直是	-12686.0
以应对	-12687.0
尼西亚	-12688.0
数量是	-12689.0
无论您	-12690.0
烤面包	-12691.0
的用户	-12692.0
roid	-12693.0
品牌名称	-12694.0
更高效的	-12695.0
组织机构	-12696.0
Excel	-12697.0
DO	-12698.0
了几	-12699.0
仿真	-12700.0
储物	-12701.0
刑事	-12702.0
腾讯	-12703.0
萧瑟	-12704.0
tal	-12705.0
拿走了	-12706.0
蓝色和	-12707.0
高度的	-12708.0
Jack	-12709.0
cent	-12710.0
ches	-12711.0
健康管理	-12712.0
美好时光	-12713.0
能够理解	-12714.0
进行评估	-12715.0
Group	-12716.0
▁写一篇关于人工智能的文章	-12717.0
)]	-12718.0
cp	-12719.0
不胜	-12720.0
书包	-12721.0
它們	-12722.0
激光	-12723.0
祖先	-12724.0
联想	-12725.0
那你	-12726.0
▁然而	-12727.0
故事吧	-12728.0
生命和	-12729.0
▁颗糖果	-12730.0
代码示例	-12731.0
逐渐增加	-12732.0
Transl	-12733.0
▁在此任务中	-12734.0
亿元	-12735.0
勾股	-12736.0
学历	-12737.0
并按	-12738.0
登陆	-12739.0
贵族	-12740.0
在公园	-12741.0
广阔的	-12742.0
用英语	-12743.0
所提供的	-12744.0
这个数列	-12745.0
也对	-12746.0
国会	-12747.0
林间	-12748.0
并说明	-12749.0
电影名	-12750.0
身份证	-12751.0
对环境的	-12752.0
带来更多	-12753.0
整个世界	-12754.0
欢声笑语	-12755.0
需要花费	-12756.0
ename	-12757.0
module	-12758.0
制备	-12759.0
各種	-12760.0
增多	-12761.0
学和	-12762.0
所谓	-12763.0
的呢	-12764.0
道歉	-12765.0
我为你	-12766.0
sole	-12767.0
应对措施	-12768.0
营养价值	-12769.0
▁hist	-12770.0
▁doesn	-12771.0
凋零	-12772.0
动漫	-12773.0
各大	-12774.0
心跳	-12775.0
ope	-12776.0
▁产品	-12777.0
新闻稿	-12778.0
看到的	-12779.0
黑暗中	-12780.0
奥林匹克	-12781.0
更加生动	-12782.0
我将很乐意	-12783.0
▁WHERE	-12784.0
从数据中学习	-12785.0
可持续发展的	-12786.0
书架	-12787.0
敏捷	-12788.0
水流	-12789.0
的标准	-12790.0
提供有关	-12791.0
▁给出一组	-12792.0
多少个糖果	-12793.0
给定的句子	-12794.0
一朵	-12795.0
京东	-12796.0
去掉	-12797.0
只脚	-12798.0
民众	-12799.0
洗澡	-12800.0
當然	-12801.0
任务是	-12802.0
调味品	-12803.0
进行预测	-12804.0
atter	-12805.0
etime	-12806.0
小明手中有	-12807.0
etwork	-12808.0
ED	-12809.0
亲朋	-12810.0
塞纳	-12811.0
春日	-12812.0
曼哈	-12813.0
松弛	-12814.0
自治	-12815.0
uck	-12816.0
▁城市	-12817.0
感觉很	-12818.0
的艺术	-12819.0
arah	-12820.0
医学领域	-12821.0
数学公式	-12822.0
这个周末	-12823.0
进行概括	-12824.0
false	-12825.0
▁really	-12826.0
了我	-12827.0
北方	-12828.0
哈佛	-12829.0
好吃	-12830.0
寡妇	-12831.0
报纸	-12832.0
提琴	-12833.0
流传	-12834.0
短诗	-12835.0
笑声	-12836.0
跟鞋	-12837.0
ved	-12838.0
▁Bl	-12839.0
和市场	-12840.0
和海洋	-12841.0
西游记	-12842.0
选择适合	-12843.0
agram	-12844.0
▁我有一个	-12845.0
人工智能也	-12846.0
工作效率和	-12847.0
成为了一个	-12848.0
如果你有任何	-12849.0
这句话的意思是	-12850.0
Do	-12851.0
千年	-12852.0
棋子	-12853.0
▁喜欢	-12854.0
哪一种	-12855.0
提出的	-12856.0
望远镜	-12857.0
Node	-12858.0
量子比特	-12859.0
在现代社会中	-12860.0
如果您还有其他	-12861.0
呵护	-12862.0
姿态	-12863.0
抵达	-12864.0
教训	-12865.0
莱坞	-12866.0
订阅	-12867.0
重构	-12868.0
▁["	-12869.0
了解了	-12870.0
可以与	-12871.0
▁我喜欢	-12872.0
因果关系	-12873.0
相关问题	-12874.0
面向对象	-12875.0
音乐风格	-12876.0
一声	-12877.0
像素	-12878.0
反抗	-12879.0
奥会	-12880.0
西部	-12881.0
钢笔	-12882.0
?""	-12883.0
和家庭	-12884.0
最大化	-12885.0
火车站	-12886.0
哪方面的	-12887.0
帮我生成	-12888.0
有些人认为	-12889.0
”\	-12890.0
不妨	-12891.0
它有	-12892.0
小火	-12893.0
摘取	-12894.0
▁瑜伽	-12895.0
种族或	-12896.0
道路上	-12897.0
难以忘怀	-12898.0
翻译成另一种语言	-12899.0
人脑	-12900.0
▁op	-12901.0
和特点	-12902.0
壮丽的	-12903.0
拍打着	-12904.0
自定义	-12905.0
body	-12906.0
find	-12907.0
▁以下是	-12908.0
根据标题	-12909.0
自主学习	-12910.0
ually	-12911.0
需要大量的	-12912.0
▁between	-12913.0
传记	-12914.0
划艇	-12915.0
嗅觉	-12916.0
母语	-12917.0
相差	-12918.0
童年	-12919.0
西湖	-12920.0
計劃	-12921.0
bar	-12922.0
在周末	-12923.0
寒冷的	-12924.0
的一次	-12925.0
的金额	-12926.0
组织名	-12927.0
重写为	-12928.0
颜色是	-12929.0
▁将一个	-12930.0
在工作中	-12931.0
沙滩排球	-12932.0
该怎么做	-12933.0
▁到	-12934.0
冰雪	-12935.0
哥哥	-12936.0
苏联	-12937.0
集体	-12938.0
是一场	-12939.0
简单而	-12940.0
▁lik	-12941.0
刻板印象	-12942.0
工作岗位	-12943.0
进行纠正	-12944.0
itive	-12945.0
▁main	-12946.0
它可以通过	-12947.0
语音识别和	-12948.0
采取行动来	-12949.0
叠加	-12950.0
广播	-12951.0
战士	-12952.0
扩散	-12953.0
教室	-12954.0
最长	-12955.0
有毒	-12956.0
▁So	-12957.0
从而使	-12958.0
曼哈顿	-12959.0
置身于	-12960.0
多样性的	-12961.0
▁math	-12962.0
的详细信息	-12963.0
ational	-12964.0
========	-12965.0
随着人工智能技术的不断发展	-12966.0
实在	-12967.0
法案	-12968.0
类比	-12969.0
tra	-12970.0
▁::	-12971.0
▁AN	-12972.0
▁用户	-12973.0
全球的	-12974.0
坚定的	-12975.0
找不到	-12976.0
遥远的	-12977.0
搜索结果	-12978.0
的好方法	-12979.0
的方式来	-12980.0
进行改写	-12981.0
Equal	-12982.0
有用的信息	-12983.0
积极的影响	-12984.0
第一个句子	-12985.0
推文	-12986.0
放进	-12987.0
正向	-12988.0
球的	-12989.0
随地	-12990.0
▁营销	-12991.0
印度的	-12992.0
和污染	-12993.0
那就是	-12994.0
[::-	-12995.0
短时间内	-12996.0
那么小明	-12997.0
应该怎么做	-12998.0
时间和空间	-12999.0
的主题是什么	-13000.0
▁project	-13001.0
卡尔	-13002.0
开拓	-13003.0
折射	-13004.0
最後	-13005.0
身影	-13006.0
颜料	-13007.0
▁日期	-13008.0
单词是	-13009.0
更具有	-13010.0
规定的	-13011.0
发展趋势	-13012.0
这个句子中	-13013.0
▁based	-13014.0
在社交媒体上	-13015.0
每个人的责任	-13016.0
cs	-13017.0
▁月	-13018.0
万千	-13019.0
嵌入	-13020.0
显然	-13021.0
每位	-13022.0
河畔	-13023.0
源自	-13024.0
耐磨	-13025.0
配乐	-13026.0
问卷	-13027.0
鸟鸣	-13028.0
也开始	-13029.0
指出了	-13030.0
来生成	-13031.0
严重影响	-13032.0
加法运算	-13033.0
让我为您	-13034.0
▁Paris	-13035.0
▁output	-13036.0
佳肴	-13037.0
傲慢	-13038.0
梅花	-13039.0
绿化	-13040.0
金毛	-13041.0
钞票	-13042.0
风速	-13043.0
围绕着	-13044.0
它们的和	-13045.0
是否能够	-13046.0
预测未来	-13047.0
search	-13048.0
更具体的信息	-13049.0
我们应该尊重每个人的	-13050.0
执法	-13051.0
故意	-13052.0
真挚	-13053.0
袋鼠	-13054.0
饰品	-13055.0
une	-13056.0
多样的	-13057.0
新技能	-13058.0
活动中	-13059.0
▁pol	-13060.0
多元化的	-13061.0
更加清晰	-13062.0
一些常见的	-13063.0
的方法包括	-13064.0
自己独特的	-13065.0
▁above	-13066.0
谢谢你的回答	-13067.0
▁iPhone	-13068.0
Se	-13069.0
别墅	-13070.0
十四	-13071.0
景区	-13072.0
绩效	-13073.0
這樣	-13074.0
cer	-13075.0
ney	-13076.0
▁Se	-13077.0
你是我	-13078.0
名学生	-13079.0
和数字	-13080.0
最长的	-13081.0
的不断	-13082.0
购物袋	-13083.0
ploy	-13084.0
买了一些	-13085.0
克服困难	-13086.0
▁描述一种	-13087.0
不同的文化	-13088.0
造成负面影响	-13089.0
人文	-13090.0
人類	-13091.0
关节	-13092.0
姓氏	-13093.0
提倡	-13094.0
漫游	-13095.0
的数	-13096.0
相邻	-13097.0
考慮	-13098.0
▁好的	-13099.0
个句子	-13100.0
生产线	-13101.0
的支持	-13102.0
自由地	-13103.0
sera	-13104.0
统计数据	-13105.0
长时间的	-13106.0
NO	-13107.0
光速	-13108.0
尔夫	-13109.0
并被	-13110.0
总价	-13111.0
沉淀	-13112.0
纠纷	-13113.0
纯净	-13114.0
纷飞	-13115.0
通俗	-13116.0
采访	-13117.0
分辨率	-13118.0
性取向	-13119.0
的理解	-13120.0
首先将	-13121.0
avid	-13122.0
▁深呼吸	-13123.0
一个人在	-13124.0
天气信息	-13125.0
年轻人的	-13126.0
教育背景	-13127.0
含有丰富的	-13128.0
ribute	-13129.0
status	-13130.0
▁▁▁▁▁▁▁▁▁▁▁▁▁▁▁	-40011.0
书中	-13132.0
们在	-13133.0
刻画	-13134.0
售货	-13135.0
屋顶	-13136.0
带给	-13137.0
捐赠	-13138.0
推测	-13139.0
永久	-13140.0
语调	-13141.0
Des	-13142.0
上面的	-13143.0
判断其	-13144.0
可以向	-13145.0
和能力	-13146.0
游泳和	-13147.0
释放出	-13148.0
▁pop	-13149.0
未来发展方向	-13150.0
按照从小到大的	-13151.0
▁include	-13152.0
保持健康的生活方式	-13153.0
ée	-13154.0
布置	-13155.0
显瘦	-13156.0
饰演	-13157.0
该段落	-13158.0
较小的	-13159.0
去中心化	-13160.0
天空湛蓝	-13161.0
的问题吗	-13162.0
他会	-13163.0
共识	-13164.0
杰出	-13165.0
的两	-13166.0
羊毛	-13167.0
决策和	-13168.0
它包括	-13169.0
或者去	-13170.0
柔和的	-13171.0
肯定的	-13172.0
book	-13173.0
你的朋友	-13174.0
数据中的	-13175.0
印度尼西亚	-13176.0
content	-13177.0
做得	-13178.0
蛋黄	-13179.0
见证	-13180.0
证书	-13181.0
道理	-13182.0
▁地点	-13183.0
增长率	-13184.0
标记为	-13185.0
清洁剂	-13186.0
的格式	-13187.0
等元素	-13188.0
无人驾驶汽车	-13189.0
oursera	-13190.0
ba	-13191.0
下跌	-13192.0
交付	-13193.0
和园	-13194.0
外界	-13195.0
守望	-13196.0
征服	-13197.0
略有	-13198.0
素养	-13199.0
公司和	-13200.0
和运动	-13201.0
咖啡机	-13202.0
ruct	-13203.0
从而导致	-13204.0
团队协作	-13205.0
多个方面	-13206.0
▁está	-13207.0
▁French	-13208.0
mp	-13209.0
一刻	-13210.0
增进	-13211.0
就在	-13212.0
开会	-13213.0
跨国	-13214.0
将其中	-13215.0
等待着	-13216.0
都没有	-13217.0
▁sal	-13218.0
只有这样	-13219.0
▁根据给定	-13220.0
提取文章中	-13221.0
AS	-13222.0
斑马	-13223.0
机关	-13224.0
欧盟	-13225.0
满地	-13226.0
的中	-13227.0
uff	-13228.0
每一天	-13229.0
配备了	-13230.0
通过这些	-13231.0
健康的早餐	-13232.0
单词或短语	-13233.0
给我想一个	-13234.0
能够帮助你	-13235.0
一阵	-13236.0
发热	-13237.0
周日	-13238.0
延伸	-13239.0
海淀	-13240.0
语文	-13241.0
]::	-13242.0
▁作者	-13243.0
变量的	-13244.0
庞大的	-13245.0
所在地	-13246.0
为主题的	-13247.0
为您服务	-13248.0
开发一款	-13249.0
智慧城市	-13250.0
用来形容	-13251.0
▁expl	-13252.0
▁show	-13253.0
▁打开一个	-13254.0
三角形的面积	-13255.0
▁default	-13256.0
。*	-13257.0
和盐	-13258.0
四周	-13259.0
缩小	-13260.0
解放	-13261.0
▁人类	-13262.0
不同于	-13263.0
为社会	-13264.0
同时还	-13265.0
家庭中	-13266.0
更符合	-13267.0
结束后	-13268.0
边长为	-13269.0
以下两个	-13270.0
▁such	-13271.0
▁sorted	-13272.0
vironment	-13273.0
▁谁	-13274.0
为何	-13275.0
低头	-13276.0
信誉	-13277.0
安宁	-13278.0
毫不	-13279.0
▁引述	-13280.0
▁约翰	-13281.0
可扩展	-13282.0
▁For	-13283.0
任何一个	-13284.0
总体而言	-13285.0
有意义的	-13286.0
能够提高	-13287.0
自然现象	-13288.0
表达能力	-13289.0
equal	-13290.0
也非常重要	-13291.0
分享自己的	-13292.0
疾病的风险	-13293.0
制的	-13294.0
手提	-13295.0
盗窃	-13296.0
绿的	-13297.0
伦敦塔	-13298.0
哲学家	-13299.0
来决定	-13300.0
英翻译	-13301.0
▁pub	-13302.0
修辞手法	-13303.0
单击	-13304.0
宝贵	-13305.0
荣幸	-13306.0
问你	-13307.0
鱼肉	-13308.0
iff	-13309.0
▁产生	-13310.0
▁坚持	-13311.0
不小心	-13312.0
和沟通	-13313.0
爱情和	-13314.0
瑜伽等	-13315.0
的整数	-13316.0
舒适度	-13317.0
阐述了	-13318.0
ider	-13319.0
和独特的	-13320.0
开关	-13321.0
混淆	-13322.0
聚焦	-13323.0
行诗	-13324.0
▁没有	-13325.0
可解释	-13326.0
它可能	-13327.0
美国人	-13328.0
记忆力	-13329.0
亲朋好友	-13330.0
的苹果数	-13331.0
身体素质	-13332.0
生成一个标题	-13333.0
▁around	-13334.0
▁此	-13335.0
助理	-13336.0
大火	-13337.0
天后	-13338.0
归来	-13339.0
抹茶	-13340.0
搭建	-13341.0
罚款	-13342.0
▁\]	-13343.0
▁由于	-13344.0
净利润	-13345.0
来支持	-13346.0
正整数	-13347.0
演唱会	-13348.0
鸟儿在	-13349.0
了解一下	-13350.0
人们开始	-13351.0
每个数字	-13352.0
口令	-13353.0
并从	-13354.0
歷史	-13355.0
瓶子	-13356.0
豐富	-13357.0
走势	-13358.0
和体验	-13359.0
和功能	-13360.0
当地人	-13361.0
散发出	-13362.0
有多种	-13363.0
如何通过	-13364.0
如果你对	-13365.0
跟我聊聊	-13366.0
▁gust	-13367.0
▁商品文案	-13368.0
我可以给您	-13369.0
▁商品文案生成	-13370.0
保护我们的环境	-13371.0
▁香	-13372.0
两年	-13373.0
凭借	-13374.0
差为	-13375.0
杂货	-13376.0
烤鸡	-13377.0
窗帘	-13378.0
迹象	-13379.0
选购	-13380.0
酵母	-13381.0
▁np	-13382.0
代表作	-13383.0
的其他	-13384.0
说明了	-13385.0
▁Mar	-13386.0
加入适量	-13387.0
客户需求	-13388.0
我们能够	-13389.0
▁plan	-13390.0
这篇文章中的	-13391.0
LI	-13392.0
排在	-13393.0
过得	-13394.0
也比较	-13395.0
会受到	-13396.0
无论你	-13397.0
的人才	-13398.0
祈使句	-13399.0
给我出	-13400.0
街道上	-13401.0
是什么吗	-13402.0
plate	-13403.0
这可能会导致	-13404.0
保温	-13405.0
基督	-13406.0
领略	-13407.0
星期六	-13408.0
起到了	-13409.0
领导力	-13410.0
root	-13411.0
修改后的	-13412.0
需要一些	-13413.0
oding	-13414.0
首字母大写	-13415.0
▁从以下选项中选择	-13416.0
四种	-13417.0
攻略	-13418.0
漫威	-13419.0
主要由	-13420.0
听说过	-13421.0
的花朵	-13422.0
森林砍伐	-13423.0
那你能不能	-13424.0
▁Gener	-13425.0
空气中弥漫着	-13426.0
保护我们的星球	-13427.0
云层	-13428.0
岸边	-13429.0
点燃	-13430.0
網絡	-13431.0
适度	-13432.0
上海的	-13433.0
去学校	-13434.0
ille	-13435.0
我也可以	-13436.0
欢迎来到	-13437.0
每天需要	-13438.0
请用中文	-13439.0
这个游戏	-13440.0
这种观点	-13441.0
下面这句话	-13442.0
爱人	-13443.0
真理	-13444.0
菊花	-13445.0
訓練	-13446.0
和生活	-13447.0
提供商	-13448.0
ency	-13449.0
原因如下	-13450.0
现实主义	-13451.0
预防疾病	-13452.0
飞速发展	-13453.0
ought	-13454.0
丈夫	-13455.0
分泌	-13456.0
张家	-13457.0
打粉	-13458.0
束缚	-13459.0
水杯	-13460.0
值得我们	-13461.0
是蓝色的	-13462.0
糖果数量	-13463.0
它可以帮助	-13464.0
粘贴在这里	-13465.0
请告诉我您的	-13466.0
忧伤	-13467.0
穿搭	-13468.0
蜡烛	-13469.0
首席	-13470.0
太空中	-13471.0
都属于	-13472.0
这种现象	-13473.0
ident	-13474.0
▁date	-13475.0
▁机器学习	-13476.0
▁group	-13477.0
二氧化碳排放	-13478.0
▁Intelligence	-13479.0
伯格	-13480.0
和他	-13481.0
范畴	-13482.0
開發	-13483.0
并避免	-13484.0
结构的	-13485.0
aces	-13486.0
能不能再	-13487.0
蔬菜沙拉	-13488.0
解决方法	-13489.0
这可能会	-13490.0
积极的态度	-13491.0
循环神经网络	-13492.0
丧失	-13493.0
冰镇	-13494.0
在其	-13495.0
摄氏	-13496.0
摆放	-13497.0
望着	-13498.0
瘦肉	-13499.0
翻转	-13500.0
谷物	-13501.0
不少于	-13502.0
可能因	-13503.0
并指出	-13504.0
影响的	-13505.0
新事物	-13506.0
理解为	-13507.0
的性能	-13508.0
学习英语	-13509.0
顺序排序	-13510.0
▁learn	-13511.0
你可以告诉我	-13512.0
人工智能在医疗保健	-13513.0
國家	-13514.0
就医	-13515.0
起飞	-13516.0
▁例如	-13517.0
增长了	-13518.0
的主角	-13519.0
的生日	-13520.0
第一天	-13521.0
平均气温	-13522.0
我和我的	-13523.0
给我列举一些	-13524.0
▁自然语言处理	-13525.0
▁translate	-13526.0
任務	-13527.0
挪威	-13528.0
梵高	-13529.0
欧元	-13530.0
治療	-13531.0
越大	-13532.0
感叹句	-13533.0
或建议	-13534.0
的网站	-13535.0
联系我	-13536.0
让学生	-13537.0
阿根廷	-13538.0
颐和园	-13539.0
题目是	-13540.0
vous	-13541.0
吸引力的	-13542.0
推动社会	-13543.0
同义词和反义词	-13544.0
得到了广泛应用	-13545.0
以下是一些可能的	-13546.0
\]	-13547.0
亲近	-13548.0
你呢	-13549.0
国旗	-13550.0
浸泡	-13551.0
lose	-13552.0
建议选择	-13553.0
▁----	-13554.0
华盛顿特区	-13555.0
看到了一只	-13556.0
▁these	-13557.0
:「	-13558.0
值的	-13559.0
南非	-13560.0
尔摩	-13561.0
摩托	-13562.0
浇水	-13563.0
防控	-13564.0
不存在	-13565.0
和谐共	-13566.0
淡淡的	-13567.0
第一步	-13568.0
imal	-13569.0
风险评估	-13570.0
▁根据关键词	-13571.0
▁翻译成英文	-13572.0
▁aujourd	-13573.0
Bl	-13574.0
所著	-13575.0
普拉	-13576.0
更能	-13577.0
科學	-13578.0
轻微	-13579.0
gan	-13580.0
数字和	-13581.0
暗示了	-13582.0
该单词	-13583.0
通过将	-13584.0
可以让我	-13585.0
和海王星	-13586.0
歌词生成	-13587.0
生机勃勃	-13588.0
语法结构	-13589.0
▁翻译以下	-13590.0
去中心化的	-13591.0
我们需要知道	-13592.0
PD	-13593.0
▁temp	-40012.0
举措	-13595.0
之上	-13596.0
小溪	-13597.0
悬挂	-13598.0
清香	-13599.0
蚊子	-13600.0
!("	-13601.0
▁不要	-13602.0
当一个	-13603.0
想一个	-13604.0
的模型	-13605.0
行动来	-13606.0
过拟合	-13607.0
阿姆斯	-13608.0
同时也能	-13609.0
在旅途中	-13610.0
在比赛中	-13611.0
是中国的	-13612.0
词性标注	-13613.0
深刻的印象	-13614.0
nology	-13615.0
▁water	-13616.0
谢谢你的建议	-13617.0
▁根据标题生成商品文案	-13618.0
务必	-13619.0
Dis	-13620.0
以至于	-13621.0
分钟内	-13622.0
发现的	-13623.0
最近我	-13624.0
规律和	-13625.0
bose	-13626.0
也可以是	-13627.0
位于中国	-13628.0
尝试使用	-13629.0
我并没有	-13630.0
这个场景	-13631.0
我们需要在	-13632.0
生成文案吗	-13633.0
▁problem	-13634.0
▁你能帮我生成文案吗	-13635.0
劣势	-13636.0
就要	-13637.0
投放	-13638.0
请为	-13639.0
参与到	-13640.0
家里的	-13641.0
▁ref	-13642.0
公共场所	-13643.0
小明手上	-13644.0
应该包括	-13645.0
提供更多	-13646.0
是否应该	-13647.0
asket	-13648.0
lobal	-13649.0
older	-13650.0
tprint	-13651.0
人工智能算法	-13652.0
▁生成一个包含	-13653.0
PU	-13654.0
丝绸	-13655.0
本科	-13656.0
甜品	-13657.0
和社交	-13658.0
并选择	-13659.0
的感受	-13660.0
表格中	-13661.0
家庭教育	-13662.0
的质量和	-13663.0
▁rece	-13664.0
▁文案生成	-13665.0
之间的差异	-13666.0
他把其中的	-13667.0
ically	-13668.0
寻求专业帮助	-13669.0
也是非常重要的	-13670.0
两类	-13671.0
桌面	-13672.0
是世界	-13673.0
的努力	-13674.0
这不仅	-13675.0
也有助于	-13676.0
搜索一下	-13677.0
▁Fran	-13678.0
▁Here	-13679.0
▁made	-13680.0
▁movie	-13681.0
▁生成一个有趣的	-13682.0
CR	-13683.0
Ph	-13684.0
▁這	-13685.0
去买	-13686.0
更低	-13687.0
波涛	-13688.0
皇后	-13689.0
讽刺	-13690.0
▁阳光	-13691.0
和工具	-13692.0
夏天是	-13693.0
太多的	-13694.0
有益于	-13695.0
的三个	-13696.0
静夜思	-13697.0
人们应该	-13698.0
亲人	-13699.0
将对	-13700.0
股东	-13701.0
作曲家	-13702.0
有什麼	-13703.0
照耀着	-13704.0
等特点	-13705.0
获得的	-13706.0
▁sci	-13707.0
喜剧电影	-13708.0
天气晴朗	-13709.0
小明手中	-13710.0
▁suis	-13711.0
你可以试试	-13712.0
我们的生活方式	-13713.0
Im	-13714.0
aa	-13715.0
聚餐	-13716.0
那种	-13717.0
采摘	-13718.0
ero	-13719.0
与同事	-13720.0
向日葵	-13721.0
和风格	-13722.0
是日本	-13723.0
过去式	-13724.0
当地居民	-13725.0
有足够的	-13726.0
实现可持续发展	-13727.0
单价	-13728.0
它以	-13729.0
新手	-13730.0
仙人掌	-13731.0
忠诚度	-13732.0
欢快地	-13733.0
放在一起	-13734.0
的是什么	-13735.0
根据上下文	-13736.0
产量	-13737.0
亲情	-13738.0
开朗	-13739.0
我叫	-13740.0
教我	-13741.0
时装	-13742.0
朝阳	-13743.0
渐浓	-13744.0
結果	-13745.0
罪犯	-13746.0
而被	-13747.0
起着	-13748.0
这就	-13749.0
vec	-13750.0
他需要	-13751.0
停车场	-13752.0
并确定	-13753.0
开发出	-13754.0
评价和	-13755.0
人们需要	-13756.0
季节之一	-13757.0
电影中的	-13758.0
iment	-13759.0
的基本概念	-13760.0
遇到了一只	-13761.0
Amazon	-13762.0
▁watch	-13763.0
九寨	-13764.0
外形	-13765.0
履行	-13766.0
漂浮	-13767.0
聆听	-13768.0
虾仁	-13769.0
这三	-13770.0
高糖	-13771.0
工业化	-13772.0
情绪和	-13773.0
星期三	-13774.0
枚硬币	-13775.0
足球赛	-13776.0
大多数人	-13777.0
社会责任	-13778.0
第二句话	-13779.0
语法规则	-13780.0
不同种类的	-13781.0
人工智能与	-13782.0
债务	-13783.0
施工	-13784.0
青岛	-13785.0
了一下	-13786.0
小行星	-13787.0
我决定	-13788.0
orus	-13789.0
及时发现	-13790.0
可能会面临	-13791.0
夏天是一个	-13792.0
科技创新的	-13793.0
适合初学者	-13794.0
此类	-13795.0
肩膀	-13796.0
这会	-13797.0
▁To	-13798.0
九寨沟	-13799.0
准确度	-13800.0
列举出	-13801.0
▁term	-13802.0
剪裁	-13803.0
听觉	-13804.0
等的	-13805.0
见到	-13806.0
说服	-13807.0
颠覆	-13808.0
叫什么	-13809.0
和不安	-13810.0
将会在	-13811.0
行业和	-13812.0
的主题或	-13813.0
让你感到	-13814.0
日常生活中的	-13815.0
辅助医生进行	-13816.0
ensorFlow	-13817.0
敏捷的棕色狐狸跳过懒狗	-13818.0
)*	-13819.0
不斷	-13820.0
入了	-13821.0
市区	-13822.0
约定	-13823.0
不锈钢	-13824.0
小时内	-13825.0
投资于	-13826.0
售后服务	-13827.0
的反义词	-13828.0
集中精力	-13829.0
ailed	-13830.0
▁根据所给	-13831.0
发挥自己的	-13832.0
山顶	-13833.0
曾在	-13834.0
家里有	-13835.0
日期和	-13836.0
的品牌	-13837.0
自主地	-13838.0
open	-13839.0
▁sin	-13840.0
生产效率	-13841.0
行动起来	-13842.0
以下是五个	-13843.0
创造更多的	-13844.0
的具体内容	-13845.0
atetime	-13846.0
天王星和海王星	-13847.0
”;	-13848.0
(list	-40013.0
兴起	-13850.0
刹车	-13851.0
始于	-13852.0
專業	-13853.0
梳理	-13854.0
电压	-13855.0
违约	-13856.0
關係	-13857.0
dom	-13858.0
最小的	-13859.0
来增强	-13860.0
黑寡妇	-13861.0
this	-13862.0
和自动化	-13863.0
它们是否	-13864.0
游客前来	-13865.0
▁français	-13866.0
EM	-13867.0
东部	-13868.0
丽江	-13869.0
杀死	-13870.0
随便	-13871.0
enn	-13872.0
▁培养	-13873.0
上进行	-13874.0
半径为	-13875.0
在日本	-13876.0
昨天的	-13877.0
透明度	-13878.0
inue	-13879.0
它们通常	-13880.0
很感兴趣	-13881.0
确保您的	-13882.0
ender	-13883.0
各种类型的	-13884.0
板块	-13885.0
肉质	-13886.0
船只	-13887.0
订购	-13888.0
資源	-13889.0
足迹	-13890.0
轮廓	-13891.0
▁修改	-13892.0
创作出	-13893.0
并找到	-13894.0
每天喝	-13895.0
的事件	-13896.0
的空间	-13897.0
给了他	-13898.0
ours	-13899.0
▁你认为	-13900.0
以下信息	-13901.0
出现频率	-13902.0
学习资源	-13903.0
很多领域	-13904.0
控制系统	-13905.0
文本中提取	-13906.0
▁train	-13907.0
适合初学者的	-13908.0
CH	-13909.0
md	-13910.0
pa	-13911.0
如有	-13912.0
安防	-13913.0
德拉	-13914.0
甜美	-13915.0
价格和	-13916.0
小动物	-13917.0
我们就	-13918.0
深深的	-13919.0
的分析	-13920.0
▁una	-13921.0
我们使用	-13922.0
推荐一首	-13923.0
文化活动	-13924.0
英文翻译	-13925.0
以下是关于	-13926.0
Module	-13927.0
文本中的所有	-13928.0
reverse	-13929.0
帮我生成商品描述	-13930.0
小区	-13931.0
度量	-13932.0
辣味	-13933.0
专注力	-13934.0
是当今	-13935.0
替代品	-13936.0
让它们	-13937.0
为了保护	-13938.0
定期进行	-13939.0
很长时间	-13940.0
您可以将	-13941.0
减压的方法	-13942.0
成功的关键	-13943.0
经历了许多	-13944.0
法和	-13945.0
科研	-13946.0
绵绵	-13947.0
vis	-13948.0
来分析	-13949.0
温度和	-13950.0
的一款	-13951.0
的发明	-13952.0
工作机会	-13953.0
他想把这些	-13954.0
写一个标题	-13955.0
分类为正面	-13956.0
发生了什么	-13957.0
在金融领域	-13958.0
ground	-13959.0
struct	-13960.0
ae	-13961.0
”)	-13962.0
制裁	-13963.0
号线	-13964.0
汽水	-13965.0
草药	-13966.0
以吸引	-13967.0
同性恋	-13968.0
不是一个	-13969.0
想象力和	-13970.0
每一个人	-13971.0
音乐创作	-13972.0
挑战和困难	-13973.0
PO	-13974.0
宏伟	-13975.0
审核	-13976.0
广大	-13977.0
得多	-13978.0
根源	-13979.0
菜系	-13980.0
rip	-13981.0
个饼干	-13982.0
全球化	-13983.0
已知的	-13984.0
微波炉	-13985.0
更快速	-13986.0
构成了	-13987.0
物质和	-13988.0
的外观	-13989.0
中国文化	-13990.0
计算结果	-13991.0
▁jumped	-13992.0
▁从以下句子中提取	-13993.0
随着技术的不断进步	-13994.0
▁根据关键词生成商品文案	-13995.0
gr	-13996.0
sl	-13997.0
区间	-13998.0
受损	-13999.0
地形	-14000.0
海南	-14001.0
荣耀	-14002.0
论述	-14003.0
革新	-14004.0
All	-14005.0
并不会	-14006.0
的表面	-14007.0
质量的	-14008.0
供您参考	-14009.0
接种疫苗	-14010.0
放入预热	-14011.0
之间的联系	-14012.0
小明手上有	-14013.0
人工智能在未来	-14014.0
▁sentences	-14015.0
▁根据输入生成商品文案	-14016.0
tu	-14017.0
偶尔	-14018.0
储备	-14019.0
內容	-14020.0
只球	-14021.0
蕴含	-14022.0
陷阱	-14023.0
中寻找	-14024.0
中心的	-14025.0
积极地	-14026.0
▁Out	-14027.0
您喜欢的	-14028.0
日程安排	-14029.0
每天都会	-14030.0
这篇文章介绍了	-14031.0
password	-14032.0
FF	-14033.0
巴马	-14034.0
扼要	-14035.0
提炼	-14036.0
新开	-14037.0
只有在	-14038.0
和减少	-14039.0
小明在	-14040.0
我打算	-14041.0
的原则	-14042.0
的小狗	-14043.0
的水分	-14044.0
勾股定理	-14045.0
古风诗歌	-14046.0
现实世界	-14047.0
CB	-14048.0
他被	-14049.0
大会	-14050.0
女王	-14051.0
清朝	-14052.0
登高	-14053.0
的全	-14054.0
蒂姆	-14055.0
诈骗	-14056.0
资讯	-14057.0
风俗	-14058.0
▁古诗	-14059.0
对这些	-14060.0
给我听	-14061.0
随机的	-14062.0
page	-14063.0
发现新的	-14064.0
垃圾处理	-14065.0
属于哪个	-14066.0
今天天气很好	-14067.0
交替	-14068.0
帐篷	-14069.0
指挥	-14070.0
机智	-14071.0
白雪	-14072.0
ump	-14073.0
▁ge	-14074.0
个人和	-14075.0
乐观的	-14076.0
的详细	-14077.0
Alex	-14078.0
▁请给出	-14079.0
医疗数据	-14080.0
示例代码	-14081.0
给我提供	-14082.0
得到了广泛的应用	-14083.0
出席	-14084.0
即为	-14085.0
日光	-14086.0
用戶	-14087.0
简史	-14088.0
箱子	-14089.0
蒙娜	-14090.0
Git	-14091.0
似乎在	-14092.0
和技能	-14093.0
在数学	-14094.0
的训练	-14095.0
▁old	-14096.0
您可以去	-14097.0
▁根据用户	-14098.0
传统计算机	-14099.0
可能是由于	-14100.0
计算机网络	-14101.0
人们的生活方式	-14102.0
,[	-14103.0
▁đ	-14104.0
负数	-14105.0
RNN	-14106.0
iet	-14107.0
一年级	-14108.0
个女生	-14109.0
合作和	-14110.0
在当今	-14111.0
时间来	-14112.0
海淀区	-14113.0
node	-14114.0
▁我们的	-14115.0
加密货币	-14116.0
能源效率	-14117.0
的代表作之一	-14118.0
iw	-14119.0
▁nums	-40014.0
侵权	-14121.0
信任和	-14122.0
指南针	-14123.0
清明节	-14124.0
你的名字	-14125.0
做好准备	-14126.0
健康食品	-14127.0
在医疗保健	-14128.0
摄入足够的	-14129.0
都有自己的	-14130.0
client	-14131.0
▁point	-14132.0
如果您有其他	-14133.0
ga	-14134.0
下次	-14135.0
两份	-14136.0
便于	-14137.0
批准	-14138.0
租金	-14139.0
雅典	-14140.0
雪芹	-14141.0
霸王	-14142.0
顶级	-14143.0
一无二	-14144.0
分配给	-14145.0
将以下	-14146.0
最接近	-14147.0
最美的	-14148.0
享受美食	-14149.0
工作时间	-14150.0
平等对待	-14151.0
思维能力	-14152.0
逻辑回归	-14153.0
客户满意度	-14154.0
我们也应该	-14155.0
翻译成德语	-14156.0
他们一共有多少	-14157.0
为例	-14158.0
极大	-14159.0
能被	-14160.0
面糊	-14161.0
idd	-14162.0
与我们	-14163.0
工作者	-14164.0
帮到你	-14165.0
并不断	-14166.0
的秘密	-14167.0
皮划艇	-14168.0
粒子的	-14169.0
▁fun	-14170.0
人机交互	-14171.0
你能为我	-14172.0
分钟左右	-14173.0
独一无二	-14174.0
这组数字	-14175.0
▁中英翻译	-14176.0
以下是我的	-14177.0
va	-14178.0
分心	-14179.0
同情	-14180.0
海中	-14181.0
激活	-14182.0
电梯	-14183.0
福祉	-14184.0
▁wr	-14185.0
▁夏日	-14186.0
和中国	-14187.0
渐渐地	-14188.0
的语气	-14189.0
表现得	-14190.0
Char	-14191.0
iPad	-14192.0
iver	-14193.0
工作经历	-14194.0
放松身体	-14195.0
法律规定	-14196.0
预测结果	-14197.0
请用中文回答	-14198.0
学者	-14199.0
开创	-14200.0
消毒	-14201.0
荒野	-14202.0
蒙古	-14203.0
img	-14204.0
▁定义	-14205.0
为背景	-14206.0
他已经	-14207.0
情节和	-14208.0
曹雪芹	-14209.0
爱情片	-14210.0
购物车	-14211.0
创造性的	-14212.0
请提取出	-14213.0
▁生成一篇关于	-14214.0
三维	-14215.0
别的	-14216.0
哈希	-14217.0
市的	-14218.0
怀念	-14219.0
患病	-14220.0
爱与	-14221.0
秋意	-14222.0
冬奥会	-14223.0
大教堂	-14224.0
当谈到	-14225.0
我理解	-14226.0
▁Are	-14227.0
▁might	-14228.0
message	-14229.0
捕食	-14230.0
二年级	-14231.0
开始有	-14232.0
来缓解	-14233.0
杯咖啡	-14234.0
煮熟的	-14235.0
的地位	-14236.0
具体问题	-14237.0
该电影的	-14238.0
▁Apple	-14239.0
{}	-14240.0
és	-14241.0
巧妙	-14242.0
挣扎	-14243.0
流连	-14244.0
能在	-14245.0
過程	-14246.0
魔幻	-14247.0
bre	-14248.0
ley	-14249.0
▁绿色	-14250.0
不舒服	-14251.0
中所有	-14252.0
古埃及	-14253.0
微风中	-14254.0
朋友或	-14255.0
满足感	-14256.0
的咖啡	-14257.0
相等的	-14258.0
闪烁着	-14259.0
ster	-14260.0
今天是个	-14261.0
平方公里	-14262.0
建议您在	-14263.0
解题过程	-14264.0
都是非常	-14265.0
文本中的错误	-14266.0
▁command	-14267.0
举例	-14268.0
亮度	-14269.0
变幻	-14270.0
適合	-14271.0
和视频	-14272.0
很快就	-14273.0
权力的	-14274.0
的国家	-14275.0
itle	-14276.0
带来新的	-14277.0
角度来看	-14278.0
▁open	-14279.0
提高生产效率	-14280.0
出現	-14281.0
歧义	-14282.0
议程	-14283.0
闹钟	-14284.0
▁总之	-14285.0
信息或	-14286.0
相关联	-14287.0
▁请列出	-14288.0
以下措施	-14289.0
智能音箱	-14290.0
最流行的	-14291.0
这项研究	-14292.0
需要提供	-14293.0
一看	-14294.0
养护	-14295.0
多久	-14296.0
愿景	-14297.0
盛宴	-14298.0
紧迫	-14299.0
纯棉	-14300.0
轿车	-14301.0
降水	-14302.0
ada	-14303.0
▁创造	-14304.0
以促进	-14305.0
和句子	-14306.0
我能够	-14307.0
该模型	-14308.0
ules	-14309.0
为你提供	-14310.0
值得注意的是	-14311.0
命名实体识别	-14312.0
▁SELECT	-14313.0
自然语言处理等领域	-14314.0
US	-14315.0
ql	-14316.0
zh	-14317.0
▁先	-14318.0
人对	-14319.0
时会	-14320.0
自尊	-14321.0
身处	-14322.0
锦标	-14323.0
一只狗	-14324.0
以增强	-14325.0
哪一年	-14326.0
在古代	-14327.0
战胜了	-14328.0
迈克尔	-14329.0
锻炼和	-14330.0
他的朋友	-14331.0
周围环境	-14332.0
工作方式	-14333.0
工作环境	-14334.0
进行处理	-14335.0
▁bird	-14336.0
df	-14337.0
低脂	-14338.0
加班	-14339.0
匿名	-14340.0
同义	-14341.0
局部	-14342.0
弱点	-14343.0
溶解	-14344.0
瓶颈	-14345.0
质疑	-14346.0
和自由	-14347.0
我都会	-14348.0
是一份	-14349.0
plot	-14350.0
▁ind	-14351.0
买了一本	-14352.0
减轻焦虑	-14353.0
对于那些	-14354.0
的好去处	-14355.0
睡眠习惯	-14356.0
这种方式	-14357.0
人工智能可以通过分析	-14358.0
企業	-14359.0
小鱼	-14360.0
时长	-14361.0
观光	-14362.0
風格	-14363.0
你能够	-14364.0
到学校	-14365.0
很强的	-14366.0
▁为一篇	-14367.0
自然美景	-14368.0
小明家里有	-14369.0
哪一	-14370.0
波罗	-14371.0
珍视	-14372.0
芝麻	-14373.0
和执行	-14374.0
的成本	-14375.0
edia	-14376.0
如何利用	-14377.0
根据以上	-14378.0
▁right	-14379.0
更深入地了解	-14380.0
mid	-40015.0
▁¿	-14382.0
。」	-14383.0
台词	-14384.0
天生	-14385.0
应为	-14386.0
心动	-14387.0
打字	-14388.0
抵御	-14389.0
牙刷	-14390.0
小时候	-14391.0
是一片	-14392.0
橙色的	-14393.0
牧羊犬	-14394.0
节奏和	-14395.0
▁tom	-14396.0
蒙娜丽莎	-14397.0
实际应用中	-14398.0
旅行目的地	-14399.0
有效的方法	-14400.0
深度学习是一种	-14401.0
学好	-14402.0
我都	-14403.0
推导	-14404.0
最短	-14405.0
水面	-14406.0
病变	-14407.0
的猫	-14408.0
莱昂	-14409.0
角的	-14410.0
aly	-14411.0
内容的	-14412.0
各自的	-14413.0
开放的	-14414.0
的人员	-14415.0
高度为	-14416.0
rais	-14417.0
专业知识	-14418.0
国家公园	-14419.0
应该使用	-14420.0
艺术家的	-14421.0
男生和女生	-14422.0
美丽的风景	-14423.0
▁statement	-14424.0
台风	-14425.0
地质	-14426.0
畅游	-14427.0
远山	-14428.0
▁er	-14429.0
▁其中	-14430.0
优势和	-14431.0
好看的	-14432.0
第二段	-14433.0
练习和	-14434.0
####	-14435.0
他是一位	-14436.0
如果您在	-14437.0
对人类的	-14438.0
找到一些	-14439.0
爱情诗歌	-14440.0
简明扼要	-14441.0
Result	-14442.0
▁restaurant	-14443.0
代价	-14444.0
前菜	-14445.0
只会	-14446.0
身旁	-14447.0
还款	-14448.0
▁最近	-14449.0
平衡和	-14450.0
手机的	-14451.0
一共买了	-14452.0
包含一个	-14453.0
如果想要	-14454.0
少数族裔	-14455.0
▁dans	-14456.0
中文怎么说	-14457.0
是哺乳动物	-14458.0
randint	-14459.0
▁花	-14460.0
自从	-14461.0
茶道	-14462.0
警觉	-14463.0
迷宫	-14464.0
防火	-14465.0
ado	-14466.0
▁了解	-14467.0
大气中	-14468.0
找一些	-14469.0
的气候	-14470.0
编辑器	-14471.0
豆瓣酱	-14472.0
arry	-14473.0
inux	-14474.0
也可以在	-14475.0
trans	-14476.0
时间和地点	-14477.0
SELECT	-14478.0
▁think	-14479.0
▁three	-14480.0
生成一首关于	-14481.0
白人	-14482.0
这本	-14483.0
▁环保	-14484.0
数量和	-14485.0
的症状	-14486.0
紫外线	-14487.0
可以缓解	-14488.0
等式两边	-14489.0
哪些方面的	-14490.0
我可以提供	-14491.0
语音识别技术	-14492.0
人工智能可以用于	-14493.0
▁important	-14494.0
不息	-14495.0
当她	-14496.0
总额	-14497.0
日式	-14498.0
蒜末	-14499.0
iam	-14500.0
他们将	-14501.0
可以做	-14502.0
而其他	-14503.0
锦标赛	-14504.0
▁ear	-14505.0
在草地上	-14506.0
学习效率	-14507.0
犯罪行为	-14508.0
生日派对	-14509.0
ister	-14510.0
根据不同的	-14511.0
正确的句子	-14512.0
每个朋友分到的	-14513.0
伦比	-14514.0
但仍	-14515.0
涟漪	-14516.0
该书	-14517.0
下一次	-14518.0
可能与	-14519.0
很好看	-14520.0
潜力和	-14521.0
程序的	-14522.0
背景下	-14523.0
通常与	-14524.0
▁app	-14525.0
可以直接	-14526.0
宇宙中的	-14527.0
other	-14528.0
希望您喜欢	-14529.0
是机器学习	-14530.0
▁change	-14531.0
▁营销文案生成	-14532.0
也是不错的选择	-14533.0
可能会有所不同	-14534.0
身体和心理健康	-14535.0
这篇文章讨论了	-14536.0
多么	-14537.0
徘徊	-14538.0
每個	-14539.0
班里	-14540.0
花的	-14541.0
这幅	-14542.0
魔术	-14543.0
的贡献	-14544.0
饮食中	-14545.0
平板电脑	-14546.0
欢迎随时	-14547.0
意大利餐厅	-14548.0
这可以通过	-14549.0
▁translated	-14550.0
Fl	-14551.0
五大	-14552.0
少吃	-14553.0
开阔	-14554.0
捞出	-14555.0
體驗	-14556.0
ión	-14557.0
其次是	-14558.0
再加入	-14559.0
吃什么	-14560.0
的相关	-14561.0
该地区	-14562.0
需要先	-14563.0
项目中	-14564.0
可以快速	-14565.0
智能合约	-14566.0
班级里有	-14567.0
正确的拼写	-14568.0
算法和模型	-14569.0
现在请告诉我	-14570.0
是世界上最大的	-14571.0
你就	-14572.0
沉睡	-14573.0
灯具	-14574.0
相符	-14575.0
如何做	-14576.0
是一篇	-14577.0
来制作	-14578.0
一系列的	-14579.0
我很抱歉	-14580.0
更加流畅	-14581.0
空气中的	-14582.0
自动化的	-14583.0
▁oper	-14584.0
他想把它们	-14585.0
何种	-14586.0
的美	-14587.0
直播	-14588.0
端午	-14589.0
补全	-14590.0
人死亡	-14591.0
是现代	-14592.0
检测和	-14593.0
的形成	-14594.0
的起源	-14595.0
ables	-14596.0
▁call	-14597.0
不同颜色的	-14598.0
属于自己的	-14599.0
是一种用于	-14600.0
减少塑料污染	-14601.0
东北	-14602.0
人情	-14603.0
出台	-14604.0
ese	-14605.0
以内的	-14606.0
一组数据	-14607.0
中国政府	-14608.0
在沙滩上	-14609.0
我推荐你	-14610.0
▁给定一段文字	-14611.0
YZ	-14612.0
亲子	-14613.0
姐妹	-14614.0
服饰	-14615.0
赞叹	-14616.0
lot	-14617.0
。"\	-14618.0
和推广	-14619.0
在哪个	-14620.0
如果不	-14621.0
数相加	-14622.0
的宠物	-14623.0
身份验证	-14624.0
同时还可以	-14625.0
的情感倾向	-14626.0
著名的景点	-14627.0
▁match	-14628.0
▁为以下句子	-14629.0
我们应该努力	-14630.0
▁将下面的句子	-14631.0
generation	-14632.0
奶奶	-14633.0
项链	-14634.0
oms	-14635.0
与伦比	-14636.0
分解为	-14637.0
原本有	-14638.0
构成的	-14639.0
的函数	-14640.0
计划的	-14641.0
▁SQL	-14642.0
一些挑战	-14643.0
温度升高	-14644.0
这场比赛	-14645.0
▁角色介绍	-14646.0
的基础知识	-14647.0
source	-14648.0
把这句话翻译成英文	-14649.0
一盒	-14650.0
聊一	-14651.0
通道	-14652.0
rol	-14653.0
作者是	-14654.0
文章还	-14655.0
海滩和	-14656.0
美好和	-14657.0
在空气中	-14658.0
感谢你的	-14659.0
灵活性和	-14660.0
积极影响	-14661.0
state	-14662.0
tings	-14663.0
简短的故事	-14664.0
▁includ	-14665.0
在不	-14666.0
纳多	-14667.0
绝望	-14668.0
食欲	-14669.0
irt	-14670.0
人民的	-14671.0
尽我所	-14672.0
的值为	-14673.0
专业人员	-14674.0
可以让人	-14675.0
合理安排	-14676.0
怎样才能	-14677.0
财务报表	-14678.0
非常广阔	-14679.0
▁cons	-14680.0
▁mark	-14681.0
roller	-14682.0
风险承受能力	-14683.0
▁sample	-14684.0
tl	-14685.0
买的	-14686.0
发型	-14687.0
右侧	-14688.0
快走	-14689.0
敬畏	-14690.0
曲折	-14691.0
热烈	-14692.0
疲倦	-14693.0
白糖	-14694.0
ade	-14695.0
好主意	-14696.0
有名的	-14697.0
的增长	-14698.0
的灵感	-14699.0
魅力和	-14700.0
oman	-14701.0
不良影响	-14702.0
在森林里	-14703.0
文本生成	-14704.0
pm	-14705.0
仓库	-14706.0
厚度	-14707.0
拿到	-14708.0
阵容	-14709.0
ene	-14710.0
主人的	-14711.0
你正在	-14712.0
是可以	-14713.0
的指导	-14714.0
的限制	-14715.0
表现了	-14716.0
任何问题	-14717.0
小明昨天	-14718.0
MySQL	-14719.0
acter	-14720.0
▁child	-14721.0
是一个重要的	-14722.0
▁要	-14723.0
体力	-14724.0
和非	-14725.0
影评	-14726.0
意象	-14727.0
方位	-14728.0
浩瀚	-14729.0
濒危	-14730.0
等差	-14731.0
迪拜	-14732.0
重庆	-14733.0
▁sn	-14734.0
▁分钟	-14735.0
▁每天	-14736.0
为每个	-14737.0
他总是	-14738.0
动力和	-14739.0
发挥了	-14740.0
可能會	-14741.0
是研究	-14742.0
治疗师	-14743.0
的回答	-14744.0
约翰逊	-14745.0
而成的	-14746.0
语料库	-14747.0
这一切	-14748.0
iply	-14749.0
▁Add	-14750.0
▁lar	-14751.0
一个包含	-14752.0
享受阳光	-14753.0
使其成为	-14754.0
很重要的	-14755.0
意大利的	-14756.0
电商平台	-14757.0
这些变化	-14758.0
ently	-14759.0
使计算机能够	-14760.0
▁calcul	-14761.0
Au	-14762.0
云淡	-14763.0
你说	-14764.0
毒品	-14765.0
波长	-14766.0
熬夜	-14767.0
维度	-14768.0
防滑	-14769.0
弗兰克	-14770.0
海洋中	-14771.0
系统等	-14772.0
还具有	-14773.0
▁equ	-14774.0
它提供了	-14775.0
最近上映	-14776.0
这样才能	-14777.0
▁give	-14778.0
以下是一段	-14779.0
我不能提供	-14780.0
这些关键词	-14781.0
instance	-14782.0
嘴巴	-14783.0
宛如	-14784.0
射线	-14785.0
幼崽	-14786.0
无情	-14787.0
登上	-14788.0
突发	-14789.0
▁HT	-14790.0
对地球	-14791.0
总是在	-14792.0
的能量	-14793.0
那么它	-14794.0
非法的	-14795.0
一个数字	-14796.0
一开始有	-14797.0
生命中最	-14798.0
种族主义	-14799.0
要求具有	-14800.0
这是一家	-14801.0
小明一共有	-14802.0
讲述了一位	-14803.0
我们可以考虑	-14804.0
timport	-14805.0
▁perform	-14806.0
详细回答上面的问题	-14807.0
▁description	-14808.0
=?	-14809.0
”“	-14810.0
天高	-14811.0
振动	-14812.0
敏锐	-14813.0
朝着	-14814.0
洛克	-14815.0
肺部	-14816.0
量为	-14817.0
和语言	-14818.0
困难和	-14819.0
小数点	-14820.0
想一些	-14821.0
生机和	-14822.0
真的吗	-14823.0
为什么不	-14824.0
几支铅笔	-14825.0
只是一个	-14826.0
抗氧化剂	-14827.0
电池寿命	-14828.0
anger	-14829.0
▁much	-14830.0
这个问题的答案是	-14831.0
单车	-14832.0
放上	-14833.0
难过	-14834.0
ags	-14835.0
aps	-14836.0
时需要	-14837.0
请记住	-14838.0
otal	-14839.0
但实际上	-14840.0
学习方式	-14841.0
使用不同的	-14842.0
必不可少的	-14843.0
▁生成一首关于爱情的诗歌	-14844.0
护士	-14845.0
服用	-14846.0
活性	-14847.0
海外	-14848.0
溶液	-14849.0
秋色	-14850.0
释义	-14851.0
關於	-14852.0
顶部	-14853.0
','	-14854.0
Acc	-14855.0
gor	-14856.0
一些小	-14857.0
为自己	-14858.0
会得到	-14859.0
低脂肪	-14860.0
将数据	-14861.0
的原理	-14862.0
的散文	-14863.0
fast	-14864.0
util	-14865.0
为什么要	-14866.0
在海滩上	-14867.0
提高公众	-14868.0
没有提到	-14869.0
的问题和	-14870.0
种不同的	-14871.0
和生态系统	-14872.0
语法和拼写	-14873.0
听起来很不错	-14874.0
▁chocol	-14875.0
▁翻译以下句子	-14876.0
以下是一些关于	-14877.0
Ed	-14878.0
与众	-14879.0
大道	-14880.0
扭曲	-14881.0
按下	-14882.0
香菜	-14883.0
手上有	-14884.0
普通的	-14885.0
的随机	-14886.0
羽绒服	-14887.0
英语中	-14888.0
flix	-14889.0
▁eng	-14890.0
▁个性化	-14891.0
开始学习	-14892.0
最大公约	-14893.0
相对较低	-14894.0
科学技术	-14895.0
运动方式	-14896.0
这些工具	-14897.0
enter	-14898.0
ished	-14899.0
一个年轻的	-14900.0
自然环境的	-14901.0
ía	-14902.0
无助	-14903.0
獲得	-14904.0
负债	-14905.0
迁移	-14906.0
隐喻	-14907.0
客户端	-14908.0
并利用	-14909.0
来吸引	-14910.0
▁met	-14911.0
可以列出	-14912.0
能够实现	-14913.0
脊椎动物	-14914.0
同时也需要	-14915.0
复杂的任务	-14916.0
所有的日期	-14917.0
▁color	-14918.0
▁解释什么是	-14919.0
▁盐	-14920.0
不失	-14921.0
倾斜	-14922.0
周三	-14923.0
培根	-14924.0
懂得	-14925.0
百花	-14926.0
绿意	-14927.0
耀眼	-14928.0
肠道	-14929.0
运转	-14930.0
了解和	-14931.0
即使在	-14932.0
更倾向于	-14933.0
agraph	-14934.0
动听	-14935.0
名著	-14936.0
喜歡	-14937.0
大选	-14938.0
布尔	-14939.0
影视	-14940.0
戴着	-14941.0
闭上	-14942.0
Loc	-14943.0
休息和	-14944.0
地面上	-14945.0
的产生	-14946.0
类动物	-14947.0
▁exc	-14948.0
使用的是	-14949.0
服务质量	-14950.0
aylor	-14951.0
world	-14952.0
度过了一个	-14953.0
回答你的问题	-14954.0
我喜欢在周末	-14955.0
儒家	-14956.0
变迁	-14957.0
夏夜	-14958.0
巩固	-14959.0
想出	-14960.0
狗粮	-14961.0
看作	-14962.0
花瓶	-14963.0
鼠标	-14964.0
最终的	-14965.0
服务于	-14966.0
正常的	-14967.0
神秘和	-14968.0
科技和	-14969.0
多少颗糖果	-14970.0
请给出你的	-14971.0
双重	-14972.0
深思	-14973.0
热能	-14974.0
男装	-14975.0
▁Er	-14976.0
▁年龄	-14977.0
但仍然	-14978.0
停下来	-14979.0
热量的	-14980.0
的来源	-14981.0
他们需要	-14982.0
你可以从	-14983.0
是正面的	-14984.0
令人惊叹的	-14985.0
回答该问题	-14986.0
找出其中的	-14987.0
请介绍一下	-14988.0
▁valid	-14989.0
全球范围内的	-14990.0
▁describe	-14991.0
发起	-14992.0
呼气	-14993.0
月初	-14994.0
灵敏	-14995.0
ael	-14996.0
钢琴曲	-14997.0
▁抽取出	-14998.0
一首诗歌	-14999.0
如果您能	-15000.0
工作人员	-15001.0
探索未知	-15002.0
阅读书籍	-15003.0
我们的公司	-15004.0
panish	-15005.0
今天天气晴朗	-15006.0
earning	-15007.0
texpect	-15008.0
tx	-15009.0
上课	-15010.0
时区	-15011.0
是你	-15012.0
波浪	-15013.0
润色	-15014.0
附加	-15015.0
loc	-15016.0
▁需要	-15017.0
和进步	-15018.0
生长和	-15019.0
选择题	-15020.0
▁enc	-15021.0
科技行业	-15022.0
经验丰富的	-15023.0
自己的生活	-15024.0
深度神经网络	-15025.0
Twitter	-15026.0
uz	-15027.0
一想	-15028.0
以外	-15029.0
和其	-15030.0
晚会	-15031.0
計算	-15032.0
超出	-15033.0
轨迹	-15034.0
长裤	-15035.0
中存在	-15036.0
是两个	-15037.0
的最高	-15038.0
的美国	-15039.0
的翻译	-15040.0
羽毛球	-15041.0
There	-15042.0
给出的文本	-15043.0
你能给我一些	-15044.0
生成一个新的	-15045.0
▁experi	-15046.0
我很乐意帮助你	-15047.0
扶持	-15048.0
迷茫	-15049.0
霍金	-15050.0
▁Qu	-15051.0
个关于	-15052.0
供参考	-15053.0
帮到您	-15054.0
是当前	-15055.0
的做法	-15056.0
美术馆	-15057.0
而受到	-15058.0
速度与	-15059.0
call	-15060.0
site	-15061.0
唐代诗人	-15062.0
情感极性	-15063.0
等差数列	-15064.0
计算方法	-15065.0
食品安全	-15066.0
等各个领域	-15067.0
ources	-15068.0
英文文本翻译成中文	-15069.0
余额	-15070.0
兼容	-15071.0
南北	-15072.0
必然	-15073.0
恋人	-15074.0
气压	-15075.0
犹太	-15076.0
知識	-15077.0
移项	-15078.0
绿水	-15079.0
退货	-15080.0
逆转	-15081.0
人与人	-15082.0
和幸福	-15083.0
的地址	-15084.0
而这些	-15085.0
请问你	-15086.0
分享一些	-15087.0
制作方法	-15088.0
▁looking	-15089.0
利用人工智能技术	-15090.0
:¥	-15091.0
作文	-15092.0
悟空	-15093.0
成人	-15094.0
流星	-15095.0
現代	-15096.0
vol	-15097.0
▁取出	-15098.0
也不是	-15099.0
女朋友	-15100.0
成就感	-15101.0
结合了	-15102.0
而无需	-15103.0
问题等	-15104.0
个人喜好	-15105.0
機器學習	-15106.0
一丝	-15107.0
洋溢	-15108.0
焦糖	-15109.0
物业	-15110.0
田园	-15111.0
给它	-15112.0
防守	-15113.0
中扮演	-15114.0
的比赛	-15115.0
阅读和	-15116.0
flow	-15117.0
大数据和	-15118.0
水果沙拉	-15119.0
黑客攻击	-15120.0
进一步发展	-15121.0
可以通过分析	-15122.0
▁format	-15123.0
UI	-15124.0
不止	-15125.0
丽丝	-15126.0
克林	-15127.0
媒體	-15128.0
尼尔	-15129.0
油炸	-15130.0
罗宾	-15131.0
▁推荐	-15132.0
了一名	-15133.0
力量的	-15134.0
植物和	-15135.0
软件和	-15136.0
resh	-15137.0
不同文化	-15138.0
人际交往	-15139.0
让人感觉	-15140.0
输入数据	-15141.0
andas	-15142.0
▁给定一个问题	-15143.0
resource	-15144.0
![	-15145.0
》、	-15146.0
同行	-15147.0
和新	-15148.0
坚实	-15149.0
波光	-15150.0
道具	-15151.0
▁BY	-15152.0
人一样	-15153.0
体现在	-15154.0
平分给	-15155.0
并计算	-15156.0
的各种	-15157.0
的时代	-15158.0
三角函数	-15159.0
制定计划	-15160.0
数字序列	-15161.0
时间旅行	-15162.0
更容易地	-15163.0
有害物质	-15164.0
的创始人	-15165.0
谢谢您的	-15166.0
清新的空气	-15167.0
▁根据以下信息	-15168.0
Sentence	-15169.0
▁weekend	-15170.0
偏向	-15171.0
是他	-15172.0
分布在	-15173.0
加入了	-15174.0
微风吹	-15175.0
的报告	-15176.0
的一系列	-15177.0
的字符串	-15178.0
都有广泛的应用	-15179.0
到处	-15180.0
墙上	-15181.0
梅隆	-15182.0
独具	-15183.0
编织	-15184.0
葱花	-15185.0
连帽	-15186.0
速率	-15187.0
ged	-15188.0
ral	-15189.0
也很好	-15190.0
冥想和	-15191.0
加西亚	-15192.0
国内外	-15193.0
并能够	-15194.0
我一直	-15195.0
的理论	-15196.0
的礼物	-15197.0
的组合	-15198.0
ired	-15199.0
地球上最	-15200.0
简要概括	-15201.0
的发展方向	-15202.0
请问您希望	-15203.0
Resource	-15204.0
把这句话翻译成中文	-15205.0
抢劫	-15206.0
梦里	-15207.0
泛化	-15208.0
產生	-15209.0
竟然	-15210.0
者在	-15211.0
脚下	-15212.0
触摸	-15213.0
雨中	-15214.0
ten	-15215.0
但同时	-15216.0
大约为	-15217.0
更深入的	-15218.0
精神状态	-15219.0
结合起来	-15220.0
您可能需要	-15221.0
▁heart	-15222.0
xy	-15223.0
_tup	-40016.0
▁清	-15225.0
具體	-15226.0
单数	-15227.0
大卫	-15228.0
小巧	-15229.0
演绎	-15230.0
走着	-15231.0
造纸	-15232.0
酸甜	-15233.0
对话中	-15234.0
小明要	-15235.0
来识别	-15236.0
也可能会	-15237.0
字的文章	-15238.0
新鲜空气	-15239.0
狗是人类	-15240.0
▁writ	-15241.0
全球最大的	-15242.0
对数据进行	-15243.0
无监督学习	-15244.0
▁根据所提供的	-15245.0
▁时	-15246.0
下方	-15247.0
八大	-15248.0
越高	-15249.0
ido	-15250.0
使他们	-15251.0
文件夹	-15252.0
一些建议	-15253.0
不一样的	-15254.0
数学题目	-15255.0
自动生成	-15256.0
email	-15257.0
是地球上最	-15258.0
都有不同的	-15259.0
Output	-15260.0
根据您的要求	-15261.0
可以帮助您更好地	-15262.0
}$	-15263.0
凉拌	-15264.0
從而	-15265.0
防治	-15266.0
面膜	-15267.0
鲜嫩	-15268.0
ald	-15269.0
▁#{	-15270.0
他非常	-15271.0
可以吃	-15272.0
对这个	-15273.0
放置在	-15274.0
更简洁	-15275.0
盒子里	-15276.0
经济和	-15277.0
社交距离	-15278.0
被归类为	-15279.0
边的长度	-15280.0
这些动物	-15281.0
▁event	-15282.0
▁给定两个句子	-15283.0
会计	-15284.0
和中	-15285.0
和糖	-15286.0
回头	-15287.0
因数	-15288.0
方差	-15289.0
章节	-15290.0
规格	-15291.0
招牌菜	-15292.0
泡打粉	-15293.0
空白处	-15294.0
茂密的	-15295.0
里面的	-15296.0
▁做一个	-15297.0
社会主义	-15298.0
您可以根据	-15299.0
▁coffee	-15300.0
▁生成一首诗吧	-15301.0
健康饮食的建议	-15302.0
NS	-15303.0
_.	-15304.0
▁三	-15305.0
剪刀	-15306.0
将为	-15307.0
推行	-15308.0
欧式	-15309.0
正念	-15310.0
脸庞	-15311.0
蜗牛	-15312.0
除非	-15313.0
▁未来	-15314.0
我发现	-15315.0
根香蕉	-15316.0
让模型	-15317.0
三分之一	-15318.0
解答问题	-15319.0
group	-15320.0
command	-15321.0
asketball	-15322.0
借鉴	-15323.0
和多	-15324.0
投影	-15325.0
应用在	-15326.0
暴风雨	-15327.0
的介绍	-15328.0
的倍数	-15329.0
角色和	-15330.0
他和他的	-15331.0
可以试试	-15332.0
技术可以	-15333.0
的平方根	-15334.0
神经系统	-15335.0
管理系统	-15336.0
人类社会的	-15337.0
科技的进步	-15338.0
ission	-15339.0
▁again	-15340.0
丛林	-15341.0
尾气	-15342.0
拿起	-15343.0
杯水	-15344.0
正好	-15345.0
遊戲	-15346.0
Sub	-15347.0
并描述	-15348.0
树枝上	-15349.0
都不同	-15350.0
▁men	-15351.0
克里斯托	-15352.0
反向传播	-15353.0
回家的路	-15354.0
市场上的	-15355.0
方程的解	-15356.0
饱和脂肪	-15357.0
AG	-15358.0
上身	-15359.0
光谱	-15360.0
则会	-15361.0
器等	-15362.0
片和	-15363.0
社论	-15364.0
秋叶	-15365.0
▁医疗	-15366.0
和快乐	-15367.0
季度的	-15368.0
cope	-15369.0
你的需求	-15370.0
无与伦比	-15371.0
每个元素	-15372.0
point	-15373.0
▁古诗续写	-15374.0
的基本原理	-15375.0
中最大的行星	-15376.0
他也	-15377.0
复数	-15378.0
天边	-15379.0
头鹰	-15380.0
它与	-15381.0
指向	-15382.0
狂欢	-15383.0
着的	-15384.0
赛车	-15385.0
会喜欢	-15386.0
瑜伽或	-15387.0
记录和	-15388.0
非线性	-15389.0
分析一下	-15390.0
在今天的	-15391.0
我的建议	-15392.0
Trans	-15393.0
▁给出一段	-15394.0
小明和小红一共有	-15395.0
▁√	-15396.0
包围	-15397.0
泳池	-15398.0
点数	-15399.0
什么样	-15400.0
大脑的	-15401.0
姓名和	-15402.0
有效性	-15403.0
义相对论	-15404.0
位于美国	-15405.0
微风吹拂	-15406.0
更加深入	-15407.0
认知行为	-15408.0
这些挑战	-15409.0
的情感极性	-15410.0
▁equal	-15411.0
光泽	-15412.0
同比	-15413.0
尘埃	-15414.0
滑板	-15415.0
▁!=	-15416.0
人性化	-15417.0
全谷类	-15418.0
在一家	-15419.0
当他们	-15420.0
能够为	-15421.0
训练和	-15422.0
进入了	-15423.0
努力工作	-15424.0
多种语言	-15425.0
稳定性和	-15426.0
足够的水	-15427.0
具有重要的	-15428.0
给我介绍一下	-15429.0
解决问题的方法	-15430.0
▁company	-15431.0
redential	-15432.0
▁understand	-15433.0
亲自	-15434.0
小脚	-15435.0
拿走	-15436.0
收费	-15437.0
诗词	-15438.0
鲁迅	-15439.0
众多的	-15440.0
只剩下	-15441.0
在寻找	-15442.0
玫瑰花	-15443.0
管理员	-15444.0
花生酱	-15445.0
高跟鞋	-15446.0
over	-15447.0
价值观和	-15448.0
多种因素	-15449.0
大大提高	-15450.0
最佳影片	-15451.0
过度使用	-15452.0
这家公司	-15453.0
您可以告诉我	-15454.0
我们应该采取	-15455.0
▁为给定的文本	-15456.0
:|	-15457.0
单个	-15458.0
图标	-15459.0
太极	-15460.0
奢华	-15461.0
桂林	-15462.0
網站	-15463.0
单元格	-15464.0
和设计	-15465.0
电子书	-15466.0
的大气	-15467.0
的独特	-15468.0
spec	-15469.0
体育锻炼	-15470.0
心理状态	-15471.0
文章摘要	-15472.0
这些应用	-15473.0
array	-15474.0
可以归类为	-15475.0
▁给我讲一个	-15476.0
lection	-15477.0
project	-15478.0
▁phrase	-15479.0
你最喜欢的电影	-15480.0
如果您需要更多的	-15481.0
▁打	-15482.0
▁来	-15483.0
仙境	-15484.0
冠状	-15485.0
小黄	-15486.0
的手	-15487.0
糕点	-15488.0
编译	-15489.0
闪电	-15490.0
三句话	-15491.0
于是他	-15492.0
件事情	-15493.0
场景和	-15494.0
段文字	-15495.0
的威胁	-15496.0
端午节	-15497.0
两个日期	-15498.0
只有通过	-15499.0
提供支持	-15500.0
热带雨林	-15501.0
发现自己的	-15502.0
的解决方案	-15503.0
区块链技术的	-15504.0
▁struct	-15505.0
可以帮助你更好地	-15506.0
宝贝	-15507.0
布丁	-15508.0
擁有	-15509.0
火药	-15510.0
状语	-15511.0
石子	-15512.0
医生和	-15513.0
和一只	-15514.0
尔摩斯	-15515.0
法律的	-15516.0
的员工	-15517.0
该方法	-15518.0
首先是	-15519.0
oney	-15520.0
▁hot	-15521.0
中的作用	-15522.0
他们之间的	-15523.0
▁needs	-15524.0
▁place	-15525.0
EX	-15526.0
可达	-15527.0
块钱	-15528.0
大衣	-15529.0
想想	-15530.0
日志	-15531.0
树下	-15532.0
瑟瑟	-15533.0
一会儿	-15534.0
事物的	-15535.0
它已经	-15536.0
每本书	-15537.0
烤盘上	-15538.0
的大型	-15539.0
看上去	-15540.0
错过的	-15541.0
的世界里	-15542.0
福尔摩斯	-15543.0
给出你的	-15544.0
安静的地方	-15545.0
FT	-15546.0
KE	-15547.0
](	-15548.0
伊朗	-15549.0
出游	-15550.0
夸张	-15551.0
奇异	-15552.0
无垠	-15553.0
清醒	-15554.0
膝盖	-15555.0
进食	-15556.0
can	-15557.0
▁En	-15558.0
交通和	-15559.0
必需品	-15560.0
比较好	-15561.0
永恒的	-15562.0
科学和	-15563.0
北京时间	-15564.0
支付方式	-15565.0
atory	-15566.0
现在请你将	-15567.0
如何制作一杯	-15568.0
我们每个人都	-15569.0
介质	-15570.0
团聚	-15571.0
废气	-15572.0
江湖	-15573.0
無法	-15574.0
着手	-15575.0
远远	-15576.0
造林	-15577.0
冥想或	-15578.0
因为她	-15579.0
等内容	-15580.0
ging	-15581.0
广泛关注	-15582.0
如果一个人	-15583.0
是不道德的	-15584.0
不敢	-15585.0
历经	-15586.0
布朗	-15587.0
抱怨	-15588.0
换成	-15589.0
椰子	-15590.0
Air	-15591.0
▁的值	-15592.0
平方根	-15593.0
当然有	-15594.0
算一下	-15595.0
细腻的	-15596.0
谓语是	-15597.0
责任和	-15598.0
▁rad	-15599.0
也有很多	-15600.0
创造新的	-15601.0
动词短语	-15602.0
和最小值	-15603.0
睡眠时间	-15604.0
计算资源	-15605.0
金融领域	-15606.0
需要一个	-15607.0
为客户提供	-15608.0
ialize	-15609.0
▁being	-15610.0
nection	-15611.0
越来越多的人开始	-15612.0
aj	-15613.0
▁林	-15614.0
安妮	-15615.0
市值	-15616.0
开设	-15617.0
影子	-15618.0
生死	-15619.0
绕着	-15620.0
unk	-15621.0
小镇上	-15622.0
手中有	-15623.0
地球自转	-15624.0
蔬菜水果	-15625.0
需要不断	-15626.0
非常丰富	-15627.0
▁Test	-15628.0
拥有丰富的	-15629.0
▁根据以下句子	-15630.0
▁However	-15631.0
伊斯	-15632.0
就有	-15633.0
表達	-15634.0
讲个	-15635.0
农作物	-15636.0
只有一	-15637.0
小伙伴	-15638.0
市场和	-15639.0
星期四	-15640.0
的小镇	-15641.0
的森林	-15642.0
聊一聊	-15643.0
aper	-15644.0
保险公司	-15645.0
充满活力	-15646.0
应该包含	-15647.0
中提取关键信息	-15648.0
解决问题的能力	-15649.0
▁computer	-15650.0
(nums	-40017.0
尤为	-15652.0
法庭	-15653.0
滋味	-15654.0
txt	-15655.0
▁推广	-15656.0
在教育	-15657.0
必须在	-15658.0
百分之	-15659.0
的物质	-15660.0
里面有	-15661.0
dict	-15662.0
hand	-15663.0
整个句子	-15664.0
极端气候	-15665.0
清华大学	-15666.0
这是由于	-15667.0
itten	-15668.0
一定程度上	-15669.0
也可以使用	-15670.0
计算它们的平均值	-15671.0
▁Translate	-15672.0
一艘	-15673.0
产物	-15674.0
京剧	-15675.0
亲友	-15676.0
种群	-15677.0
解出	-15678.0
Aut	-15679.0
▁OR	-15680.0
一年的	-15681.0
中输入	-15682.0
了新的	-15683.0
并成为	-15684.0
很简单	-15685.0
▁age	-15686.0
▁个橙子	-15687.0
▁请编辑	-15688.0
生产力和	-15689.0
inner	-15690.0
▁ever	-15691.0
▁total	-15692.0
"-	-15693.0
Ok	-15694.0
TO	-15695.0
不堪	-15696.0
右边	-15697.0
后再	-15698.0
树的	-15699.0
爱护	-15700.0
谈话	-15701.0
骄傲	-15702.0
▁eq	-15703.0
主语是	-15704.0
几年中	-15705.0
咖啡厅	-15706.0
或组织	-15707.0
的剧情	-15708.0
]```	-15709.0
▁std	-15710.0
▁将以下短文	-15711.0
▁capital	-15712.0
越来越重要的角色	-15713.0
DD	-15714.0
之城	-15715.0
凉风	-15716.0
史诗	-15717.0
性地	-15718.0
星夜	-15719.0
确诊	-15720.0
ION	-15721.0
▁ce	-15722.0
以下几	-15723.0
则是指	-15724.0
最后的	-15725.0
柠檬水	-15726.0
都无法	-15727.0
伦敦塔桥	-15728.0
带给我们	-15729.0
感到焦虑	-15730.0
处理和分析	-15731.0
作为人工智能	-15732.0
如果您能提供	-15733.0
▁things	-15734.0
ès	-15735.0
▁心	-15736.0
三条	-15737.0
傳統	-15738.0
卡普	-15739.0
导盲	-15740.0
彩笔	-15741.0
扑鼻	-15742.0
整天	-15743.0
立法	-15744.0
色素	-15745.0
▁说明	-15746.0
找到并	-15747.0
抗生素	-15748.0
收益率	-15749.0
每天吃	-15750.0
的类型	-15751.0
超能力	-15752.0
▁///	-15753.0
以确保其	-15754.0
本文主要	-15755.0
进行交流	-15756.0
违法行为	-15757.0
阳光透过	-15758.0
▁happ	-15759.0
如果我想要	-15760.0
我们可以在	-15761.0
可以选择一些	-15762.0
current	-15763.0
我们每个人都应该	-15764.0
LD	-15765.0
研讨	-15766.0
钱数	-15767.0
any	-15768.0
iri	-15769.0
▁Je	-15770.0
句话说	-15771.0
或地区	-15772.0
测试集	-15773.0
甚至是	-15774.0
在天空中	-15775.0
营养均衡	-15776.0
写一篇有关	-15777.0
更容易理解	-15778.0
ichael	-15779.0
加载	-15780.0
去做	-15781.0
叙事	-15782.0
圆周	-15783.0
将有	-15784.0
幼儿	-15785.0
疑虑	-15786.0
痕迹	-15787.0
阵雨	-15788.0
▁指出	-15789.0
也会对	-15790.0
你怎么	-15791.0
分类和	-15792.0
印刷术	-15793.0
实用性	-15794.0
收入和	-15795.0
有其他	-15796.0
格式化	-15797.0
相比之下	-15798.0
这个概念	-15799.0
歧视和偏见	-15800.0
这样可以让	-15801.0
▁生成一个有趣的故事	-15802.0
我心	-15803.0
海盗	-15804.0
源头	-15805.0
签证	-15806.0
见的	-15807.0
也不能	-15808.0
但没有	-15809.0
回答说	-15810.0
基础的	-15811.0
屏幕上	-15812.0
游戏和	-15813.0
请不要	-15814.0
不可避免	-15815.0
人们对于	-15816.0
可以达到	-15817.0
带来许多	-15818.0
爱情电影	-15819.0
选择哪种	-15820.0
造成伤害	-15821.0
▁live	-15822.0
人们可以通过	-15823.0
FA	-15824.0
(arr	-40018.0
▁好	-15826.0
不便	-15827.0
他很	-15828.0
优越	-15829.0
低落	-15830.0
收购	-15831.0
朝代	-15832.0
染色	-15833.0
評估	-15834.0
▁巴黎	-15835.0
不相同	-15836.0
与偏见	-15837.0
售货员	-15838.0
来了解	-15839.0
rink	-15840.0
品尝美食	-15841.0
您可以从	-15842.0
Count	-15843.0
准确的答案	-15844.0
▁基于给定的	-15845.0
我可以告诉你	-15846.0
进行头脑风暴	-15847.0
((	-15848.0
sk	-15849.0
两天	-15850.0
加拉	-15851.0
华氏	-15852.0
或在	-15853.0
深色	-15854.0
然後	-15855.0
▁No	-15856.0
▁一种	-15857.0
不到的	-15858.0
发明了	-15859.0
可以把	-15860.0
小时的	-15861.0
并及时	-15862.0
[...]
